#version: 0.2
ï ¼
ï¼ Į
ã Ģ
ä ¸
ãĢ Ĥ
â Ģ
ä º
å ħ
ä ¹
å ¤
æ Ľ
å ı
å Ĳ
ï¼ ļ
âĢ ľ
âĢ Ŀ
ä »
ï¼ļ âĢľ
æĽ °
ä¹ ĭ
å °
æ Ŀ
å Ĩ
æ ľ
ä¸ į
å į
å ¾
å ®
ä ½
æ Ĺ
æ Ń
ãĢ Ģ
å Ī
å Ń
å ¼
æ ĺ
äº º
ãĢĤ âĢĿ
åĨ Ľ
è ¯
è Ģ
åħ µ
å Ľ
å ¿
é ©
æ ķ
è ĩ
å¤ §
è ¿
ä¸ Ģ
è §
é© ¬
å° Ĩ
è µ
å ·
æ Ī
ä ¼
ç İ
æĿ ¥
å ĩ
æ ĵ
é Ĺ
æ ±
å ¸
ãĢ ģ
è ®
æľ ī
ç Ľ
æ ĸ
æ ī
æĵ į
æŃ ¤
å İ
ç »
é ģ
ä¸ ĭ
äº İ
ï¼ Ł
å ľ
ä¸ Ń
ï¼ Ľ
æ Ĭ
ä¸ º
ç Ł
ç Ķ
è§ ģ
ï¼ ģ
èĢ Į
è °
å Ĭ
é Ģ
ä½ ķ
å ¹
å ½
åĩ º
åĲ ¾
é Ļ
æ Ģ
é ĥ
ä ¾
åı ¯
è ´
ä¹ Ł
å ¯
å¾ ·
å ¦
å ĳ
åĲ İ
ä» ¥
æĺ İ
å ¥
ï¼Ł âĢĿ
æĽ ¹
åħ ¬
ä¸ Ĭ
å ī
è ¡
å ±
ç ļ
å Ł
ä» Ĭ
çİ Ħ
ä¸ İ
é ĺ
å¼ ł
æ ĭ
åİ »
åħ ¶
ç Ń
çİĦ å¾·
æ ¬
æĹ ¥
åŁ İ
è ĥ
ä» ¤
åŃ Ķ
ä¹ ĥ
ï¼ģ âĢĿ
è ¾
è ĭ
èĩ ª
å º
å £
äº Į
åĽ ŀ
åŃĶ æĺİ
é Ŀ
å¼ ķ
¨ Ģ
è ¨Ģ
å¦ Ĥ
åľ ¨
æ ĥ
æĺ ¯
åħ ¥
çĽ ¸
å¾ Ĺ
æ °
è ¢
é ĩ
æĹ ł
æĿ Ģ
æ Ķ
æ ģ
æ İ
åħ Ī
ä¸ ī
äº Ĩ
ä¸ »
è¯ ´
æĪ ĳ
åī į
åħ ³
èĩ ³
é £
è ·
åŃ Ĳ
åĪ °
çŁ ¥
å¤ ©
åį ģ
çļ Ĩ
äº ĭ
æ Ħ
å ĸ
é Ń
é ķ
å¿ ħ
æ± Ŀ
æĹ ¶
å½ ĵ
ç Ļ
éŃ ı
è į
åı Ī
åĪ ĺ
å· ²
åı ª
èĭ ¥
ç Ħ
å± ±
æĬ ¥
ä¼ Ĺ
äº ĳ
æ¬ ²
åį ´
æ ¯
æŃ £
æĪ ĺ
ä½ ¿
è· ¯
å¯ ¨
éķ ¿
è Ļ
ç «
çİ ĭ
ç ¥
ç ľ
æ ³
å· ŀ
åŃ Ļ
å® ī
éģ Ĥ
ç º
å¿ ĥ
éĹ ®
é ¢
åı ĸ
é ļ
èµ ·
æŃ »
çĦ ¶
é Ľ
èĢ ħ
è¡ Į
å Ŀ
å® Ī
åĲ ´
ä ¿
å Į
å°Ĩ åĨĽ
æĽ¹ æĵį
è® ¡
è ½
çŁ £
æ Į
æ ŀ
é ª
çŃ ī
ä¾ ¿
ç ģ
åĪ Ĩ
åĳ ½
ä¹ ¦
å£ «
ä» İ
é Ĥ
å »
é ¡
æľ ª
è¯ ¸
å ²
æ Ļ
è ľ
è Ī
è ī
å¸ ĥ
è Ĥ
è ¶
è ĳ
ç Ŀ
ç ĳ
èľ Ģ
ç ¬
æ ²
è ¥
ä¸ ľ
æĿ ĥ
ä¾ ¯
é£ ŀ
æĢ ¥
è¿ Ľ
éĿ ¢
åį Ĺ
å ĵ
éĹ »
èµ °
èĥ ½
åĽ Ľ
æķ °
èĩ £
çĻ ¾
ç ī
æ ¸
å §
åį ³
å¿ ½
é »
ä¸ ¤
éĥ ½
å¾ Ģ
æ± Ł
å¤ ĩ
æī Ģ
äº Ķ
æ Ł
å¹ ³
éĢ Ģ
æľ Ľ
éĹ ¨
æ µ
ä¸ ĩ
æ± ī
åľ °
æķ ħ
å¤ ª
å Ģ
ç ²
ç §
æĸ ¹
çĶ Ł
ç ķ
å¤ Ħ
æĸ ĩ
æ° ´
å ĭ
éĻ į
è Ĳ
çĶ ¨
å° ı
æ ĩ
åı ¸
åĲ Ħ
ç Ī
åį´ è¯´
è¥ ¿
å£ °
å° ½
æķ ¢
è º
ä½ Ļ
é» Ħ
æĥ Ĭ
æī ĭ
ç ¦
è® ®
å¤ ľ
è´ ¥
äº ¦
æ ·
åĲ ķ
ç ĸ
åĲ ¬
æĩ ¿
è¯ ·
è¢ «
åĽ ½
ç ½
ä¸ Ķ
ä½ ı
å¸ Ŀ
è´ ¼
åĸ ľ
ç ®
é¢ Ĩ
åı¸ é©¬
è® ¸
æĢ Ĵ
å· ¦
é «
å¿ ł
é Ķ
ä¸į åı¯
çĳ ľ
ä¸ ŀ
æ ´
äºĮ äºº
å¤ «
åĲ į
å¾ ħ
å¾ Ĳ
è¢ ģ
å® ĺ
é ¦
ç» ´
éĿ ŀ
æķ Ļ
æ ħ
åĨ ħ
é ħ
ä¸ŀ çĽ¸
éģ ĵ
èº «
ç« ĭ
å¤ ļ
çľ ĭ
åĲ Į
ä¼ ı
åº Ķ
æķ ĳ
æĦ ı
æŃ ¦
éĺ ³
æĪ Ĳ
åĳ ¨
å¤ ı
åħ³ åħ¬
æŁ Ĳ
ç» į
çŃ ĸ
æķ Į
æĭ ľ
å® ļ
çģ «
è¿ ĩ
åĲ Ī
åį ĥ
åı ³
å¹ ´
æĸ ©
éĺ µ
éĩ Į
ç ł
ç ¾
å® ¶
èį Ĩ
èµ ¶
è İ
å¸ Ī
å¼ķ åħµ
åı £
ç¬ ĳ
ä½ ľ
æĶ »
åĪ Ģ
å¹ ¶
é« ĺ
ä¼ ļ
åĽ ł
é Ł
ç Ĳ
å» ¶
æ¬ ¡
ç² ®
å¤ ´
è¿ İ
äº ²
é ľ
åĮ Ĺ
ç ¤
å Ĥ
å¤ ĸ
è¿ ½
èµ µ
äºĳ éķ¿
éĹ ´
åĲ Ľ
èĪ ¹
è° ĭ
æ ļ
è¡ ¨
èĥ ľ
ä¹ İ
åĬ ¿
éĻ Ī
æĬ ķ
å Ķ
è ¦
æĿ İ
æ¯ ķ
çĶ ļ
è½ ¦
èįĨ å·ŀ
æ į
å½ Ĵ
ç Į
æ ¡
è° ĵ
éĩ į
æģ Ĳ
åĳ Ĭ
èĢ ³
æĦ ¿
æĹ ©
éģ £
èĲ ¥
å¼ Ł
åı ĳ
è§ Ĩ
æĶ ¾
æİ ¥
éļ ı
æ ı
èĻ ½
ä» ĸ
å ķ
åı Ĭ
èĤ ĥ
çĪ ¶
è Ĭ
çĽ ´
èľĢ åħµ
é¦ ĸ
é ¥
åı Ĺ
å¤ ±
ä¸į èĥ½
åħ ´
å¤ı ä¾¯
åŃĶæĺİ æĽ°
å¦Ĥ æŃ¤
åĨ į
çİĦå¾· æĽ°
åĪ Ļ
è¿ ŀ
æ Ĥ
ç ¿
ä¹ ĺ
å¤§ åĸľ
è Ĵ
åħ Ħ
æĹ Ĺ
å° ļ
å¤ į
ç ¨
åİ Ł
éª ĳ
é ½
æĺ Ń
åĬ Ł
è¶ ³
é ¾
ç Ĺ
å¥ ı
åķ Ĩ
ä¼ ĳ
åĲķ å¸ĥ
å¼ł é£ŀ
è¾ ¹
åĿ Ĳ
å¸ Ĳ
ç ĭ
éĥ ¡
éħ Ĵ
é Ĵ
èĢ ģ
å¥ ī
æĽ ´
åĬ Ľ
èĳ Ľ
çł ´
æ ł
è ģ
ä¹ ī
å° ±
å¥ Ķ
ä¹ ±
ç ´
å° ģ
å¼ Ģ
ç® Ń
ä¹ ħ
è¯¸ èĳĽ
ç Ĭ
åı į
æľ ¬
è¦ ģ
åį ĵ
è¶ ħ
åĶ ¤
åķĨ è®®
åŃ Ł
é ¼
çĸ ĳ
ç¤ ¼
é¾ Ļ
æ ®
èĳ £
å¤§ æĢĴ
å¦Ĥ ä½ķ
å¤© ä¸ĭ
è§ £
ä¸» åħ¬
å² Ĥ
æĹ ¢
ç ĥ
å® «
æĿ ¨
æ° ĳ
ç» Ł
éĥ ¨
æĶ ¶
é ²
æľ Ŀ
åī ĳ
åĬ ¨
åĽ ¾
å§ ĵ
ä¸Ģ äºº
æĵį æĽ°
éĩ ĳ
éŃı å»¶
åŃĻ æĿĥ
çķ Ļ
åĨĽ é©¬
èİ ·
æĵ Ĵ
é½ Ĳ
é£ İ
å± ¯
å¤§ æĥĬ
åŃ Ĺ
ç ª
çľ Ł
èī ¾
çĿ £
åĨĽ å£«
èµµ äºĳ
å½ ¼
æī į
éĥ Ń
å§ ľ
èĥ Į
äº ¤
å·¦ åı³
å ł
æ ¶
è¿ ĳ
éļ ¾
ç ©
ç ¼
éŁ ©
éŃı åħµ
ä» ģ
èĢ ¶
æŀ ª
è§ Ĥ
åĪĺ å¤ĩ
åı «
éĢ ģ
çļ ĩ
éĤ ĵ
äº ®
å ģ
æ³ ķ
ç¬ĳ æĽ°
å¾ Ħ
ç Ĥ
å· Ŀ
åı¸é©¬ æĩ¿
è¿ ľ
é¡ »
å¼ ĥ
çĿ Ģ
å Ĵ
å¸ ¦
é ĵ
èī ¯
å¤« äºº
ä½ Ĩ
æľ Ī
åĽ ´
åĵ Ń
æ ¨
å§ľ ç»´
è ħ
å Ħ
è¿ ĺ
å¯ Ĩ
æ¬¡ æĹ¥
ç ı
è¾ ŀ
èį ī
ç½ ª
ä½ ł
æ° Ķ
éĶ ĭ
åħ «
å° Ħ
çĮ ®
ä¸ ª
åİ» äºĨ
éĹ® æĽ°
ä¿ ¡
æı Ĳ
çĻ ½
æ² ³
åı ¹
é² ģ
å· ®
å° ĳ
ä¼ ł
æĬ Ĭ
æĢ Ŀ
åį Ĭ
å¥ ½
é¥ ®
ä¸ľ åĲ´
äºİ æĺ¯
åĿ ļ
è¢ģ ç»į
é¼ ĵ
å ¨
è¯ ı
åı ·
éĥ ĥ
éĤ £
æµ ģ
å¸ ¸
æī ĵ
åįģ ä½Ļ
æİ ¢
åĭ ¿
ä¸į çŁ¥
è½ »
è§Ĩ ä¹ĭ
éĽ Ħ
å® ŀ
ä»Ĭ æĹ¥
åº ŀ
è¯¸ å°Ĩ
èĤ ¯
æ »
æ Ĳ
è ±
åħ ±
åĨ ²
æľ į
å® ³
åĳ¨ çĳľ
ä¸į æķ¢
æ ¢
èĢĮ åİ»
ä¼Ĺ å°Ĩ
ç¬ ¬
è° ¢
è Ľ
å® ľ
æ± Ĥ
ç Ĵ
æ· ±
å¼ķ åĨĽ
åĪ «
çº µ
çĹ ħ
Ľ ä¸ĭ
ä» »
è¾ ½
å® ¹
åĨ ³
ä¹ Ĳ
èĢĮ èµ°
èĻ İ
äºº é©¬
è° ·
åĲ ĳ
åĸ Ĭ
æļ Ĺ
åĬ ©
çŃ Ķ
åħ ģ
ä¹ĭ äºĭ
è¯ Ĺ
è® ¾
éĻ Ľä¸ĭ
æŃ ¢
å¥ Ī
ä¸ ¾
ä¸ ĸ
è¡ £
æ±ī ä¸Ń
ä¸ ĥ
è Ħ
åı Ķ
å® ģ
åŃ ¤
è´ ¤
å¤ º
ä» ĺ
é©¬ è¶ħ
éĥ½ çĿ£
èĻ ļ
ä¿ Ŀ
ç¥ ŀ
æ ¥
çĶ ²
è° ģ
å¾ ģ
æĺ Ł
æĸ Ń
åľ Ł
å± ħ
èĴ Ļ
å¹ ¸
è¾ ¾
æĮ ĩ
æī ¿
åı ¬
åı ²
åħ ĥ
ç¨ ĭ
å¯ ¹
åĲİ ä¸»
æģ ©
é£ Ł
å¤© åŃĲ
å¨ ģ
ä¾ į
æ¸ ¡
åħ ¨
åıª è§ģ
æ¯ į
éª Ĥ
æķ £
æģ ¨
è Į
éľ ĩ
ç¿ ¼
è Ķ
é ¸
ä¸Ģ åĨĽ
çĽ ®
é¡ ¾
ç§ °
éĻ Ĩ
æħ Į
åį ¿
èī ²
èĲ ½
éĻ µ
è° ı
æĻ ĥ
èģ ļ
ä¸Ĭ é©¬
åĭ ĩ
æĽ ¾
æľī ä¸Ģ
çī ¹
é© ¾
éģ ĩ
éĢ Ł
å² ±
é»Ħ å¿ł
ç ĵ
è £
åĩ »
æĸ °
æ° ı
çº ¦
æľ ķ
åĪ º
æĺ Ķ
åº ľ
å» º
çŁ ³
ä¸ ķ
åħ Ń
çĴ ĭ
å¼ł éĥĥ
ç ³
äº ¡
ä¼ Ĳ
èĥĮ åĲİ
ä¸į å¾Ĺ
å¿ §
æĸ Ļ
æ¸ Ĭ
ä¸ ´
å¤§ åı«
æĭ ¨
åŁİ ä¸Ń
åĸ Ŀ
è ¤
ä¹ĭ è¨Ģ
åį ±
éĢ Ĭ
å¹ ²
å¥ ³
èĢĮ æĿ¥
èĽ ®
åı ±
æľ ¯
å¼ ĵ
æŃ¤ äºº
ç» Ĩ
éĿ Ĵ
åħĪ ä¸»
ç² ¾
èµ Ĳ
éĢ ĥ
ç¥ ĸ
æŀ ľ
å¤ª å®Ī
æ¡ ¥
èµ ı
å¯ »
èĭ ±
ä½¿ äºº
åĴ Į
è¯ Ī
ç» ĵ
çļ Ħ
èĶ ¡
å¤§ åĨĽ
ç» Ŀ
ç¦ »
åĲ ¦
æŃ ¥
çĽ ĸ
éĺ Ł
æİ ¨
çī ©
ä¸Ģ éĿ¢
çĶ ĺ
ä½ķ ä¸į
å¿½ æĬ¥
åħ ī
è¥ Ħ
çı Ń
ä¸ ¥
ä¹ Ŀ
åĲİ äºº
è¢ Ń
çĻ »
åĢ Ĵ
æľī è¯Ĺ
ä¾ Ŀ
åħĪ çĶŁ
é¡ º
æ· ®
åł Ĥ
å ¢
åĸ Ħ
æľ ¨
å® ´
åĬ ł
ä½ķ æķħ
ä¿ ±
ä¸į å¦Ĥ
è´ Ł
çī Ľ
ä» ĩ
æĿ ¾
çĽ Ľ
æĥ §
æģ ¯
çĦ¶ åĲİ
æĹ §
è§ Ĵ
ä»¤ äºº
èĭ ŀ
åħĪ éĶĭ
åĮ ¹
çĲ Ĩ
åŃŁ èİ·
åį İ
æ³ °
çª ģ
å ĺ
æī §
æĥ ĩ
æħ Ī
éĤĵ èī¾
åĬ ³
æĭ Ĵ
æĥ ħ
ç½ ¢
åħ ¸
ä¹ĭ è®¡
é¢ ľ
è¯¸èĳĽ äº®
ç¦ ģ
ä½ į
å¥ı æĽ°
ŀ į
èµ ´
æ´ ª
åı¹ æĽ°
éĢ ł
è¤ ļ
ä¸Ģ å£°
ä¸ĭ é©¬
åĬ «
æĭ Ľ
äºĮ åįģ
æ±Ŀ çŃī
æĮ º
å² ¸
æķ ¬
åĬ Ŀ
åĩº åŁİ
å¦ »
çĿ ¿
åİŁ æĿ¥
é© ±
ä¹ĭ äºº
å¼ Ĥ
åİ ¿
ä¿ ®
èµ¶ æĿ¥
å® ¤
ä¼ ¤
åİ ļ
åĦ ¿
æ» ¡
å Ļ
å® Ĺ
å¿ Ļ
å¼ł è¾½
éĽ į
ç¾ ¤
éľ ¸
åĲİäºº æľīè¯Ĺ
å¤§ å°Ĩ
æĬ ¤
æĽ¹ ä»ģ
åħ¥ åŁİ
æĮ ģ
çģ µ
æ±Ł ä¸ľ
å¥Ī ä½ķ
æ Ĵ
äº Ń
åĪ ©
èĩ ´
äºĮ å°Ĩ
çĳ ¾
ä» ª
åĨĽ ä¸Ń
ä¸ ļ
åľ¨ æŃ¤
æŃ£ æĺ¯
å¾Ĳ å·ŀ
èİ «
åı ĺ
ä¹ĭ åħµ
åĪ Ŀ
è¯ Ń
é¢Ĩ åħµ
æĪĲ éĥ½
ģ å±±
å° ī
æľ ±
çģ Ń
å¾Ĳ æĻĥ
å¤§ äºĭ
è® ¨
æĸ Ĺ
åĮ ĸ
å¿½ çĦ¶
ä¹ĭ åĲİ
ä»¥ ä¸º
å¯¨ ä¸Ń
æĻ ļ
åĤ ķ
æ® ¿
åĸĬ å£°
å ŀ
ä¸į åĩº
å¾ ¡
è¿ Ļ
éĢ ļ
æĢ Ģ
éĥ İ
éĩ İ
å ĥ
å¤§ è´¥
æĽ¹ åħµ
åĢ ĺ
ç© º
ä¸į è§ģ
æ± ľ
èĢĮ åĩº
éĻ ©
æľª çŁ¥
åĽł æŃ¤
ä¹ ¾
æĬ ĺ
åħ¶ è¨Ģ
ä¼Ĺ å®ĺ
ç¥ ģå±±
çĻ¾ å§ĵ
æĸ© ä¹ĭ
é²ģ èĤĥ
æ ĳ
é º
æľ º
åį Ĵ
äºº æĬ¥
ç» Ī
åħ ·
åį §
åĽ °
æī ¶
æĢ §
åĢ Ļ
åĭ Ĵ
æĭ Ķ
ä»İ ä¹ĭ
å «
äº ī
æĿ¥ è§ģ
æĥ Ł
æŀ ģ
æ¨ Ĭ
åºŀ å¾·
åĲ ī
åĩ Ĩ
çĭ ¬
æĿĢ ä¹ĭ
èµ· åħµ
çĻ¾ ä½Ļ
æİ¥ åºĶ
æ ½
é©¬ å²±
è® «
åĪĺ è¡¨
çºµ é©¬
å¼ º
æĺ ¥
ä¸ĭ å¯¨
æĥ ³
æµ İ
ä¸ ģ
æī ĺ
å½ ª
éĻ ¤
è¡ Ģ
æİ ©
å¿ĥ ä¸Ń
è¿Ľ åħµ
æĪ ª
è¢ į
å¿ħ æľī
åĵ į
åĤ ħ
èĳ£ åįĵ
ç³ ľ
ä¸ Ī
ä¸Ģ é½Ĳ
æľī ä½ķ
æ¯ Ķ
ç¥ Ń
æ´ Ľ
èĴ ĭ
è¯ Ĩ
ä¸ĭ æĸĩ
èĢĮ è¡Į
å¹ ¼
è´ ¾
åĪĨ ä»ĺ
è®¸ è¤ļ
æ´ ŀ
çĬ ¹
æ¨ ª
è¯ Ľ
æŀ Ĺ
ä¹ĭ æĽ°
å¿ Ĺ
éĢ Ĩ
æ¯ ı
ç²® èįī
æį ī
èĤĥ æĽ°
ä¸ §
å® Ŀ
åĩº é©¬
åŁİ ä¸Ĭ
åĪĨ è§£
è®¸ éĥ½
åĻ ¨
é ¹
è° ĥ
ä¸ī åįĥ
åįģ ä¸ĩ
ä¼Ĺ çļĨ
ç¥ ¸
åĵ ¨
åĵ ī
çĥ §
çĤ ¹
è ª
èµ į
åĳ ¼
æĭ ¥
éķ ĩ
æ³ £
åŃĻ çŃĸ
è¿½ èµ¶
çļĩ åıĶ
èĦ ±
æ ¼
åĨ Ģ
å¥ ĭ
åıª å¾Ĺ
åĪĨ åħµ
æ² »
çł į
å¤ıä¾¯ æĥĩ
å¤§æĢĴ æĽ°
èħ ¹
å ´
é Ĩ
åĪ ĩ
çİ ī
æĸĩ æŃ¦
ä¸ĭæĸĩ åĪĨè§£
ä¹ĭ åľ°
æĪ Ł
å¸ Ń
çĶ °
åĽŀ æĬ¥
æĦ Ł
èĮ ĥ
ä» Ĺ
æĺ Į
äºİ é©¬
åº ¶
è½ ¬
äºĶ åįĥ
ç¼ ļ
åı ¤
ä» ĵ
æķ ´
äºİ åľ°
éĽ ¨
æĻ ®
æµ ·
éļı åĲİ
æ´Ľ éĺ³
åħ į
è® º
æĬ µ
æĿĢ æĿ¥
éĵ ģ
è¿ Ł
ä¼ ¯
åı¯ ä»¥
éĺ ²
èį Ģ
å°½ çļĨ
ä¸Ķ è¯´
çŃĶ æĽ°
ä¹ĭ æĦı
éģ į
éģ Ĺ
çº ª
éª ¤
çķ ¥
çĳľ æĽ°
æį ®
åĳĬ æĽ°
è ŀį
å¾ Ĵ
èĭ¥ ä½ķ
åĲ¬ å¾Ĺ
æ¡ ĵ
åħĦ å¼Ł
çĬ ¯
èª ĵ
è Ĺ
åį ĩ
åĪ Ĺ
å¥ ¸
åħ³ åħ´
éĴ Ł
ç Ĩ
äºº ä¹Ł
çİ °
è° Ń
èĭ¥ ä¸į
ç²¾ åħµ
ä¸Ģ æĹ¥
åĩ ł
çĽ Ĭ
æĬ «
åīį éĿ¢
çĹ Ľ
æĺŁ å¤ľ
æ ¿
ç ±
ç ŀ
åĩ ī
åįģ éĩĮ
éĹ® ä¹ĭ
çĳ ģ
äºĶ çĻ¾
ç´ ł
æĮº æŀª
è ²
åŃ Ŀ
éķ¿ å®ī
åŃĻ ä¹¾
æł ¡
ä¸į èĤ¯
åĳ ĺ
å¥ ĩ
çĽ¸ è§ģ
èĻ ĳ
çİĭ å¹³
å» ·
èĤ ī
æĺ ĵ
è¯ ¯
è¿ Ĳ
åŁ ĭ
èĭ ¦
åħ¥ è§ģ
åŃĲ é¾Ļ
çº ³
æĻ º
è¥¿ å·Ŀ
èħ ¾
çĵ Ĵ
è ĸ
èµ ¤
çº ¢
ç«ĭ äºİ
åĩĨ å¤ĩ
å ³
æ º
åĲ ı
å° Ŀ
æĿ ¡
æ³ ª
äº² èĩª
èĬ ³
è± «
è°ı æĽ°
è§ Ī
æĽ¹ çľŁ
çº §
æĿĥ æĽ°
çķ ª
ç ¢
é ŀ
åĨĽ å¸Ī
æŃ¤ äºĭ
ç» £
æĪĳ çŃī
éŃı ä¸»
åĲ´ åħµ
æĮ ī
è¢ģ æľ¯
èĬ Ĥ
æĤ £
æ £
ä¹ĭ ä¸Ń
ä¸į åıĬ
æĪ ĸ
æĽ¹ æ´ª
å¼ł ç¿¼
è¾ ħ
åº Ł
è¨Ģ æĽ°
ä¸ī äºº
åĪĺ çĴĭ
çĪ ½
åı¸é©¬ æĺŃ
ä» ²
åħ¶ äºº
åŁİ ä¸ĭ
å¼ķ ä¸ĢåĨĽ
æĶ ¸
ç« Ł
éĶ ¦
å¤ıä¾¯ æ¸Ĭ
èĭ± éĽĦ
çĶĺ å®ģ
ä¹ ¡
åı Į
ä» °
æŃ ĩ
å¤§ çİĭ
æĿ¥ æĹ¥
ä¸ī åĨĽ
ä¼Ĺ åĨĽ
é¡ ¿
å² ģ
å¿½ è§ģ
ç§ ĭ
ä¸Ķ çľĭ
ç® ¡
åĤ ¬
åŃŁ è¾¾
èĽ® åħµ
èµ ŀ
çİ ĩ
éģ ¿
èĪ į
å°ı è·¯
ä¼ı åħµ
éŁ ¦
ä¸Ģ å½ª
æĸ ½
çļ ĵ
æĮ Ĥ
ä¸¤ è·¯
åĲķ èĴĻ
ä¹ĺ åĬ¿
å¸Ĳ ä¸ĭ
æľĿ å»·
å·® äºº
é¸ £
éĻĨ éĢĬ
è ¸
ä¸ ĵ
åı °
äºİ ç¦ģ
å¯ ¿
å¦ ¾
éļ Ĳ
é¦ĸ çº§
æ¢ ģ
å ¡
å¤ ¹
åĨ Ļ
æĺ ı
è¯ ©
å¿ į
æĿ¥ è¿İ
çĶ »
æĹł ä¸į
å½ĵ åħĪ
è¶ Ĭ
ä¸¤ åĨĽ
æĩ¿ æĽ°
è¥Ħ éĺ³
è Ŀ
ä¹ ŀ
ä¹ĭ å¿ĥ
è¯ Ŀ
å¹ ¿
åĲ¾ ä»Ĭ
æĽ¹ ä¸ķ
æŃ» æĪĺ
èĪ Ł
æĿİ åĤķ
æ ¤
ä¸į ä½ı
æī ¬
ä½ķ äºº
åħ¬ åŃĻ
æ¬ º
æĬ¥ çŁ¥
ç¥ İ
æŀ Ŀ
ç¦ ı
çĤ ®
åŁĭ ä¼ı
âĢ Ķ
åı Ĥ
ä¹ĭ éĹ´
æĺİ åħ¬
è¾ ±
æĺ¯ å¤ľ
ä¸ī è·¯
ç« ¥
éª ¨
èĳ ¬
æ² Ľ
æķ° åįģ
èĬ Ŀ
ä¼ł ä»¤
åĿļ å®Ī
æĲ ¦
å ©
ä¹ĭ æĹ¶
åį ķ
æŃ Ĩ
å¤§ å°ĨåĨĽ
åĳ Ī
éĺ ´
å¼ł èĭŀ
åº ¦
åĽŀ è§ģ
åĢ Ł
æļ Ĥ
æĬķ éĻį
åħ »
åį «
åį °
åİ ®
å¦ Ļ
åī ²
éĺ »
æĿĢ åĩº
å¿ħ çĦ¶
æĻ ĭ
å¸ĥ æĽ°
åĽĽ éĿ¢
æ±Ł åįĹ
ç¾ Į
éģ£ ä½¿
å¤§ éľĩ
å°Ĩ å£«
æŃ¤ æĹ¶
éģ ¥
åĩº æĪĺ
è´ µ
æİ Į
çľ ¼
éĽ ·
å» ĸ
æľĽ è§ģ
å¤ª åĲİ
ç§ ¦
å¹¶ æĹł
åºŀ ç»Ł
ç ¯
ä¸į ä»İ
å® ¢
å· ¾
è° ¦
è´ ¹
å®ī æķ¢
ä¼ı äºİ
ç¿ »
åĦ Ĵ
äºİé©¬ ä¸ĭ
éŀ Ń
å Ĺ
æľ Ł
åĩ ¤
ä¸º åħĪéĶĭ
çĶ ³
åĩº è¿İ
æĢ ¨
å¦Ĥ ä¹ĭ
æĢĴ æĽ°
æ¶ Ī
æ¥ ¼
ä¸ °
æľ Ĺ
å¼ ©
è® ©
è· ĥ
å¿ĥ èħ¹
é¢ Ħ
æĻ ¯
éĥŃ æ·®
æ¨Ĭ åŁİ
ä¸Ķçľĭ ä¸ĭæĸĩåĪĨè§£
æ ¦
å¿ µ
ä¸Ń åİŁ
è´ £
æŃ» äºİ
å¸Ĳ ä¸Ń
å±¯ åħµ
åĺ ī
å»ĸ åĮĸ
ç °
å° ¸
ä½ ĵ
ä¼ ¼
ç» ı
æĬ ļ
æĽ¹ åĨĽ
è¾ Ĥ
æľª åı¯
æ±ī å®¤
æĿİ åħ¸
è¿ŀ å¤ľ
ç´ ¯
ç®Ń å°Ħ
çī¹ æĿ¥
å« Ĥ
å¤§ éªĤ
ä¸Ń åĨĽ
éĢ ¢
éĺ ¿
æĭ ¦
èĥ Ĩ
åīį æĿ¥
éĽ Ĩ
æŃ¦ å£«
çĲ ¦
åĤ į
èĥľ è´Ł
æľ¬ éĥ¨
åĩ» ä¹ĭ
åŃ ¦
è¯ ļ
ä¸Ģ éĺµ
çĶ ±
å½ §
åī ¯
å¼ł é²ģ
æĭ į
å¼ķ ä¸Ģ
åŃĲ æķ¬
ä½¿ åĲĽ
åĲ´ ä¾¯
éħ į
éģ£ äºº
åħ´ åħµ
å° º
æĹ ı
å¤§ åĸĿ
è§ģ äºĨ
è¡ ¡
åħ³ å¹³
ä½¿ èĢħ
éģĤ ä»¤
éļ ĺ
çĸ ¾
é¢Ĩ åĳ½
å¥Ķ èµ°
ç´ ¢
ç© ¿
ç»Ĩ ä½ľ
å¢ ĥ
åĨĢ å·ŀ
éĨ ī
æ¤ į
å¤§ åĵŃ
ä¸Ģ å°Ĩ
èĢĮ æŃ»
æĿĢ åħ¥
æİ Ī
ä¼Ĺ äºº
ç« º
æĮ ¥
éĹ» ä¹ĭ
è¥¿ åĩī
ç½ ®
æĭľ è°¢
å¤§æĥĬ æĽ°
äº¤ éĶĭ
¶ Ŀ
ç ¶Ŀ
åħ ¼
å° Ĭ
å¾ ®
æķ Ī
å· ±
æ± ł
åľ £
æĢ »
æĭ Ĩ
èĩª æľī
åĽŀ é©¬
éĹ® åħ¶
ä»İ åħ¶è¨Ģ
åĽ½ å®¶
è¦ Ĩ
æĸ §
è´ º
å£ ®
åħĪ å¸Ŀ
å½ĵ æĹ¥
å±± ä¸Ĭ
ä¸įåı¯ è½»
éĴ ¦
ä¸Ģå½ª åĨĽ
èĿ ī
å¼ ±
æĿ¥ åĪ°
æŃ¤ è¨Ģ
èĢĮ åħ¥
èĢĮ éĢĢ
è¾ Ī
æĶ ¹
æİ Ĵ
çĦ ī
æ³ ½
äºĶ ä¸ĩ
å¤ª åı²
çĪ ±
çĪ µ
éĶ Ĳ
è®¾ å®´
ç¨ĭ æĻ®
å¦Ĥä¹ĭ å¥Īä½ķ
å µ
ä¹ Į
æĹ Į
èĢĮ åĽŀ
ä½ķ ä»¥
ä½ķ å¤Ħ
åĲ¾ å·²
åŁİ éĹ¨
æģ ¶
åīį è¿Ľ
æ¸ ħ
è®¸ æĺĮ
çĪ¶ åŃĲ
éŁ© éģĤ
é¥® éħĴ
æ¢ ¦
æĲ¦ æĪĺ
ä¹ĭ ä¼Ĺ
éģ µ
ä¸º é¦ĸ
èĢĮ è¿Ľ
åŁİ å¤ĸ
æģ ª
æĪĺ ä¸į
æ³ ī
éĽ ª
æ² Ļ
ä¸¤ ä¸ª
ç§ ģ
ç¤¼ æ¯ķ
å²Ĥ åı¯
æħĮ å¿Ļ
åİ® æĿĢ
¹ ĩ
åħ ħ
ä» £
ä¸į è¶³
å® ¡
æĹ ¨
æĪ Ī
éĻ ¶
å¯ ĩ
å¦ Ħ
æĭ ¾
èĥ ¡
å£ ģ
åĪĺ çİĦå¾·
ä¸ľ åįĹ
æķ° çĻ¾
ç§ »
è°ĭ å£«
æł ĳ
å¤§åı« æĽ°
æĢ§ åĳ½
ä¸ ĳ
å® £
å® ł
è§ ī
éĢ ī
å¯ ¸
å¼ł æĺŃ
è¨Ģ æľª
é»Ħ çĽĸ
åħ³åħ¬ æĽ°
èģ Į
ç´ §
éĥŃ æ±ľ
éĵ ľ
åĲĳ åīį
æ¥ Ļ
æĴ ŀ
æİ© æĿĢ
ä¸ ¹
æĺ ¨
æľī å¤±
æī İ
ä¾ Ħ
éĺ ģ
è¨Ģ è®«
çĽ¸ å¾ħ
å·² å®ļ
åĿ ¡
è½ ½
è¿Ľ åıĳ
æ¸ Ń
æ±Ł å¤ı
æŁ ´
çķ Į
æĺĶ æĹ¥
èĹ ı
å¤¹ æĶ»
ä¹ĭ çŃĸ
å¿ ĺ
å¤§ åħµ
éģ Ń
ä¸º åīį
çŃ ĳ
æĥ ľ
èį ¯
èĪ ŀ
æ¸ Ĳ
åį³ æĹ¥
å¾Ģ æĿ¥
åĲĦ èĩª
åĲ¬ çŁ¥
çģ« èµ·
çģ« åħī
çĮ Ľ
çĭ ±
æ±īä¸Ń çİĭ
ç¾¤ èĩ£
å³ »
é ¬
åı Ļ
å· ¡
æŃ¤ ä¹ĥ
è° ¡
éĥ ĳ
å¼ł ä»»
éĩ ı
æĿĢ åĪ°
æĦ ļ
åĵ Ģ
éĹ» è¨Ģ
äºĶ åįģ
å¾Ĳ çĽĽ
é¦ Ĩ
æĹ© æľī
éĥ¨ å°Ĩ
éŁ© å½ĵ
èĶ¡ çĳģ
âĢ Ļ
åŃ ĺ
äºº ä¹ĭ
å¤§ ç¬ĳæĽ°
æĬ ±
ä½ķ å¦Ĥ
éĺ ¶
éŃı çİĭ
åįĹ éĥ¡
æ¸ ©
åĳ¨ æ³°
ç¾ İ
æĶ¾ çģ«
åĨį ä¸ī
ä¸¥ é¢ľ
å ¶
æ ª
åĨ µ
æĹ ¦
åĽ º
éĻ ĩ
åº §
åĵ ¥
æĶ» æīĵ
çĥ Ī
æĸ° éĩİ
éĴŁ ä¼ļ
Ĥ èĿī
åħ ļ
ä¹ĭ ä¸Ĭ
ä¹ĭ å£«
åħµ åĪ°
åĲ¾ ä¸İ
åĽŀ é¡¾
éĿ Ļ
åħ¥ å¸Ĳ
æ° ¸
èĩ³ æŃ¤
æ±Ŀ åı¯
æĬ¥ è¯´
èľĢ ä¸Ń
æķ° åĲĪ
ç¦ ħ
è´¥ èµ°
ç® Ĺ
é¦ Ļ
ç¤ ¾
çĽ´ åıĸ
æŀľ çĦ¶
èİ« éĿŀ
åĭĴ é©¬
è² ĤèĿī
å¤ªåı² æħĪ
ãĢ Ĭ
ãĢ ĭ
æĿ ľ
å® ½
åħµ æĿ¥
å¤§ å¯¨
åĩ Į
æĸ ľ
åİ ī
åĩº æĽ°
åħ¬ çĳ¾
åŁ º
å·² æ¯ķ
ç« ¯
æĤ Ķ
æ® ĭ
åĺ ±
åĳĪ ä¸Ĭ
å¶ ·
åħ ĭ
ä¹ ı
ä¹ĭ åŃĲ
ä¸į åĲ¬
åĽ Ń
ç» §
éĢ ¼
ä¹ĥ æĺ¯
åº Ħ
äºĮ åįģä½Ļ
æĶ ¿
åĪĺ å°ģ
æĬ¥ ä»ĩ
åı¸é©¬ å¸Ī
å¤§åĸľ æĽ°
æĶ¶ æĭ¾
åĽ¾ ä¹ĭ
çļĩ å¸Ŀ
çĤ İ
æ¶Ī æģ¯
åµ ©
åĪ ¶
äºº çļĨ
å¤§ åįĬ
å· ´
äºİ æŃ¤
åĬ ¡
åı¯ éĢŁ
åº Ļ
åĿ Ľ
æĸĩ ä¸ĳ
æħ ¢
è¿İ æķĮ
è°ģ æķ¢
è´¾ è¯©
æĭį é©¬
æĹĮ æĹĹ
æ ¹
âĢ ĺ
ä¸į è¿ĩ
ä¸į æĽ¾
è¿ Ŀ
çİ ¯
çİ º
ä¾ §
æĿĢ äºĨ
ä¸ī åįģ
æĦ Ī
å¿ħ ä¸º
å®ī èĥ½
é£ŀ æĬ¥
è¿Ľ æĽ°
çĻ¾ å®ĺ
çī Ļ
æīĭ ä¸ĭ
ç¾ ½
éĻĪ å®«
ç¼ ĵ
æ³ķ æŃ£
æĭ¨ é©¬
ä¸ģ å¥ī
è±« å·ŀ
ç ¹ĩ
ä¹ĭ å¤Ħ
ä¸į å¿ħ
æĺ ±
è¯ »
è¯ ķ
çĽ ĳ
å¦ ĩ
åĲİ åĨĽ
åĲİ éĿ¢
éĺ ľ
åħ¶ ä½Ļ
åĽŀ åĪ°
åĽŀ å¯¨
èį Ĳ
æ³ Ħ
å®Ī æĬĬ
è¯¸ ä¾¯
é»Ħ ç¥ĸ
äºĳéķ¿ æĽ°
åĿĲ äºİ
æĿ¨ ä»ª
äº¤ æĪĺ
åĪº åı²
ç³ľ ç«º
é¬ ¼
ç ħ
å° Ķ
æľ Ģ
ä¸į è®¸
è¯ ±
èĩ Ĥ
ä¸Ģ çĻ¾
ä¸Ģ ä¸ª
é©¬ èħ¾
çĽ Ł
èĢĮ ä¸į
åĲ¾ çŃī
æĭ ¿
ä¸ī ä¸ĩ
æ±Ŀ äºĮäºº
èĻ ŀ
é¢ ĩ
ä¾¿ èµ°
éĹ» çŁ¥
æ´ »
è¢ģ å°ļ
è¿İ æİ¥
èĬ ±
æĶ¶ åĨĽ
åģ ĩ
æ²³ åĮĹ
åĸĬå£° å¤§éľĩ
èįĢ å½§
çĨ Ł
çĽĬ å·ŀ
æł¡ å°ī
å¡ ŀ
è Ĩ
ä¹ ł
åĲ Ĭ
åĲ ŀ
æĺ ¾
è¿ ģ
æĪ ®
éĹ Ń
éĢ Ĥ
å¼ł å¶·
è¾ Ľ
åĮ »
éĢĢ åħµ
æĸ¹ åı¯
åĽ½ å¤ª
ç¾ Ĭ
èµ¶ åĪ°
è¿½ ä¹ĭ
çĭ Ĥ
å±¯ äºİ
åģ ľ
åı± æĽ°
åĲİäººæľīè¯Ĺ èµŀ
åŀ Ĥ
æĭĶ åīĳ
âĢĿ ãĢĤ
è¯ ŀ
é© °
å¤§ å°ı
å¤§ ä¹±
å¤§ åĳ¼
ä¸Ģ åĪĢ
æĿ¥ éĻį
éĻ ·
è¡ Ĺ
å± ŀ
äºĮ æĽ´
æĹł æķ°
åīį åİ»
å½ĵ å¤ľ
èį £
çº ·
è®¡ è®®
é» ĳ
æ· ·
è½¦ ä»Ĺ
ç¨ ·
çĬ ¶
èĳ£ æī¿
ç³ »
éª¤ é©¬
åİī å£°
è¯ º
åĩ ¶
ç» Ń
åľ Ĩ
è° ķ
å½ ¢
åħ¶ äºĭ
èĩª å¼ķ
åľ¨ åĲİ
çĽ¸ åĬ©
ä¸ī æĹ¥
åĪ° æŃ¤
çŁ¥ ä¹ĭ
æŃ£ æ¬²
æŃ£ éģĩ
ç« ¹
ç« ł
åŃĻ åĿļ
åıĸ èįĨå·ŀ
é£ŀ é©¬
æķ° æĹ¥
çī §
çĶ¨ åħµ
å¿ł ä¹ī
æħ °
æŁĲ æĦ¿
èĲ¥ ä¸Ń
è§Ĥ ä¹ĭ
çıŃ å¸Ī
ç¤¾ ç¨·
æŃ Į
èĩ ¾
åĩ ¡
æĬ ¼
è° ¨
ä½ķ è¶³
åĲ¾ æ¬²
ä¸İ æĪĳ
åŁİ æ±ł
çļĨ æĺ¯
èį ¡
æĻ ĵ
åĽĽ äºº
ä¸¤ è¾¹
ç§ ¯
å°ı æ²Ľ
çĸ ı
æĶ» ä¹ĭ
ç¤ º
æı ´
çĽ´ èĩ³
å¤ıä¾¯ éľ¸
å¦ĤæŃ¤ å¦ĤæŃ¤
ä¹ħ çŁ£
åģ ı
é¡» èĩ¾
æ±Ĥ æķĳ
åĪĨä»ĺ æĽ°
æĬµ æķĮ
çŀ Ĵ
åħ ĸ
ä¹ĭ ä¸ĭ
æĺ Ĥ
åĩ Ń
çŁ Ľ
ä»Ĭ å¤ľ
èĩª æŃ¤
æĹł äºº
ç« ĸ
çģ ¯
å§ ĭ
åį´è¯´ æĽ¹æĵį
ç¦ Ħ
çĲ ®
å²Ĥ ä¸į
çª ĥ
æıĲ åħµ
ä¹Ĳ è¿Ľ
æ¯ı æĹ¥
åĨ ł
ä¸į å·²
å® ¾
å¿ «
éĹ ²
éĹ ¿
æľī äºº
æŃ¤ å¤Ħ
ç» ¶
çŁ ¢
åĲ¾ å½ĵ
è· Ł
çĦ ļ
æ¯ Ĵ
æ¯ Ľ
çľ ģ
å² Ń
åĽĽ ä¸ĭ
éĹ¨ å¤ĸ
æĸ¹ æ¬²
éĴ ±
åĽ´ ä½ı
è± ¡
ä¸Ī å¤«
æ¯Ķ åıĬ
èĸ Ħ
ç¯ ¡
æĽ ²
ä» į
å° ¹
å° ¾
ä½ Ĺ
é©¬ å¿ł
æĪ ´
æĵį ä»¤
æŃ¤ è®¡
ä¾ µ
å¯ Į
æĽ¹ ä¼ĳ
ä»Ĭ èĭ¥
æİ ·
ä¸ī åįģä½Ļ
åīį åĨĽ
åıĪ åĶ¤
å®ī å¾Ĺ
éĽ Ĵ
è½ ®
çĻ¾ ä¸ĩ
ä¸¤ ä¸ĭ
åį´è¯´ åŃĶæĺİ
é»Ħ å·¾
éĺµ åīį
æł ħ
æĶ¶ åħµ
å¾Ħ åĪ°
æİ¨ åĩº
åĬ« å¯¨
æ½ ĺ
å¥ĭ åĬĽ
ç± į
çĤ® åĵį
æª Ħ
é ŀį
èĢ Ģ
åĽ Ĭ
æĪ ·
ä¸º å¤§
èĢĮ èµ·
ä½ķ å¿ħ
åĲ¾ èĩª
æĢ ľ
åħ³ æŁĲ
æĹ¶ åĪĨ
å±± è°·
éģĤ åĳ½
æŃ» èĢħ
æ² ī
å¤ª åĤħ
åĢ ¾
çĶŁ æĵĴ
è´¥ åĨĽ
èįĨ è¥Ħ
å°ļ ä¹¦
ç© ·
åı· ä»¤
çĵ ĺ
è£ ħ
é¢ľ èī¯
è®¨ è´¼
åĥ ļ
åī¯ å°Ĩ
ç ĩ
é Ħ
ä¸ ĺ
äº ¬
ä¸į æĥ³
åħµ èĩ³
èµ ĸ
å¸ ħ
éĻ Ħ
å¯ Ĵ
æĽ¹ çĿ¿
å± Ī
æ¬ £
äºĮ åŃĲ
åħ¥ åĲİ
åīį åĲİ
åıª æĺ¯
æŃ£ è¡Į
åĲ´ ä¸»
åı¸ å¾Ĵ
ç¦ Ģ
æ· Ŀ
ç® Ģ
æŃ¦ ä¾¯
åĲĪ æ·Ŀ
æĹ© æĻļ
åķĨè®® æĽ°
çĥ ¦
çĥ Ł
èĽ ĩ
èĦ ļ
éªĤ æĽ°
æĳ Ĩ
éº ¦
å´ Ķ
æº ª
å¤ ķ
ä¹ĭ æīĢ
ä¹ĭ åĬ¿
æĿ Ł
åį ł
å® Į
è¯ ī
å¤§ ç¬ĳ
é©¬ ä¸Ĭ
æĿ¥ æķĳ
å¸ Ĥ
ä¸ĭ ä»¤
äºİ è·¯
åľ º
ä¸º ä¸Ĭ
éĥ Ŀ
åİ» è·¯
èĩª åĽŀ
åº ·
åħ¥ å®«
æģ °
å¿ħ ä¸į
æŃ£ åľ¨
èµ· èº«
ä¿ Ń
ç¬ Ķ
çĸ ®
å¾Ĳ åº¶
ç»´ æĽ°
çľĭ æĹ¶
æĪĲ åĬŁ
åįĥ ä½Ļ
éĩį èµı
èĲ¥ å¯¨
é½ ¿
éĤĵ èĬĿ
åĦ ģ
èĻļ å®ŀ
åħ¸ éŁ¦
åħ¬åŃĻ çĵĴ
å®¡ éħį
åħ °
å° ĺ
å® ĭ
åħµ ä¸į
é©¬ è°¡
æĪ ¿
æĪ ı
ä¼ ĺ
æŃ¤ åİ»
æŃ¤ æĺ¯
ä¸º åı·
è§ģ ä¹ĭ
æĢ İ
æĽ¹ åħ¬
åħ¬ åŃĲ
çŃ µ
åº Ĭ
åŃĶæĺİ ç¬ĳæĽ°
äºĨ ä¸Ģ
æĻ Ķ
çī µ
åĢ ¼
æĸ¹ æīį
ç»į æĽ°
åĪĢ æĸ§
è¿½ æĿĢ
æļ ´
æį ¢
å¤ıä¾¯ æ¥Ļ
æĤ ¬
ç¿ Ķ
è¶³ ä¸ĭ
è°¢ æĽ°
åĮ¹ å¤«
åħ· è¨Ģ
éģ¥ æľĽ
è¡Ĺ äºŃ
åħĸ å·ŀ
æĿ ¯
ä¸į èĥľ
åħµ è´¥
å¤§ è·¯
å¤§ èµ·
è¿ ·
è´ ¨
å¯ Ł
åħ¬ æĽ°
åŃĶ èŀį
åº Ĩ
æİ ª
æİ ĺ
åĿ ł
é£ŀ æĽ°
èĲ Į
éľ ²
å¦Ĥä½ķ ä¸į
æĿ¨ å¥ī
éĥ¨ ä¸ĭ
çı ł
æŃ¢ æľī
æĪª ä½ı
ç± ³
âĢĶ âĢĶ
åĩĮ ç»Ł
å¤§åĳ¼ æĽ°
åħ ®
ï¼ļ âĢĺ
é© ¿
ç» ķ
çŁ Ń
è§ģ çİĦå¾·
è° Ī
åĲ¾ ä¸»
å¯ ¡
èĩª æĿ¥
å¾Ĺ èĥľ
å¤© æ°´
åĪĺ çĲ¦
éķ¿ åŃĲ
éļ Ķ
é¡ ·
èĪ ħ
ç«ĭ é©¬
éĩį åĽ´
ä»ĸ äºº
æĹĹ åı·
èĢģ å¤«
èģ ĺ
æ® µ
å¾Ħ åıĸ
éĵ ¶
çı ª
é¼ĵ è§Ĵ
è¯¸å°Ĩ æĽ°
ä¼Ĺå°Ĩ æĽ°
ç¨ĭ æĺ±
å¼ĵ å¼©
çĻ¾ä½Ļ äºº
éĽĴ åŁİ
åħ Ĩ
ä¹ĭ æīį
æĿ Ĥ
å® ¿
ä½ Ĳ
å¼ ĺ
å¤§ å¤«
èµ Ħ
èµ ļ
ä¼ Ĭ
ç» ª
éĢ Ķ
æĽ¹ çĪ½
èĩª çĽ¸
æĥ ¶
æĺ¯ ä¹Ł
æİ £
åĪ° æĿ¥
å·² è¢«
å®ī æ°ĳ
éĽ ¶
è¡Į ä¸į
æľª åıĬ
æľª å°Ŀ
æķ° ä¸ĩ
å¤ª å¸Ī
å¤ª å°ī
åį´è¯´ çİĦå¾·
å®ĺ åĥļ
ç¾ ŀ
é«ĺ é¡º
æĵĴ ä¹ĭ
åı« æĽ°
å¤«äºº æĽ°
æıĲ åĪĢ
å¤º äºĨ
æ¸¡ æ±Ł
éº ¾
åį§ é¾Ļ
éļĺ åı£
éĹ®åħ¶ æķħ
éĻ¶ è°¦
® éĺ³
ä¹ Ķ
æĿ °
ä¸į çĶ¨
ä¸į ç»Ŀ
å® ĩ
å¤§ èĩ£
ä¸Ģ æĹ¶
éĹ ª
å¸ Ľ
ç» ĥ
ä¸Ń éĥİ
æĬ Ĺ
ä¸º äºº
å½ Ŀ
åĲ¾ æĸĻ
å± ı
ä¸İ çİĦå¾·
æĭ ©
åħ¶ åŃĲ
è¾ Ĩ
åĽŀ åİ»
æĥ ĳ
ä¸ī åĲĪ
åħ³ ä¸Ĭ
åįģ äºĮ
æ±Ŀ åįĹ
èĭ¥ å¾Ĺ
æĪĺ èĪ¹
å¯¨ æłħ
é¡ ¹
åįĹ å®ī
æ±Ł è¾¹
å¹³ çĶŁ
çķ ı
å¾ħ ä¹ĭ
æĶ» åŁİ
è¿İ ä¹ĭ
æį Ł
èĻ½ æľī
çĪ¶ äº²
ä¹ĺ èĻļ
åł ª
çĮ® å¸Ŀ
å¸¸ ä¾į
å¹¸ å¾Ĺ
ç¿¼ å¾·
åįİ æŃĨ
åĲİäººæľīè¯Ĺ åı¹æĽ°
ç³ľ èĬ³
é¹ ¿
å´ ©
ç¿» èº«
è¨Ģæľª æ¯ķ
ä¸ºåīį éĥ¨
Ĳ åĸĬ
ä¹ĭ åĨħ
ä¹ĭ æ³ķ
åĨ Ĵ
ä¸į åĪĨ
ä¸į å¿į
ä¸Ģ å¤Ħ
å°Ĩ æĿ¥
å· ¢
æľī æŃ¤
æĬ Ħ
çĶ «
åĩº å¸Ī
åĲ¾ ä¹ĥ
æĢ ª
æĢ ķ
åı¯ ä¹Ł
åĳ ĲåĸĬ
ä¸Ĭ è¡¨
å¼ł ç»£
ä»¤ åĨĽå£«
éĿ ĸ
æĺ¯ æĹ¥
æİ ł
ä¸ī æĽ´
å¤© æĺİ
ç¥ ¥
æ³ ¸
éĤ Ģ
æ² ¿
åĽĽ æķ£
åį³ æĹ¶
æµ ©
æµ ®
å·¦ è¾¹
é« ¦
é« ¯
èµ¶ ä¸Ĭ
åĲĽ ä¾¯
æģĲ æľī
å§ĵ åĲį
æ¶ ķ
éĤ£ éĩĮ
åĨ² çªģ
é©± åħµ
åĵ¨ é©¬
å¯¿ æĺ¥
æĭ¦ ä½ı
çĩ ķ
åĪĢæĸ§ æīĭ
± ¼
é ±¼
åħ Ķ
ä¹ĭ åĬĽ
ä¸į èĭ¥
ä¸į çĦ¶
åį ļ
åį ľ
ä½ ¯
ä½ İ
ä¸Ģ æŀª
æĿ¥ æĬ¥
çĽ Ķ
èĢĮ è¨ĢæĽ°
åĲ¾ å¼Ł
æĺİ æĹ¥
å± ¡
åħ¶ è®¡
çİĦå¾· ä¸İ
èĭ ı
åħ³ äºĳéķ¿
è· ª
éķ ľ
æ³ ł
ä¾¿ åı¯
ä»İ äºº
åĽĽ æĸ¹
éĢĢ åĨĽ
éĹ¨ æĹĹ
æ°´ åĨĽ
è´¥ åħµ
çľĭ æ¯ķ
åºĶ å£°
éĺ³ å¹³
éĺµ ä¸Ń
æĺŃ æĽ°
éĴ §
æ¶ ª
åģ ļ
èī¯ ä¹ħ
æİ¢ çŁ¥
æĲ Ń
è´¤ å¼Ł
èĲ½ é©¬
è£ Ĥ
å»º å®ī
æĿ¾ æĽ°
ä¹ĭè®¡ ä¹Ł
ä¿® ä¹¦
åĥ »
æĳ ĩ
çŀ »
ä»² è¾¾
è·ĥ é©¬
éĶĲ æ°Ķ
æĸľ è°·
ĺ çĦ¶
ä¹ĭ åĬŁ
ä¹ĭ ç½ª
ä¹ĭ æģ©
ä¹ĭ çī©
åĪ ļ
ä¼ į
åİ Ĩ
éģ ®
è° ¯
åĲ¾ ä¹ĭ
åĲ¾ æľī
äºĮ å«Ĥ
è¨Ģ è¯Ń
æģ ¢
çŁ¥ åħ¶
å¿ħ æĿ¥
éŃı åĨĽ
èį Ĵ
ä½¿ åĳ½
çİĭ åħģ
éģĤ ä¸İ
åĿ ĳ
ä¾¿ æĺ¯
éĤ º
è¯¸ åĨĽ
çĿ ¡
æ¸ ¸
åį³ ä»¤
åĢ į
åĲĦ å¤Ħ
éĻĪ ä»ĵ
èĻ½ çĦ¶
å¼Ģ éĹ¨
çĬ ¬
çª ľ
çļĩ åĲİ
åĨ² å¤©
è¯Ī è´¥
åĵ¨ æİ¢
éĻĩ è¥¿
æ³¸ æ°´
æ³ł èĭŀ
ç ¡
åĲ Ł
ä¸į åľ¨
åĨĽ æ°ĳ
å¿ Į
è§ ĳ
é©¬ åĮ¹
è® °
æī ¯
ä½ķ ä¹Ł
å½ °
å¾Ĺ èĦ±
è¢ ĸ
æĿĢ å¥Ķ
æģ ĥ
åįģ äºĶ
éŃ Ĥ
å½ĵ ä¸ĭ
åĲ´ çıŃ
ä¾¿ æķĻ
å£« åįĴ
æ² ¹
åįĹ éĺ³
åĽĽ å°Ĩ
éĢĢ åİ»
è¥¿ åĮĹ
ä¸Ķ åĲ¬
å¸Ŀ æĽ°
åĳ¨ éĥİ
éĺµ åĬ¿
éŁ ³
èĪ¹ ä¸Ĭ
è¡¨ æĽ°
æİ¥ åħ¥
é¥ Ń
åıĹ è®¡
å¼łé£ŀ æĽ°
èĢģ å°ı
æł ¹
è¯¸èĳĽ çĳ¾
é¼ ł
åł Ĩ
å¯Ĩ ä¹¦
éĤ£ æĹ¶
è± ª
æ¥ ļ
æĸŃ åĲİ
çºª çģµ
è² Į
éĺ¶ ä¸ĭ
éĴ± ç²®
åı ĭ
ä¸į æĪĺ
ä¸į æľį
åĨĽ å¿ĥ
åĨĽ åĻ¨
è¯ ¡
æĵ Ĥ
æĵį è´¼
æĬ ¢
è§ģ åŃĶæĺİ
åı¯ æĵĴ
åī ¿
æĭ Ī
ä¹ĥ è°ĵ
èĩª é¢Ĩ
åħ¥ åĨħ
ä¸ī åįģéĩĮ
åĪĺ çļĩåıĶ
å±± åĿ¡
æ¯ Ĺ
éķ¿ åı²
æ³ ¢
å®ī èĤ¯
åıĸ äºĨ
éĤ ³
èľĢ å°Ĩ
æīĭ æī§
éĶ ģ
èĪ¹ åıª
éĻĪ çķĻ
éĻĪ æ³°
æĿİ åĦĴ
è½¦ ä¸Ĭ
æı Ĵ
çĭ ¼
åīĳ éĺģ
èī¯ çŃĸ
æµģ é©¬
è± ¹
åľŁ äºº
åħĥ å¹´
åºľ ä¸Ń
å¯» æĢĿ
æ·® åįĹ
æľ¨ çīĽ
åĲİäººæľīè¯Ĺ æĽ°
æĴ ¤
çķ¥ æĽ°
çĨ Ļ
æĿ¡ è·¯
ç¾Į åħµ
è´¹ ç¥İ
åĹ £
ç° ĩ
é¦Ĩ é©¿
æ½ĺ çĴĭ
å½Ŀ éĻµ
æ §
ä¸į å®ī
ä¸į åĪ©
ä¸į è¯Ĩ
å® ħ
è¯ į
å¿ ¿
å¤§ è¿Ľ
æĵį å¤§åĸľ
ä¸ĭ éĤ³
ä¸Ń è®¡
èĢĮ å·²
ä½ķ è¿Ľ
éĻ ¢
è´ ¢
å¦ ¹
èĥ Ħ
å¼ķ æľ¬éĥ¨
åħĪ è¡Į
åįģ æķ°
å½ĵ ä¹ĭ
ä¼Ĺ è§Ĩä¹ĭ
åĿ ŀ
å®Ī åŁİ
æľª æķ¢
å¹³ åİŁ
æµ ħ
å¤ª åŃĲ
åįĥ éĩĮ
å¹¶ åĬĽ
èµµ åŃĲé¾Ļ
æİ¥ çĿĢ
åĨį æĭľ
åħĦ éķ¿
ä¼ĳ çŁ£
ä¼ĳ èµ°
æľ¬ å¯¨
æĲ ¬
ä¾į ä¸Ń
æľīä¸Ģ è®¡
ä¼Ĳ åĲ´
åį± çŁ£
éĢł åıį
ä¸Ģå£° çĤ®åĵį
æĬĺ äºĨ
æ¼ ı
éĨ Ĵ
å¤§åĸĿ æĽ°
ç®Ģ éĽį
ä¸ĶåĲ¬ ä¸ĭæĸĩåĪĨè§£
äº Ľ
åĨ ¬
åį ¢
åį ·
å® ª
åĨĽ åīį
åħµ é©¬
åħµ æ³ķ
å¤§ åĬŁ
ä¸Ģ åĲĮ
å°Ĩ èĩ³
éĹ ·
çĽ ĺ
æŃ¤ å¿ħ
ç» µ
çĶ ·
å¹ ½
éĻ ħ
å¯ Ŀ
ä»¥ æĿ¥
ä»¥ éĺ²
çİĦå¾· å¤§åĸľ
èĥ ¤
èĥ ¸
èĩª å·±
éĩ Ĭ
è· ³
çŁ¥ æĺ¯
éŃı å°Ĩ
åıĪ ä»¤
å·² åĪ°
å·² æŃ»
ä¼Ĺ è°ĭå£«
äºĳ æĽ°
æŃ£ åĲĪ
çİĭ æľĹ
åıĸ ä¹ĭ
éĽ ¾
è¡Į èĩ³
åĲ´ æĩ¿
æĮ ĳ
å£« ä»ģ
ä»İ äºĭ
èĪ ¬
èĪ Į
ç¬ ¦
æĢ¥ ä»¤
åĽĽ æµ·
å§ Ķ
åį³ åĳ½
æīĢ è¨Ģ
æīĢ æĿĢ
åĢ ļ
ç§ į
è¥¿ èľĢ
è¯· çİĦå¾·
é¢Ĩ åĨĽ
åı³ è¾¹
çĲ °
æį ·
çĮ İ
æ¡ ĳ
è¿ŀ æĹ¥
æĤ ¦
æĽ´ åħ¼
åĬ¨ éĿĻ
éĥŃ åĺī
è¿ĳ èĩ£
çĻ½ æĹĹ
å¤º è·¯
æ½ ľ
æĬ« æĮĤ
äºĶçĻ¾ åĨĽ
è¸ ı
åį° ç»¶
åĹ Ł
çħ §
æİ¨åĩº æĸ©ä¹ĭ
æľ¨çīĽ æµģé©¬
è ¹
ä¹ĭ éģĵ
åĨ ¯
ä¸į ä¸ĭ
å¼ ı
ä¸Ģ ä¸ĩ
ä¸Ģ æľĪ
ä¸Ģ æŀĿ
è® ¤
èĢĮ éĢĥ
åĲ¾ ä¸į
æĢ ı
ä»¥ èĩ´
åħ¬ çŃī
ä¸İ åĲ¾
åħ¶ ä¸į
åħ¶ æķ°
åŁİ åĨħ
åº ¸
å¼ķ ä¸īåįĥ
åħ¥ æľĿ
æģ Ń
ä¸ī çĻ¾
ä¸» ä¸Ĭ
åīį äºĭ
å¤© åľ°
çļĨ è¢«
äºĭ ä¸į
åıĪ è§ģ
åıª æľī
å±± åĲİ
å±± åĥ»
æ¯ ģ
ç« Ń
åŃĻ ç¤¼
éļ Ĩ
çī ĩ
ç§ Ģ
å°ı åĦ¿
é»Ħ æĺı
æĥĬ æĽ°
çĸ ²
è®¸ æĶ¸
è¢ģ è°Ń
åĨħ åºĶ
éħ £
å¤ļ æľī
æĭľ è¾ŀ
å®ļ åĨĽ
è¿ĩ åİ»
çĲ ¬
éĻĪ çĻ»
å½Ĵ è·¯
æ¡ ĥ
èģ ª
é½Ĳ åĩº
åŃĹ åŃĲ
åģ ·
éĵ ł
ä½Ĩ è§ģ
å°ĳ é¡·
æİ¢ åĲ¬
åħģ æĽ°
ä¸ĸ ä¹ĭ
åıĶ çĪ¶
ä¼Ĳ éŃı
éĿĴ å·ŀ
è¯Ī éĻį
åĮ¹ é©¬
å¦» åŃĲ
åŀ Ĵ
è´¾ åħħ
è¿Ĳ ç²®
ç¢ İ
æ¹ ĸ
æ·· æĪĺ
ç ĺ
ä¹ĭ åīį
ä¹ĭ åĳ½
åį Ī
æĹ ±
æĺ ¼
èĢ ¿
å¤§ å¼Ģ
çĽ Ĺ
ç» Ļ
è§ģ æĵį
éĢ Ĳ
ä½ķ åľ¨
åĩº ç¥ģå±±
å¦ ĥ
ä»Ĭ åı¯
ä»Ĭ åıĪ
ä¸İ æĽ¹æĵį
å£ ķ
äºĮ åįĥ
æĥ Ń
çļĨ æľī
åĪĺ çĴ
åıª åľ¨
æĬ¥ åħ¥
éķ¿ æ²Ļ
åŃĻ ç¶Ŀ
åĮ ¡
çŃī åĢĻ
æķ° éĩĮ
å¿½ éĹ»
æ±ī æ°´
çĶŁ æŃ»
è¥¿ éĹ¨
æ· »
åĽ½ ä¹ĭ
åĸľ æĽ°
å¤ļ å°ĳ
æĭľ ä¼ı
çĲ ¼
æļ ¹
æĿİ ä¸¥
çĶļ æĺ¯
å½Ĵ éĻį
æĤ Ł
ä¹ĺ é©¬
ç¨ į
é¼ İ
ç»Ł æĽ°
ç¼ º
æ» ļ
åħ± è®®
åĨ³ ä¸Ģ
åĬ© æĪĺ
åį± æĢ¥
æ»¡ å®ł
äºŃ ä¾¯
æĹ¦ å¤ķ
ä¸Ńéĥİ å°Ĩ
ä¹ĭ æĥħ
åĨ ·
ä¸į ä¿¡
ä¸į å®¹
ä½ ¥
ä½ ©
ä¸Ģ éªĳ
è§ ¦
æĿ¥ ä½¿
æī «
ç» °
è° ħ
åĲ¾ åĨĽ
åĲ¾ äº¦
åĲ¾ æĦı
åı¯ å¾Ĺ
å¼ł æĿ¾
åħ¶ å¿ĥ
æ¬ ¢
åº Ĳ
æĺ¯ è°ģ
å¾Ĺ äºĨ
æĹł è·¯
æĹł è°ĭ
æĹł ç¤¼
æģ ĭ
æģ ķ
æ±Ŀ ä½ķ
åıĪ æľī
åıª åĲ¬å¾Ĺ
åį´ è¢«
æ¯ ĭ
ç¥ ľ
æľª è¿Ł
æ² ®
éĿ¢ çĽ®
åĽĽ åįģ
é» ĺçĦ¶
ä¸¤ å®¶
äºĶ åħŃ
æ°´ éķľ
çĸ Ĩ
è®¸ å¤ļ
åĲį æĽ°
å¤ļ è¨Ģ
çľĭ çľĭ
é«ĺ å®ļ
ä¼ļ åĲĪ
æĦ¿ å¾Ģ
å¥Ķ åĽŀ
ä¹± ç®Ńå°Ħ
åįĵ æĽ°
åŃŁ å¾·
å®« æĽ°
æ¶ Ĥ
åĴ ¨
çºµ æ¨ª
æŃ¥ åĨĽ
éĽį å·ŀ
éĽį éĹ¿
æ¼ «
äºĶåįĥ åħµ
èµ¤ åħĶ
é¸£ éĩĳ
æķ°åįģ éªĳ
æĻ¯ åįĩ
æ¦ »
ç° ¿
åĵ¥ åĵ¥
åĲİäººæľīè¯Ĺèµŀ æĽ°
åħ¥åĲİ åłĤ
éĺ³å¹³ åħ³
ãĢĤ âĢĻ
åı ©
åĲ Ĳ
ä¸į å¹¸
æĹ ·
å¤§ ä¸Īå¤«
ä¸Ģ è·¯
ä¸Ģ åįĬ
ä¸Ģ åĳĺ
é©¬ èī¯
ä¸ĭ å±±
äºİ åĲī
ä¸Ń æľī
ä¸º ä½¿
èĢĮ åĵŃ
ä»¥ æŃ¤
ä»¥ åĽ¾
çļ Ĥ
äºĮ ä¸ĩ
äºĮ è´¼
åŃĶæĺİ ä»¤
å¼ķ æķ°
èĩ³ ä»Ĭ
è· µ
å¤© æĸĩ
åıĪ æĽ°
å±± è·¯
æ¬² æĿĢ
æŃ£ ä¸Ń
æŃ£ ä¸İ
æŃ£ è¨Ģ
çľ ī
å®ī èĲ¥
ä¸ľ éĹ¨
å¹³ æĽ°
æĸ¹ ä»Ĭ
æ°´ éĻĨ
è¥¿ åįĹ
é»Ħ çļĵ
éĶ Ļ
å¾ħ æĪĳ
å¤ļ è°ĭ
æķĳ åºĶ
çŃĸ æĽ°
åĬ¿ å¤§
éªĳ å°ĨåĨĽ
éĴ º
åıį è´¼
æľ¬ åĪĿ
åĶ¤ åħ¥
è¾½ ä¸ľ
è°· åı£
ä¸¾ çģ«
æī¿ æĽ°
ä¸įå¾Ĺ å·²
å®Ĺ æĹı
å« ģ
æ³£ æĽ°
èįĢ æĶ¸
çİ° åľ¨
ä»° å¤©
åıĤ åĨĽ
éĺ¿ æĸĹ
ä¸ºé¦ĸ å¤§å°Ĩ
æĢ§åĳ½ å¦Ĥä½ķ
è¯¡ è®¡
¡ é¡»
ä¸į ä¸º
ä¸į æīį
å® °
åĪ »
åĪ ĳ
åŃ £
å¼ ¦
åĨĽ ä»¤
ä¸Ģ åĲĪ
ä¸Ģ ç®Ńå°Ħ
æĿ¥ åıĸ
æĿ¥ æĶ»
è® ¿
ä¸ĭ èĪ¹
éĢ ı
ä½ķ ä¸º
åĲ¾ åħĦ
å¦ ĸ
ä¸Ĭ å°Ĩ
å± ĭ
å± ķ
æĭ ĸ
åħ¶ ç¼ļ
çŃ ı
æ¬ ¾
åĽŀ åĨĽ
åĽŀ èº«
åľ¨ å¤ĸ
åħ¥ å·Ŀ
åħ³ éļĺ
åŃĲ æľį
èį ¼
åĪĺ å²±
åĪĺ è±«å·ŀ
åĪĺ ç¹ĩ
åıª æģĲ
å±± ä¸Ń
ä»İ èĢħ
éĤ Ī
æľª åĨ³
èĳ Ĺ
åįĹ å¾ģ
éĥ½ å°ī
æīĢ ä»¥
è®® äºĭ
åĲ¬ ä»¤
æķĳ äºĨ
å¤ı åı£
è¿ĩ æĿ¥
æĸ© é¦ĸ
æį §
æĶ¾ å¿ĥ
å¤± èī²
èĴ ¯
å¸Ĳ åīį
ä¹ħ éĹ»
æ® ·
å®« ä¸Ń
éĥŃ åĽ¾
ä½Ĩ æģĲ
é¼ĵ å£°
æİ¢ é©¬
è¾½ æĽ°
è¡£ çĶ²
æĸŃ åħ¶
åı± æŃ¦å£«
éĿĴ é¾Ļ
äºĮåįģ éĩĮ
åĢĺ æľī
æŀģ å¤ļ
æīĺ åŃ¤
èĴĭ éĴ¦
é¹ ¤
çİī çİº
çĶ° ä¸°
æ¿ ¡é¡»
ç´ł çŁ¥
èĸ Ľ
éĽ· éĵľ
å¼ķä¸Ģ åįĥ
èĪŀ åĪĢ
æĳĨ å¼Ģ
èģª æĺİ
åĪĺçĴ Ŀ
æĽ ¿
åĲ ¹
ä¹ĭ ä¸»
ä¹ĭ ä»ĩ
åį ĸ
ä¸Ģ å°ģ
èµ ¦
èµ ł
å· ¨
åĩ ¯
æĵį åħµ
éĻ Ĳ
æĢ ¯
æĢ ł
ä»¥ åħµ
ä»¥ æīĭ
åħ¬ ä¹ĭ
åħ¬ åį¿
ä»Ĭ çķª
ä¸İ æ±Ŀ
åİ» åıĸ
åħ¶ æĦı
ä¹ĥ ä»¤
èĭ į
äºĮ å¤«äºº
å¦Ĥ éĽ¨
åľ¨ æīĭ
æĿĢ èĩ³
ä¸ī å¹´
è¯´ ä¹ĭ
æĪĳ åĨĽ
æĪĳ ä¹Ł
å¤© åĳ½
åıĪ æĿ¥
åĪĺ çĲ®
åĪĺ æĻĶ
èĭ¥ éĿŀ
å¯¨ åīį
èĻ Ķ
çİĭ å¿ł
ç¥ Ģ
åŃĻ å¤«äºº
å®ī æİĴ
åĮ º
æĮ Ł
æ² ¡
é£ŀ å¥Ķ
èĩ£ çŃī
é» İ
æ±Ł éĻµ
äºĶ è·¯
æ±ī æľĿ
åĽ½ èĪħ
åĨħ å¤ĸ
èº« éķ¿
ç«ĭ åĬŁ
çľĭ äºĨ
åºĶ æĽ°
åĳ¨ ä»ĵ
ä½ľ ä¹¦
åĲĽ èĩ£
è½¦ é©¾
æĹ© éĻį
èĬ ¦
å¤± äºĨ
ç¨ ł
åĿĲ å®ļ
èĢģ äºº
çł´ æĽ¹
èĳ£ èį¼
äº¤ é©¬
å·¦åı³ æĽ°
åł ķ
éļ¾ ä»¥
ä½Ĩ æľī
åĵŃ æĭľ
åħ« åįģ
åįĬ è·¯
åĭ¿ å¿§
æĲ º
æ·± åħ¥
èĦ ĳ
èĮ ħ
åįİ éĽĦ
å¼Ĥ å¿ĥ
æ¿ Ģ
çº¢ æĹĹ
åŁº ä¸ļ
æ´» æįī
éĥĿ æĺŃ
æµ® æ¡¥
ä¸Ģæŀª åĪº
æĵĤ é¼ĵ
å®ļåĨĽ å±±
èĳ£èį¼ éĤ£
ä» Ļ
ä¹ĭ èĩ£
æĿ ĳ
æĹ ¬
èĢ »
å¤§ ä¼ļ
ä¸Ģ åįĥ
æĪ Ĵ
çĽ ı
æī ®
æĵį è§ģ
æĵį èĩª
æĵį ç¬ĳæĽ°
ä¸Ń åıĸ
èĢĮ åĿĲ
å¹ ¡
åĲ¾ éĹ»
åĲİ æĤ£
ä»¥ å®ī
ä¸Ĭ å±±
ä¸Ĭ ä¹¦
å¼ł æµİ
åİ» è®«
è¾ Ķ
èĩª çĦ¶
åº Ń
åľ¨ åīį
æĺ¯ ä½ķ
çĽ¸ äº¤
çĽ¸ åºľ
ä¸ī æ±Ł
åįģ å¸¸ä¾į
æĦ ģ
çĦ ¦
æ¬² ä¸İ
éģĤ å¼ķ
èµ· å¤Ħ
èµ· ç¨ĭ
éĽ Ģ
åĿ Ĥ
é¡ ¶
è¯¸ è·¯
æ² Ł
ä¸¤ é©¬
ä¸¤ éĺµ
æŁ ³
æĸĩ ä¹¦
åĭ ¤
åĭ ĭ
åĲĦ å¼ķ
è¯· åħ¥
ä¸įåı¯ ä¸į
å®ĺ æ¸¡
èº« ä¸Ĭ
å¤ļ æĹ¶
å¤ļ å®ĺ
æĪĲ éĺµåĬ¿
æĸ© äºĨ
æ¬¡ åŃĲ
å¤´ ä¸Ĭ
è¡¨ å¥ı
å½Ĵ å¯¨
æĶ¾ èµ·
éļı åį³
éħĴ é£Ł
èĢģ æ¯į
ç´ «
å½¼ åĨĽ
å¾Ħ å¥Ķ
å¼ĥ äºĨ
å°ĳ å¹´
å®³ æĪĳ
æŃ¢ ä¹ĭæĽ°
è¡£ æľį
åħĥ çĽ´
åĲİä¸» æĽ°
èĮ Ĥ
é¸ ¡
çĵ ¦
åı± éĢĢ
åħĪä¸» æĽ°
æŃ¥ è¡Į
æĭĴ æķĮ
åŀ ĵ
äººæĬ¥ çŁ¥
æķ´ é¡¿
çĹĽ åĵŃ
éĶ¦ è¢į
å© ¿
å¤§éªĤ æĽ°
å¤§åĸĿ ä¸Ģå£°
ä¸įåı¯è½» æķĮ
æĪĺä¸į æķ°åĲĪ
è¾Ľ æ¯Ĺ
å±±è°· ä¸Ń
åĨ³ä¸Ģ æŃ»æĪĺ
äº «
åħ Ģ
åĲ ĥ
åĨ ľ
ä¸į è¿ľ
ä¸į æĢĿ
åį ı
å® ¦
åĨĽ æ³ķ
åĽ ļ
å¤§ æ±ī
è¿ ¤
æĿ¥ ä¸İ
åĩ Ľ
æĵ ħ
ä¸º ä½ķ
ä¸º åĲİ
ä¸º æĪĳ
åĩº å¸Ĳ
éĥ ¿
åı¯ çł´
åı¯ æĥľ
è´ ¡
ä»¥ å¾ħ
çļ ®
ä»Ĭ å·²
éĺ Ķ
èĩª å¼ķåħµ
å¦Ĥ æľī
æĥ ł
æĹł ä¸Ģ
æĹł æīĢ
æĹł çĽĬ
åħĪ åıĸ
ä¸» ç°¿
é£ ĺ
å¤© èī²
å¿ħ å°Ĩ
å½ĵ æĹ¶
åıª éģĵ
å±± ä¸ľ
éķ¿ åĿĤ
çİĭ åıĮ
ç¥ Ŀ
å®ī å¿į
æŃ» ä¸į
åĿ ĩ
æŀ Ń
ä¾¿ åĽŀ
ä¾¿ æ¬²
è¯¸ åħ¬
èĪ Ĵ
èī º
èµ° èĦ±
æŁ ©
å¹³ æĺİ
åľ° çĲĨ
æĸĩ èģĺ
éĻį èĢħ
éĻį è¯ı
çĶ¨ ä¹ĭ
é»Ħ æĿĥ
è´¼ åħµ
è¢ģ çĨĻ
æķĻ æĪĳ
æķĳ ä¹ĭ
é«ĺ è§ģ
ç²® é£Ł
åıĳ åħµ
çĽ´ åħ¥
æĤ ²
æĤ Į
åĬ¨ åħµ
æ¶ ī
è¿ĳ éĹ»
åģ ¶
å¾Ħ æĬķ
è¿ľ æĿ¥
åĴ ¬
è¾ŀ åİ»
æıĲ éĺ²
é¥® å®´
åįģä½Ļ éĩĮ
è¯¸å°Ĩ çļĨ
æ¢ °
æĮĩ æĽ°
é¸ ¯
è£ ¹
è¤ Ĵ
æľ± åĦģ
åĤħ å£«ä»ģ
çĬ¹ è±«
ä¼¯ çº¦
ç«¥ åŃĲ
æĢ» çĿ£
å£® å£«
çĭĤ é£İ
çŁ¢ çŁ³
æ¬£ çĦ¶
éĤº éĥ¡
åŀĵ å¿ĥ
ç £
ä¹ °
å¤ ®
ä¹ĭ è°ĭ
ä¹ĭ æ°ĳ
ä¹ĭ è¾Ī
åĨ Ī
æľ «
ä¸į é¡»
å® Ľ
åĪ İ
ä¸Ģ å¸¦
è® ²
æĵį åĨĽ
æŃ¤ åŁİ
ç» ©
ä¸ĭ æīĭ
åĩº å¯¨
åĩº éĺµ
åı¯ ä¸º
åı¯ ä½¿
ä»¥ æĬ¥
éĺ ļ
å¼ł åįĹ
åİ» æķĳ
æĹ¥ æľĪ
ä¹ĥ ä¸İ
ä¹ĥ éĹ®
è¾ ©
è¾ °
è¾ ĵ
äºĮ å¼Ł
åĽŀ å¤´
è¨Ģ ä¹ĭ
çĽ¸ è¿İ
å¾Ĺ ä¸Ģ
æĿĢ ä¸Ģéĺµ
æĪĳ ä»Ĭ
çŁ¥ åĲ¾
æĦ §
å¿ħ é¡»
å½ĵ æŃ¤
éŃı å¯¨
å·² æľī
éķ¿ æ±Ł
é¢ į
æŃ» çŁ£
éĽ ħ
å®Ī ä¹ĭ
åĪĨ æĭ¨
ä¹¦ ä¿¡
éĤ ķ
æľª å®ļ
æĻ Į
èĳ Ń
èľĢ å¯¨
åįĹ éĹ¨
åįĹ éĥĳ
åĽĽ æĽ´
æķ° äºº
çī ¢
æµ ĭ
æĩ ¦
å°½ èµ·
æīĭ èµ·
ç½ Ĺ
ç® ķ
æ´ ¥
æħ ¨
åĨħ æľī
éģĵ èį£
åºĶ åħģ
é«ĺ ç¥ĸ
äº² å¾Ģ
è¿½ è¢Ń
åĶ Ĳ
çĶļ æĢ¥
åĳĬ æĢ¥
æĶ¾ å£°
é¥ ±
é¥ ¶
å¤ıä¾¯ å°ļ
æĤ ī
ç¨ ½
çł´ æķĮ
æł ·
åŃŁ ä¼ĺ
å²Ĥ æľī
çķĻ ä¸ĭ
é½Ĳ é¸£
èħ °
è¾ŀ äºĨ
æµģ æ¶ķ
æĲ ľ
åı¬ åħ¥
å¯¹ åľĨ
ç»ĵ è¿ŀ
æĭĴ ä¹ĭ
å²¸ ä¸Ĭ
åĪ© å®³
å¾¡ æŀĹ
åĭĴ åħµ
èĴĭ çĲ¬
åĻ¨ æ¢°
æ¿ ®éĺ³
é¡¿ é¦ĸ
åĿļå®Ī ä¸įåĩº
å© ¢
éĺ´ å¹³
ç¾Į äºº
æ¥¼ ä¸Ĭ
æ¦ ľ
æ³½ æĽ°
åĲĬ æ¡¥
çıŃå¸Ī åĽŀ
æĬµæķĮ ä¸įä½ı
æİª æīĭ
è°¯ åĳ¨
è±ª æĿ°
èµ¤åħĶ é©¬
Ĵ çĽ¸
åħ ½
åĲ ¯
ä¹ĭ å£°
ä¸į çĽ¸
ä¸į è®¡
ä¸į åıĹ
ä¸į ä¹ħ
ä¸į çŃĶ
ä¸į æŃ¢
ä¸į è§ī
å® ĵ
åĪ Ľ
å¤§ æĪĺ
æĿ¥ çĽ¸
æĿ¥ æĪĺ
æĵį ä¹ĥ
æŃ¤ åľ°
æŃ¤ äºĮäºº
æŃ¤ éĿŀ
åİ ĭ
éģ ģ
è§ģ æĽ¹æĵį
èĢĮ éĻį
éĢ ¦
å½ Ń
åĲ¾ éĿŀ
è´ ±
å¯ ¼
å¯ Ħ
å¼ł å®Ŀ
æĭ ½
èĭ Ĺ
èĩª æĢĿ
èĩª å¹¼
èĩª åĪİ
åľ¨ åŀĵå¿ĥ
æĹł äºĭ
ä¸» äºº
åīį èĩ³
çļĨ åľ¨
æ±Ŀ ä¹ĥ
åıĪ è¢«
åıª å®ľ
åŃĻ æ¡ĵ
å®ī å®ļ
å®Ī å¾¡
éª ģ
ä¾¿ ä»¤
éĤ ®
æľª å¾Ĺ
çĿ ģ
éĿ¢ åīį
éĹ¨ åĲı
ç² ī
æĸĩ å®ĺ
å°ı ç«¥
è¥¿ å°ĨåĨĽ
èº ¯
é»Ħ éĹ¨
æ· ³
åĲķ èĮĥ
è¢ģ æ°ı
æĶ» åĩ»
è¿½ èĩ³
çĶļ åİļ
è§Ĩ åħ¶äºº
åħ´ å¸Ī
çĭ Ń
èĢģ å°Ĩ
è¯¸èĳĽ è¯ŀ
é² į
çª ¥
ä»ģ ä¹ī
éĤĵ è´¤
åįĬ æĻĮ
é¼ĵ åĵį
åįģä½Ļ äºº
ä¿Ŀ æĬ¤
æ¥ ·
å±ħ æ°ĳ
åħ¨ å®¶
åı± å·¦åı³
ç¦» åŁİ
çªģ åĩº
çªģ éª¨
æĭĶ å¯¨
æ¨Ĭ ç¨ł
äºİåľ° æĽ°
å¿ĥèħ¹ äºº
æľªåı¯ è½»
æķ°çĻ¾ äºº
é¦Ĩ èĪį
å¦ĩ äºº
çº· çº·
å¯Į è´µ
åįĥä½Ļ äºº
ç«ĭé©¬ äºİ
ä¼Ĭ ç±į
ä¸įåĪĨ èĥľè´Ł
éĻĪçķĻ çİĭ
ç»µ ç«¹
ä¸Ģåĳĺ å¤§å°Ĩ
åħĢ çªģéª¨
è¿¤ éĢ¦
èĳŃ èĲĮ
æİªæīĭ ä¸įåıĬ
ä¸įè®¡ åħ¶æķ°
äº ĴçĽ¸
åĲ «
âĢĿ ï¼Į
ä¹ĭ çĬ¶
ä¸į å®ļ
ä¸į åĬ¨
æĹ ĭ
åĪ ĥ
å¼ Ħ
åĨĽ åħµ
åĨĽ åĪ°
å¤§ ä½ľ
ä¸Ģ è¡Į
å°Ĩ ä»¤
å°Ĩ è¿ĳ
æī ĩ
æĵį æķĻ
æŃ¤ è´¼
åİ ħ
äºİ å¸Ĥ
ä¸º ä¹ĭ
ä¸º åĨħåºĶ
åĬ ŀ
åĩº æŃ¤è¨Ģ
åĲ¾ ä»¥
åĲ¾ èĭ¥
åĲ¾ åĦ¿
åĲ¾ èĩªæľī
å¯ º
å¥ İ
ä¸Ĭ åº¸
è¡ °
ä¸İ åŃĶæĺİ
åħ¶ ä¸»
è¾ Ħ
è¾ ķ
è¾ Ł
èĩª ä¸İ
éĩ ĩ
æģ Ļ
åīį èĢħ
åīį éĥ¨
åįģ æĹ¥
å½ĵ å¹´
åıĪ æĹł
åıª é¡¾
åıª ä¸ĢåĲĪ
å·ŀ éĥ¡
å®ī æŃĩ
èµ· è¡Į
è¡Į ä¹ĭ
å®Ī ä½ı
åĲ´ çİĭ
è®¡ çŃĸ
æĮ ¡
æĮ «
ä¾¿ è¡Į
éĤ ĳ
èľĢ äºº
èľĢ ä¸»
ä¾¯ æĪĲ
åĽĽ è·¯
å¿½ ä¸Ģäºº
æµ ª
æ°´ ä¸Ń
åĭ ĥ
å·¦ æľī
å·¦ å°ĨåĨĽ
å¿ł èĩ£
æħ İ
åĲĮ åİ»
åĲĮ å¾Ģ
æŃ¦ èīº
æŁĲ çŃī
åĲĪ åħµ
åı³ æľī
é«ĺ è§Ī
é«ĺ ç¿Ķ
åĮĹ æµ·
èĥľ ä¹Ł
éĻĪ æŃ¦
åĶ ĩ
æ¯ķ ç«Ł
è°ĵ çİĦå¾·æĽ°
é¦ĸ å°¾
åıĹ äºĨ
éħĴ èĩ³
å¥ī è¯ı
è¦ģ åİ»
éĩĳ çıł
é½Ĳ åıĳ
æµģ æĺŁ
åħĥ å¸ħ
éľĩ åľ°
å¢ ĵ
ç½¢ åħµ
éĢł é¥Ń
æĭĽ å®ī
åİ¿ ä»¤
åİļ æģ©
æĬ¤ éĢģ
æľ± çĦ¶
çĻ¾ä½Ļ éªĳ
æ½ ¼
éĢĨ è´¼
å®Ŀ åīĳ
çİ° ä¸º
èµ¤ å£ģ
æº ĥ
ä¸¤è·¯ åħµ
æŁ´ æ¡ĳ
æĹ©æľī ç»Ĩä½ľ
æĤĶ ä¹ĭ
æ³Ħ æ¼ı
æŁĲæĦ¿ å¾Ģ
è¡Įä¸į åĪ°
æ²¿ æ±Ł
é»İ éĺ³
ä¸¤éĺµ å¯¹åľĨ
äº ķ
åı ¥
åı ¶
åı Ľ
ä¹ĭ éĻ©
æĿ ĸ
ä¸į å®ľ
åį ŀ
èĢ ½
åħµ åĻ¨
å¤§ ä¹¦
è¿ ¹
ä¸Ģ ä¸Ģ
ä¸Ģ éĺŁ
å· ¥
æ± Ĺ
æľī åĬŁ
ç» ¢
éĢ µ
å½ ¤
åĩº èĲ¥
å¦ ¨
åħ¬ ä¹ĥ
å± ¥
æĭ Ĥ
èĩª åİ»
äºĮ å¤Ħ
è¨Ģ ç½¢
åħ¥ å¯¨
çĽ¸ éļı
çĽ¸ æĭĴ
æĹł è®¡
æĿĢ æķ£
æĶ ¯
æģ ¤
æģ ¼
åħĪ åİ»
åħĪ åĪ°
ä¸ī éĥ¡
åĸ §
åĸ ı
æ±Ŀ æĹ¢
éŃı åĽ½
åıª çķĻ
èĭ¥ æľī
èĭ¥ å¦ĤæŃ¤
çĦ °
åį´ æķĻ
éķ¿ åı¹
éģĤ ä¸į
åıĸ èĥľ
éĽ ı
èĢħ ä¹Ł
ä¿ Ĭ
éª ĩ
éĤ ½
è¯¸ éĥ¡
èĤ Ŀ
éĿ¢ å¦Ĥ
èĩ£ ä¹ĭ
çĻ¾ éĩĮ
çī Į
ä¸ĩ ä½Ļ
å°ı å°Ĩ
å°ı èĪŁ
åį´è¯´ åı¸é©¬æĩ¿
ç½ ļ
è´¼ ä¼Ĺ
æķĳ åĩº
å¹´ å¹¼
ç¾ ķ
éŁ ¶
ç²® éģĵ
è¿½ åħµ
è¿½ æĿ¥
éĻĪ å¼ı
è°ĵ æĽ°
éļı è¡Į
æĽ´ ä¸į
è¯¸èĳĽ æģª
çĸĳ æĥĳ
é² Ĥ
éĩĳ å¸Ľ
åŃĹ åħ¬
çĿ£ éĤ®
æ¶ Į
éŁ© æļ¹
è§Ĥ åħ¶
éĤĵ å¿ł
å¾Ħ å¾Ģ
å¼ĥ åŁİ
çĻ½ é©¬
é¼ĵ åĻ
ç¬¬ ä¸ĢçĻ¾
å¯¹ æĽ°
æ¸¡ æ²³
çĽ® ä»Ĭ
é¡¾ è°ĵ
è£ ´
åĸĿ ä»¤
å¢ Ļ
æĹ§ æĹ¥
ä¼Ĺå®ĺ æĽ°
æ¨ª åĪĢ
æĭ¥ åĩº
å¥ĭ çĦ¶
è½¬ è¿ĩ
å¥¸ è®¡
å¥¸ éĽĦ
è§Ī æ¯ķ
æ£ º
æĸ½ ç¤¼
èĳ¬ ä¹ĭ
åĽĽéĿ¢ åĽ´
æĬļ æħ°
ç½® éħĴ
çĪ± ä¹ĭ
ä¹Į å·¢
æĪĺä¸į ä¸īåĲĪ
åĲ¾ä¸İ æ±Ŀ
åħĭ æĹ¥
äºĮåįģä½Ļ éĩĮ
å²Ĥä¸į éĹ»
ä¸¤ä¸ĭ å¤¹æĶ»
ä¸ºå¤§ éĥ½çĿ£
ç¾ŀ æĥŃ
æĭĪ å¼ĵ
è·µ è¸ı
æŃ£è¨Ģ éĹ´
æī® ä½ľ
éĺļ æ³½
æĶ¾å£° å¤§åĵŃ
èĳŃèĲĮ åħ³
åĭĥ çĦ¶
é¼ĵåĻ ª
İ éĩį
ä» Ĩ
ä¹ĭ æķħ
ä¹ĭ åĲį
ä¹ĭ éĩį
ä¹ĭ å¼Ł
ä¹ĭ åĭĩ
ä¹ĭ éĻħ
ä¸į ä¸İ
åį ĳ
åŃ ļ
å¼ ĳ
äºº æ°ĳ
åĨĽ æĿ¥
å¤§ éĺŁ
ä¸Ģ è¿ŀ
ä¸Ģ çıŃ
å· §
ä¼ º
æĿ¥ äºº
æĸ ¤
æĵį éĹ®
æŃ¤ ä½ķ
ä¸ĭ åħ³
ä¸º å°Ĩ
ä¸º æ±ī
èĢĮ åĲİ
è° Ĵ
éĢ ŀ
ä½ķ æĹ¶
ä½ķ å¾Ģ
ä½ķ çĶ¨
ä½ķ æķ¢
ä½ķ åĨµ
åĩº éĥŃ
åı¯ æĢľ
ä¹Ł ä¸į
ä»¥ éŀŃ
å¥ Ĥ
æĽ¹ ä¸ŀçĽ¸
ä¸Ĭ ä¸ĭ
ä¸Ĭ éĤ½
ä¸İ ä¹ĭ
å¼ł è§Ĵ
å¼ł è®©
å¼ł æ¸©
è¾ İéĩį
åº ĵ
äºĮ åħ¬
åľ¨ åŁİä¸Ń
æĥ ¯
åħ¥ åŁİä¸Ń
å¾Ĺ æŃ¤
æĿĢ æŃ»
ä¸ī åĪĨ
æĦ ¤
å½ĵ éĺ³
åıª å¾ħ
ä¼Ĺ åķĨè®®
æ¬² å¾ħ
çİĭ ç»ı
ç¥ ¢
éģĤ å°Ĩ
éģĤ åĶ¤
çº ¯
çº ¶
éĹ® ç½ª
çĦ¶ åħ¶è¨Ģ
è¡Į åĨĽ
åĮ ħ
ä¹¦ çķ¥æĽ°
ä»İ åĲİ
ä»İ å°ıè·¯
æľª æľī
èĪ Ĩ
éĿ¢ ä¸Ĭ
æķ° åįĥ
éĥ½ æĺ¯
æŁ ı
ç§ ī
æ°´ å¯¨
åĭ ī
éĻį å°Ĩ
çĶ¨ çģ«
åį´è¯´ å§ľç»´
èº ¬
æĥĬ çĸĳ
æīĭ æıĲ
è¯· åŃĶæĺİ
å¾Ĳ å¾Ĳ
æħ ķ
åĲĮ å¿ĥ
åĲĮ è°ĭ
æĦı æ¬²
çĲ Ĭ
éľ į
éĩį çĶ¨
çĽ´ åĪ°
åıĹ åĳ½
å°ļ æľī
ç¨ ³
é¾ ļ
çł´ ä¹ĭ
çĬ Ĵ
èĳ£ è¢Ń
æĿ¨ éĺľ
éĩĳ é¼ĵ
å±¯ æīİ
è¿ĳ åīį
çļĩ çĶ«
åģ ĥ
çĮ® è®¡
åı· ä¸º
åĨ² åĩº
åĨ² æĿĢ
ç¬¬ äºĮ
ç¬¬ ä¸ī
åĨ³ æĪĺ
è°· ä¸Ń
è¯Ĺ æĽ°
è°ģ åı¯
å¹¸ çĶļ
åį¿ çŃī
ä¸ķ æĽ°
ä¹ĭè¨Ģ æĺ¯ä¹Ł
éĢĬ æĽ°
èĭ± åĭĩ
æĬ¤ åį«
æľº ä¼ļ
ç»Ī æĹ¥
è¯Ľ ä¹ĭ
åĪĨåħµ ä¸¤è·¯
ä»Ĺ åīĳ
éģį éĩİ
æ¿ ¬
çİĩ åħµ
ä¸ĵ æĿĥ
å¡ «
çĶ» æĪŁ
åħ¬åŃĻ æ¸Ĭ
éª¨ èĤī
åĩ¤ éĽı
éĢ¢ çºª
èĥľè´Ł å¦Ĥä½ķ
ç«¯ åĿĲ
çĻ¾ä¸ĩ ä¹ĭä¼Ĺ
å°ĺ å¤´
åĨ¯ ä¹ł
è®¤ å¾Ĺ
æ¯ĭ ä¸ĺ
æ·³ äºİ
è Ń
ä¹ĭ æľī
ä¹ĭ å¾Ĵ
æľ µ
ä¸į æĺİ
åį ¸
å¾ ª
äºº å¿ĥ
äºº çī©
åħµ å°ĳ
æķ ķ
å¤§ æ±Ł
å¤§ ä¹ī
å°Ĩ æł¡
ä¼ ¦
åĩ Ģ
æĵį å¤§æĢĴ
æŃ¤ æĿ¥
äºİ å¤ĸ
ä¸Ń éĹ´
è° ¥
å¹ ķ
åĲ¾ å¥ī
åı¯ åħĪ
æĽ¹ è´¼
æĽ¹ æ°ı
ä»Ĭ æĽ¹æĵį
ä»Ĭ éĹ»
éĺ Ļ
æĭ ħ
åħ¶ åĲİ
çİĦå¾· åľ¨
çİĦå¾· éĹ®
çĽ¸ éģĩ
èĩ³ æĻļ
è· Į
åįģ åĪĨ
äºĭ å·²
æĹ¶ åĢ¼
éŃı ç»Ń
åıĪ æģĲ
å·² çŁ¥
æŃ£ è¯´
ä½¿ æĪĳ
å¯¨ åĨħ
éķ¿ é©±
çº ²
çº ¸
éĽ ķ
åĲ´ åħ°
å°ĨåĨĽ åı¯
æĮ ½
çŃī å¤Ħ
ä¹¦ ä¸İ
éĤ ¦
æĿĥ ä¸Ķ
æĢ¥ åĽŀ
æĢ¥ æķĳ
æĢ¥ éļ¾
å§ ĳ
å¾Ģ è§ģ
æľĽ ä¹ĭ
æľĽ é£İ
å¤ª å¹³
æĸ¹ åĽŀ
çĶ¨ ä½ķ
å°ı åįĴ
åĲĦ åĲĦ
è¯· ç½ª
è®¸ ä¹ĭ
æĢĴ æ°Ķ
å·¦ åĨ²
ä¸įåı¯ å½ĵ
æķĻ åĨĽå£«
éģĵ è·¯
ç«ĭ æĸ©
ä¼ı åľ°
åºĶ ä¹ĭ
æķĮ äºº
æĭľ æĽ°
æĭľ äºİ
æĭľ è§ģ
è¿ĩ äºĨ
åı³ çªģ
å¹¶ ä¸į
é«ĺ åŀĴ
åĮĹ éĹ¨
åĮĹ åİŁ
æĿİ ä¹Ĳ
æ¡ Ī
èĢģ è´¼
ä¸»åħ¬ åı¯
å²Ĥ èĥ½
çĥ Ĥ
èİ· æĽ°
è§Ĥ çľĭ
çĻ½ èĻİ
æĢĿ ä¹ĭ
å¸¸ æľī
å¸¸ å±±
æĲ ł
ç¬¬ ä¸Ģ
åĸĬ èµ·
ä¸ĸ åŃĲ
çĽ® è§Ĩ
èģļ æĸĩæŃ¦
æĸ° åŁİ
ä¼Ĳ èľĢ
å¤§åı« ä¸Ģå£°
åĸĿ æĽ°
èĽ® çİĭ
èĶ¡ åĴĮ
è§Ĵ ä¸Ĭ
æ³° å±±
æħĪ æĽ°
äºĮåįģ ä¸ĩ
æ»¡ éĿ¢
è¿Ļ éĩĮ
ä¼Ĺå®ĺ çļĨ
æľīä½ķ éĿ¢çĽ®
è°ĥ éģ£
éķĩ å®Ī
èĦ± èº«
åĪĩ é½¿
èĹ ¤
æĬ« åıĳ
éĶ¦ åĽĬ
ç¥İ æĽ°
æķ°åįģ äºº
åįķ ç¦ı
å±¯åħµ äºİ
å°¸ é¦ĸ
è¾Ĥ æĽ°
å¼ķä¸Ģ ä¸ĩ
æĮ¥ åĪĢ
è®¾å®´ çĽ¸å¾ħ
å¼łæĺŃ æĽ°
è´¾è¯© æĽ°
ç¾½ æīĩ
éĹŃ éĹ¨
åģľ å½ĵ
å¯Ł ä¹ĭ
æ¡ĥ åĽŃ
æ²® æİĪ
ä¸¤é©¬ çĽ¸äº¤
å®¦ å®ĺ
ç¥¢ è¡¡
æ¯ĭä¸ĺ ä¿Ń
å·¦åĨ² åı³çªģ
Ĥ éĺ³
ħ çĲĬ
ä» ¶
ä¹ĭ å¾·
ä¹ĭ æĹ¥
ä¹ĭ ä¹¦
ä¹ĭ è¥¿
ä¹ĭ ç¤¼
ä¹ĭ å¿Ĺ
ä¹ĭ ç¥¸
ä¸į ä»¥
ä¸į æĪĲ
ä¸į ä»ģ
ä¸į æĺĵ
åĨĽ äºº
èĩ §
å¤§ èĥľ
ä¸Ģ åĲį
ä¸Ģ éģĵ
ä¸Ģ æĹ¦
é©¬ åĨĽ
é©¬ éģµ
å°Ĩ æ¬²
æĿ¥ æĬķ
æŃ¤ å¤©
æŃ¤ éĹ´
ç» ¿
ä¸ĭ æĿ¥
äºİ äºº
äºİ å¤©ä¸ĭ
ä¸Ń å¤®
ï¼Ľ âĢľ
ä¸º ä¸»
ä¸º åĲĽ
è° Ĺ
åĲ¾ è§ģ
åĲ¾ æķħ
ä¾ Ľ
åı¯ ä¹ĺ
è´ ª
æĽ¹ èĬ³
åħ¬ è¨Ģ
åħ¬ å®ī
ä¸Ĭ åŁİ
åī ©
éĺ Ĩ
å¼ł èĻİ
æĭ ĺ
ä¹ĥ åĶ¤
èĩª æĺ¯
èĩª åıĸ
åĽŀ ä¹¦
åĽŀ èįĨå·ŀ
åĽŀ èĲ¥
åŃĶæĺİ ä¹ĥ
åľ¨ é©¬ä¸Ĭ
çĽ¸ æķĳ
çĽ¸ æĮģ
æĹł åı¯
æĹł å¿§
æĹł æģĻ
è¯´ ç½¢
æĪĳ åħµ
åŃĲ ä¸¹
åĪ° å½¼
åĪ° ä¹ĭå¤Ħ
æĹ¶ å¹´
å½ĵ ä»¥
éŃı äºº
åĪĺ è¾Ł
å·² äº¡
åıª åı¯
æ¯ «
æĪĺ åĪ°
çİĭ ä¸Ĭ
æŀ ī
éª ł
ä¹¦ ä¸Ń
æľª å¿ħ
è¿Ľ éĢĢ
åĽĽ å¹´
æķ° å·¡
å¿½ åĲ¬å¾Ĺ
ä¸¤ å·Ŀ
æ±Ł åĮĹ
æŁ ĵ
æķħ æĦı
çĶŁ çģµ
èĲ §
å°ı è½¦
åĲĦ æľī
ä½Ļ ä¼Ĺ
è®® æĽ°
åĲ¬ ç½¢
åĽ½ èĢģ
å¿ł æĽ°
å¾ħ åħ¶
å¾Ĳ æ¯į
é¦ ¥
éĿŀ ä¹Ł
éĿŀ å¸¸
éħ Į
å¤ļ çĸĳ
æŃ¦ æĺĮ
åĳ¨ åĽ´
å¼ķåħµ èĢĮåİ»
çĲ ħçĲĬ
æ¡ Ĥéĺ³
æĹ© æĹ©
æİ¥ æĪĺ
çĪ¶ æ¯į
ç¿ Ĭ
ä¼ĳ å¾Ĺ
éĴ ¢
æľ¬ æ¬²
è¶ħ æĽ°
å±¯ ä½ı
åł ĳ
ç¼ ĺ
éĢģ ä¸İ
å¯Ĩ è¯ı
åħ« æľĪ
å°Ħ ä¸Ń
çĻ½ å¸Ŀ
åįĬ éħ£
é¥® é£Ł
åĭ¿ å¾Ĺ
æ·± æ²Ł
åĪ« æĹł
åĪ« é©¾
ä¹Ĳ ç¶Ŀ
å¨ģ é£İ
å¨ģ éľĩ
èĮ ¶
é¡¾ éĽį
èģļ éĽĨ
ä¼Ĳ ä¹ĭ
ä¸´ è¡Į
ç»ĵ ä¸º
æİ¨ è¾ŀ
å¢ ŀ
åĬ³ åĨĽ
åĬ« æİł
çĿ¿ æĽ°
åıĺ èī²
è®¨ ä¹ĭ
ç©º èĻļ
éº ´
åĵį å¤Ħ
èĴĭ å¹²
æ´ŀ ä¸Ń
æ´ŀ ä¸»
ä¸īåįĥ åħµ
èµį ä¹¦
åĪĩ åĭ¿
åħį æŃ»
åįĩ å¸Ĳ
ç¢ §
éŃıä¸» æĽ¹çĿ¿
æĮī åīĳ
æĮī åħµä¸į
æĺ¯å¤ľ äºĮæĽ´
å¦Ļ è®¡
ç¯ ĩ
å¦Ħ åĬ¨
æ¸Ń æ°´
çģ«åħī åĨ²å¤©
çĭ± ä¸Ń
éĥĳ æĸĩ
æĶ¾çģ« çĥ§
æĿľ é¢Ħ
æ¹ ¿
æĭ¨é©¬ ä¾¿èµ°
èįĢå½§ æĽ°
çĦļ é¦Ļ
ç¯¡ éĢĨ
æ²ī åĲŁ
æŃ£è¡Į éĹ´
åĲ´ä¸» åŃĻ
å´Ķ è°ħ
å®ĭ å®ª
é¼ĵè§Ĵ é½Ĳé¸£
å¼ĵå¼© æīĭ
ç¡ ķ
æĬ«æĮĤ ä¸Ĭé©¬
æ·±æ²Ł é«ĺåŀĴ
è ķ
ĭ éķ¿
ä¹ Ī
ä¹ĭ å°Ĩ
ä¹ĭ è´¼
ä¹ĭ å¸Ī
ä¸į åĪ°
ä¸į èµ·
ä¸į ä¹ī
ä¸į è¯Ń
ä¸į ä¸ĢæĹ¥
åį ¦
ä½ ³
è¯ ¦
åħµ åĩº
åħµ æĿĥ
é© »
å¤§ èĪ¹
ä¸Ģ åºĶ
ä¸Ģ æĿ¡
ä¸Ģ åľº
å¸ ľ
æĸ Ľ
ç» ³
ç» Ľ
äºİ å±±
äºİ å¸Ĳä¸ĭ
ä¸º ä¸Ģ
ä¸º åĲį
ä¸º åī¯å°Ĩ
è§ģ åħ³åħ¬
èĢĮ ä¸ĭ
èĢĮ æĹł
èĢĮ å½Ĵ
ä½ķ æĥ§
å½ ¦
å½ ±
åĩº åħµ
åĩº åħ³
åĲ¾ æīĢ
åĲ¾ è§Ĥ
éĥ ¦
è´ «
è´ ŀ
ä»¥ ç»Ŀ
åħ¬ è¦Ĩ
ä¸Ĭ æµģ
ä»Ĭ æĵį
åħ¶ å¦»
çŃ ¹
çİĦå¾· ä¹ĥ
èĩª å¾Ģ
èĩª ä¹±
åĽŀ è®¸éĥ½
åŃĶæĺİ åľ¨
å¼ķ å¤§åĨĽ
åľ¨ åŁİä¸Ĭ
åħ¥ å¯ĩ
çĽ¸ ä¼ļ
æĿĢ å¾Ĺ
ä¸ī å°º
å¤© æķ°
åįģ åĲĪ
åįģ ä¸ĥ
å¿ħ æĹł
å¿ħ å½ĵ
å¿ħ è´¥
æĹ¶ æľī
åĪĺ æ°ı
çĦ ķ
å±± ä¸ĭ
æĬ¥ åĽ½
æ¬² æĸ©
æŃ£ èµ°
çİĭ å¿ħ
ç¥ ļ
æ³ ¥
å¿ĥ çĶļ
èĢħ æĸ©
å®Ī åħ³
è®¡ èĢĮè¡Į
æĮ ¯
çŃī çļĨ
ä¾¿ äºĨ
éĤ °
æĻ ı
èĪ ľ
ç¬ ¼
ä¸ľ åĮĹ
æĢ¥ éĢĢ
åįĹ å¾Ĳ
åĽĽ åŃĲ
æ¸ ´
å¤ĩ è¨Ģ
äºĶ æĽ´
éĹ¨ ä¸ĭ
æķħ çī¹
çķ ¿
æĸĩ è¿ľ
æĸĩ éĴ¦
åĲĦ äºº
å°½ åĬĽ
æīĭ è¶³
ç¦ ¹
åĲķ æĹ·
ä¸Ķ ä¼ĳ
è´¼ å°Ĩ
é¢Ĩ è¯º
æ´ ®
éħ ¬
åĲĮ å®Ĺ
åºĶ è¯º
çģ« æĬĬ
å®¶ å±ŀ
èµ¶ åİ»
ä½ľ ä¸Ģ
ä¼ļ æĽ°
æĿİ èĤĥ
è½¦ èĥĦ
è½¦ éªĳå°ĨåĨĽ
æį Ĳ
æı ¡
èĻ½ ä¸įæīį
çĽ´ æĬµ
æĹĹ å¹¡
å°ļ æľª
å¤į åĽŀ
èĢģ å°ĨåĨĽ
æł Ī
å¥Ķ åħ¥
ä¹ħ å±ħ
çĸĳ åħµ
æĹ¢ æľī
æĿ¨ æĿ¾
æ°ĳ å¿ĥ
ç»Ł å¤§åĨĽ
çķĻ ä¹ĭ
è¿ĳ ä¾į
éŁ© çİĦ
å¾Ħ æĿ¥
åįĬ å¤ľ
é¥® ä¹ĭ
åįģä½Ļ åĲĪ
è½» éªĳ
æ¢ ¯
åĪ« æľī
è®¾ æľĿ
éĻĽä¸ĭ åı¯
é¸ Ł
ç§° è°¢
éĻĨ åı£
æ¡¥ ä¸Ĭ
ç»ĵ ä¹ī
éĺŁ ä¼į
åłĤ ä¸Ĭ
éĢł æ¬¡
ä¿® æĽ°
å®Ĺ äº²
èĩ´ ä¹¦
çĳ¾ æĽ°
éĻ© è¦ģ
éĻ© å³»
æľº å¯Ĩ
åħ· è¯´
æī¶ èµ·
åĲī å¹³
åĤħ ä½¥
å®Ŀ åĪĢ
æ¼ Ķ
åĪĩ ä¸įåı¯
æĸĩæŃ¦ å®ĺåĥļ
æĻ® åĩĢ
éĴŁ ç¹ĩ
èĭ¦ è°ı
å¼łç¿¼ å¾·
ç®¡ è¾Ĥ
æĮĤ åŃĿ
è¯© æĽ°
èĳ¬ äºİ
åħ» çĹħ
ç§¦ æľĹ
åºŀç»Ł æĽ°
çĶ³ å¥ı
çĦī æķ¢
ä¸ľåįĹ é£İ
æłĳ æľ¨
éĵľ éĽĢ
æ¸Ĳ æ¸Ĳ
èĨ Ŀ
åİīå£° æĽ°
æªĦ æĸĩ
èĩªçĽ¸ è·µè¸ı
éĹ¨æĹĹ ä¸ĭ
è¿ĳèĩ£ å¥ıæĽ°
é¢į å·Ŀ
è¾ķ éĹ¨
æ½¼ åħ³
çº¶ å·¾
æľµ æĢĿ
æĮīåħµä¸į åĬ¨
è ĵ
é ³
åı ¦
ä¹ĭ å¤ĸ
ä¹ĭ é¦ĸ
ä¹ĭ æĤ£
ä¸į ä¸Ĭ
ä¸į æĺ¯
ä¸į æĿĢ
ä¸į åıĸ
ä¸į éĻį
èĢ ķ
ä¸Ģ è¨Ģ
ä¸Ģ é¼ĵ
ä¸Ģ æĭ¥
ä¸Ģ è¾Ĩ
ä¼ Ł
æĿ¥ çľĭ
æ± ¤
è® ¶
è® Ń
æľī æīĢ
æī °
æŃ¤ åŃĲ
ä¸º å°ĨåĨĽ
ä¸º ä¸¤
çŁ «
èĢĮ èĩ³
èĢĮ ç«ĭ
éĢ ¸
ä½ķ èĥ½
ä½ķ æĦı
åĲ¾ ä»¤
è´ ¬
ä»¥ è¨Ģ
æĽ¹ æ¤į
åħ¬ åı¯
ä¸Ĭ å²¸
ä»Ĭ æĻļ
ä¸İ æĵį
ä¸İ å°ĨåĨĽ
ä¸İ äºĳéķ¿
å¼ł åħģ
æĭ ±
åħ¶ åĬ¿
æ¬ ł
åŁİ è¾¹
èĭ Ł
èĩª éĢĢ
èĩª å¼ķåĨĽ
äºĮ å°ĨåĨĽ
åĽŀ èĩ³
åĽŀ å®¶
åŃĶæĺİ èĩª
å¼ķ ä¼Ĺ
å¼ķ æķ°åįģéªĳ
åľ¨ å¯¨ä¸Ń
æĹł åıĬ
æĿĢ äºº
æĿĢ éĢĢ
ä¸ī ä¸ª
ä¸ī æĹı
åīį éĺŁ
åħ³ ä¸Ń
è· ¨
äºĭ ä¹ĭ
äºĭ æĢ¥
èį ·
åıĪ éĹ®
åĪĺ ä½¿åĲĽ
åĪĺ ç¦ħ
å·² åĨ³
å±± éĻ©
æ¬² ä»¥
åį´ æĺ¯
æŃ£ è®®
æŃ£ æľĪ
å®ī æľī
å®ī åľ¨
å¿ĥ çĸĳ
é¢ ĺ
åıĸ åĩº
èĢħ ä¸º
å®Ī å°Ĩ
åĲ´ äºº
ä¾¿ å°Ĩ
ä¾¿ åİ»
åĪĨ å¸ĥ
å£« åħĥ
ä»İ æŃ¤
éĤ ª
å» ī
é¡ Ĺ
å² ĳ
èī °
èĤ ¡
è¶ ĭ
ä¸ľ å·Ŀ
åĽĽ è½®
å¿½ æľī
ä¸¤ äºº
å¾Ģ èįĨå·ŀ
æ±Ł åı£
æīĢ å¾Ĺ
æīĢ èİ·
å¹³ åľ°
æķħ äºº
æķħ æĿ¥
çķ Ķ
åĲĦ å¸¦
å°½ å¼ĥ
èº ĩ
åĲķ èĻĶ
åĲ¬ åĢĻ
å·¦ æħĪ
æ´ ®éĺ³
åĲį ä¸º
è¢ģ åĨĽ
ä¼ı åĲİ
æĦı èĭ¥ä½ķ
åĳ¨ é²Ĥ
çģ« éĢŁ
æĸ© äºİé©¬ä¸ĭ
å¼ķåħµ æĿ¥
ä¼ļ äºİ
ä¼ļ ç¨½
ç²® è½¦
å¤ĸ äºº
èĪ¹ ä¸Ń
æļ ®
éĻĪ çıª
çĶļ åĸľ
æĦ¿ éĹ»
æĦ¿ éĻĽä¸ĭ
æĹ© è¢«
æĶ¾ ç®Ń
é¥ ¥
å¤į æĿ¥
çĹ Ĭ
çĭ Ĺ
å¥ī åħĪ
çł´ èľĢ
å¼Ģ å¤Ħ
é¼ »
ç¤¼ çī©
æĿ¨ ä»»
èİ· åħ¨
å±¯ ç²®
å±¯ çĶ°
çľŁ æĽ°
çľŁ ç¥ŀ
èµµäºĳ æĽ°
å½¼ å¿ħ
èĥĮ åıį
äº¤ åī²
æ¶ §
éŃıåħµ å¤§è´¥
å·Ŀ åħµ
åĴ ½
å¸¦ åīĳ
å¯Ĩ è®¡
åħ« å°º
å°Ħ ä¹ĭ
æıĲ å¤ĩ
æ²³ åĨħ
å·® çŁ£
éĤ£ é©¬
æ» ¨
ä¼Ĺå°Ĩ çļĨ
è°¢ æģ©
åĲĳ å¯¼
ä¿Ŀ å®Ī
çĶ² åħµ
åľŁ å±±
æĮĩ æĮ¥
å¨ģ å°ĨåĨĽ
èĶ ½
è£ ¨
å»º åħ´
æĭ¨ åĽŀé©¬
èµı åĬ³
èĶ¡ ä¸Ń
èĶ¡ å¤«äºº
ä¸ĢéĿ¢ å·®äºº
å¢ ¨
çīĽ éĩĳ
ä¸Ģå£° åĸĬèµ·
åĥ Ń
æĳ ©
æī¶ æ±īå®¤
è¡Ģ æµģ
è½¬ åĩº
éĵģ éªĳ
æ£ ĭ
è¾ħ ä½Ĳ
è¸ Į
è¶Ĭ åĲī
æī¬ å·ŀ
å© ļ
æ¦ ĩ
æĺ¨ æĹ¥
æĭ¿ ä½ı
åĲŀ å¹¶
æĪ´ éĻµ
æŃ£è¡Į ä¹ĭéĹ´
å®Į å¤ĩ
ç¨ĭæĺ± æĽ°
éĽ¶ éĻµ
éº¾ ä¸ĭ
ç¿»èº« èĲ½é©¬
æĲŃ ç®Ń
åı¯æĵĴ çŁ£
å¿¿ æĢĴ
åį¢ æ¤į
æĺ¼ å¤ľ
åŃ£ çİī
æĹ¬ æĹ¥
è¯¸è·¯ åĨĽé©¬
å®Ľ åŁİ
ç®ķ è°·
ä¸ Ľ
äº ¥
å¤ ¸
ä¹ĭ å¤§
ä¹ĭ ä¹ī
ä¸į æķ°åĲĪ
å® µ
åħµ å¤ļ
å¿ »
æķ ·
å¤§ åĲį
ä¸Ģ å·ŀ
ä¸Ģ æīĭ
ä¸Ģ å¤ľ
ä¸Ģ ç°ĩ
ä¸Ģ èĪ¬
é©¬ åīį
é©¬ åĪ°
æĵį æĢ¥
æĵį å¤§æĥĬ
æĵį è§Ĩä¹ĭ
äºİ å¸Ĳä¸Ń
ä¸Ń åĽ½
æĬ ¹
æĬ Ľ
ä¸º çİĭ
ä¸º åĽ½
ä¸º å¸Ŀ
è§ģ ä¸Ģ
è° Į
ä½ķ æĹ¥
åĩº æĿ¥
åı¯ å°Ĩ
å¦ Ĩ
åĲİ æľī
ä»¥ å¤ĩ
å¥ ¢
ä»Ĭ åĲİ
ä»Ĭ å°ĨåĨĽ
ä»Ĭ ä¸»åħ¬
åİ» è§ģ
åİ» åħ¶ç¼ļ
çİĦå¾· è§ģ
æĹ¥ ä¹ħ
è¾ ĩ
åĽŀ åħµ
åĽŀ æĪĲéĥ½
å¼ķ è´¥åħµ
åľ¨ å·¦
åľ¨ åı³
åľ¨ èįĨå·ŀ
åľ¨ ä½ķå¤Ħ
æĹł çĶ¨
æĹł ç²®
æĹł ç½ª
åħĪ åĽŀ
ä¸ī åŃĲ
ä¸ī åįģä¸ĩ
ä¸» å°Ĩ
æĪĳ ä¸İ
åħ³ åīį
åħ³ å°ĨåĨĽ
åŃĲ çĳľ
åįģ ä¸ī
åįģ äºĶä¸ĩ
æĦ ķ
æ±Ŀ ä¸º
æ±Ŀ èĭ¥
åıĪ å°Ĩ
åıĪ æ¬²
åĪĺ æĻ¯åįĩ
å·² å°½
å·² å¤±
åıª çŃī
åıª æİ¨
å±± å·Ŀ
å±± èĥĮåĲİ
æ¬² æĸ©ä¹ĭ
æ¯ ħ
æŃ£ å½ĵ
æŃ£ è¿İ
æŃ£ è¦ģ
å¯¨ å¤ĸ
çİĭ åŁº
ç¥ Ī
åŃĻ å³»
å®ī åı¯
éģĤ åĲĮ
é¢ Ŀ
åıĸ è¥¿å·Ŀ
çĦ¶ åĪĻ
ä¿ ĥ
ä¿ Ĺ
éª Ħ
çŃī éĹ²
ä¾¿ è¯·
çģ Į
ä¹¦ æĽ°
éĤ ¹
è¯¸ äºº
çĳ ŀ
æ² ĵ
ä¾¯ åĪĺ
é£ŀ èº«
æĢ¥ æŃ¢ä¹ĭæĽ°
è¿Ľ åıĸ
åįĹ æĸ¹
åįĹ å²¸
åį³ å½ĵ
å¿½ åıĪ
å¾Ģ æĬķ
æīĢ è°ĵ
æīĢ æĵĴ
æīĢ åĪ°ä¹ĭå¤Ħ
äºĶ åįģéĩĮ
éĢĢ åħ¥
æľĽ è¥¿
æµ ĳ
éĻį åħµ
å°ı èĪ¹
å£° åĬ¿
å°½ è¢«
äº¦ ä¸į
åĲķ ç¿Ķ
ä½ı é©¬
é¢Ĩ äºĨ
åı¸é©¬ æľĽ
æķĻ ä»ĸ
éħ ĭéķ¿
ä¼ı è·¯
æŃ¦ å°Ĩ
æŁĲ å½ĵ
éĺµ æ³ķ
å®¶ å°ı
åı£ ä¸Ń
å¹¶ è¿Ľ
å¹¶ ä¸įè§ģ
éŁ ¬
çĲ ´
ç²® å°½
åĤ ²
èµµ èĮĥ
è°ĭ åıį
åĶ ¾
çĮ ª
æĶ¾ åĽŀ
åıĹ ç¦ħ
åĨį ä½ľ
æĹĹ å¸ľ
è¶³ åı¯
å¸Ĳ ä¸Ĭ
éĥ¡ å¤ªå®Ī
èĢģ å¹¼
å¥ī åŃĿ
æĽ´ æľī
å°± ä»¤
ç®Ń çĸ®
çĸĳ èĻĳ
å²Ĥ èĤ¯
çĥ Ľ
æĿ¨ ä¿®
æĿ¨ å½ª
é² ľ
åĽ¾ ä¹Ł
åĽ¾ æľ¬
åŃĹ åħĥ
èī¾ æĽ°
è¿ĳ æĹ¥
éŁ© æµ©
éŁ© èĥ¤
å¼ĥ ä¹ĭ
åĴ ¸
èī¯ è°ĭ
èī¯ åĽ¾
åħ« è·¯
åħ« ä¹Ŀ
çĮ® ä¸İ
å¥½ è¨Ģ
ç¬¬ ä¸ĥ
ç¬¬ åħŃ
æļĹ åĸľ
çŃĶ ç¤¼
è´¤ å£«
å¹¸ åĭ¿
ä¾į éĥİ
æ¸¡ åı£
æ¯į äº²
è£ ģ
æĸ° è´¥
ä¸´ ç»Ī
èĽ® æĸ¹
å¼ĵ ç®Ń
éĢĥ åĳ½
ç¥ĸ å®Ĺ
æŀľ æľī
è¥Ħ å¹³
åĢĴ äºİåľ°
ä¾Ŀ è¨Ģ
åĸĦ è¨Ģ
çīĽ é©¬
æĥĩ æĽ°
èµ´ è®¸éĥ½
æĮģ èĬĤ
æľ± æ¡ĵ
æ®¿ ä¸ĭ
å¾¡ é©¾
èĢĮåĩº æĽ°
æľªçŁ¥ èĥľè´Łå¦Ĥä½ķ
æĥŁ æľī
æŀģ åħ¶
çĻ¾ä½Ļ éĩĮ
ä¸ģ åİŁ
è¯Ľ æĪ®
é¹ °
èµį è¯ı
æ¼ ³
åº¶ æĽ°
éļıåĲİ èµ¶æĿ¥
æĬµ å½ĵ
éª¤ èµ·
å¥ĩ åħµ
æĻº åĭĩ
æ£ ¹
æ£ Ĵ
å¹¿ éĻµ
æ¬º åĲĽ
è¾± éªĤ
æĻĭ ä¸»
ä¸° æĽ°
ä¼¼ æŃ¤
æ±īå®¤ å®Ĺäº²
èĥ¡ éģµ
æ¸Ń åįĹ
çŃĳ èµ·
å·¡ åĵ¨
åĺ± æĽ°
ä¹ĭåŃĲ ä¹Ł
ä½Ĺ æĽ°
æŃ»èĢħ æĹłæķ°
äº¬ å¸Ī
è¯ī è¯´
æĪªä½ı åİ»è·¯
éĹª åĩº
çĬ¬ é©¬
è´¢ çī©
å¤ºè·¯ èĢĮèµ°
æĢı æĢı
ç«Ń åĬĽ
æ¬¾ å¾ħ
éĿĴé¾Ļ åĪĢ
å¼ķä¸Ģåįĥ åĨĽ
åĲĪåħµ ä¸Ģå¤Ħ
åĸ§ å¤©
å¸¸å±± èµµåŃĲé¾Ļ
éĺĨ ä¸Ń
è¸Į èºĩ
è ļ
é Ĭ
é ı
ĸ åŁİ
ä¹ĭ æ°´
ä¹ĭ æīĭ
ä¹ĭ åĬ³
ä¹ĭ å¦»
ä¹ĭ åħĨ
å° ĸ
ä¸į åİ»
ä¸į å¹³
ä¸į éĢļ
ä¸į åłª
å¾ ½
åĨĽ å¤§è´¥
å¤§ åĪĢ
å¤§ éĽ¨
å¤§ æĸ§
è¿ °
è¿ ¸
ä¸Ģ åĽŀ
ä¸Ģ æĪĺ
ä¸Ģ åı£
ä¸Ģ æĬĬ
è§ ħ
é©¬ ä¹ı
èµ ĭ
ä¼ ª
æĿ¥ æĿĢ
æĿ¥ èĢħ
å¸ Ĩ
æľī åıĺ
æĸ Ł
åİ ¥
ç» ĳ
äºİ åĨħ
ä¸Ń è·¯
ä¸Ń ç®Ń
ä¸º å¿µ
èĢĮ äº¡
è° £
åĬ Ń
éĢ Ĵ
åĩº åħ¥
åĩº å¾ģ
åĩº çıŃ
åĲ¾ åħµ
åı¯ æĸ½
ä»¥ éĽª
æĽ¹ è±¹
åħ¬ è·¯
åħ¬ æĹ¢
ä¸Ĭ æ®¿
åī Ĭ
è¡ ¥
è¡ Ļ
çļ ĸåŁİ
ä»Ĭ æ¬²
ä»Ĭ å¹¸
ä¸İ æĪĺ
ä¸İ åŃĻä¹¾
å¼ł çº
å¼ł æĿ¨
åİ» å¤Ħ
åħ¶ æ¯į
æĹ¥ å¤ľ
åŁİ éĥŃ
è¾ ĥ
èĩª çŁ¥
èĩª åı¤
åº µ
äºĮ æĹ¥
åĽŀ æĿ¥
åĽŀ æĹ¶
åĽŀ éĺµ
åŃĶæĺİ æķĻ
å¼ķ è·¯
åľ¨ åľ°
æĺ¯ åĲ¾
æĺ¯ ä»¥
æ° ħ
æĹł å¤ĩ
æĹł ä¹ī
æİ ³
æİ İ
æĪĳ å½ĵ
åīį å¾Ģ
çŁ¥ æĪĳ
å¤© æ°Ķ
åįģ åĽĽ
åĸ ĥ
å¿ħ å¾Ĺ
å¿ħ çĶŁ
æ±Ŀ ä¸į
å½ĵ ä¸ĸ
åĪĺ è´¤
èĭ¥ ä»¥
èĭ¥ èĥ½
å¯¨ éĹ¨
èĻ Ĳ
çİĭ çĵĺ
çľ ·
éģĤ æĽ°
éĹ® æĹ¶
é¢ Ī
é¢ Ĺ
éļ Ļ
çĦ¶ ä¹ĭ
éĽ Į
èĢħ ä¹İ
åĿ ¦
åĿ Ł
åĲ´ å°Ĩ
åĮ Ĩ
è®¡ äºİ
ä¾¿ åĶ¤
çģ ¶
åĪĨ å¤´
å¸ĥ éĺµ
æĿĥ å¤§åĸľ
æĢ¥ åĶ¤
åįĹ èĽ®
åĽĽ éĹ¨
èĩ£ æĦ¿
çĻ¾ äºº
åį³ å·®
åį³ åı¬
æŁ ±
æŁ Ķ
å¹³ æĹ¥
éĢĢ èµ°
æľĽ åĮĹ
å¤ª çĶļ
ç§ ĺ
æĸĩ é¸¯
åį´è¯´ åŃĻæĿĥ
ç¦ ³
å¤ľ è§Ĥ
äº¦ æľī
æ· ¹
åĲ¬ ä¹ĭ
è¢« æĵĴ
ä¸Ķ å¾ħ
æ´ ¾
åĲį å°Ĩ
å¾Ĳ è´¨
ä¸ŀçĽ¸ ä½ķæķħ
èº« æŃ»
åĳ¨ åĸĦ
è¿ĩ äºº
åı³ å°ĨåĨĽ
é«ĺ å¹²
ä¼ļ åĸĥ
è¿İ æĪĺ
åĮĹ æĸ¹
éĻĪ åºĶ
éĻĪ éľĩ
çĶļ åĸĦ
è½¦ åīį
éĩį åľ°
éĩį åĬł
èĲ¥ åĨħ
åıĳ ä¹¦
å¤± ä¿¡
æĹĹ ä¸Ĭ
å¥ı éĹ»
å¥ī åĳ½
æĽ´ å¾ħ
æĽ´ è¡£
ä¹± åĨĽ
ä¹± è¨Ģ
åıį éĹ´
æĹ¢ å·²
å®« å®¤
æĿ¨ æĢĢ
æĿ¨ æĺĤ
é½Ĳ å£°
å½¼ èĭ¥
ç© ´
ç© Ĩ
è§Ĥ æľĽ
åı« éĹ¨
å¾Ħ åĩº
èįī åłĤ
æĬĬ çĽı
è¢ģç»į å¤Ħ
å¨ ĺ
éĥĥ æĽ°
éĤ£ äºº
åįģä½Ļ ä¸ĩ
å®ŀ ä¸º
çĹħ åį±
å®¹ æŁĲ
æļĹ æļĹ
è°ģ æĥ³
æ¸¡ æ°´
åħ¨ æĹł
æģ¨ æĹł
éĻĨ ç»Ń
çº¦ ä¼ļ
åºľ ä¸ĭ
å»º ä¸ļ
å¹² æĽ°
å¹² æŁ´
éĢĥ çªľ
æŀľ è§ģ
è¯Ī ç§°
çļĦ äºº
ä¹Ŀ éĥ¡
çĻ» é«ĺ
åįİ ä½Ĺ
åĺ ¶
å¦» å°ı
ä¼¤ æĦŁ
æĬ¤ åĨĽ
çģµ æŁ©
åĪĿ æĽ´
æľ± è¤Ĵ
ä¸įåĩº æĪĺ
å¤§è´¥ èĢĮèµ°
æĳ Ħ
åĽ° äºİ
åĽ° ä¹ı
éĻ¤ ä¹ĭ
æİ© éĿ¢
ä¸īåįĥ åĨĽ
çĤ¹ èµ·
çİī å¸¦
ä¼¯ è¨Ģ
éª¤ èĩ³
èŀį æĽ°
ä»° éĿ¢
åĤ¬ åĨĽ
åĤ¬ åħµ
éļĲ éļĲ
åıĤ è°ĭ
èĬĿ æĽ°
ä¼łä»¤ æĽ°
çĶ³ æĬ¥
çĶ³ èĢ½
é¢Ħ å¤ĩ
è´£ ä¹ĭæĽ°
å«Ĥ å«Ĥ
éĺ¿ ä¼ļåĸĥ
æĭ¦ è·¯
åħĪå¸Ŀ æīĺåŃ¤
ä¸įåı¯è½» è¿Ľ
æķ°çĻ¾ éªĳ
è¨Ģæľª å·²
çķĮ åı£
æª Ģ
æ°¸ å®ī
å·´ è¥¿
åĬ¡ è¦ģ
ç¼ĵ ç¼ĵ
åĮ» æ²»
èĩªå¼ķ å¤§åĨĽ
æ±Ĥæķĳ äºİ
å®īå¾Ĺ ä¸į
è£ħ è½½
éĻĦ èĢ³
éĥĿ èĲĮ
åºĬ ä¸Ĭ
åºĨ è´º
ä¹Ķ åĽ½èĢģ
æĭ¦ä½ı åİ»è·¯
ä½İ å¤´
æ¶ª åŁİ
ç°ĩ æĭ¥
æĲ¬ è¿Ĳ
æŃ£åĲĪ åĲ¾æĦı
èĢ¿ çºª
æģĭ æĪĺ
æ°´éķľ æĽ°
ä¹±ç®Ńå°Ħ ä¸ĭ
é¸£éĩĳ æĶ¶åĨĽ
å¼ķæķ° éªĳ
èįĢæĶ¸ æĽ°
æ®· åĭ¤
é¹¤ æ°ħ
æŁ³ åŁİ
éĥ¿ åĿŀ
å¾¡æŀĹ åĨĽ
éħĴèĩ³ åįĬéħ£
æĭĪå¼ĵ æĲŃç®Ń
åĭī å¼º
çĶ¨çģ« æĶ»
çļĩçĶ« åµ©
åį¸ çĶ²
èĹ¤ çĶ²
èĩ§ éľ¸
çĻ½å¸Ŀ åŁİ
æłĪ éģĵ
æĦķ çĦ¶
æ²ĵ ä¸Ń
éĬ ®
éı ĸ
å¼łçº ®
£ è¶³
ª åĬĽ
º åŃĲ
äº ı
åı Ł
ä» ķ
ä¹ĭ ä¸º
ä¹ĭ çĲĨ
ä¹ĭ è¯Ń
ä¹ĭ èģĮ
åĨ ¢
æľ Ķ
ä¸į æĿ¥
ä¸į ä¾¿
ä¸į æĦı
ä¸į ä¹Ĳ
ä¸į é¡¾
ä¸į ç¥¥
ä¸į æĤ¦
åį ¤
æĹ ģ
æĹ ħ
åŃ ºåŃĲ
äºº äºº
äºº è¨Ģ
äºº åĽ°
åħµ åİ»
åħµ ä¹¦
å¤§ æĹĹ
å¤§ è´¤
å¤§ å®´
è¿ «
ä¸Ģ åıª
ä¸Ģ è®¡
ä¸Ģ ç®Ń
é©¬ æŃ¥
é©¬ æŃ¥åĨĽ
å°Ĩ ä¹¦
å°Ĩ é¦ĸçº§
èµ ¢
æĪ ļ
ä¼ ´
çİ ł
æĿ¥ è¿½
åĩ ¿
æĸ ¯
æĵį æ¬²
æŃ¤ é©¬
æŃ¤ ä¹¦
ä¸ĭ äºĨ
ä¸º èįĨå·ŀ
ä¸º éĩį
ä¸º å¤§å°Ĩ
ä¸º éķĩ
ä¸º èªĵ
ä¸º è¾ħ
ä¸º å¤§å°ĨåĨĽ
è§ģ åŃĻæĿĥ
èĢĮ åĪ«
åĬ ªåĬĽ
ä½ķ åĩºæŃ¤è¨Ģ
å½ ¹
åĩº åħ¶ä¸į
åĲ¾ è¨Ģ
åĲ¾ åį´
åĲ¾ äºĮäºº
åĲ¾ åıĹ
åı¯ ä»¤
åĲİ äºĭ
ä»¥ æĭĴ
æĺİ çĻ½
ä¸Ĭ èĪ¹
ä¸Ĭ è½¦
ä»Ĭ æľī
ä»Ĭ èĭ¥ä¸į
ä¸İ åħ³
éĺ İ
å¼ł éĤ°
åħ¶ çĪ¶
åħ¶ ç½ª
ä¹ĥ å¼ķ
ä¹ĥ åĳ½
ä¹ĥ åı¬
èĭ ĩ
èĩª åĩº
èĩª å®Ī
èĩª ç§°
åŃĶæĺİ å¤§åĸľ
å¼ķ çĿĢ
å¼ķ ä¼Ĺå°Ĩ
å¼ķ äºĶçĻ¾åĨĽ
å¼ķ äºĶåįĥåħµ
åľ¨ å®¶
åħ¥ åºľ
æĹł è¨Ģ
æĹł éģĵ
æĿĢ å°Ĩ
æĿĢ æĪĳ
åħĪ å°Ĩ
åħĪ ä»¤
åħĪ å¾Ģ
æĪĳ åıª
åīį æĹ¥
åħ³ ä¸ĭ
è· £è¶³
åŃĲ åŃĻ
åŃĲ ç¿¼
çŁ¥ ä¹Ł
å¤© æĹ¶
åįģ åħŃ
å¿ħ æĺ¯
å¿ħ æŃ»
å¿ħ æĸ©
å·² å¾Ĺ
åıª è¯´
åıª çľĭ
ä¼Ĺ è¯¸ä¾¯
æĪĺ é©¬
å¯¨ æĿ¥
å¯¨ åĲİ
éķ¿ åı¹æĽ°
ç« ¿
çİĭ å®¤
çİĭ æ¿¬
ç¥ ·
åŃĻ çļĵ
éĹ® ä½ķäºº
æŃ» ä¹ĭåĲİ
è¡Į åĪ°
å®Ī å¯¨
ä¿ ¯
åĮ ¿
åĮ ł
å°ĨåĨĽ èĭ¥
æŀ ¯
ä¾¿ æľī
ä¾¿ å½ĵ
åĪĨ ä¸º
åĪĨ ä¸¤è·¯
è¯¸ åĲĽ
èĤ ĭ
è¶ ģ
æ² Ī
æ² Ķ
è¥ Ł
ä¸ľ å°ĨåĨĽ
æĢ¥ ä¸Ĭé©¬
æ¸ İ
æ¸ ł
åį³ éģ£
å¿½ èµ·
å¿½ åĲ¬
æ±Ł ä¸Ń
æ±Ł å±±
æīĢ è§ģ
äºĶ éĩĮ
éĢĢ èľĢåħµ
éĢĢ å·¦åı³
æĸ¹ å§ĭ
çĶŁ å¾Ĺ
æĸĩ éķ¿
æĸĩ çİĭ
çĶ¨ è®¡
å°ı å¿ĥ
åĲĦ æī§
åį´è¯´ åĳ¨çĳľ
æķ¢ ä¸į
èº ģ
é»Ħ æĹĹ
æĥĬ æħĮ
æīĭ ä¸Ń
äº¦ æĺ¯
ä¸Ķ èµ°
é¢Ĩ ä¸ĢåĨĽ
åı¸é©¬ çĤİ
å·¦ æīĭ
éĶ ¤
æ´ Ĵ
å¾Ĳ æ°ı
å®ĺ åĨĽ
èº« æĬ«
ä¼ı å®Į
ç»į åĨĽ
æķĮ æ¥¼ä¸Ĭ
å®ļ çŁ£
å¹´ æĺ¥
èµ¶ èĩ³
ä½ľ åħĪéĶĭ
åĽł è§ģ
çĲ ª
ç²® è¶³
ç²® ç±³
äº² å¾ģ
æĿİ èĴĻ
éĩį ä»»
åĳĬ çŁ¥
æı ª
èĻ½ æĺ¯
èĬ Ĵ
ä¸įèĥ½ çĽ¸
ä¸įèĥ½ è¡Į
ä¹ĺ åħ¶
ä¹ĺ éĹ´
åĬŁ å¾·
åĿĲ èĢĮ
è¯¸èĳĽ ä¸ŀçĽ¸
å²Ĥ ä¸įçŁ¥
çĥ Ń
å®« éĹ¨
æĿ¨ ç§ĭ
éĩĳ çĸ®
æĵĴ ä½ı
å§ľ åıĻ
äº¤ åİļ
éŁ© ç¦ı
å¾Ħ åħ¥
è¿ľ è¿ľ
èī¯ æĽ°
è¾ŀ åĪ«
æµģ è¡Ģ
ç¬¬ ä¹Ŀ
çĹħ éĩį
çŃĶ è¯Ŀ
ä¸¾ äºĭ
è¡£ å¸¦
ä¸ĥ åĨĽ
è´¤ ä¾Ħ
å¤º å¾Ĺ
å±ħ ä¸Ń
å¯¹ æķĮ
æĻĥ æĽ°
çº¦ å®ļ
åĪº æĸľ
åħŃ éĥ¡
çĴĭ æĽ°
å¿§ èĻĳ
å¹² æĪĪ
ç»Ĩ è¨Ģ
èµĲ ä¹ĭ
éĢĥ éļ¾
å¯» è·¯
ç»ĵ å¥½
çĽĸ æĽ°
åħī æŃ¦
ä¾Ŀ æ¬¡
ä¸Ģå£° é¼ĵåĵį
åĲİäººæľīè¯Ĺ åı¹
è¿Ļ ä¸ª
åĽ° åľ¨åŀĵå¿ĥ
äºī å¥Ī
åĲī åĩ¶
åĤħ å½¤
æľīä½ķ é«ĺè§ģ
è´¾ éĢµ
æ¼ ł
å¸Ń æķ£
äºİé©¬ ä¸Ĭ
æµ· åĨħ
çĨ Ĭ
äºĶçĻ¾ äºº
ç´ł æľī
å¥ĩ æīį
ç¢ į
æĪĳçŃī çļĨ
æĶ¸ æĽ°
ä»° è§Ĥ
éģ¿ ä¹ĭ
åĨĻ ä¹¦
æī¬ éŀŃ
ä¼łä»¤ æķĻ
éĺ´ äºĳ
åį« çĵĺ
æĻĭ åħ¬
æĬļ æİĮ
è¡¡ æĽ°
å¤§åĵŃ æĽ°
åľ£ äºº
æĭĨ å°ģ
æĶ¹ åħĥ
ä½ķä»¥ çŁ¥ä¹ĭ
çĮĽ å°Ĩ
åıĻ ç¤¼æ¯ķ
æĦļ æĦı
æ¸© ä¾¯
åĽº å®Ī
çİº ç»¶
çĽĳ åĨĽ
æĭ¿ ä¸ĭ
ä¸īä¸ĩ åĨĽ
é¢ĩ æľī
èĨ º
åĲĬ ä¸§
ç¾Ĭ ç¥ľ
åģı å°ĨåĨĽ
è·Ł éļı
éŀį é©¬
ä¸ºä¸Ĭ çŃĸ
é¼ĵè§Ĵ åĸ§å¤©
éĹª è¿ĩ
åĽĽæķ£ å¥Ķèµ°
åįļ æľĽ
å»ºå®ī äºĮåįģ
é¼ł çªľ
åī¿ éĻ¤
çĶ· å¥³
å¹½ å·ŀ
è¹ Ħ
ç»° æŀª
æ¦» åīį
ä¸¾çģ« ä¸ºåı·
ä¸Ģç®Ńå°Ħ ä¸Ń
é¼ĵå£° å¤§éľĩ
çŁ¢çŁ³ å¦ĤéĽ¨
é¾ļ éĥ½
æĭ± æīĭ
åĽĽè½® è½¦
æİİ è§Ĵ
åĩºåħ¶ä¸į æĦı
¤ æŃ£
¨ èī
¸ é©¬
è ¹ĩ
é ī
ĩ äºŃ
ï¼Į âĢĿ
åı ī
ä¹ĭ è§ģ
ä¹ĭ åĪĨ
ä¹ĭ éĿ¢
ä¹ĭ åįĹ
ä¹ĭ æľĽ
ä¹ĭ å¤´
ä¹ĭ äº¤
æĿ Ĳ
åĨ Į
ä¸į éĢĢ
ä¸į å¤į
æĹ Ħ
åĨĽ å°Ĩ
è¯ £
è¯ µ
åħµ éĢĢ
å¿ ĸ
é© ´
é© ¸é©¬
å¤§ èĩ³
å¤§ ä¸ļ
ä¸Ģ æĸ¹
ä¸Ģ å®¶
ä¸Ģ æĪŁ
å· į
æĿ¥ æŃ¤
æĿ¥ è¯´
æĿ¥ èµ¶
æĿ¥ æİ¥åºĶ
æĵį åį³
æĵį éĹ®æĽ°
æŃ¤ çļĨ
ç» ľ
éģ ı
ä¸ĭ çĭ±
äºİ æĵį
äºİ åĲİ
äºİ æĪĳ
ï¼Ł âĢĻ
ä¸º å¤©ä¸ĭ
ä¸º åĽ½å®¶
è§ģ åħ¶
è§ģ éŃıåħµ
ä½ķ äºĭ
ä½ķ è°ĵ
ä½ķ æľŁ
å½ ķ
éĥ ¤æŃ£
ä¾ ĭ
åı¯ æĢ¥
è´ ¯
ä»¥ æķĳ
ä»¥ ç¤º
æĽ¹ åµ©
æĽ¹ å½°
åħ¬ ä½ķ
ä¸Ĭ åħ³
åī ĸ
ä»Ĭ å½ĵ
ä¸İ åħ³åħ¬
ä¸İ ä»ĸ
ä¸İ åĲķå¸ĥ
ä¸İ åĪĺå¤ĩ
ä¸İ ä¼Ĺå°Ĩ
åİ» åĬ«
åħ¶ ä¸Ń
åħ¶ è¯´
åħ¶ åľ°
æĹ¥ è¡Į
ä»¤ åħµ
ä»¤ åħ¶
ä¹ĥ æĽ°
ä¹ĥ åŃĶæĺİ
ä¹ĥ å¯Ĩ
èĩª åĪ°
äºĮ å¿ĥ
äºĮ è¢ģ
åĽŀ çŃĶ
åŃĶæĺİ äº¦
åŃĶæĺİ åı¹æĽ°
å¦Ĥ åħ¶
åľ¨ æĹ¥
åľ¨ å½¼
åľ¨ å¸Ĳä¸Ń
æĺ¯ æĪĳ
å¾Ĺ å¿Ĺ
è¢ ĭ
æĹł æķĮ
æĹł è¯Ń
æĿĢ è´¥
æĶ Ģ
æģ į
æİ ¾
åħĪ æķĻ
åħĪ æĸ©
åħĪ ä½¿äºº
ä¸ī åħ¬
ä¸ī å¯¨
ä¸ī å¤Ħ
ä¸ī åĽ½
ä¸ī å¯¸
æĪĳ èĭ¥
åīį è¡Į
åŃĲ å¸ĥ
åĪ° å¤Ħ
å¤© æĻļ
å¤© è±¡
åįģ äºº
åįģ åħ«
åĸ ī
å¿ħ èĥľ
æ±Ŀ åĭ¿
æ±Ŀ å®īæķ¢
å½ĵ ä»Ĭ
åıĪ æĺ¯
åıĪ éĹ»
åıĪ éĹ®æĽ°
åĪĺ çĦī
åıª æķĻ
åıª åĽł
å±± åīį
å±± éĺ³
å±± é¡¶
æĬ¥ æĽ°
æĬ¥ æĿ¥
äºĳ æ¢¯
æ¬² ä»¤
æ¬² åıĸ
æ¬² æĬķ
åį´ å°Ĩ
åį´ æĿ¥
åį´ ä»¤
æŃ£ åĢ¼
æĪĺ å¿ĥ
æĪĺ ä¸Ķèµ°
ä½¿ èĩ³
çİĭ åŃĲæľį
å®ī èº«
çº Ĥ
å®Ī éĹ¨
åĮ £
æŀ ¶
çŃī ä¸ĢçıŃ
ä¾¿ éĹ®
ä¾¿ åĳ½
åĪĨ åĨĽ
æľª æĽ¾
èī ¨èī
èĤ ©
è¶ ±
ç¬ ĥ
æĢ¥ æ¬²
æĢ¥ æĢ¥
æĢ¥ åı¬
æĢ¥ åĪĩ
åĽĽ éĥ¡
æķ° æ¬¡
ä¸¤ å¤´
æīĢ çĶŁ
æīĢ å®³
æīĢ ä½©
äºĶ ä¸Ī
éĢĢ å®Ī
æµ Ĭ
æķħ äºĭ
æ°´ åħ³
æ°´ æĪĺ
æĩ Ī
åĲĦ å®Ī
åĲĦ å¼ķåħµ
åĲĦ èĲ¥
åĲĦ å¼ķä¸ĢåĨĽ
åį´è¯´ å¼łé£ŀ
åį´è¯´ éĤĵèī¾
å°½ å¿ł
èº ²
ä½Ļ çļĨ
é»Ħ åħ¬è¦Ĩ
æĥĬ è®¶
äº¦ è¢«
æ· «
åĲķ åĩ¯
åĲ¬ ä¿¡
åĽ½ è´¼
ä¸Ķ éĢĢ
ä¸Ķ å®ľ
ä¸Ķ æĪĺä¸Ķèµ°
é¢Ĩ å¤§åĨĽ
è®¸ éĿĸ
éĶ ¡
å®ĺ åĲı
çľĭ æĪĳ
åĲĮ ä¹¡
åĲĮ çĶŁæŃ»
æķĳ åħµ
æŁĲ æľīä¸Ģè®¡
æķĮ åĨĽ
æĭľ æľį
å®ļ ä¹Ł
çģ« æĿ¥
è¿ĩ ä¹Ł
æĸ© äºİå¸Ĥ
æĶ» åıĸ
åĪĢ èĲ½
å¹¶ çļĨ
å¹¶ å·ŀ
é«ĺ å£°
é«ĺ æ²Ľ
å»¶ æĽ°
åĮĹ å²¸
å¤ĸ åĲĪ
è°ĭ å®³
åĶ ¯
çĶļ çĪ±ä¹ĭ
èįĨå·ŀ ä¹ĭåħµ
å½Ĵ äºİ
å½Ĵ é¡º
çĮ ĩäºŃ
æ¡ ¶
æģĲ å¤±
æĹ© åĪ°
æĶ¾ åĩº
æĶ¾ äºĨ
é¥ ¿
åıĹ ä¹ĭ
å¤± æĥĬ
è¿ŀ å£°
è¿ŀ å¿Ļ
å°ļ åľ¨
è¶³ çŁ£
éĴ ī
çł´ äºĨ
æł Ĺ
ä¹ī åħµ
å¥Ķ åĪ°
å¼Ģ åŁİéĹ¨
è¦ģ è·¯
åŃŁ èµ·
å²Ĥ å¾Ĺ
æĿ¨ éĻµ
æĶ¶ å·Ŀ
ä¸Ģäºº åĩºæĽ°
å±¯ åĨĽ
çª Ŀ
çľŁ å¿ĥ
æ¶ ¿
ç¼ ¨
åģ ¥
å·Ŀ ä¸Ń
å·Ŀ åı£
è¿ľ è¿ĳ
è¿ľ å¾ģ
å¸¦ æĿ¥
å§ľç»´ æĽ°
åı¹ æģ¯
ä¼ł æĹ¨
å¨ ¶
æīĵ è¯Ŀ
æİ¢ ä¹ĭ
åĭ¿ çĸĳ
åħ± é¥®
ç¬¬ åĽĽ
è®¾ è®¡
è®¾ ç¥Ń
çĶ² å£«
è°ģ çŁ¥
å¾ģ è¿Ľ
å¾ģ è¥¿å°ĨåĨĽ
èĴĻ æĽ°
ä¾į å©¢
éľĩ å¤©
ä¸ĢåĨĽ åıĸ
èĲ½ äºİ
èģļ ä¼Ĺå°Ĩ
æĽ¾ ä¸İ
éģĩ å®³
åĩ» é¼ĵ
æĸ° äº¡
å¿§ éĹ·
æĸĻ æķĮ
ç²¾ ç¥ŀ
ç²¾ å£®
èµı èµĲ
å¯» è§ħ
èĶ¡ éĤķ
æİ¨ è½¦
ä¸¥ æ°ı
è¢Ń äºĨ
çĻ» æĽ°
ä¾Ŀ å±±
åĬł å®³
åĬł éŀŃ
åįİ å®¹
æĭĴ ä½ı
æĮº èº«
èİ« æķ¢
åĸĬå£° éľĩåľ°
æĢĢ çĸĳ
åĥ §
åĥ ı
æĬĺ åħµ
é²ģèĤĥ æĽ°
éº »
åĭĴ åĽŀé©¬
æīĺ çĹħ
ä¸Ī åħ«
åĪĨä»ĺ å¦ĤæŃ¤å¦ĤæŃ¤
æŀĹ æľ¨
ä¸§ èĥĨ
è°ĥ çĶ¨
çĤ¹ å¤´
æ³£ æĭľ
åĪĨåħµ ä¸īè·¯
åĽŀæĬ¥ æĽ°
åı¤ äºº
è®º ä¹ĭ
éĺ² ä¹ĭ
ä¸Ķè¯´ æĽ¹æĵį
åĪĹ ä¾¯
ç± »
æĮºæŀª çºµé©¬
æĮºæŀª æĿ¥è¿İ
åŃĻä¹¾ æĽ°
è¯¯ äºĨ
å³ ª
è§Ī è¡¨
ç¢ Į
ä¹¡ ä¾¯
æŃĩ æģ¯
ç®¡ äº¥
åĤ¬ çĿ£
ä¹ĺåĬ¿ æİ©æĿĢ
å·®äºº å¾Ģ
è¸ ª
è¸ ŀ
éļĲ èĢħ
æĺı ç»Ŀ
æ¬º æĪĳ
åıĤ æĭľ
å¦Ļ ç®Ĺ
éĺ» å½ĵ
åĦĴ æĽ°
çĶ³ ä»ª
æĭĨ å¼Ģ
æĴŀ åĩº
æĴŀ çĿĢ
æĺ¨ å¤ľ
æīİ ä½ı
ç¾¤èĩ£ æĽ°
éĩı æŃ¤
æĬ± å¤´
åº§ ä¸Ĭ
åŀĤ æ³ª
é©° ä¹¦
ä¸ĢåĪĢ çłį
æŃĮ æĽ°
æ¯Ľ çİł
éĦ Ĥ
éĦ Ļ
å±Ī èº«
çĥ¦ æģ¼
æģ° æīį
æ®µ çıª
ä¼Ĭ å°¹
èĻ½çĦ¶ å¦ĤæŃ¤
åı¯æĵĴ ä¹Ł
æ§ ½
åįģæķ° éªĳ
å¤§å¼Ģ åŁİéĹ¨
æ°´éĻĨ å¹¶è¿Ľ
èĴ¯ è¶Ĭ
æĢł æħ¢
èº«éķ¿ åħ«å°º
èĬ¦ èĭĩ
èĮħ åºĲ
çĦ¦ è§¦
æĶ¾èµ· çģ«æĿ¥
éĽħ ä¸¹
æħ¨ çĦ¶
éªģ å°Ĩ
æµģæĺŁ é©¬
æĭĤ è¢ĸ
æĹłè®¡ åı¯æĸ½
æ·³äºİ çĲ¼
èŃ ¦
éªł éªĳå°ĨåĨĽ
èĢħä¸º çīĽ
èī° éļ¾
å¿» çĦ¶
éĽĮ éĽĦ
éıĸ åħµ
åį¤ åŁİ
äººåĽ° é©¬ä¹ı
æİİè§Ĵ ä¹ĭåĬ¿
éī ´
èī¨èī Ł
« èĬ¦
Ġ è¯¸èĳĽäº®
Ħ éģĵ
ĸ æĵ
ï¼ Ī
ï¼ ī
å¤ ·
ä» ĭ
ä¹ĭ ä»¥
ä¹ĭ æ°Ķ
ä¹ĭ ä»»
ä¹ĭ æģ¨
ä¹ĭ æľº
å° §
æĿ ł
ä¸į åĽŀ
ä¸į çĿ
ä¸į æĥ§
ä¸į æľŁ
ä½ ŀ
åĨĽ ç²®
è¯ Ħ
åħµ å·²
åħµ ä¸´
æķ ŀ
å¤§ çĸĳ
å¤§ æĿĢä¸Ģéĺµ
è¿ Ī
ä¸Ģ é©¬
ä¸Ģ æŃ»
ä¸Ģ èº«
ä¸Ģ åŃĹ
ä¸Ģ ä¸¾
ä¸Ģ åĮ¹
ä¸Ģ æĭĽ
å°Ĩ æĺŁ
å°Ĩ äº¡
æĪ İ
ä¼ ¸
ä¼ ŀ
æĿ¥ æĦı
å¸ »
å¸ ½
å¸ ĺ
æľī åĳ½
æľī ä¹¦
æľī è¯¯
çĽ Ī
çĽ Ĵ
æĵį å¯¨
æŃ¤ çŃī
æŃ¤ æľºä¼ļ
ä¸ĭ æĪĺ
ä¸ĭ è¯ı
ä¸ĭ æ±ŁåįĹ
ä¸ĭ æ¥¼
äºİ ä¸ŀçĽ¸
ä¸Ń å±±
æĬ ĸæĵ
ä¸º åĨĽå¸Ī
çĶ Ħ
è§ģ èľĢåħµ
èĢĮ æľī
ä½ķ å¾Ĺ
ä½ķ çŃĸ
åĩº æŃ¤
åĩº éĻį
åĩº æ¦ľ
åĲ¾ åħĪ
åĲ¾ çŁ¥
åĲ¾ å¿ĥ
åĲ¾ è®¡
å¦ Ĵ
åĲİ éĺŁ
åĲİ å¿ħä¸º
ä»¥ éħĴ
ä»¥ å®ŀ
æĽ¹ é«¦
åħ¬ æĺİ
è¡ Ķ
ä»Ĭ è§ģ
ä»Ĭ æĹ¢
éĺ ī
å¼ł äºĮäºº
å¼ł èĭ±
å¼ł æ¢ģ
å¼ł èĳĹ
åİ» çŁ£
åħ¶ å®¶
çİĦå¾· ä¸º
çİĦå¾· å¤§æĥĬ
ä¹ĥ èģļ
è¾ ¨
èĩª èµ°
åŃĶæĺİ è§ģ
å¦Ĥ é£ŀ
åľ¨ ç¥ģå±±
åľ¨ æĹ¦å¤ķ
æĥ ¹
æĺ¯ ä¸ª
åħ¥ åĳĬ
åħ¥ æĪĲéĥ½
çĽ¸ æĬķ
å¾Ĺ ä¹¦
æĹł å¿ĥ
æĹł èĥ½
æĹł åĲį
æĹł ä¸Ģäºº
æĿĢ åĲ¾
æģ £
ä¸ī å°Ĩ
ä¸ī éĿ¢
ä¸ī é¡¾
æĪĳ æľī
æĪĳ åİ»
èĩ³ äºİ
èĩ³ çŁ£
åĪ° äºĨ
åįģ æľĪ
çļĨ åĩº
çļĨ æĹł
çļĨ éĢĢ
çļĨ æŃ»äºİ
æ±Ŀ å½ĵ
æ±Ŀ çĪ¶
å½ĵ æľī
å½ĵ ä½ı
éŃı èĲ¥
åıĪ åĪ°
åıĪ èµ·
åıĪ éģ£
å·² å°Ĩ
å·² èĩ³
åıª æľĽ
åıª åĲ¬
åıª è¦ģ
æĬ¥ æķĪ
æĬ¥ æį·
æ¬² ä½¿
æ¬² å®³
æŃ£ åķĨè®®
éķ¿ æŀª
çİĭ çĶ«
éģĤ å°ģ
éģĤ ä¸Ĭé©¬
çº ¿
éĹ® å®ī
æŃ» æĹł
éĽ ģ
åĿ ı
å®Ī æĬ¤
åĲ´ åĨĽ
åĲ´ éĥ¡
è®¡ å°±
æŀ ķ
éª Į
ä¾¿ éĢĢ
åĪĨ ä½ľ
åĪĨ ä¸īè·¯
ä¹¦ çĶŁ
å£« é©¬
ä»İ èĥĮåĲİ
å» Ĭ
æľª è§ģ
æľª å®¡
å² ©
èľ ľ
å¸ĥ ä¹ĥ
èĳ «èĬ¦
èľĢ æ±ī
æ² Ĳ
ä¸ľ è¥¿
èµ° äºĨ
åĽĽ æľĪ
åĽĽ åįģä½Ļ
æķ° åįģä¸ĩ
æ¸ ļ
åį³ çļĩå¸Ŀ
åį³ ä¿®ä¹¦
ä¸¤ å°Ĩ
ä¸¤ çķª
äºĶ äºº
æľĽ åįĹ
ä¸ĩ äºº
ä¸ĩ å¤«
åľ° éĿ¢
åľ° éģĵ
å¤ª çĻ½
åĢ ¦
æĸ¹ å¾Ĺ
æ°´ è·¯
æ°´ åĬ¿
çĶ¨ å¥½è¨Ģ
å°ı äºº
åĲĦ å¯¨
çĪ ª
å°½ è¡Į
ä½Ļ äºº
é»Ħ æ²³
è´¥ äºİ
äº¦ ä¸įèĥ½
çĸ ¼
åĲ¬ æ¯ķ
ç½ ķ
ä¸įåı¯ èĥľ
æ´ Ĺ
å¾ħ åĲ¾
å®ĺ åĳĺ
éģĵ åı£
ç«ĭ ä¹ĭ
åĲĮ è¡Į
ä¼ı é¾Ļ
åºĶ å¤©
æķĳ æı´
åĳ¨ åħ¬
æŁĲ ä¹ĥ
çŃĸ é©¬
æķĮ æīĭ
è¿ĩ æ¡¥
å¹´ çŁ£
æĸ© å°Ĩ
éĺµ ä¸Ĭ
ç¾ ¡
å®¶ äºº
èİ ½
å¸Ī çºĤ
é«ĺ éĺľ
åĽł éĹ®
åĮĹ åĨĽ
åĮĹ åľ°
å¤ĸ åºĶ
åĲĽ åŃĲ
èĪ¹ çŃı
è°ĭ èĩ£
èĥľ ä¹ĭ
æĿİ ä¸°
è½¦ ä¸Ń
èįĨå·ŀ æĿ¥
è°ĵ è¯¸å°ĨæĽ°
æĦ¿ ä»İ
æĶ¾ æ±Ŀ
éļı åĨĽ
ä»ĸ æĹ¥
çĽ´ åĨ²
åıĹ åħ¶
ä¸įèĥ½ çĶ¨
åĨį è¨Ģ
åĨį å¾Ģ
è¿ŀ å¹´
ç¿ ģ
åĿĲ ä¸ĭé©¬
çĭ Ĳ
çĭ Ħéģĵ
çł´ æĽ¹æĵį
æł ĸ
å¥Ķ èĩ³
å¥Ķ éĢĥ
å°ģ ä¸º
å¼Ģ è·¯
æ® Ĭ
è§£ ä¹ĭ
å²Ĥ æķ¢
æĹ¢ æŃ»
æľĿ æĶ¿
ä¸Ģäºº åºĶå£°
ä¸Ģäºº ä¸Ģéªĳ
åŃĹ æĸĩ
åŃĹ ä»²
ç¼ ī
éĢģ èĩ³
çĤ Ń
å¼ĥ é©¬
éĵ º
æľĪ æĺİ
åĵŃ æĽ°
å°Ħ æŃ»
çĮ® ä¸Ĭ
é²ģ åŃĲæķ¬
å°ĳ æŃĩ
æĬĬ ä½ı
éĤ£ å°Ĩ
åĳ¨çĳľ æĽ°
å®ľ éĢŁ
æ·± çŁ¥
æ·± ä¿¡
èĻİ å°Ĩ
åĲĳ èĢħ
æļĹ æĢĿ
åħģ è¯º
è®¾ å¸Ń
ä¸¾ åĵĢ
ä¸ĸ æīĢ
ä¸ĥ æľĪ
ä¸ĥ æĺŁ
èĻļ å¼ł
è°ģ äºº
å¾ģ ä¼Ĳ
å±ħ äºİ
å¹¸ ä¹Ł
è¾¾ æĽ°
å¯¹ çŃĶ
ä¾į ç«ĭ
ä¾į å¦¾
éĢŁ è¡Į
å²± æĽ°
çº¦ æľī
æľķ æĦı
åĪº æŃ»
å¼łéĥĥ æĽ°
ä¸įå¾Ĺ ä¸į
ä¸´ éĺµ
ç»Ĩ è¯´
èµĲ æķĻ
éĢĥ çĶŁ
å¤ªå®Ī çİĭ
èµı ä¸īåĨĽ
è¯Ī ä¹Ł
èĶ¡ æ°ı
çĶĺ å¤«äºº
ä½ķä¸į æĹ©éĻį
ä¹Ŀ åĽŀ
çĻ» åŁİ
ä¾Ŀ æĹ§
æĹ§ èĩ£
ä»¤äºº åĵ¨æİ¢
çĲĨ ä¼ļ
æĥħ æĦ¿
èµ´ ä¼ļ
èµ´ å®´
èµ´ æ´Ľéĺ³
æĭĽ åĨĽ
åĩºåŁİ å¤ĸ
ä¹ĭäºº ä¹Ł
å®Ĺ åħļ
å®Ĺ åºĻ
éľ¸ ä¸ļ
åħ¥åŁİ åİ»
æĴ ĳ
æľ± å¼Ĥ
æľ± çģµ
åĸĬå£° å¤§èµ·
ä¸įè§ģ äºĨ
æ±ľ æĽ°
ä¹¾ æĽ°
æľº è°ĭ
åį§ çĹħ
æĪª æĸŃ
ç³ľ å¤«äºº
ç¥Ń ç¥Ģ
èĴĭ èĪĴ
æįī ä½ı
è°ĥ æĭ¨
çĤ¹ åĨĽ
çłį æŃ»
èĮĥ æĽ°
ä¼¯ ç¬¦
éª¤ éĽ¨
æį® å®Ī
æ¡ĵ èĮĥ
åħĦå¼Ł äºĮäºº
èªĵ åĲĮçĶŁæŃ»
åĪĹ äºİ
çĳģ æĽ°
æĮºæŀª åĩºé©¬
æĮºæŀª è·ĥé©¬
åŃĿ çĽ´
åĳĺ å°Ĩ
æĻº è°ĭ
çº¢ å¿ĥ
ç¢ ĳ
åºŁ ç«ĭ
æ¢ģ ç»ª
åĨĻ è¡¨
åħ¬åŃĻ åº·
ä¸īè·¯ åħµ
æļĤ æŃĩ
æİĮ æı¡
åĤį å²¸
æľ¬éĥ¨ åħµ
ç»Ĩä½ľ æİ¢çŁ¥
æĭĨ ä¹¦
ä¸įè¶³ ä¸º
èĥ¡ çıŃ
ç´§ å®Ī
æŁ´ èįī
å¾ĢæĿ¥ åĨ²çªģ
è°¡ æĽ°
äºĶåįģ åĲĪ
æĹ©æľī äººæĬ¥çŁ¥
åĨįä¸ī åĬĿ
ãĢĭ ï¼Į
å·´ ä¸ĺ
æĭįé©¬ èĪŀåĪĢ
æĦĪ åĬł
é£ŀæĬ¥ æĽ¹æĵį
è¯» ä¹¦
è¯± æķĮ
èĻŀ ç¿»
è¿ģ éĥ½
éĢĤ æĿ¥
åĽ½å¤ª æĽ°
ä½ķè¶³ ä¸º
ä½ķè¶³ éģĵ
æĺĤ çĦ¶
çģ¯ çģ«
åĢ¾ å¿ĥ
æģ° å¥½
äºĨä¸Ģ æĥĬ
å¼ĺ åĨľ
æĥ¶ æģĲ
ä¸ºåīįéĥ¨ åħĪéĶĭ
æ¶ª åħ³
æģ¢ å¤į
é¼ł è¾Ī
é¦Ĩé©¿ ä¸Ń
ä¼Ĺè°ĭå£« åķĨè®®
æĮĳ æĪĺ
åĹŁ åı¹
ä¹ĭéģĵ ä¹Ł
ä»¥èĩ´ å¦ĤæŃ¤
å±±åĥ» å°ıè·¯
çĸ² åĽ°
çĺ ´
æĹ± è·¯
å£ķ è¾¹
é¼İ è¶³
æ¬¢ åĸľ
çľĭçľĭ èµ¶ä¸Ĭ
åĶ¤åħ¥ éĹ®ä¹ĭ
åĨĽä»¤ çĬ¶
åĢĺæľī çĸı
æķ´é¡¿ åĨĽé©¬
åĩĽ åĩĽ
æŃ»ä¸į è¾ŀ
åĴ¬ çīĻ
ç«¥åŃĲ æĽ°
çĭĤé£İ å¤§ä½ľ
ç£ ¨
æĩ¦ å¼±
æīĭèµ· åĪĢèĲ½
æºĥ æķ£
åĭĥçĦ¶ å¤§æĢĴ
ä¼º åĢĻ
ä»¥éŀŃ æĮĩ
å°ĺå¤´ å¤§èµ·
éķ¿é©± å¤§è¿Ľ
ç¢§ çľ¼
æŃ£èµ° ä¹ĭéĹ´
éĵľéĽĢ åı°
æ¬ł èº«
æŃ£è®® éĹ´
åĴ½ åĸī
åĲĳå¯¼ å®ĺ
çĬ¬é©¬ ä¹ĭåĬ³
åĩºçıŃ å¥ıæĽ°
æĹĹä¸Ĭ å¤§ä¹¦
æĽ´å¾ħ ä½ķæĹ¶
æªĢ æºª
æĭĨå°ģ è§Ĩä¹ĭ
æĬ±å¤´ é¼łçªľ
éĦĤ çĦķ
æĬĸæĵ ŀ
ç į
ç ¨Ģ
İ å²
åı ł
ä» ¬
ä¹ĭ åĨĽ
ä¹ĭ æĢ¥
ä¹ĭ åĽ´
ä¹ĭ åį±
ä¹ĭ ä¸ļ
æľ ½
æľ ĭ
ä¸į è¨Ģ
ä¸į è¯´
ä¸į åĲĮ
ä¸į åºĶ
ä¸į èµ¶
ä¸į çĸĳ
ä¸į å¼ĥ
ä¸į åĨ³
ä¸į ä¸īåĲĪ
åį µ
å® Ļ
æĹ º
æŃ ¹
åĪ ®
äºº èĭ¥
äºº çŃī
è¯ ¬
è¯ ²
è¯ ģ
åħµ äºİ
åħµ å±¯
åħµ ç²¾
åħµ å¾®
åħµ äºĶä¸ĩ
æķ ¦
èĩ Ń
å¤§ ä»»
å¤§ éĥ½çĿ£
å¤§ æģ©
å¤§ ç¥¸
å¤§ å¦Ļ
å¤§ éĨī
ä¸Ģ å¹´
ä¸Ģ è¾¹
ä¸Ģ è·ĥ
å°Ĩ åıĬ
èµ Ĥ
å· «
åĩ ı
æ± ¡
æľī è¨Ģ
æľī ä½Ļ
æĵį å¿ħ
æĵį åĳ½
æĵį å¤§æĢĴæĽ°
æŃ¤ å¥³
åİ Ħ
ç» ¦
éģ ½
ä¸ĭ ä¹¦
ä¸ĭ è½¦
äºİ ä¸ľ
åľ ĥ
ä¸º åĲĪ
ä¸º å·¦åı³
ä¸º éĥ½çĿ£
ä¸º åıĭ
è§ģ å¼łé£ŀ
èĢĮ äºĭ
èĢĮ è¿ĩ
èĢĮ å¤į
èĢĮ éĹ®æĽ°
è° Ĳ
åĬ ²
ä½ķ æĿ¥
ä½ķ è®¡
ä½ķ å¤ªåĲİ
åĩº ä¸Ģ
åĲ¾ å°Ĩ
åĲ¾ ä¸º
åĲ¾ æŃ£æ¬²
åı¯ çĶ¨
åı¯ å°±
è´ ®
è´ ²
è´ ¿
å¯ Ĳ
åĲİ æĿ¥
åĲİ å¿ħ
ä»¥ æŃ£
ä»¥ éħĴé£Ł
ä»¥ çĽ®è§Ĩ
æĺİ è¯ı
å¥ ł
ä¸Ĭ æĿ¥
ä¸Ĭ æĸ¹
ä»Ĭ ä½ķ
ä»Ĭ å¾Ĺ
ä»Ĭ è¢«
ä»Ĭ ä¸ŀçĽ¸
ä»Ĭ èĻ½
ä»Ĭ èľĢåħµ
ä»Ĭ è§Ĥ
ä»Ĭ åĪĺå¤ĩ
ä¸İ è´¼
ä¸İ æŁĲ
ä¸İ å¼Ł
å¼ł åį«
å¼ł éĤĪ
åħ¶ åĲį
çİĦå¾· ä»İä¹ĭ
çİĦå¾· éĹ»è¨Ģ
ä»¤ å·¦åı³
ä¹ĥ å¤§
ä¹ĥ ä¸Ģ
ä¹ĥ ä»¥
è¾ ĳ
èĩª ç«ĭ
èĩª å¼ķä¸ĢåĨĽ
èĩª æģĥ
äºĮ èĢħ
äºĮ çĻ¾
åĽŀ æ±Łä¸ľ
åĽŀ æľ¬å¯¨
åŃĶæĺİ å¤§ç¬ĳæĽ°
éĿ ł
åľ¨ å±±ä¸Ĭ
æĥ ļ
åħ¥ åĲ´
åħ¥ éĺµ
çĽ¸ åĽ½
çĽ¸ åĪ«
çĽ¸ ä¼¼
çĽ¸ éĢ¼
æĹł ä¸»
æĿĢ æ±Ŀ
æĿĢ æ°Ķ
æģ ¸
åħĪ ä½¿
åħĪ åıĳ
ä¸ī æ¬¡
ä¸ī éĺŁ
ä¸» å¼ł
ä¸» æ¯į
è¯´ å®¢
æĪĳ èĩª
æĪĳ äºĮäºº
åīį æľī
åīį è¨Ģ
åīį åĪ°
åħ³ ç´¢
èĩ³ æŃ»
é£ Ĳ
åĪ° å¯¨
çŁ¥ æŃ¤äºĭ
å¤© æĦı
åįģ åĢį
çļĨ è¨Ģ
å¿ħ çŁ£
å¿ħ èĥ½
å¿ħ è¢«
å¿ħ ä¸įèĤ¯
æ±Ŀ è¨Ģ
æ±Ŀ ä¸»
æ±Ŀ æķ¢
å½ĵ å¤´
éŃı åħ¬
åıĪ ä½ķ
åıĪ å¾Ĺ
åıĪ å·®
åĪĺ åŃ£çİī
åıª åī©
èĭ¥ æŃ¤
èĭ¥ çŁ¥
å±± å¤´
ä¼Ĺ å¿ĥ
æ¬² æĿĢä¹ĭ
åį´ æīį
æŃ£ å¥½
æŃ£ æħĮ
ä½¿ å¾Ģ
çİĭ åĪĺ
çİĭ æĸ¹
åŃĻ å°ĨåĨĽ
åŃĻ ä»²
åŃĻ éŁ¶
éģĤ è¯·
éģĤ æĭľ
éģĤ ä¸įåĲ¬
å¿ĥ å¦Ĥ
å¿ĥ æĥĬ
éĹ® åŃĶæĺİ
åıĸ è·¯
åĲ´ æĬ¼
ä¿ º
å°ĨåĨĽ é©¬
éª Ĩ
éª ı
ä¾¿ æĿ¥
åĳ½ å°Ĩ
ä¹¦ æ¯ķ
ä»İ åħ¶è®¡
éĤ ¢
éĤ µ
æľª èĥ½
æľª ä¿¡
æĻ ¨
æĻ ´
å¸ĥ æĪĲéĺµåĬ¿
çĿ Ľ
åįĹ å°ĨåĨĽ
éĹ» æĬ¥
èĥ½ è¨Ģ
èĥ½ çĶ¨åħµ
åĽĽ èµ·
æ¸ Ķ
åį³ ä»¥
åį³ ä¾¿
åį³ åĶ¤
å¿½ åĵ¨é©¬
ä¸¤ è¡Į
ä¸¤ æŀĿ
æ±Ł å²¸
äºĶ æĹ¥
äºĶ åĪĨ
äºĶ å¹´
äºĶ æľĪ
äºĶ åįģä½Ļ
éĢĢ ä¹ĭ
éĢĢ åĲİ
éĢĢ æķĮ
æľĽ ä¹ŀ
æµ ´
ä¸ĩ éĩĮ
æ±ī çĽ¸
æ±ī å¸Ŀ
æ±ī å¯¿
æķħ ä»¤
å¤ª å¸¸
ç² ²
ç§ £
æĸ¹ çŁ¥
éĻį æĽ¹
éĻį éŃı
å°ı æł¡
æĩ Ĭ
çĪ ¬
åį´è¯´ åħĪä¸»
è¥¿ åŁİ
è¥¿ å±±
ä½Ļ åħļ
é»Ħ éĩĳ
é»Ħ å¥İ
æĥĬ æĥ§
æĥĬ è§ī
æĥĬ éªĩ
ç¦ ½
è´¥ åĽŀ
è´¥ æ®ĭ
äº¦ å¼ķåħµ
åĲ¬ äºĨ
æĩ¿ å¥ıæĽ°
è¢« å®³
ç½ Ķ
ä½ı äºĨ
å¸Ŀ åĲİ
å¸Ŀ ä¸İ
å¸Ŀ çİĭ
æĢĴ çĽ®
å·¦ åĨĽ
éĶ £
ä¸įåı¯ å¤±
åĲį å£«
è¢ģ åħ¬è·¯
èº« ç©¿
åĲĮ èĩ³
åĲĮ çĽŁ
ä¼ı åľ¨
ä¼ı éģĵ
ä¼ı çļĩåĲİ
æķĳ èµ·
æŃ¦ åŁİ
åĳ¨ åħ¬çĳ¾
åı³ åĨĽ
å¹´ èĢģ
å®¶ ä¸Ń
å®¶ çľ·
ä½ľ è´º
åĪĢ æīĭ
å¹¶ é©¬
çĲ ³
å¤´ æĪ´
éľ İ
è°ĭ æĿĢ
æļ ĩ
åĬ¿ åŃ¤
åĬ¿ ç©·
éĻĪ ç¾¤
æĿİ èĥľ
æĿİ æŃĨ
çĮ ĸ
è°ĵ ä¹ĭæĽ°
éĩį å¾ħ
åĳĬ ä¹ĭ
åĳĬ åħį
æĹ© å·²
æĶ¾ åħ¥
æİ¥ è¿ŀ
ä»ĸ æĦı
åķ ĸ
åıĬ èĩ³
çĪ¶ åħĦ
åĨį æĿ¥
è¿ŀ äºº
è¿ŀ çİ¯
æĤ ł
ä¹ĺ ä¹ĭ
å°ļ å®¹
åĬŁ åĲį
å¥ı çŁ¥
éĴ ĵ
è¯¸èĳĽ ç»ª
è¯¸èĳĽ çŀ»
åıį è¦Ĩ
æľ¬ æĹł
æľ¬ éĺµ
åįĵ éĹ®
æ® Ĩ
å¦Ĥä½ķ å¾Ĺ
å¦Ĥä½ķ èĤ¯
æĿ¨ æŁı
æĶ¶ äºĨ
æĶ¶ èģļ
åĽ¾ çŁ£
éĩĳ åŁİ
éĩĳ éĵ¶
çķĻ äºİ
æĵĴ äºĨ
åŃĹ å¾·
éĥŃ å¸¸
æ¶ £
çļĩ åŃĲ
åı¸é©¬æĩ¿ æĽ°
è¿ľ æ¶ī
å¼ĥ çĶ²
åĴ İ
åĵŃ å£°
æ¨ µ
èħ Ĳ
èħ ĳ
å¯Ĩ æĬ¥
å¯Ĩ è°ĵ
å¯Ĩ å®¤
è¾ŀ åĩº
æ°Ķ åĬĽ
åħ« ä¸ĩ
åħ« éĺµ
çĮ® äºİ
æıĲ èµ·
æıĲ åīĳ
çĻ½ è¢į
æ²³ ä¸ľ
æ²³ è¾¹
å¥½ æĦı
åĿļ æĽ°
åĿļ æī§
è¯ı åĳ½
æµģ è¨Ģ
æİ¢ å¾Ĺ
å®ŀ æ¬²
æ¢ ħ
ç¬¬ äºĮåįģ
ç¬¬ äºĶåįģ
ç¬¬ ä¸īåįģ
æ±Ĥ ä¹ĭ
åĪ« æĿ¥
ä¹Ĳ åĺī
èĻİ è¸ŀ
åĬ© ä¹ĭ
ä¸¾ åĪĢ
ä¸¾ åĬ¨
ä¸ĸ éĹ´
åŃ¤ æĦı
å¤º åħ¶
ä¿Ŀ é©¾
ç¥ŀ ä»Ļ
å¾ģ è¥¿
åľŁ åŁİ
åı¬ ä¹ĭ
ä¾į èĩ£
æ¸¡ è¿ĩ
èĮ «
é¸ ©
é¸ ¿
åħŃ å¹´
å¥³ å©¿
åı± ä¹ĭæĽ°
å¼ĵ å¼¦
æŃ¤äºº ä¹ĥ
èµĲ çĪµ
ç»ĵ èĲ¥
çĶĺ éľ²
ä½ķä¸į æĹ©
çıŃ éĥ¨
ä¹Ŀ æ³ī
çĻ» åĿĽ
ä¾Ŀ ä»¤
ä¾Ŀ è®¡èĢĮè¡Į
ä½ķæķħ å¦ĤæŃ¤
ä¿± åĲĦ
çīĽ è¾ħ
åŃŁèİ· æĽ°
æī§ è¿·
æĭĽ éĻį
äºĮåįģ åıª
æĮº çŁĽ
åĬĿ æĽ°
æĮģ ä¹¦
çģµ å¸Ŀ
çģŃ åħ¶
ç»Ī æĺ¯
åĭĴ ä½ıé©¬
å« Į
äºī åħĪ
éĻ¤ å®³
è°ĥ åħµ
åĨĢ åŁİ
å¥ĭ åĭĩ
å´ İå²
æĦŁ åħ¶
äºĶåįĥ åĨĽ
åı¤ åŁİ
éļıåĲİ æİ©æĿĢ
éĵģ è½¦
éĵģ ç¬¼
éĵģ æ¡¶
ä¼¯ å¥¢
éģĹ åĳ½
éģĹ ä¹¦
åħĦå¼Ł ä¸īäºº
åĪĹ æŁ³åŁİ
å¥¸ ç»Ĩ
çĹĽ æģ¨
åįģéĩĮ ä¸ĭå¯¨
çº³ éĻį
çĵĴ æĽ°
èĸ ª
æĮī åĨĽæ³ķ
èĬĤ éĴº
æ£ Ģ
åıĮ æīĭ
å¿½è§ģ ä¸Ģäºº
çİĩ ä¼Ĺ
éŁ¦ æĻĥ
ä¸¤è·¯ åĨĽ
ä¸ĵ åĢĻ
æŃĨ æĽ°
æļĤ éĢĢ
è´µ äºº
ç®Ńå°Ħ ä¹ĭ
çĶ± æĺ¯
å¼ķä¸Ģ æŀĿ
ä½¿èĢħ æĽ°
çĸ¾ çĹħ
è¥¿åĩī åħµ
éĹ®åħ¶ å§ĵåĲį
ä¸įåı¯è½» åĬ¨
ä¹Į æŀĹ
ä¹Į æĪĪ
æ¢¦ ä¸Ń
ç´§ æĢ¥
ç´§ è¦ģ
çĭ± åįĴ
çĭ± åĲı
ç¾¤èĩ£ çļĨ
å®½ å¿ĥ
ç«¯ åĿĲäºİ
åĳĪä¸Ĭ ä¹¦ä¿¡
åĽŃ ä¸Ń
çİ¯ çľ¼
ç¾½ ç¿¼
éĻĪå®« æĽ°
æ³ķæŃ£ æĽ°
è¿ģ å»¶
å¤§å°ı å®ĺåĥļ
è®¡è®® æĽ°
ç§¯ èįī
å®¾ ä¸»
çľģ æĤŁ
æŃ¤è®¡ å¤§å¦Ļ
ä¾µ çĬ¯
ä¸īåįģä½Ļ äºº
ä¸īåįģä½Ļ éĩĮ
è½® åĪĢ
éº¦ åŁİ
æģ° å¾ħ
åħĸå·ŀ åĪºåı²
æİ£ åīĳ
å±ı å±±
é¹¿ è§Ĵ
åħ³äºĳéķ¿ ä¹Ł
åĢį éģĵ
è¯Īè´¥ èĢĮèµ°
æī¯ ä½ı
æ§ Ĭ
å¼ķæľ¬éĥ¨ åĨĽ
æľªæķ¢ è½»
éĥŃåĺī æĽ°
éļĨ ä¸Ń
é»Ħæĺı æĹ¶åĪĨ
åįĪ æĹ¶
æ¼« å±±
ä»¥æīĭ æĮĩ
èĦĳ æ¶Ĥ
åĲĥ äºĨä¸ĢæĥĬ
å¤©èī² å·²
ç¥Ŀ èŀį
çĬ¹è±« æľªåĨ³
å½Ń ç¾ķ
åĶĩ é½¿
èĤĿ èĦĳæ¶Ĥ
å¼ĥåŁİ èĢĮèµ°
ç¬¬ä¸ĢçĻ¾ ä¸Ģ
åĽĽéĿ¢åĽ´ å®ļ
å¼ĳ åĲĽ
åĩºéĥŃ è¿İæİ¥
å½ĵéĺ³ éķ¿åĿĤ
æŃ£è¯´ éĹ´
èĽ®çİĭ åŃŁèİ·
æ¡ĥåĽŃ ç»ĵä¹ī
ç»ĵä¸º åħĦå¼Ł
åĲ´ä¸»åŃĻ äº®
ä½ķæĥ§ åĵī
æ´® æ°´
æľµæĢĿ å¤§çİĭ
ä¸ºä¸¤ æ®µ
ä»¥è¨Ģ æĮĳ
éŁ¬ çķ¥
å¾¡é©¾ äº²å¾ģ
ä¹±åĨĽ ä¹ĭä¸Ń
åĪºæĸľ éĩĮ
æģį æĥļ
äºĶä¸Ī åİŁ
æŃ£åķĨè®® éĹ´
åį³çļĩå¸Ŀ ä½į
ä½ķè¶³éģĵ åĵī
ä¸Ĭæĸ¹ è°·
åĲ´æĬ¼ çĭ±
å´İå² ĸ
ä¹ĮæĪĪ åĽ½
æ Ĩ
Ġ Ġ
Ķ ç»Ĩ
ä¸ ½
ãĢĤ ï¼ī
å¤ ¤
ä» Ķç»Ĩ
ä¹ĭ è·¯
ä¹ĭ è®º
ä¹ĭ ä¾Ħ
ä¹ĭ ä¾§
ä¹ĭ åŁºä¸ļ
æĿ ¿
æĿ Ĩ
ä¸į æĹ¶
ä¸į æ¬²
ä¸į éĹ®
ä¸į æŃ»
ä¸į è¡Į
ä¸į çŃī
ä¸į æķĮ
ä¸į å°±
ä¸į å¥½
ä¸į ç§°
ä¸į åĴĮ
ä¸į å¿ĺ
ä¸į å½ĵä¹ĭ
ä¸į æµħ
ä¸į æµĭ
äºº æĿ¥
äºº èĢ¶
åĨĽ çļĨ
åĨĽ å·²
èĢ Ĳ
åħµ å®¶
åħµ ç¬¦
é© ¹
æķ Ŀ
å¤§ æĿĥ
å¤§ çĽ®
å¤§ éĽ¾
å¤§ æĤŁ
å¤§ èµ¦
ä¸Ģ è§ģ
ä¸Ģ èĢħ
ä¸Ģ æľĿ
ä¸Ģ éģį
ä¸Ģ çīĩ
é©¬ å»¶
å°Ĩ å®ī
å°Ĩ ä¸ĭæĿ¥
çİ ©
æĿ¥ èĩ³
æĿ¥ åĬ«
æľī å¤ļå°ĳ
æľī ä¸ĩå¤«
çĽ Ĩ
æī £
æĵį ä»¥
æĵį ä¸İ
æĵį å¼ķ
æĵį åľ¨
æĵį æĢĴ
æĵį æĢĴæĽ°
æŃ¤ äºĮ
æŃ¤ å¿ĥ
æŃ¤ éĺµ
æŃ¤ ä¿¡
ç» Ĭ
äºİ ä¸Ń
äºİ åīį
äºİ åĲ´
äºİ åŁİå¤ĸ
äºİ ä¸Ńåıĸ
ä¸Ń ä¹ĭ
ä¸Ń ä¹¦
æĬ ¬
ä¸º æŃ¤
ä¸º æīĢ
ä¸º ä¸ŀçĽ¸
çĶ ¥
è§ģ æĺ¯
è§ģ å¸Ŀ
èĢĮ ä¸Ĭ
èĢĮ è¿İ
è° Ħ
è° Ĭ
éĢ Ŀ
ä½ķ å¿§
å½ ©
åĲ¾ å¿ħ
åĲ¾ æĦ¿
åĲ¾ ä»ĬæĹ¥
åĲ¾ èªĵ
éĥ ģ
éĥ Ĭ
ä¾ ®
åı¯ ä¹İ
åı¯ ä¿Ŀ
å¦ «
åĳ µ
ä»¥ åĲİ
ä»¥ æŃ»
ä»¥ è¡¨
ä»¥ ä¿Ŀ
ä»¥ åĪ©å®³
ä»¥ éĢ¸
æĺİ ä¸»
å¥ ´
å¥ ĳ
æĽ¹ èĲ¥
åħ¬ ä»Ĭ
ä¸Ĭ äºº
ä¸Ĭ å¤©
å± Ĥ
ä»Ĭ å¥ī
ä»Ĭ å¤©ä¸ĭ
ä¸İ å§ľç»´
å¼ł æĽ°
å¼ł æĤĮ
å¼ł é¡Ĺ
æĭ ´
åİ» ä¹Ł
åİ» åĲİ
åİ» æĹ¶
åħ¶ æŃ»
åħ¶ æīį
åħ¶ å¿Ĺ
åŃĶ ç§Ģ
ä¹ĥ çķĻ
èĩª å¤ĸ
èĩª é¢Ĩåħµ
èĩª ç¼ļ
åº ķ
äºĮ å¹´
äºĮ æľĪ
äºĮ å¯¸
åĽŀ åŁİ
åŃĶæĺİ ä¸İ
åŃĶæĺİ è§Ĩä¹ĭ
éĿ ĵ
å¼ķ äºĮåįĥ
å¦Ĥ åħ¥
å¦Ĥ å±±
å¦Ĥ éĽ·
åľ¨ è®¸éĥ½
åľ¨ ä¾§
æĺ¯ ä½ķäºº
åħ¥ æ±īä¸Ń
çĽ¸ åĳĬ
çĽ¸ ç¦»
çĽ¸ åĬĿ
çĽ¸ äºī
çĽ¸ è§ĳ
å¾Ĺ ä¹ĭ
å¾Ĺ åĩº
å¾Ĺ ä»¤
æĹł æ°´
æĹł å¼Ĥ
æĹł äººä¹ĭ
æĹł ç«¯
æĹł èĻŀ
æĿĢ è´¼
æĿĢ å®³
æĿĢ æĿ¡
æİ Ģ
åħĪ å¼ķ
åħĪ éĢĢ
åħĪ ä»¤äºº
ä¸» æĦı
è¯´ è¯Ŀ
æĪĳ ä¸º
æĪĳ ä¹ĥ
æĪĳ ä¸»
åīį èµ´
åħ³ åĨħ
åħ³ åı£
åħ³ ç¾½
èĩ³ å¤ľ
é£ ı
åŃĲ æĺİ
åĪ° å®¶
çŁ¥ éģĵ
çŁ¥ ä¸Ńè®¡
å¤© ä½¿
çļĨ å°ģ
åĸ ĺ
å¿ħ åĩº
æ±Ŀ ä»Ĭ
æ±Ŀ æ¬²
æ±Ŀ åį´
æ±Ŀ å¼Ł
å½ĵ çĶ¨ä½ķ
åıĪ äºİ
åıĪ ä¸İ
åıĪ åĳ½
å·² åĽŀ
åıª ä»Ĭ
åıª é¡»
åıª æľīä¸Ģ
èĭ¥ è§ģ
èĭ¥ ä½¿
èĭ¥ èĤ¯
å±± åı£
å±± å³ª
æĬ¥ ä¸İ
æ¬² è§ģ
æ¬² è¡Į
æ¬² å¾Ģ
æ¬² ç«ĭ
æ¬² åħ´åħµ
åį´ åıĪ
æ¯ ¡
æŃ£ åįĹ
æŃ£ çĽĽ
æĪĺ æľī
è·¯ ä¸Ĭ
ç¥ ł
æ³ ¨
æ³ ¼
æ³ Ľ
å®ī èĳ¬
å®ī æĬļ
éģĤ éģ£
éģĤ çķĻ
éģĤ ä¸ĭä»¤
å¿ĥ ä¸ĭ
å¿ĥ æĢĢ
é¢ Ģ
é¢ ĳ
é¢ ł
åıĸ å·Ŀ
éļ ¶
æŃ» ç½ª
çĦ¶ ä¹Ł
èĢħ ç«ĭæĸ©
è¡Į äºĨ
å®Ī èįĨå·ŀ
ä¿ Ħ
ä¿ Ł
æĽ¹æĵį ä¹Ł
æĽ¹æĵį æīĢ
è®¡ å°Ĩå®ī
æĮ ŀ
æŀ £
éª ĺ
ä¾¿ åĩº
ä¾¿ ä¸İ
çģ ¾
åĪĨ å®¾ä¸»
ä¹¦ éĻ¢
å£« æ°ĳ
ä»İ éªĳ
æľª åĪ°
æľª æģ¯
èĤ º
èĤ ł
çĿ ¹
çĳ ¶
æĿĥ ä»İä¹ĭ
æĢ¥ æĿ¥
æĢ¥ å¾ħ
æĢ¥ åĽŀé©¬
éĿ¢ éĿ¢
èµ° çŁ³
åĽĽ æĹ¶
åĽĽ åįģä¸ĩ
èĩ£ éĹ»
çĻ¾ æĹ¥
çĻ¾ éªĳ
åį³ ä»Ĭ
å¿½ ä¸ĢæĹ¥
éĥ½ åĪ°
æ±Ł æ²¹
æ±Ł æ¹ĸ
äºĶ å°Ĩ
æŁ Ħ
æŁ ĳ
å¹³ å®ļ
æľĽ ä¸ľ
æľĽ ä¸ŀçĽ¸
ä¸ĩ æŃ»
ä¸ĩ æ°ĳ
ä¸ĩ åı¤
ä¸ĩ å²ģ
ä¸ĩ æĹłä¸Ģ
ä¸ĩ æŃ»ä¸įè¾ŀ
æ±ī ä¸Ĭ
æ±ī è´¼
æ±ī å®¶
æ±ī åįĩ
åľ° åĬ¿
æķħ ä¹Ł
æķħ ä¸»
æĸ¹ åĪ°
æĸ¹ éĢĢ
æĸ¹ èĭı
éĻį æĵį
å°ı ä¸»äºº
åį´è¯´ åħ³åħ¬
åį´è¯´ æĽ¹çľŁ
æĥĬ éĹ®æĽ°
è®® éĥİ
è®® è®º
æ· Ħ
åĲķ åħ¬
è¯· éĹ®
è¯· éĻį
è¯· ä¸»åħ¬
ä¸Ķ åĭ¿
é¢Ĩ ä¸īåįĥåħµ
ä¸įåı¯ ä¹ħ
äºĮäºº åıĹè®¡
å¾ħ ä»ĸ
å¾ħ åĬ³
å¾Ĳ åĽ¾
è¢ģ æľ¬åĪĿ
æķĻ ä½ł
æħ ·
éħ ¿
éģĵ ä¸Ĭ
ä¼ı ç½ª
åºĶ å¼¦
åºĶ å¤ĸåĲĪ
æķĳ åĨĽ
æķĳ çģ«
æŃ¦ éĥ½
æĪĲ çŁ£
æĪĲ è´¥
æŁĲ éĹ»
æķĮ ä¹ĭ
æĭľ åıĹ
å®ļ æĽ°
çģ« ä¹ĭçī©
çģ« çĦ°
è¿ĩ æ±Ł
åįĥ ç§ĭ
éĩĮ åºĶå¤ĸåĲĪ
ç¾ ²
å®¶ åħĦ
å¸Ī æĽ°
å¼ķåħµ åĩº
å¼ķåħµ èĩ³
å¼ķåħµ åĩºåŁİ
å¼ķåħµ æĿĢåĩº
åı£ ç§°
æĶ» åħ¶
å¹¶ èµ·
é«ĺ æĺİ
é«ĺ åı«æĽ°
å¤´ åĬŁ
äº² éļı
åĮĹ å±±
åĮĹ å°ĨåĨĽ
åĮĹ å¾ģ
èµµ ç´¯
èµµ æĺĤ
åĲĽ åĳ½
èĪ¹ å·²
èĪ¹ å¤´ä¸Ĭ
è°ĭ çķ¥
æļ ĸ
éĻĪ è¯´
æĿİ å¼Ĥ
æĿİ æģ¢
çĶļ å¤ļ
æį ķ
çĮ ¿
æ¡ Į
éĩį åħµ
éĩį ä¼¤
æĦ¿ åĢŁ
æĹ© æľĽè§ģ
åıĳ ä»ĺ
æĶ¾ ä¸ĭ
æı ĸ
çĽ´ åĩº
çĽ´ è¨Ģ
çĽ´ èµ¶åĪ°
é¥ °
é¥ µ
åıĹ éĻį
åıĹ è¯ı
ä¸įèĥ½ è¨Ģ
åħ´ æĽ°
åħ´ éľ¸
æĤ Ħ
ä¹ĺ æĹ¶
å¤į æľī
éªĳ é©¬
é½ ĳ
æĺŃ çĥĪ
åĬŁ åĬ³
è¶³ å¤ĩ
è¶³ æĻº
é¾ Ħ
éħĴ èī²
æł ı
èģ Ĭ
ä¹± åĨĽä¸Ń
ä¹ħ è®¡
è¯¸èĳĽ åŃĶæĺİ
è¦ģ è¡Į
åĶ¤ åĩº
ç¤¼ çĽ¸å¾ħ
é¾Ļ èĪŁ
é¾Ļ åĩ¤
èĳ£ åħģ
èĳ£ å¤ªåĲİ
èĳ£ åİ¥
æĹ¢ èĩ³
æĹ¢ å®ļ
æĿ¨ ç»Ľ
æľĿ ä¸Ń
éĩĳ çĶ²
éĩĳ ç¥İ
éĩĳ çİ¯
éĩĳ çĽĶ
éĩĳ æĹĭ
åŃĻæĿĥ æĽ°
å½¼ åħµ
å§ľ ä¼¯çº¦
èĥĮ ä¹ī
äº¤ åħµ
åł ¤
éļ¾ ä¿Ŀ
ç¼ ¢
ç¼ Ŀ
éŁ© å¾·
éŁ© ä¿¡
éŁ© é¦¥
ä»ģ å¾·
æŀª åĪĢ
éĢģ åĩº
éĢģ è¡Į
éĤĵ äºĮäºº
æ³ķ åº¦
è¿ľ åİ»
é¡» çĶ¨
å¸¦ çĶ²
æľĪ ä½Ļ
æ¨ ¡
è¿ĺ èįĨå·ŀ
æ°Ķ æķ°
å°ĳ æĹ¶
ä¼ł è¯´
ä¼ł åĽ½
æĬĬ åħ³
åįĬ éĢĶ
è¢ģç»į æĽ°
æīĵ åĲ¬
æīĵ çł´
ä¸įçŁ¥ ä½ķå¤Ħ
åºŀ å£«åħĥ
åħ± åĽ¾
å®³ æ°ĳ
ä¸įæķ¢ æŃ£
ä¸įæķ¢ è¿½èµ¶
å®ľ æĹ©
æ·± æĺİ
åĪ« ä½ľ
çºµ çĦ¶
åĨ³ éĽĮéĽĦ
ä¹Ĳ æ¯ħ
èĻİ è´²
åĲĳ æĹ¥
åĬ© æĪĳ
è®¾ ä¸Ģ
æŃ¢ ä¹ĭ
å®ģ æĽ°
åı² æ¶£
åħĥ ç»į
å¨ģ åĲį
éľĩ åĬ¨
ç§° èĩ£
éĻĨ æĬĹ
åĭĩ åĬĽ
è£ ¸
è£ Ķ
åºľ åĲĽ
èĥĮåĲİ ä¸Ģäºº
æĸĻ åĲ¾
ä¸´ åį±
ä¸´ æ·Ħ
åĸĿ å·¦åı³
åĸĿ éĩĩ
å¼ĵ é©¬
ç²¾ éĶĲ
æ¡¥ è¾¹
å¯» è§ģ
èĶ¡ éĺ³
ç¦» éĹ´
åħī ç¦Ħ
è¥Ħ æ±Ł
åĢĴ ç«ĸ
é¡º æ°´
æ·® æĽ°
å®´ ç½¢
çīĽ æ¸ļ
ä»ĩ äºº
çĽĽ å¾·
æĥ§ èī²
åįİ å¤ı
çªģ çģ«
çªģ åĽ´
æī§ ä¸ĭ
åĬ³ èĭ¦
æ´ª ç¦ı
ä¸Ģå£° åĵį
ä¸ĭé©¬ æĿ¥
äºĮåįģ åĽĽ
æķ¬ æľį
å¦» æĽ°
åİ¿ ä¸Ń
éľ¸ æĽ°
æĮģ åĪĢ
æĴ Ń
å¤§äºĭ åı¯
å¿½çĦ¶ åĸĬå£°å¤§éľĩ
åŀ £
å¾¡ åı²
åĥ ®
ä¸įè§ģ ä¸Ģäºº
éĻ© éĺ»
ç¥ģå±± å¯¨
åħ· è¡¨
æĢ§ æĢ¥
äºī éĶĭ
æĥ³ èµ·
æµİ çŁ£
è¡Ģ è·¯
å¿ĥä¸Ń å¤§åĸľ
ç¥Ń ä¹ĭ
ç¥Ń æ¯ķ
ç¥Ń éħĴ
èĴĭ æµİ
åŁİä¸Ĭ ä¹±ç®Ńå°Ħä¸ĭ
èª ī
æ³£ åĳĬæĽ°
å´ ĩ
åĪĩ å®ľ
åĽŀæĬ¥ è¯´
ä»Ĺ ä¹ī
äºİé©¬ åīį
äºĶåįĥ äºº
æķ´ åħµ
äºİåľ° ä¸ĭ
éļıåĲİ ä¾¿
è¿Ł çĸĳ
ä¼¯ çĪ¶
éģį è§Ĥ
æ¡ĵ éĺ¶
èªĵ ä¸į
åĪĹ æĪĲéĺµåĬ¿
çİ° ä»Ĭ
åĩł æĹ¶
åħ¥è§ģ æĽ°
æº º
æ³ª ä¸ĭ
éŃıä¸» æĽ¹èĬ³
åŁİä¸ĭ åı«éĹ¨
åĤ¬ ä¿ĥ
èĪį åĳ½
ä¸Ģå½ª äººé©¬
ä¹ĺåĬ¿ è¿½æĿĢ
è¸ Ĭ
åĨĻ äºĨ
æĬ¥çŁ¥ æĽ¹æĵį
ä¸īè·¯ åĨĽé©¬
å© ´
å© Ĩ
åįķ éªĳ
åįķ æĲ¦
æĻĭ çİĭ
éģ¥ è§ģ
å¦Ĥä¹ĭ ä½ķ
å¿ĥèħ¹ å°Ĩ
é¢Ħ åħĪ
çĲ¦ æĽ°
ä½¿èĢħ åĽŀæĬ¥
å¢ĥ çķĮ
æĿĢåħ¥ éĩįåĽ´
åľ£ æĹ¨
è´º æĽ°
è®¾å®´ æ¬¾å¾ħ
ä¹Į æ¡ĵ
åħħ æĽ°
æłĳ æŀĹ
å®£ åı¬
å®ł æĽ°
æ¸Ń æ»¨
çķĮ é¦ĸ
çŃĳ åĿĽ
çģ«åħī ä¸Ń
åĵĢ çĹĽ
éĻĩ ä¸Ĭ
éĻĩ åı³
æ°¸ ç»ĵ
ãĢĭ ãĢĤ
æĿľ çĲ¼
äºĮåįģä½Ļ äºº
è¿Ŀ ä»¤
å¿ħä¸º åĲİæĤ£
çħ ®
çĽŁ å¥½
æĺ¾ åľ£
éĢĢåħµ ä¹ĭçŃĸ
æĭĶåīĳ åľ¨æīĭ
å½¢ å®¹
è°¨ æħİ
åģı å°Ĩ
å¿« èĪ¹
çĦļ çĥ§
æĽ² éĺ¿
æİ· æĿ¯
ä¸īåįģä½Ļ åĲĪ
ä¸ºå¤§ åı¸é©¬
æ²ī éĩį
å°ļä¹¦ ä»¤
æĿŁ æīĭ
æĢİ æķ¢
åħ¬åŃĲ åĪĺçĲ¦
çŃµ åīį
äºĨä¸Ģ éģį
éĵ¶ éĵł
æĿĤ åľ¨
è¡Įä¸į æķ°éĩĮ
åį§é¾Ļ åħĪçĶŁ
å®ĩ å®Ļ
æĭ© æĹ¥
æĬĦ åľ¨
ä¸īæĽ´ æĹ¶åĪĨ
éĤ£éĩĮ åİ»
çĩķ çİĭ
åįľ ä¹ĭ
èĭı é£ŀ
ä¹ĭç½ª ä¹Ł
çĿ¡ çĿĢ
ç¡ ¬
ä¸Ģä¸ĩ äºĶåįĥ
æĭľä¼ı äºİåľ°
ä½© åīĳ
æī« æ¸ħ
åĴ¨ æĽ°
åĲĲ è¡Ģ
å¼ķæķ° åįĥ
ä»°å¤© åı¹æĽ°
å¦ĸ äºº
æĭĸ åĪĢ
åĪĺæĻĶ æĽ°
äº¤é©¬ åıªä¸ĢåĲĪ
åħ«åįģ ä¸Ģå·ŀ
èĢ» ç¬ĳ
ä¸ºåĲİ åºĶ
åĽŀå¤´ è§Ĩä¹ĭ
å½ĵæŃ¤ ä»»
åĪĨæĭ¨ å·²å®ļ
åİĭ æĥĬ
æĭ½ èµ·
èĩªæĢĿ æĽ°
é²į ä¿¡
å¼Ħ æĿĥ
ä¸ºä¹ĭ å¥Īä½ķ
éªĩ çĦ¶
æĽ´ä¸į æīĵè¯Ŀ
ç¬¬ä¸ĢçĻ¾ éĽ¶
ç½®éħĴ çĽ¸å¾ħ
å¼łè®© çŃī
éľį å³»
çĮ®è®¡ æĽ°
è®¤å¾Ĺ æĺ¯
éĹŃéĹ¨ ä¸įåĩº
ç»¿ è¢į
æĹłå¿§ çŁ£
æ¯« æĹł
æŁĵ çĹħ
åıĺèī² æĽ°
éº´ ä¹ī
ç»³ ç´¢
è´« éģĵ
çº¶å·¾ ç¾½æīĩ
ä¸Ľ æĿĤ
åĶ¾ æīĭ
å¸¸å±±èµµåŃĲé¾Ļ ä¹Ł
æ°¸å®ī å®«
éĬ® é©¾
ä¸įèĥ½çĽ¸ é¡¾
è¡£å¸¦ è¯ı
ä»°è§Ĥ å¤©æĸĩ
åľ£äºº äºĳ
æĺıç»Ŀ äºİåľ°
ä¸įçĿ ¦
ä¸ĭæĪĺ ä¹¦
åºĶå¤© é¡º
é«ĺéĺľ å¤Ħ
åĢĺæľīçĸı èĻŀ
ä¸ºåĲĪ åĲİ
ç§£ éĻµ
æĩĬ æĤĶ
éľİ æĹ¶
åĪ«æĿ¥ æĹłæģĻ
èĤĿèĦĳæ¶Ĥ åľ°
ä¸įå½ĵä¹ĭ åĭĩ
å¤§èµ¦ å¤©ä¸ĭ
æľīä¸ĩå¤« ä¸įå½ĵä¹ĭåĭĩ
è®¡å°Ĩå®ī åĩº
éĿ¢éĿ¢ çĽ¸è§ĳ
ä¸ĩæĹłä¸Ģ å¤±
è¶³æĻº å¤ļè°ĭ
¥ éĺ³
± éĺ³
å ª
å ļ
è ı
è ł
Ĥ ç¬ĳ
ä¸ Ļ
äº §
ä¹ĭ åŃĻ
ä¹ĭ åīĳ
ä¹ĭ å¥³
ä¹ĭ èĪĮ
æľ Ń
ä¸į èĩª
ä¸į éĹ»
ä¸į å°½
ä¸į å¿ł
ä¸į æĦ¿
ä¸į æĹ©
ä¸į åıĳ
ä¸į è¦ģ
ä¸į çķĻ
ä¸į éļ¾
ä¸į è´Ł
ä¸į æģ¯
ä¸į éģ¿
ä¸į çĶ±
ä¸į æĶ¹
ä¸į çľģ
å¾ Ļ
å¼ ¥
äºº å¤ļ
äºº æĥħ
åĨĽ äºĭ
åĨĽ æľº
åĽ ¢
æķ ı
å¤§ åĸĬ
å¤§ ä¸¾
å¤§ ä½į
å¤§ é©±
å¤§ å¿Ĺ
ä¸Ģ äºĭ
ä¸Ģ åĲĳ
ä¸Ģ å¥³
ä¸Ģ çī©
ä¸Ģ å¯¸
ä¸Ģ åº§
ä¸Ģ ç¯ĩ
é©¬ åĺ¶
å°Ĩ åĪ°
å°Ĩ åħ³åħ¬
å°Ĩ æ¬¡
å°Ĩ å¤´
å°Ĩ è®¡å°±
èµ Ľ
æĿ¥ ä¹Ł
æĿ¥ åĪº
æľī ä¸Ģäºº
æľī äººæĬ¥
æľī èĥĨ
æī ĳ
æĵį ä¹ĭ
æĵį æľī
æĵį åħĪ
æĵį åıĪ
æĵį éĹ»ä¹ĭ
æŃ¤ åĲ¾
æŃ¤ è¡Į
æŃ¤ æĦı
ç» ¼
ä¸ĭ æ°´
ä¸ĭ èĲ½
ä¸ĭ æ®¿
ä¸ĭ æ³ª
ä¸ĭ åĿĽ
äºİ è¥¿
ä¸Ń å¸¸ä¾į
ä¸º åī¯
ä¸º å¤ªåŃĲ
ä¸º è½¦éªĳå°ĨåĨĽ
è§ģ äºĳéķ¿
è§ģ ä¸»åħ¬
è§ģ éŃıå»¶
èĢĮ åıĸ
èĢĮ æľĽ
èĢĮ æĪĲ
èĢĮ æĬķ
èĢĮ è¿ĺ
èĢĮ æķ£
èĢĮ åį§
è° ¬
è° ®
åĬ £
åĬ Ī
ä½ķ åľ°
ä½ķ å¤ª
ä½ķ æĻı
å¹ Ķ
å½ »
åĩº éĹ®
åĩº åºľ
åĲ¾ å¸Ī
åĲ¾ å®ģ
åĲ¾ æģ¨
åĲ¾ ç´łçŁ¥
åı¯ ä¸İ
åı¯ åİ»
åı¯ åıĸ
åı¯ åį³
åĳ ³
åĳ ľ
åĲİ æĽ°
åĲİ æĤĶ
ä»¥ ä¸Ĭ
ä»¥ åĬ©
æĽ¹ å®¶
æĽ¹ éģµ
æĽ¹ çŀĴ
æĽ¹ åŃŁå¾·
åħ¬ ä»¥
åħ¬ æĸĩ
åħ¬ ä¸Ķ
ä¸Ĭ æľī
åī ģ
çļ İ
ä»Ĭ å°Ĩ
ä»Ĭ ä¸Ķ
ä»Ĭ å½¼
ä»Ĭ æŀľ
ä»Ĭ å¹¸å¾Ĺ
ä¸İ åħ¬
ä¸İ æķĮ
ä¸İ ä½ł
ä¸İ å¤ıä¾¯éľ¸
ä¸İ ä¼ĹåķĨè®®
å¼ł çº¦
å¼ł éĹ¿
åİ» å®Ī
åħ¶ ä¼Ĺ
åħ¶ ä¾¿
åħ¶ éĿ¢
åħ¶ æĸĩ
åħ¶ å¼Ł
åħ¶ éĶĭ
åħ¶ å°¸
åħ¶ çķ¥æĽ°
åŁİ åįĹ
ä»¤ å¼Ł
ä»¤ éŃıå»¶
ä¹ĥ å°Ĩ
ä¹ĥ åĩº
è¾ ī
èĩª èĭ¥
èĩª è¡Į
èĩª å®¶
èĩª æıĲ
èĩª ä»¥ä¸º
å£ ¶
äºĮ åŁİ
äºĮ åĲķ
äºĮ ä¹Ķ
åĽŀ èµ°
åĽŀ æ´Ľéĺ³
åŃĶæĺİ åĶ¤
åŃĶæĺİ åıĪåĶ¤
éĿ ©
å¼ķ åħ¥
å¼ķ äºĶçĻ¾
å¼ķ è´¥åĨĽ
å¼ķ åįģæķ°éªĳ
è¨Ģ æ¯ķ
å¦Ĥ æĺ¯
åľ¨ è¥¿
åľ¨ åĨħ
åľ¨ æľĿ
åľ¨ å¾Ĳå·ŀ
æĺ¯ æĽ¹æĵį
æĺ¯ å¹´
åħ¥ åİ»
åħ¥ æ´Ľéĺ³
çĽ¸ ä»İ
çĽ¸ çĪ¶
çĽ¸ éĢģ
çĽ¸ å®³
å¾Ĺ æĽ¹æĵį
æĹł æľī
æĹł åŃ¦
æĿĢ åĽŀ
æĿĢ å¼Ģ
åħĪ åĲĽ
ä¸ī äºĭ
ä¸ī ä¸ĸ
ä¸ī æĿ¡
è¯´ åĩº
è¯´ ä¸İ
è¯´ è¯į
æĪĳ åį´
æĪĳ å¿ĥ
æĪĳ äº¦
æĪĳ åĵ¥åĵ¥
åīį å°ĨåĨĽ
åīį ä¸ĭé©¬
åħ³ å¤ĸ
åĪ° æĹ¥
åĪ° æĹ¶
åĪ° éķ¿å®ī
åĪ° åºĦ
å¤© ä¹ĭ
å¤© éĻį
å¤© èį¡
åįģ ä¸ĢæľĪ
çļĨ æĿ¥
çļĨ ä¸º
çļĨ æķ£
çļĨ æĦŁ
äºĭ æķħ
äºĭ èĢ³
å¿ħ åħĪ
å¿ħ ä»İ
å¿ħ éģŃ
æ±Ŀ ä¹ĭ
æ±Ŀ æĿ¥
æ±Ŀ åħĦ
å½ĵ å¤į
éŃı éĺµä¸Ń
èį ¥éĺ³
åıĪ éģĩ
å·² åİ»
åıª å¸¦
èĭ¥ æĺ¯
èĭ¥ æĿĢ
å±± æĿ¥
å±± æŀĹ
ä¼Ĺ è®®
æ¬² åİ»
æŃ£ æĽ°
æŃ£ èī²
æŃ£ éĢ¢
æŃ£ å¥Ķèµ°
æĪĺ èĢħ
æĪĺ è¢į
è·¯ éĢ¢
ç« ŀ
çİĭ éľ¸
çİĭ ä¸ļ
æ³ Ĺ
å·ŀ äºĭ
å®ī ä¼Ĺ
éģĤ åħ¥
éģĤ éĹ®
éģĤ å¼ķåħµ
éģĤ å¼ķåĨĽ
éģĤ éģ£ä½¿
å¿ĥ ä¹Ł
åıĸ åĽŀ
éļ ľ
èµ· æĽ°
èµ· å¤§åħµ
æŃ» åĲİ
èĢħ æĽ°
è¡Į äºĭ
è¡Į åĿĲ
åĿ Ĺ
åĿ Ľä¸ĭ
åĲ´ å¤ª
ä¿ ŀ
å°ĨåĨĽ ä½ķä¸į
æĽ¹æĵį æĽ°
è½ ¯
æŀ ·
æŀ ļ
éª §
çŃī çī©
åĪĨ å¢¨
ä»İ ä½ķ
éĤ »
è¯¸ å¤Ħ
å² ĺ
èľ Ĥ
å¸ĥ åĳĬ
ä¸ľ éĥ¡
æĢ¥ èģļ
æĢ¥ å¿Ļ
è¿Ľ è¨ĢæĽ°
éĿ¢ éķ¿
éĿ¢ éĹ¨
éĿ¢ åĲĽ
åįĹ å±±
åĵ Ĥç¬ĳ
éĹ» çİĦå¾·
éĹ» å°ĨåĨĽ
éĹ» æĽ¹æĵį
æķ° æĿ¯
èĩ£ ä»¥
åį³ å°Ĩ
åį³ æŃ»
åį³ ä½į
éĥ½ è¢«
æīĢ ä¸º
æīĢ å½Ĵ
äºĶ èī²
äºĶ åįģä¸ĩ
äºĶ åįģä½ĻéĩĮ
æŁ ľ
éĢĢ åĽŀ
éĢĢ æĹ¶
æľĽ æĽ°
æľĽ åĲİ
éĹ¨ é¦ĸ
ä¸ĩ ä¸Ģ
å¤ª ä»Ĩ
ç² Ĺ
ç² Ł
æĸ¹ å¤©
çķ ´
åĭ Ł
çĶ¨ æŃ¦
çĶ¨ åĪĢ
å°ı å°ĨåĨĽ
å°ı è§ĳ
åı¸ ç©º
åı¸ éļ¶
åĲĦ éĹ¨
åį´è¯´ å¼łéĥĥ
åį´è¯´ æĽ¹ä»ģ
åį´è¯´ éĴŁä¼ļ
è¥¿ å¹³
å£° å¤§éľĩ
å°½ éĻį
å°½ é©±
å°½ è¯Ľ
é»Ħ éĴº
æĥĬ åĬ¨
æīĭ æĽ°
å¤ľ éĹ´
å¤ľ æ¢¦
äº¦ æĹł
äº¦ èĥ½
çĸ Ĺ
è¯· å¤©åŃĲ
è¢« åĽ´
åĽ½ éļ¾
å¸Ŀ ä½į
è´¼ åĬ¿
é¢Ĩ è®¡
é¢Ĩ å¾Ĳå·ŀ
åı¸é©¬ æ°ı
è®¸ çĶ°
ä¸įåı¯ ä»¥
å¾ħ äºº
å¾Ĳ èį£
ç»´ ç¬ĳæĽ°
éĿŀ ä¸º
éĿŀ çŃīéĹ²
æķĻ åıĸ
ä¸ŀçĽ¸ èĭ¥
ä¼ı åĪĢæĸ§æīĭ
ä¼ı æ³¢
åºĶ ä»ĺ
æŃ¦ æī¬
æŃ¦ ä¹¡ä¾¯
æĪĲ äºĭ
åĳ¨ éĥ½çĿ£
æŁĲ äº¦
çģ« çĥ§
åįĥ åı¤
åı³ èĩĤ
å¹´ æĸ¹
æĸ© åħ³
æĸ© æ±Ŀ
çł ĸ
èİ ±
å¼ķåħµ è¿½èµ¶
å¼ķåħµ äºĶä¸ĩ
é«ĺ å±±
ä¼ļ éĽĨ
ç²® å°ĳ
å¤´ çĽĶ
è¿İ åħ¥
äº² èĩ³
äº² åĪ°
åĮĹ æĸĹ
è¿½ åĪ°
èµµ é¢ľ
èĥľ è´¥
åĬ¿ å¦Ĥ
åĬ¿ ä¸įåı¯å½ĵ
éĻĪ çĲ³
æĬķ éŃı
æĬķ æĽ¹æĵį
å½Ĵ å®¶
è°ĵ ä¼Ĺå®ĺæĽ°
æģĲ åħ¶
æĦ¿ ä»¥
æĦ¿ å°ĨåĨĽ
éģ£ ä¹ĭ
å¼Ł åħĦ
åıĳ åĸĬ
åıĳ èĲ½
æĶ¾ è¿ĩ
æĶ¾ å½Ĵ
ä»ĸ å¤Ħ
çĽ´ æĿĢåĪ°
èľĢåħµ å¤§è´¥
åıĹ åĽ°
å¤± æİª
ä¸įèĥ½ æĬ¥
ä¸įèĥ½ å®¹
ä¸įèĥ½ åīįè¿Ľ
å¤ıä¾¯ å¾·
åĨį æ¬²
åĨį æĪĺ
è¿ŀ åĴĮ
æĤ ļ
å°ļ èĩª
çĹ ´
å¥ı åĲİä¸»æĽ°
ä¼ĳ æķĻ
åĿĲ ä¸ĭ
åĿĲ è§Ĩ
éĴ ©
èĢģ å¼±
çł´ é»Ħå·¾
æł ĩ
èģ Ķ
å°± æŃ¤
å°± é©¬ä¸Ĭ
å°ģ èµı
å¼Ģ è¨Ģ
å¼Ģ èĪ¹
ç®Ń å¤´
è¯¸èĳĽ åĿĩ
åıį æ¬²
åıį æĥħ
æľ¬ æ´ŀ
çĸĳ æĺ¯
é¾Ļ éª§
æ® ģ
æ® ĥ
æ® Ħ
å¤©ä¸ĭ äºº
å¤©ä¸ĭ èĢħ
è§£ èµ´
ä¸»åħ¬ èĭ¥
å²Ĥ çŁ¥
æĹ¢ å¾Ĺ
çĥ ½
æĿ¨ æ¬£
æ°ĳ éĹ´
ç»Ł åħµ
ç»Ł é¢Ĩ
éĥ¨ é¢Ĩ
éĥ¨ åįĴ
éĥ¨ æĽ²
åĬ¨ éĹ®
åĬ¨ æīĭ
åĽ¾ æĽ°
å§ĵ åĪĺ
éŃıå»¶ æĽ°
æĵĴ çŁ£
çª Ħ
å½¼ æŃ¤
èĥĮ ä¹ĭ
éļ¾ å®¹
ç© ¶
éŁ© çĮĽ
ä»ģ æħĪ
éĢģ è¿ĺ
çļĩ å¤©
éĤĵ é£ı
å¾Ħ èĩ³
å¼ĥ å¯¨
å¼ĥ æŀª
å¸¦ ä¼¤
åĽ´ ç»ķ
å¯Ĩ å¥ı
è¾ŀ æĽ°
ä½ł å¦Ĥä½ķ
çĮ® äºĨ
æıĲ æĪŁ
æ²³ ä¸Ĭ
ä¼ł è°ķ
åįĬ æľĪ
ä¸ľåĲ´ åŃĻæĿĥ
è¯ı æĽ°
åı· çģ«
åı· åĵŃ
æīĵ çĿĢ
æİ¢ è§Ĩ
åĭ¿ ä»¥
ä¸įçŁ¥ åħ¶æķ°
è½» åĩº
è½» æķĮ
éĽĦ åħµ
éĽĦ æīį
éĽĦ å£®
ä»ĬæĹ¥ ä¹ĭäºĭ
æ» ķ
è± º
ç¬¬ åĽĽåįģ
ç¬¬ åħ«åįģ
æ·± å¾Ĺ
æ·± æģ¨
å®¹ èº«
å®¹ æĺĵ
èĻİ è±¹
èĻİ çī¢
æļĹ å¿ĸ
çŃĶ ä¹ĭ
éĻĽä¸ĭ ä¹Ł
ä¸¾ ä¸Ģäºº
ä¸ĥ äºº
ä¸ĥ çĻ¾éĩĮ
ä»ĺ ä¸İ
ä¿Ŀ çĿĢ
ç¥ŀ äºº
å¾ģ ä¹ĭ
å¾ģ è®¨
å¯¹ éĿ¢
å¯¹ æīĭ
ä¾į ç«ĭäºİ
æ¸¡ æ³¸æ°´
åħ¨ èĥľ
åħ¨ çĲ®
åıªè§ģ ä¸Ģäºº
é¸ ¦
çĽ® ä¸ĭ
ç§° å¸Ŀ
éĻĨ ä¼¯è¨Ģ
æħĮ ä¹±
èĲ½ åľ°
èĲ½ æ°´
è°ı è®®
é©¾ å°ıèĪŁ
çº¦ è¡Į
çŁ³ å¤´
çŁ³ äºŃ
ä¹ĭè¨Ģ çĶļåĸĦ
å¼ĵ æīĭ
æŃ¤äºº æĺ¯è°ģ
æ¡¥ å¤´
ä½¿äºº åİ»
çļĦ åį¢
ç¦» äºĨ
çĶĺ å¤«äººæĽ°
ä¹Ŀ æľĪ
ä¹Ŀ å°º
ä¹Ŀ éĶ¡
è¢Ń ä¹ĭ
åĢĴ äºİ
åĢĴ æĪĪ
é¡º æµģ
åłĤ ä¸Ń
åłĤ åłĤ
æľ¨ é¹¿
ä¿± åľ¨
ä¸įå¦Ĥ ä¸Ķ
çīĽ å¤´
çĦ¶åĲİ è¿Ľåħµ
æĹ§ å°Ĩ
åŃŁèİ· çŃī
æĭĴ å®Ī
ä¹ĭè®¡ çŁ£
é¢ľ èī²
ç¦ģ æĽ°
æ´ª æĽ°
æĭĽ é£Ĳ
åİļ èĳ¬ä¹ĭ
å¼łè¾½ æĽ°
éĽį æĽ°
æĽ¹ä»ģ æĽ°
æĮģ æŀª
åĪ© åĪĥ
èĩ´ ç¥Ń
è®¨ éĢĨ
åĮĸ æĽ°
æ®¿ ä¸Ń
åĸĬå£° èµ·å¤Ħ
åŀ ķ
å¾¡ ä¹ĭ
è¿Ļ åİ®
æĢĢ äºĮå¿ĥ
ç©º åĽŀ
æĬĺ å°Ĩ
æĳ §
æĿ¥è§ģ çİĦå¾·
æĿ¥è§ģ åŃĶæĺİ
æĿ¥è§ģ æĽ¹æĵį
çĻ¾ä½Ļ åĲĪ
æĺ¥ ç§ĭ
å¿ĥä¸Ń çĸĳæĥĳ
å¿ĥä¸Ń æļĹåĸľ
æľīä½ķ ä¸įåı¯
èĴĭ å¥ĩ
è®¸è¤ļ æĽ°
çĬ¹ æľª
æŀĹ ä¸Ń
éĢĨ å¤©
æįī ä¸ĭ
é¹ Ħ
é¹ ı
çĥ§ çĿĢ
çĤ¹ åħµ
èĮĥ çĸĨ
äºİåľ° ä¸Ĭ
æį® ä½ı
çĬ¯ å¢ĥ
å¥¸ èĩ£
åĩł ä¹İ
åīįéĿ¢ ä¸ĢåĨĽ
æĮºæŀª éª¤é©¬
å¥ĩ åĬŁ
è¯¯ ä¸Ń
è¯¯ å¤§äºĭ
çº³ ä¹ĭ
çº³ å£«
èħ¾ æĽ°
çº¢ æĹ¥
çº¢ è¢į
å³ ¨
æ£ ĺ
è¾ħ ä¹ĭ
åħ¶äºº æĽ°
ä¼ĹåĨĽ çļĨ
é¡¿ è¶³
å²ģ çŁ£
ç§ĭ æ¯«æĹł
éļĲ å±ħ
å¡ Į
ä¸¤åĨĽ æ··æĪĺ
è¯Ŀ ä¸ĭ
è¯Ŀ éĹ´
çĤ® çŁ³
æ²Ľ åĽ½
åĢŁ åħµ
æĻĭ åħµ
éģ¥ æĮĩ
è´µ å¦ĥ
ç§¦ å®ĵ
è´¹ è§Ĥ
è´¹ è¯Ĺ
å®īæķ¢ å¦ĤæŃ¤
è´£ éªĤ
æŃ»äºİ ä¹±åĨĽä¹ĭä¸Ń
åĺī æĽ°
ç° ª
å°¸ æ¨ª
ç´¯ æ¬¡
èĥĨ è£Ĥ
è¯ļ æģĲ
éħį æĽ°
å°º å¯¸
é¢Ĩåĳ½ èĢĮåİ»
æĮ¥ æ³ª
æĭľè°¢ èĢĮåİ»
æĭĨ è§Ĩä¹ĭ
åĽ½å®¶ å¤§äºĭ
è´º åĸľ
ä¸Ģå½ªåĨĽ æĿĢåĪ°
ä¸ºé¦ĸ ä¸Ģå°Ĩ
å²Ĥåı¯ å¤į
æħĮå¿Ļ ä¸ĭé©¬
ä»£ ä¹ĭ
ç§» äºİ
ç§» èĲ¥
éĵľ äºº
æĴŀ è§ģ
ä¸¹ éĺ³
èĪŀ åīĳ
çĮĽ çĦ¶
éĥ¨å°Ĩ æĽ°
âĢĻ ï¼Į
åŃĺ äº¡
æĶ¾çģ« ä¸ºåı·
åĽŀé¡¾ å·¦åı³æĽ°
æ°¸ æĺĮ
ç¦ħ ä½į
ç®Ĺ å®ļ
æ®ĭ å®³
åĺ± ä»ĺ
åĳĪä¸Ĭ ä¹¦
äºĮåįģä½Ļ åĲĪ
åºĻ åłĤ
åĿĽ ä¸Ĭ
æĿĢäºĨ ä¸Ģéĺµ
ä¸īåįģ åĲĪ
çīĻ å°Ĩ
çīĻ æĹĹ
æĺ± æĽ°
ç³ľç«º æĽ°
é¬¼ ç¥ŀ
è¯± ä¹ĭ
çĽŁ ä¸»
éĢĤ éĹ´
è¾Ľ è¯Ħ
å¤§å°ı å°Ĩå£«
ä¸ĢåĪĢ æĸ©äºİé©¬ä¸ĭ
ç«ł æŃ¦
å¿łä¹ī ä¹ĭå£«
æħ° åĬ³
åĩ¡ äºĭ
è°¨ å®Ī
åĩŃ é«ĺ
å®¾ å®¢
å°¹ èµı
ä¾µ æĪĳ
éŀį ä¸ĭé©¬
éĦ ±éĺ³
çĥŁ çªģçģ«
åįł äºĨ
ä¸ºä¸Ĭ å®¾
å®ĭ å¿ł
å®ĭ è°¦
æĢİ çĶŁ
çīµ åĩº
è¿· å½ĵ
åºĨ ç«¥
åĿł åľ°
å¾Ĺèĥľ ä¹ĭåħµ
å¤©æ°´ éĥ¡
é¡· åĪ»
éº¾ åĨĽ
åį§é¾Ļ åĨĪ
å±ı é£İ
æĭ© åĲī
é¡¹ åŁİ
åĨĴ çĥŁçªģçģ«
ä½İ è¨Ģ
å±¡ è´¥
è·ª äºİ
éĹ¨æĹĹ å¼Ģå¤Ħ
åºĶå£° èĢĮåĩº
ä¿®ä¹¦ ä¸Ģå°ģ
çŁ¥åħ¶ æĦı
ä½¿åĳ½ èĩ³
ä¸įåľ¨ è¯Ŀä¸ĭ
åłĨ ç§¯
æĬ¢ å¤º
æĭĪ çĿĢ
èĩªé¢Ĩ å¤§åĨĽ
ä¸īåįģéĩĮ ä¸ĭå¯¨
åľŁäºº æĽ°
æĴ¤ åħµ
å¼ķæľ¬éĥ¨ åħµ
äºĽ å°ı
åħµæ³ķ äºĳ
çĽĺ èĽĩ
èĥ¸ ä¸Ń
ä¸ĢæŀĿ åħµ
åº¸ æīį
å¼ķä¸īåįĥ åĨĽ
å¼ķä¸īåįĥ åħµ
ä¸īçĻ¾ åĨĽ
æ¡ĥ èĬ±
éĵł çĶ²
çĺ ¤
çĺ ¦
æĭľä¼ı äºİåľ°æĽ°
æ»ļ éŀįä¸ĭé©¬
ä¸Ģéªĳ é©¬
åºĲ æ±Ł
çºµæ¨ª å¤©ä¸ĭ
åı© å¤´
èĢĮåĵŃ æĽ°
åŃĲæľį æĽ°
èĸĽ åħ°
ä¸ĢæŀªåĪº æŃ»
èĮĤ çĽĽ
çĵ¦ åı£
çĵ¦ è§£
åı±éĢĢ å·¦åı³
ä¸įè¿ľ çŁ£
åı¯çł´ ä¹Ł
çļ® èĤī
æŀŃ éĽĦ
è®² åĴĮ
é¥± é£Ł
åĪĽ ä¸ļ
æĸĩå®ĺ æŃ¦å°Ĩ
èĢģå°Ĩ é»Ħå¿ł
åİħ ä¸Ĭ
æĹ©æľīç»Ĩä½ľ æĬ¥çŁ¥
åįŀ åĸľ
åįŀ æ°ı
æ±Ĺ æµģ
åĸı åĸı
è§Ĥåħ¶ åĬ¨éĿĻ
ä¸ºæ±ī èĩ£
è·Į è¶³
çº¸ ç¬Ķ
éĽķ å¼ĵ
ä»¶ äºĭ
ä¾Ľ ç»Ļ
èĮ¶ ç½¢
éº´ å±±
èķ ĥ
é©» æīİ
èĩ´ä¹¦ äºİ
èĵ Ħ
ä¸Ģè¾Ĩ åĽĽè½®è½¦
è®Ń ç»ĥ
èĭŁ å®ī
èİ·åħ¨ èĥľ
è£¨ å°Ĩ
æŃ£è¿İ çĿĢ
éĤ¹ éĿĸ
å¾ĢæĬķ ä¹ĭ
æµĳ èº«
èļ ģ
ä¹ĭåħĨ ä¹Ł
ç©Ĩ é¡º
åħĪå¸ĿæīĺåŃ¤ ä¹ĭéĩį
ç»Ĩè¨Ģ åħ¶äºĭ
æ¶¿ éĥ¡
åģ¥ å°Ĩ
å¸¦æĿ¥ æ´ŀä¸»
æĮºèº« åĩºæĽ°
ä¼ŀ çĽĸ
çĶĦ æ°ı
åĩºæ¦ľ å®īæ°ĳ
æ²Ĳ æµ´
æĶ¾æ±Ŀ åĽŀåİ»
åħµç²¾ ç²®è¶³
è´¿ èµĤ
æ±īå¯¿ äºŃä¾¯
ç½Ķ ä¸Ĭ
è¿ŀäºº å¸¦
çģŃåħ¶ ä¸īæĹı
éĵģæ¡¶ çĽ¸ä¼¼
ç¥Ŀèŀį å¤«äºº
å¤¤ å¤ľ
ä»¥éĢ¸ å¾ħåĬ³
å¦Ĥåħ¥ æĹłäººä¹ĭ
æħ· æħ¨
æ¨¡ æł·
åºĶå¤©é¡º äºº
åı¸éļ¶ æł¡å°ī
æŃ¦æī¬ å¨ģ
æľ¨é¹¿ å¤§çİĭ
ç§ĭæ¯«æĹł çĬ¯
å¦Ĥåħ¥æĹłäººä¹ĭ å¢ĥ
¸ çĦ¶
é Ī
Ġ åŃĶæĺİ
Ġ åħ³äºĳéķ¿
ĥ è¡Ģ
ĳ çĽ®
Ĵ éĺ³
Ľ è½¦
ä¸ ¢
ãĢĤ ãĢĬ
åħ ľ
å¤ Ń
æĽ ©
ï¼ļ âĢĿ
ä¹ĭ èĩ³
ä¹ĭ å¤ļ
ä¹ĭ çĪ¶
ä¹ĭ å¸¸
ä¹ĭ çĸ¾
ä¹ĭ å¦¹
ä¹ĭ èĥĦ
åĨ »
ä¸į åħ¥
ä¸į èĩ³
ä¸į å½ĵ
ä¸į è¿Ľ
ä¸į è¿ĺ
ä¸į å®ģ
ä¸į é£Ł
ä¸į æĸĻ
ä¸į é¡º
ä¸į åĬ³
ä¸į æķ´
ä¸į éģµ
ä¸į æĻĵ
ä¸į çĥĤ
æŃ ĥè¡Ģ
å¼ Ī
äºº åĪ°
äºº èĩ£
äºº å¤´
åĨĽ å®ĺ
åĨĽ åĬ¡
åĨĽ ä¸įåĪ©
è¯ ¥
è¯ ł
èĢ Ĵéĺ³
åħµ åĬ¿
åħµ å¼º
å¤§ äºº
å¤§ è®¡
å¤§ åı¸é©¬
å¤§ æķĮ
å¤§ çł´
å¤§ éļ¾
å¤§ æĤ¦
å¤§ èµıä¸īåĨĽ
è¿ Ķ
ä¸Ģ åŁİ
ä¸Ģ åŃĲ
ä¸Ģ é¦ĸ
ä¸Ģ å¤§å°Ĩ
ä¸Ģ åĪĩ
ä¸Ģ èĩĤ
ä¸Ģ å°ĳå¹´
ä¸Ģ éľİæĹ¶
è§ Ħ
å°Ĩ æģ¯
å°Ĩ å¯¡
èµ İ
æĿ¥ äºĨ
æĿ¥ çĮ®
æĿ¥ åĬ©
æĿ¥ è¢Ń
æĿ¥ æĲ¦æĪĺ
æĿ¥ åĬ«å¯¨
åĩ °
åĩ Ŀ
æĵ Ĳ
éĹ ¹
æ± ²
è® ³
æľī åħµ
æľī äºĭ
æľī åĲį
æľī ç¥ŀ
æľī å¼Ĥ
æľī äººæĬ¥çŁ¥
æľī æľºå¯Ĩ
æĸ Į
æī ¹
æĵį èĻ½
æĵį ä»İä¹ĭ
æĵį ä»İåħ¶è¨Ģ
æĵį å¤§åĸľæĽ°
æĵį èĩªé¢Ĩ
æŃ¤ æ°´
åİ Į
ä¸ĭ æĭľ
ä¸ĭ æµģ
äºİ åħ¶
äºİ æľĿ
äºİ åłĤä¸Ĭ
ä¸Ń äºĨ
ä¸Ń è¯¸èĳĽäº®
ä¸Ń ä¼¤
ä¸º é£Ł
ä¸º ç¥¸
ä¸º æľŁ
ä¸º è´¨
ä¸º åıĤè°ĭ
ä¸º åģıå°ĨåĨĽ
ä¸º æİİè§Ĵä¹ĭåĬ¿
è§ģ å¸ĥ
è§ģ ç½ª
è§ģ åĳ¨çĳľ
èĢĮ æĵį
èĢĮ è§ģ
èĢĮ å¾Ģ
èĢĮ ç¬ĳ
èĢĮ åĢĴ
èĢĮ åºŁ
èĢĮ éªĤæĽ°
è° ²
è° Ļ
åĬ ±
ä½ķ åı¯
ä½ķ è¨Ģ
ä½ķ ä»ª
ä½ķ èĻĳ
ä½ķ çĶ±
ä½ķ æĦģ
åĩº åĨĽ
åĩº åĨħ
åĩº æ®¿
åĲ¾ åľ¨
åĲ¾ å¾Ĺ
åĲ¾ äºĭ
åĲ¾ å¯¨
åĲ¾ èĢħ
åĲ¾ åĳ½
åĲ¾ èĻ½
åĲ¾ å²Ĥ
åĲ¾ åħĦå¼Ł
éĻ Ĥ
éĻ ĭ
æĢ ĸ
éĥ Ĺ
åı¯ å¾Ģ
åı¯ è§£
åı¯ ä»¤äºº
è´ ´
å¯ °
å¯ ĵ
åĳ Ĩ
åĲİ åĹ£
åĲİ æ§½
ä»¥ ä¸Ģ
ä»¥ å½ĵ
ä»¥ ä¹¦
ä»¥ èĩ£
ä»¥ æĪĲ
ä»¥ éĩĳå¸Ľ
æĽ¹ å°ĨåĨĽ
æĽ¹ æĢ§
æĽ¹ çº¯
æĽ¹ æİ¾
åħ¬ æľī
åħ¬ äºĭ
ä¸Ĭ çĸı
åī ¥
è¡ į
å± ł
ä»Ĭ ä¸º
ä»Ĭ ä¸Ĭ
ä»Ĭ åŃĶæĺİ
ä»Ĭ å¹´
ä»Ĭ äºĳéķ¿
ä»Ĭ éĻĽä¸ĭ
ä»Ĭ å¤©åŃĲ
ä»Ĭ æĽ¹åħµ
ä¸İ èľĢåħµ
ä¸İ åħĦ
ä¸İ åı¸é©¬æĩ¿
ä¸İ è¯¸å°Ĩ
ä¸İ åŃ¤
ä¸İ åºŀå¾·
å¼ł å¸ĥ
å¼ł è¾¾
å¼ł å¼ĵ
å¼ł çĩķ
å¼ł åĭĭ
å¼ł ç¼ī
æĭ ·
åİ» åħ¶
åİ» ä¸ľåĲ´
åİ» è¢Ń
åħ¶ ä¹¦
åħ¶ èº«
åħ¶ è°ĭ
åħ¶ ç¥¸
åħ¶ é¦ĸçº§
çİĦå¾· å¼ķ
çİĦå¾· æĢ¥
çİĦå¾· éĹ»
çİĦå¾· äº¦
çİĦå¾· æķĻ
çİĦå¾· å¤§æĥĬæĽ°
ä»¤ åĨĽ
ä»¤ æŁĲ
åŃĶ åĪĨå¢¨
ä¹ĥ èĩª
ä¹ĥ åħĪ
ä¹ĥ æĽ¹æĵį
ä¹ĥ éģ£
ä¹ĥ åħ³åħ´
ä¹ĥ åħ³äºĳéķ¿ä¹Ł
èĩª å½ĵ
åº ı
åº Ĺ
äºĮ åĨĽ
äºĮ ä¹Ł
äºĮ ä¸»
äºĮ åħĦ
äºĮ éĥ¡
äºĮ ä½į
åĽŀ è¨Ģ
åĽŀ åĲ´
åĽŀ éģ¿
åŃĶæĺİ åħĪ
åŃĶæĺİ éĹ®
å¼ķ ç²¾åħµ
å¼ķ äºĮä¸ĩ
å¼ķ æķ°åįģäºº
å¼ķ æķ°çĻ¾éªĳ
å¼ķ çģ«ä¹ĭçī©
è¨Ģ ä¹Ł
å¦Ĥ å¾Ĺ
å¦Ĥ æµģ
å¦Ĥ ç¥ŀ
åľ¨ åĲ¾
åľ¨ èľĢ
åľ¨ æ±Łå¤ı
åľ¨ ä¸Ģå¤Ħ
æĥ ¨
æĺ¯ åħ¶
åħ¥ èľĢ
åħ¥ ä¸ŃåĨĽ
çĽ¸ è¿ŀ
çĽ¸ èģļ
çĽ¸ æ¬º
çĽ¸ è®©
å¾Ĺ æĪĳ
å¾Ĺ éĵģæ¡¶çĽ¸ä¼¼
éĩ Ń
æĹł æķħ
æĹł åĲĽ
æĹł çĸĳ
æĹł æīį
æĹł ä»ĩ
æĹł æİª
æĿĢ å°½
æĿĢ çīĽ
åħĪ äºİ
åħĪ åĩº
åħĪ è¿Ľ
ä¸ī åĽŀ
ä¸ī èĢħ
ä¸ī äºĶ
ä¸ī ç»ĵ
ä¸ī éĢļ
äºĨ çİĦå¾·
äºĨ ä¸Ģéĺµ
è¯´ åŃĶæĺİ
æĪĳ ä¸į
æĪĳ äºİ
æĪĳ å·²
æĪĳ èĩªæľī
èĩ³ åŃĿ
èĩ³ åŁİä¸ĭ
èĩ³ å¸Ĳä¸ĭ
èĩ³ æ±Łè¾¹
é£ ĺçĦ¶
åŃĲ äºĳ
åŃĲ æĺ¥
çŁ¥ å·±
å¤© å¨ģ
çļĨ å¾Ĺ
çļĨ èĩ³
çļĨ ä¸įèĥ½
äºĭ åĬ¿
éŃ ģ
å¿ħ åıĸ
å¿ħ ä¸įæķ¢
æ±Ŀ å®¶
æ±Ŀ æľīä½ķ
æĹ¶ å»ºå®ī
å½ĵ ä¸İ
å½ĵ éĿ¢
å½ĵ éģĵ
å½ĵ åĪĿ
å½ĵ ä¸ĸä¹ĭ
å½ĵ åĨĽä»¤
åıĪ åĩº
åıĪ èĩ³
åıĪ æĬ¥
åıĪ å¤į
åıĪ æľīè¯Ĺ
åıĪ ä»¤äºº
å·² åĩº
å·² åľ¨
å·² æĪĲ
å·² çł´
å·² æŀģ
èĭ¥ å½¼
èĭ¥ åı¸é©¬æĩ¿
å±± éĩİ
æĬ¥ ä¹ĭ
æĬ¥ éģĵ
æĬ¥ ä¸§
ä¼Ĺ æĸĩæŃ¦
æ¬² èĩª
æ¬² è°ĭ
æ¬² æ±Ĥ
æ¬² èµ·åħµ
åį´ ä¸į
æŃ£ è§ģ
æŃ£ å¾ħ
æŃ£ åĮĹ
æĪĺ æŃ»
æĪĺ æłĹ
è·¯ æĺŃ
éķ¿ åŁİ
éķ¿ èĢħ
èĻ ¹
çİĭ åĳ½
çİĭ ä½į
çİĭ æ¤į
çİĭ æ¥·
çİĭ åĲ«
æ³ Ĭ
å®ī çŁ¥
å®ī å±ħ
éģĤ ç«ĭ
å¿ĥ äºĭ
å¿ĥ ä¹ħçŁ£
éĹ® äºİ
éĹ® äºĨ
é¢ Ĥ
åıĸ å¾Ĺ
åıĸ é½Ĳ
éļ Ĺ
èµ· ä¸Ģ
æŃ» èĢĮå·²
çĦ¶ åħ¶è¯´
èĢħ çļĨ
èĢħ æĹłæķ°
è¡Į è£ħ
è¡Į æķ°å·¡
åĲ´ ä½¿
åĲ´ åĽ½å¤ª
æĽ¹æĵį åľ¨
è®¡ ä¹Ł
è½ ©
è½ ´
éª ĭ
çŃī è¾Ī
ä¾¿ å°±
ä¾¿ è¦ģ
ä¾¿ å·®
çģ ¿
åĪĨ æĺİ
ä¹¦ èĩ³
ä¹¦ åĲį
ä»İ å¤´
é¡ Ĵ
æľª èĤ¯
è¯¸ å®ĺ
è¯¸ èĲ¥
å¸ĥ åĨĽ
èĤ ¥
èľĢ èĲ¥
æ² ¸
æ² Ĥ
æĿĥ ä»İåħ¶è¨Ģ
é£ŀ åĩº
æĢ¥ åıĸ
æĢ¥ åĳ½
æĢ¥ èµ°
æĢ¥ ä»¤äºº
åįĹ å±ıå±±
åĵ ģ
åĵ ĳ
èµ° åħ¥
åĽĽ å·ŀ
åĽĽ çĻ¾
åĽĽ ä¸ĩ
åĽĽ åįĥ
åĽĽ ä¸ª
åĽĽ ä¸ĸ
æķ° éªĳ
æķ° åįģéĩĮ
èĩ£ æĸĻ
å§ ¿
åį³ å¼ķ
åį³ éģ£äºº
å¿½ äººæĬ¥
å¿½ è¿ĳèĩ£å¥ıæĽ°
å¿½ æµģæĺŁé©¬
ä¸¤ æĹ¥
ä¸¤ å¤Ħ
ä¸¤ åĳĺ
å¾Ģ æķĳ
å¾Ģ å¤į
å¾Ģ æ±Łä¸ľ
å¾Ģ æ±Łå¤ı
å¾Ģ æ±ĿåįĹ
æ±Ł ä¸Ĭ
æ±Ł æ±ī
æ±Ł æ°´
æ±Ł å·¦
æ±Ł èĢĮæŃ»
å¤ĩ é©¬
æīĢ é¢Ĩ
æīĢ å®ľ
äºĶ åŃĲ
äºĶ éĺŁ
æŁ ¯
å¹³ èĽ®
æľĽ åīį
æľĽ å°ĨåĨĽ
æľĽ æ±īä¸Ń
æµ Ĩ
æµ ĵ
æ±ī ä¸ŀçĽ¸
æ±ī ç¦Ħ
æķħ ä»¥
æķħ åħĪ
æķħ å°Ķ
æķħ æľīæŃ¤
å¤ª è¿ĩ
å¤ª ç¥ĸ
æĸ¹ ä¸Ī
çĶŁ çĸĳ
æĸĩ å¸Ŀ
æĸĩ ç«ł
æ°´ ä¸į
æ°´ éĿ¢
æ°´ æ·±
éĻį èľĢ
éĻį æĹ¨
çĶ¨ ä¸º
çĶ¨ ä¹ĭçī©
å°ı å¾Ħ
å°ı è¾Ī
æĩ Ĵ
åĲĦ ä¸º
åĲĦ å®ĺ
åĲĦ ä¾Ŀ
åĲĦ å¼ķä¸Ģä¸ĩ
åį´è¯´ èµµäºĳ
åį´è¯´ è¢ģç»į
åį´è¯´ åŃŁèİ·
å£° å¦Ĥ
å°½ åĩº
å°½ éĢĢ
æķ¢ æľī
æĥĬ å¾Ĺ
æĥĬ éĹ®
è´¥ çŁ£
äº¦ ä¸įåı¯
è¯· æĽ°
è¯· å°ĨåĨĽ
è¯· ä¸ŀçĽ¸
è¢« æĿĢ
è¢« äºĳ
è¢« äºĳéķ¿
åĽ½ æĶ¿
åĽ½ å¯Į
ç½ ¡
ä½ı æīİ
ç® ¸
é¢Ĩ æŃ¤
è®¸ ä»¥
è®¸ æ±ľ
å·¦ ä¾§
å¿ł è¨Ģ
éĶ ¥
çĳľ å¤§åĸľ
äºĮäºº åĲĦ
åĲį ä¸į
å¾Ĳ åħĥçĽ´
ç»´ å¤§æĥĬ
æķĻ ä¹ĭ
æķĻ ä¼ĳ
æķĻ åľº
åĨħ ä¾į
éģĵ åı·
éģĵ çĲĨ
éģĵ åĤį
èº« åħĪ
ç«ĭ äºĨ
å¤ļ è®¾
çľĭ ä»ĸ
åĲĮ é¢Ĩ
æķĳ ä¸»
æķĳ é©¾
æŃ¦ éĻµ
éĺ³ å®ī
æĪĲ æµİ
æŁĲ èĻ½ä¸įæīį
çŃĸ ä¹ĥ
æķĮ ä¹Ł
æķĮ ä½ı
æĭľ ä¼ıäºİ
å®ļ è®¡
çģ« çĤ®
åįĥ éĩĳ
åı³ æīĭ
éĺµ è§Ĵ
å®¶ åĥ®
èįĨ æ£ĺ
å¼ķåħµ åİ»äºĨ
å¼ķåħµ æİ¥åºĶ
å¼ķåħµ åįģä¸ĩ
å¼ķåħµ åīįè¿Ľ
åı£ åĨħ
ç¬ĳ èĩªèĭ¥
ä½ľ éĢŁ
åĪĢ ç®Ń
å¹¶ åĲŀ
é«ĺ å£«
é«ĺ åĿĲ
é«ĺ åı«
ä¼ļ æĦı
äº² ç¬Ķ
éľ Ħ
éľ ĸ
åĮĹ ä¼Ĳ
åĲĽ ä¹ĭ
åĲĽ è¨Ģ
èĪ¹ åĪ°
æļ ĳ
è¡¨ æĸĩ
è¡¨ ç«ł
åĬ¿ åį±
éĻĪ åħĥ
éĻĪ çŁ«
æĿİ åłª
çĶļ å¯Ĩ
çĶļ å¦Ļ
è½¦ é©¬
è½¦ è¾Ĩ
å½Ĵ åĳ½
å½Ĵ é¦ĨèĪį
è°ĵ ä¼Ĺå°ĨæĽ°
æģĲ éĿŀ
æģĲ ä¸įèĥ½
åĳĬ è¯´
æĦ¿ åħĪçĶŁ
éģ£ å¤§å°Ĩ
èĲ¥ åīį
åıĳ ä¸§
ä»ĸ äºĭ
åķ ¼
èĬ ¥
çĽ´ å¥Ķ
åıĹ æŃ¤
åıĹ æŃ»
åıĹ åĪĳ
å¤± äºĭ
å¤± æķ£
å¤ıä¾¯ çİĦ
åĨį åĽŀ
åĨį è®®
è¿ŀ å¤©
è¿ŀ ç»µ
ä¹ĺ æŃ¤
ä¹ĺ å¤ľ
ä¹ĺ æľº
å¤į åĩº
åİŁ æĺ¯
éªĳ éĥ½å°ī
å¥ı å¤©åŃĲ
å¥ı åĩĨ
åĲķå¸ĥ æĽ°
å¼łé£ŀ å¤§æĢĴ
å¸Ĳ åĲİ
éĥ¡ å®Ī
éħĴ éħ£
éħĴ è¡Įæķ°å·¡
èĢģ èĩ£
èĢģ åıŁ
åĬĽ æĪĺ
çł´ è´¼
æł ĭ
ä¹ī éĩĬ
å°± å¸Ń
ä¹± åĽ½
ä¹± çªľ
å¼Ģ äºĨ
å¼Ģ è¯»
ä¹ħ å¿ħä¸º
åıį æİĮ
æľ¬ å·ŀ
åįĵ åĳ½
åķĨè®® å·²å®ļ
çĸĳ ä¹ĭ
çĸĳ å¿Į
é¾Ļ ä½ĵ
æ® Ĵ
èĳ£ è´¼
èĳ£ äºŃ
å¦Ĥä½ķ çŀĴ
å¤©ä¸ĭ èĭ±éĽĦ
è§£ åĴĮ
ä¸»åħ¬ ä¸Ķ
ä¸»åħ¬ åĭ¿å¿§
å²Ĥ éĿŀ
æĹ¢ ä»¥
æĹ¢ å¦ĤæŃ¤
å®« äºº
å®« æ®¿
å§ĵ å¼ł
å§ĵ åĲķ
éĩĳ å®Ŀ
éĩĳ åĨł
éŃıå»¶ å¼ķåħµ
çķĻ åħµ
çķĻ åľ¨
æĵĴ æĿ¥
æĵĴ èİ·
æĵĴ åŃŁèİ·
å¤§æĥĬ å¤±èī²
åŃĹ æĹĹ
åŃĹ æł·
çª Ĺ
èµµäºĳ ä¹Ł
èĥĮ ä¸»
å·¦åı³ æİ¨åĩºæĸ©ä¹ĭ
æ¶ Ľ
ç¼ Ħ
éŁ© å¿ł
ä»ģ æĽ°
åı« éªĤ
éĢģ åĪ°
çļĩ å¤ªåĲİ
äº® æĽ°
çĤ ī
åı¸é©¬æĩ¿ ä¹Ł
è¿ľ åĩº
å¼ĥ äºİ
å¼ĥ å®ĺ
ä½Ĩ çľĭ
æľĪ èī²
åĽ´ äºĨ
åĽ´ åľ¨åŀĵå¿ĥ
å§ľç»´ åľ¨
è¿ĺ éĥ½
è¿ĺ æ´Ľéĺ³
å¯Ĩ å¸ĥ
è¾ŀ åĽŀ
è¾ŀ å½Ĵ
èįī åºĲ
èįī èĬ¥
ç½ª æģ¶
ä½ł åı¯
åħ« åĽŀ
åħ« éĿ¢
å°Ħ ä½ı
å°Ħ çĮİ
ä¿¡ ä¹ī
çĻ½ æĹĦ
æ²³ è¥¿
å°ĳ å¸Ŀ
ä¼ł æĬ¥
æĬĬ å®Ī
å¥½ çĶŁ
å¥½ éħĴ
é¥® èĩ³
ä¸ľåĲ´ éĻĨéĢĬ
äºİæĺ¯ åŃĶæĺİ
åı· çĤ®
éĤ£ æĿ¡è·¯
æīĵ åıĳ
å®ŀ ä¸įçŁ¥
åĨ² éĺµ
æľį åħ¶
æ¢ ĵ
è°¢ ç½ª
çĴ ľ
æ·± éĢļ
æ·± æĦŁ
å¼ķåĨĽ èµ¶æĿ¥
å¼ķåĨĽ åīįè¿Ľ
çºµ ä½¿
ä»» ä»ĸ
åĨ³ çŃĸ
åĨ³ æŃ»æĪĺ
æļĹ ä½¿äºº
ä¹ĭäºĭ ä¹İ
è¡£ åĨł
è¡£ è¥Ł
ä¸ĥ è·¯
ä¸ĥ å¹´
åıĶ åıĶ
å¤º ä¹ĭ
èĻļ åĲį
ä¿Ŀ åħ¨
ç¥ŀ æŃ¦
ç¥ŀ å¨ģ
ç¥ŀ æľº
åľŁ åľ°
åľŁ æľ¨
èĴĻ ä¸ŀçĽ¸
æī¿ å½¦
åı¬ åĽŀ
å¯¹ ä¼Ĺ
å¯¹ éĺµ
æģ© å¾·
åħ¨ çĦ¶
åħ¨ è£ħ
æķ£ åħ³
çĽ® åīį
ç§° ä¸º
èģļ ä¼Ĺ
æĽ¾ éĹ»
æľīä¸Ģ å°Ĩ
çº¦ éĢĢ
åĪº ä¸Ń
åĪº æĿĢ
åºľ åīį
å»º éĺ³
å»º åĬŁ
å»º å®ģ
åħŃ æľĪ
åĸĿ éĢĢ
éĿĴ åĽĬ
éĿĴ éĩŃ
èµĲ éħĴ
éĢĥ åĽŀ
æŀľ æĺ¯
ç»ĵ äº²
ç»Ŀ åħ¶
ç¦» æŃ¤
æŃ¥ éªĺ
çĶĺ æ³ī
å¿½æĬ¥ æĽ¹æĵį
ä¸¥ æķ´
çĻ» å²¸
çĻ» èĪŁ
åĢĴ åľ¨åľ°
ä¾Ŀ æ³ķ
ä¾Ŀ åħģ
åħĪçĶŁ ä¹ĭè¨Ģ
é¡º é£İ
åłĤ ä¸ĭ
åĸĦ èĥ½çĶ¨åħµ
æľ¨ çŁ³
ä¸įå¦Ĥ æĹ©
è´Ł æľķ
çĽĽ è´®
æĥ§ æĢķ
èĭŀ äºĮäºº
çĲĨ äºĭ
çĲĨ åĲĪ
åĬ« ç²®
æĭĽ è´¤
æĮº æĪŁ
æķ¬ ä¹ĭ
åĩºåŁİ æĿ¥
åĩºåŁİ è¿İæİ¥
çĿ¿ å¤§æĥĬ
åİŁæĿ¥ æĺ¯
é©± é©°
ä¹ĭäºº ä¹İ
æĮģ æĪŁ
çģµ æĽ°
åĪ© åľ¨
èĩ´ ä½¿
äºĮå°Ĩ æĽ°
èİ« å¤§
èİ« èĭ¥
åıĺ çŁ£
æľ± èµŀ
çģŃ éŃı
æĸĹ éĺµæ³ķ
å¿½çĦ¶ èĥĮåĲİ
å¿½çĦ¶ ä¸Ģå£°çĤ®åĵį
å¿½çĦ¶ çĭĤé£İå¤§ä½ľ
æ®¿ ä¸Ĭ
åĸĬå£° åıĪèµ·
å¾¡ èĲ¥
è¿Ļ æĿ¡è·¯
éĢļ æĬ¥
æ±ľ æ°´åħ³
æľªçŁ¥ åħ¶è®¡
ä¹¾ è±¡
ç¥ģå±± å¤§å¯¨
éº Ł
åį§ äºİ
å« ī
æĥŁ å°ĨåĨĽ
æ¨Ĭ å»º
åĲī åħĨ
åĩĨ ä¿¡
æ½ ®
çºµé©¬ åĲĳåīį
è¡Ģ æ°Ķ
ä¸Ī ä½Ļ
æ¯Ķ è¯ķ
èĴĭ æĸĮ
è´¾ åįİ
é¹ Ĭ
è°ĥ åº¦
è°ĥ ç»ĥ
ä¸īåįĥ äºº
çĥ§ æ¯ģ
å¥ĭ æŃ»
æ²» ä¹ĭ
çĶ° æ°ı
æĦŁ åı¹
åº¶ æ°ĳ
åı¤ ä»Ĭ
æķ´ é½Ĳ
æĻ® æĽ°
éĵģ çĶ²
è¿Ł åĪĻ
æ¡ĵ å¸Ŀ
èĹ ľ
åįĩ èµı
å¥¸ è´¼
å¥¸ åħļ
å¥¸ éĤª
èĭ¥ä¸į æĹ©
åĩł ä½ķ
åĩł çķª
æĬ« çĶ²
çĹĽ é¥®
æĺŁå¤ľ å¾Ģ
çŀ ĳçĽ®
åŃĿ å»ī
å¥ĩ ä¹ĭ
èĭ¦ åĳĬ
èµ¤ å¸»
ç«ĭäºİ éĺµåīį
å³ ¡
æº ħ
èĬ³ æĽ°
ç»£ æĹĹ
ä¸įåıĬ ä¹Ł
çĪ½ æĽ°
èĭ±éĽĦ ä¹Ł
ä¹¡ äºº
æŃĩ é©¬
æŃĩ å®ļ
ç§ĭ éĽ¨
ç§ĭ åħ«æľĪ
ç§ĭ ä¸ĥæľĪ
ç®¡ å¾ħ
åĤ¬ èĪ¹
éŁ¦ åº·
ä¹ĺåĬ¿ åĩ»ä¹ĭ
éļĲ è®³
æ¢ģ èĻĶ
çĶ» æĪĲ
è¶Ĭ æĽ°
æŃ»æĪĺ å¾ĹèĦ±
èĪŁ ä¸Ń
æ¤ ģ
æ¬º åĲ¾
ç¦ı æĽ°
åįķ æŀª
åĽŀè§ģ åŃĶæĺİ
åĽŀè§ģ æĽ¹æĵį
åĽŀè§ģ åĲ´ä¾¯
æĿĢåĩº éĩįåĽ´
éĽ· èĸĦ
å¤ªåĲİ æĽ°
ç§¦ çĲª
ä¸įä»İ èĢħ
åĹ Ķ
åĩ¤ åĩ°
å¼© ç®Ń
è´£ ä¹ĭ
ç»ı è¿ĩ
æĭ¦ æĪª
åĤį è¾¹
æľ¬éĥ¨ äººé©¬
å½§ æĽ°
éģ£äºº éĢģ
æİĪ ä»¥
ç«º æĽ°
å¾® æĺİ
æĢ» é¢Ĩ
ä¸Ģå½ªåĨĽ åĩº
ç¨ĭæĻ® æĽ°
ä¹Į ç¨ĭ
åĲ¾å·² çŁ¥
éŁ©éģĤ æĽ°
ä¸ºé¦ĸ èľĢå°Ĩ
ä¸ºé¦ĸ ä¸Ģåĳĺå¤§å°Ĩ
æĪĺä¸į åįģåĲĪ
å¦Ħ æĿĢ
ä¸ľåįĹ è§Ĵä¸Ĭ
å¼łæĺŃ çŃī
èĹı äºİ
ä¸ºåīį éĺŁ
ä¸ºåīį é©±
ç¾İ å¥³
ç¾İ é«¯
åĽŀé¡¾ ä¼Ĺå°ĨæĽ°
è²ĤèĿī æĽ°
å®½ æģķ
ä¹ı ç²®
ä¸īåįģ å¹´
è¯» åħµä¹¦
åĽŀåĪ° å¯¨ä¸Ń
çĽĬå·ŀ çī§
èĨ ³
åĲĬ åĲĽ
é©° æªĦ
éĻ· åĿĳ
å½ĵå¤ľ äºĮæĽ´
èĳ£æī¿ çŃī
åľĨ å¤Ħ
åľĨ çĿģ
çļĨæĺ¯ éŃıåħµ
çŀĴ è¿ĩ
åĩŃ ä¸īå¯¸
æĹłäºº æķ¢
åĽĽä¸ĭ éĩĮ
ä¸Īå¤« ä¹Ł
å°¹ å¥ī
ä¸īåįģä½Ļ ä¸ĩ
æĶ¶åħµ åĽŀ
ç±į æĽ°
æĢľ ä¹ĭ
äº¬ åħĨ
å±Ī èĨĿ
èĽĩ çŁĽ
èĦļ ä¸ĭ
æĳĨ åĪĹ
éº¦ çĨŁ
åħ¥å®« ä¸Ń
å°ĺ åľŁ
æĪı èĢ³
çŁŃ åĪĢ
å¯¡ ä¸įæķĮ
éĵ¶ åĿĳ
å¼ĵå¼© é½Ĳåıĳ
å®¿ äºİ
å¤ªå°ī æĿ¨å½ª
éº¾ çĽĸ
ä¸įç»Ŀ åı£
ä¸ĢæĹ¶ ä¹ĭ
åĲ¾æĸĻ åŃĶæĺİ
å±ı åĲİ
åįģäºĮ åĽŀ
é¡¹ ç¾½
ä¹ĭæ³ķ ä¹Ł
åĨĴ çŁ¢çŁ³
æģĲæľī åŁĭä¼ı
æ¶ķ æ³£
é©±åħµ æİ©æĿĢ
é©±åħµ å¤§è¿Ľ
åĵ¨é©¬ æĬ¥è¯´
çĩķ äºº
ä¹ĭåĬĽ ä¹Ł
ä½¯ ä½ľ
çİĦå¾·ä¸İ åŃĶæĺİ
çİĦå¾·ä¸İ åħ³
æĲŃ èµ·
åįģäºĶ åĽŀ
éŃĤ ä¸į
éŁ³ ä¿¡
åī¿ çģŃ
åľŁäºº éĹ®ä¹ĭ
æ§ Ľè½¦
åĨįæĭľ æĽ°
éĩĬ åħ¶ç¼ļ
èĪĮ è¾©
çĮİ äºİ
éļĨ åĨ¬
æĬ¥åħ¥ æ´Ľéĺ³
çŃīåĢĻ å¤ļæĹ¶
æ·» åħµ
æ»ļ ä¸ĭ
åĨ· ç¬ĳ
åĲ¾æĦı å·²åĨ³
æ±Ŀä½ķ æķ¢
é»ĺçĦ¶ æĹłè¯Ń
æ¶Ĥ çĤŃ
éĽįå·ŀ åĪºåı²
ä¸ĭå±± æĿ¥
çļĤ è¡£
ä¸įå¾Ĺå·² èĢĮ
ä¸įå¾Ĺå·² èĢĮéĻį
ä»°å¤© éķ¿åı¹æĽ°
ä¸ºé¦ĸå¤§å°Ĩ ä¹ĥ
æĸŃåħ¶ å½Ĵè·¯
åı±æŃ¦å£« æİ¨åĩºæĸ©ä¹ĭ
åĲ¹ æĬĺ
èµ¦ ä¹ĭ
èĭį å¤©
åĮº åĮº
åĨħå¤ĸ å¤¹æĶ»
ç«ĭåĬŁ åĲį
åĵŃæĭľ äºİåľ°
æ·±åħ¥ éĩįåľ°
é¸¡ èĤĭ
äº« å¯Įè´µ
ç£ Ĳ
è¾° æĹ¶
éķ¿æ±Ł ä¹ĭéĻ©
é¥¶ æ±Ŀ
æĲľ åĩº
åı¬åħ¥ éĹ®ä¹ĭ
åĲĬæ¡¥ è¾¹
éģģ çĶ²
éªģ åĭĩ
é»ĦéĹ¨ ä¾įéĥİ
ç«ĭé©¬äºİ æ¡¥ä¸Ĭ
åīįéĥ¨ åħĪéĶĭ
å¿łèĩ£ ä¹Ł
èµ¤å£ģ éıĸåħµ
åı¥ å®ī
è£´ ç§Ģ
åįĳ è¡į
çĬĴ ä¸īåĨĽ
çİĦå¾·éĹ® åŃĶæĺİæĽ°
æĬ«åıĳ ä»Ĺåīĳ
åĪ«æĹł ä»ĸæĦı
åĲ´ä¸»åŃĻ ä¼ĳ
ä¸ľåįĹé£İ èµ·
çŁ« è¯ı
éĻĪçıª çĪ¶åŃĲ
èİ·åħ¨ åĬŁ
å±¯ç²® ä¹ĭæīĢ
çľŁç¥ŀ äººä¹Ł
éĤ¹ æ°ı
é£ŀèº« ä¸Ĭé©¬
åĨįä½ľ èī¯åĽ¾
è£ģ å¤Ħ
é¹° æī¬
æ¼³ æ²³
æ¬ºåĲĽ ç½Ķä¸Ĭ
ä¼¼æŃ¤ å¦Ĥä¹ĭå¥Īä½ķ
è¿¸ è£Ĥ
æĸŁ éħĮ
ç»ĳ ç¼ļ
å¨ĺ å¨ĺ
æĲ¬è¿Ĳ ç²®èįī
èĹ¤çĶ² åĨĽ
éĺİ åľĥ
æıª ä½ı
ç»°æŀª ä¸Ĭé©¬
è¹ĩ ç¡ķ
ä¹ĥåŃĶæĺİ ä¹Ł
çİĭåŃĲæľį çŃī
è¶± ç¨ĭ
æĩĪ æĢł
æĸĻæķĮ ä¸įè¿ĩ
ä¾Ŀå±± åĤį
åįİå®¹ éģĵ
æĬĺåħµ å¤§åįĬ
è¸ª è¿¹
ä¸ĢåŃĹ åĦ¿
ä¸Ńå±± éĿĸ
æĹłå¿ĥ æģĭæĪĺ
çĶ¨å¥½è¨Ģ æĬļæħ°
ä¸ĸæīĢ ç½ķ
èĻļå¼ł å£°åĬ¿
æģ¢å¤į ä¸ŃåİŁ
å¤ªå¸¸ åį¿
çıŃéĥ¨ ä¸Ń
æ¼«å±± éģįéĩİ
ä»¥è¨ĢæĮĳ ä¹ĭæĽ°
å¦« è§Ī
ä»¥åĪ©å®³ è¯´ä¹ĭ
åħ³åĨħ ä¾¯
èĤº èħĳ
éĩĳçİ¯ ä¸īç»ĵ
æ°¸ç»ĵ çĽŁå¥½
åª Ĵ
åĳľ åĳ¼
åĲ´å¤ª å¤«äºº
å²ĺ å±±
çĥ½ çģ«
å¼ĥå¯¨ èĢĮèµ°
æ»ķ èĥ¤
ä¾įç«ĭäºİ ä¾§
çīĽå¤´ å±±
å°¸æ¨ª éģįéĩİ
å±ıé£İ åĲİ
æ¡ĥèĬ± æ¸¡åı£
è¿ŀäººå¸¦ é©¬
èĢĴéĺ³ åİ¿
æĿĢçīĽ å®°
åħ¨è£ħ æĥ¯
¤ æµ·
© å¿Ĺ
³ ç¥¥
é ¤
Ħ åŁİ
Ĩ åŃĲ
ĩ å¸Ń
į éģ¥
Ł é¾Ļ
ãĢ Ĳ
ãĢ ĳ
ä¸ Ŀ
âĢ ¦
åħ ¹
å¤ Ķ
å¤ Ļ
æĽ ¼
ä» ¿
ä¹ĭ é©¬
ä¹ĭ æĺİ
ä¹ĭ è¯´
ä¹ĭ è´¥
ä¹ĭ çģ«
ä¹ĭ å®¶
ä¹ĭ æ¬¡
ä¹ĭ äº²
ä¹ĭ çĶļ
ä¹ĭ ä¹±
ä¹ĭ å¥½
ä¹ĭ çĹħ
ä¹ĭ å¨ģ
ä¹ĭ å¿§
ä¹ĭ ä½į
ä¹ĭ çģµ
åĨ ¤
åĨ °
åĨ ķ
ä¸į èĩ£
ä¸į å°ı
ä¸į äº¦
ä¸į å¾ħ
ä¸į å¤ļ
ä¸į ä½ľ
ä¸į æĶ¾
ä¸į è½»
ä¸į åħģ
ä¸į éģĩ
ä¸į å¹²
ä¸į åĬł
ä¸į ä¼¼
ä¸į ç»§
ä¸į æ¯Ľ
ä¸į èĸĦ
ä¸į ä¸ĢæĹ¶
å¾ ĭ
ä½ ĳ
åŃ ©
å¼ ¹
å¼ ¼
äºº æľĽ
äºº çĶŁ
äºº ä¼´
åĨĽ åĬ¿
åĨĽ æĥħ
åĨĽ æł¡å°ī
åĨĽ å¤§ä¹±
èĢ Ĺ
åħµ å°Ĩ
åħµ åĪĨä¸īè·¯
åħµ éĿ©
å¿ Ĩ
æķ Ľ
å¤§ åĽ½
å¤§ ç¤¼
å¤§ é£İ
ä¸Ģ æĺ¯
ä¸Ģ å¾Ģ
ä¸Ģ æľĽ
ä¸Ģ ç»Ł
ä¸Ģ åīĳ
ä¸Ģ å¹²
ä¸Ģ ä½ĵ
ä¸Ģ åı¶
ä¸Ģ æĹħ
é©¬ è¹Ħ
å°Ĩ åħµ
å°Ĩ åĲı
å· ©å¿Ĺ
ä¼ İ
æĿ¥ æĹ¶
æĿ¥ æİ¥
åĩ ¹
æ± ¹
å¸ ¼
æľī å¾·
æľī çĶļ
æľī è¯ı
æľī åĭĩ
æľī æĹ§
æľī åĩĨå¤ĩ
æī Ń
æĵį äºİ
æĵį èĩ³
æĵį æĸ¹
æĵį åĽł
æĵį è°ĵ
æĵį æĮĩ
æĵį ä½¿äºº
æĵį å¤§ç¬ĳæĽ°
æĵį çĦ¶åħ¶è¨Ģ
æŃ¤ å±±
æŃ¤ æŃ£
æŃ¤ äº¦
æŃ¤ åĽĽäºº
æŃ¤ èĩ£ä¹ĭ
æŃ¤ æīĢè°ĵ
åİ ¢
ç» ¥
ç» ½
ç» ĩå¸Ń
ä¸ĭ èĲ¥
äºİ ä¸Ĭ
äºİ å¤©
äºİ éŃı
äºİ å¤ª
äºİ çĲĨ
äºİ å£ģ
äºİ è½¦ä¸Ĭ
äºİ æ°´ä¸Ń
äºİ æ¸Ńæ°´
äºİ éħĴèī²
äºİ åĨĽä¸įåĪ©
äºİ è¯ł
ï¼Ł âĢľ
ä¸Ń éģĵ
ä¸º æŃ£
ä¸º å¹³
ä¸º è´¼
ä¸º ä¹ī
ä¸º å®³
ä¸º å¾ģ
ä¸º å¤©åŃĲ
ä¸º å¦»
ä¸º èĤī
ä¸º éŃıçİĭ
ä¸º åı¸å¾Ĵ
ä¸º å¹³åİŁ
ä¸º ä»İäºĭ
ä¸º éªłéªĳå°ĨåĨĽ
ä¸º å¤ĸåºĶ
è§ģ å±±
è§ģ å°ĨåĨĽ
è§ģ ä»ĸ
è§ģ çĸĳ
è§ģ é©¬è¶ħ
è§ģ è¯Ĩ
è§ģ åħ¶äºº
ï¼ģ âĢľ
èĢĮ èĩª
èĢĮ å¾Ĺ
èĢĮ æĭľ
èĢĮ ä½ľ
èĢĮ å¥Ķ
èĢĮ åıį
èĢĮ åı¹æĽ°
èĢĮ æĿĢä¹ĭ
èĢĮ çŃĶæĽ°
èĢĮ åĩ»ä¹ĭ
èĢĮ æĹłè°ĭ
è° ¤
è° ¶
è° ŀ
éĢ įéģ¥
ä½ķ åħ¶
ä½ķ å¹³
ä½ķ å¼Ĥ
ä½ķ äººä¹Ł
ä½ķ èģĮ
ä½ķ åĲīåĩ¶
å¹ ħ
åĩº é¦ĸ
åĩº åĵ¨
åĩº è¥¿éĹ¨
åĩº å¥ĩåħµ
åĩº èĮħåºĲ
åĲ¾ ä½ķ
åĲ¾ æĹ¢
åĲ¾ æľīä¸Ģ
åĲ¾ ä¸įå¦Ĥ
åĲ¾ ç´ł
åĲ¾ æŃ»ä¹ĭåĲİ
éĻ ª
åı¯ çŁ¥
åı¯ èµ°
åı¯ å°½
åı¯ æķĮ
åı¯ èĥľ
åı¯ åĨį
åı¯ å·®
åı¯ æ¯Ķ
åı¯ æļĤ
è´ Ŀ
å¯ ħ
åĳ ķ
åĲİ è·¯
åĲİ åĽł
åĲİ éļı
ä»¥ åĲ¾
ä»¥ çĮ®
ä»¥ è°¢
ä»¥ çĽ®
ä»¥ åĢĻ
ä»¥ éģ¿
ä»¥ åħ»
å¥ ĸ
æĽ¹ å¥Ĥ
åħ¬ è§ģ
åħ¬ å°ĨåĨĽ
ä¸Ĭ å¸Ĳ
ä¸Ĭ ç®Ń
è¡ «
è¡ ·
å± Ģ
åŁ ĥ
ä»Ĭ çŁ¥
ä»Ĭ çİĭ
ä»Ĭ éŃıåħµ
ä»Ĭ å®ľ
ä¸İ ä¸ŀçĽ¸
ä¸İ åĲĽ
ä¸İ èµµäºĳ
ä¸İ å¼łéĥĥ
ä¸İ éĤĵèī¾
ä¸İ éŁ©éģĤ
ä¸İ éĻĪå®«
ä¸İ å®¡éħį
ä¸İ å°ıä¸»äºº
å¼ł æŃ¦
å¼ł ç»į
æĭ £
æĭ ³
æĭ Ł
åİ» åĬ«å¯¨
åħ¶ å¤§
åħ¶ åħĦ
åħ¶ å®ŀ
åħ¶ å®ľ
åħ¶ åĭĩ
åħ¶ å¤§åįĬ
åħ¶ éĶĲæ°Ķ
çİĦå¾· ä»¤
çİĦå¾· çŃī
çİĦå¾· è¯·
çİĦå¾· èĥĮåĲİ
çİĦå¾· åı¹æĽ°
çİĦå¾· éĹ»ä¹ĭ
çİĦå¾· åĨįä¸ī
æĹ¥ åĲİ
æĹ¥ å·²
èĥ ģ
ä»¤ æĪĳ
ä»¤ æ±Ŀ
ä»¤ åħĦ
ä»¤ åºŀå¾·
ä»¤ æŃ¦å£«
ä»¤ è¯¸ä¾¯
ä¹ĥ éŃı
ä¹ĥ å¤į
ä¹ĥ ä¹ī
ä¹ĥ ä¸ĭé©¬
ä¹ĥ ä¸ºä¸ĬçŃĸ
èĩª ä¸º
å£ ĳ
äºĮ åŃĹ
äºĮ çĻ¾éĩĮ
åĽŀ å®«
åĽŀ æľĿ
åĽŀ æ±īä¸Ń
åĽŀ åºľ
åĽŀ è¦Ĩ
åĽŀ è®¸æĺĮ
åŃĶæĺİ å°Ĩ
åŃĶæĺİ éĹ®æĽ°
åŃĶæĺİ ä¹ĭè¨Ģ
åŃĶæĺİ ä»İä¹ĭ
åŃĶæĺİ ç«¯åĿĲäºİ
éĿ ³ç¥¥
å¼ķ è§ģ
å¼ķ äºĮ
å¦Ĥ ä»Ĭ
å¦Ĥ ä¸įèĥľ
å¦Ĥ åħ¶ä¸į
å¦Ĥ èįīèĬ¥
åľ¨ äºİ
åľ¨ å°ı
åľ¨ åĨĽä¸Ń
åľ¨ éķ¿å®ī
åľ¨ åŁİå¤ĸ
åľ¨ èĲ¥ä¸Ń
åľ¨ çĭ±ä¸Ń
æĺ¯ ä¸Ģ
æĺ¯ æĹ¶
æĺ¯ ä¸ľåĲ´
åħ¥ å¸Ń
åħ¥ éª¨
åħ¥ åºľä¸Ń
çĽ¸ åĲĮ
çĽ¸ åºĶ
çĽ¸ æĶ»
çĽ¸ å¹¶
å¾Ĺ çİĦå¾·
å¾Ĺ ä¸Ģäºº
è¢ ħ
æĹł ä¿¡
æĹł æĤ£
æĹł éĻĲ
æĿĢ æŃ¤
æĿĢ æŃ¤è´¼
æģ Ĥ
åħĪ æĿ¥
åħĪ åħ¥
åħĪ èĩ³
åħĪ å·®
åħĪ æĸŃ
ä¸ī éĹ¨
ä¸ī æľĪ
ä¸ī çĻ¾ä½Ļäºº
äºĨ ä¹Ł
äºĨ è®¸å¤ļ
ä¸» ä½ķåĲīåĩ¶
è¯´ äºĨ
è¯´ çŁ¥æŃ¤äºĭ
æĪĳ æĺ¯
æĪĳ çľĭ
æĪĳ èĢ¶
æĪĳ åĨĽå¿ĥ
åħ³ ä¸ľ
åħ³ è¥¿
èĩ³ è¿ĳ
è· ĳ
åŃĲ åįĪ
åŃĲ éĤĵå¿ł
åĪ° èįĨå·ŀ
åĪ° æ±īä¸Ń
åĪ° å¤§å¯¨
çŁ¥ è§ī
å¤© å¿ĥ
å¤© ä¹¦
å¤© éģĵ
å¤© æĻĵ
åįģ å¹´
åįģ çŁ¢
çļĨ ä¸į
çļĨ ä»¥
çļĨ åĪ°
çļĨ å¹³
çļĨ åĲĮ
çļĨ éļı
çļĨ åĳ¼
çļĨ å½Ĵäºİ
äºĭ æ³Ħ
åĸ ·
åĸ Ĥ
éŃ Ħ
å¿ħ ä»¥
å¿ħ èµ°
æ±Ŀ å°Ĩ
æĹ¶ éŃı
æĹ¶ åĬ¡
å½ĵ ä¸º
å½ĵ å¾Ģ
å½ĵ æĻļ
å½ĵ å¦Ĥä¹ĭä½ķ
åıĪ å¼ķ
åıĪ è´¥
åıĪ ä¸ĢåĨĽ
åıĪ å¥ıæĽ°
åıĪ ä¸įè§ģ
å·² å¹³
å·² å±ŀ
åıª ä»¤
åıª éĹ»
åıª ç®¡
åıª ä¸īåĲĪ
èĭ¥ æĹł
èĭ¥ çĶ¨
èĭ¥ èľĢåħµ
èĭ¥ è¦ģ
èĭ¥ éŃıåħµ
å±± è¾¹
æĬ¥ åĪ°
æĬ¥ æĽ¹æĵį
ä¼Ĺ è§Ĩåħ¶äºº
æ¬² åĽŀ
æ¬² å½Ĵ
æ¬² èĩªåĪİ
æŃ£ ä¸ľ
æŃ£ åĿĲ
æŃ£ ä¸įçŁ¥
æŃ£ è¸Įèºĩ
æŃ£ æĴŀçĿĢ
ä½¿ æĽ°
ä½¿ åħ¶
ä½¿ åĪĺå¤ĩ
å¯¨ è¾¹
éķ¿ ç«ĭ
éķ¿ èĽĩ
èĻ ı
çİĭ äºĭ
çİĭ å¨ģ
çİĭ ä¹ĭåĲİ
çİĭ ç´¯
åŃĻ è§Ĥ
åŃĻ æ°ı
åŃĻ éĿĻ
åŃĻ å¤«äººæĽ°
å®ī ä¹Ĳ
å®ī ç½®
éģĤ å¾Ĺ
éģĤ èµ·
éģĤ æĸ©
éģĤ å¼ĥ
éģĤ åı¬
éģĤ ç½¢
éģĤ ä¼łä»¤
éģĤ æĭĶåīĳ
çº ł
å¿ĥ ç¥ŀ
å¿ĥ æĢ¯
éĹ® è®¡äºİ
é¢ ¤
åıĸ ç®Ń
åıĸ æ±īä¸Ń
åıĸ åįĹéĥ¡
åıĸ æŁĳ
èµ· æĿ¥
æŃ» åľ°
åĲ´ åĽ½
å°ĨåĨĽ ä¹Ł
å°ĨåĨĽ ä¹ĭè¨Ģ
æĽ¹æĵį äºİ
æĽ¹æĵį å·²
è®¡ è¾ĥ
è½ ¨
è½ ¸
æŀ ¢
éª ŀ
çŃī ä»ĸ
ä¾¿ çłį
åĪĨ ä¸ĢåįĬ
ä¹¦ åĳĪ
ä»İ åħ¶
ä»İ å¤§è·¯
å» Ļ
æľª è§£
æľª çĹĬ
è¯¸ èĩ£
å² ³
å¸ĥ åĲĪ
èĤ ±
èĤ Ĩ
èľĢ æľī
èľĢ éģĵ
æ² ¥
æ² ¾
ä¸ľ éĥ½
ä¸ľ æĸ¹
ä¸ľ åħ´
ä¸ľ é£İ
ä¸ľ å¾ģ
ä¸ľ å¤§å°ĨåĨĽ
ä¸ľ èİ±
æĢ¥ åĩº
æĢ¥ æĪĺ
æĢ¥ åĭĴé©¬
æĢ¥ æĭ¨é©¬
è¿Ľ æĶ»
è¿Ľ éħĴ
åįĹ äºº
åįĹ éĿ¢
éĹ» ä¸ŀçĽ¸
éĹ» åħ¶åĲį
åĽĽ åĽŀ
åĽĽ åŃĹ
åĽĽ å£ģ
åĽĽ å¯¸
åĽĽ åĨ¢
æķ° å¹´
èĩ£ å·²
èĩ£ äº®
èĩ£ æľīä¸Ģè®¡
æ¸ ¤æµ·
å§ ¬
å§ »
å§ Ĭ
åį³ ä¸İ
åį³ åĲĮ
åį³ ä¼łä»¤
å¿½ æİ¢é©¬
é» ĺ
ä¸¤ æ¬¡
ä¸¤ ç¿¼
ä¸¤ éĺŁ
å¾Ģ å¾Ĳå·ŀ
å¤ĩ è¯´
æīĢ å®Ī
æīĢ èĥ½
æīĢ ä½ľ
æīĢ éªĳ
æīĢ çŁ¥ä¹Ł
äºĶ çĻ¾ä½Ļäºº
å¹³ å¤į
å¹³ åĿ¦
éĢĢ çŁ£
éĹ¨ åīį
æµ ¸
ä¸ĩ å®ī
ä¸ĩ å¹¸
æ±ī å°Ĩ
æ±ī å·Ŀ
æ±ī æľ«
æ±ī æ´¥
æ±ī é«ĺç¥ĸ
æ±ī ç¥ļ
åľ° æĽ°
åľ° åĪ©
æĸ¹ å®ļ
æĸ¹ ä¿¡
çĶŁ ä¸įèĥ½
çĶŁ å¼Ĥå¿ĥ
çĶŁ ä¸Ģè®¡
çķ ħ
æ°´ æ·¹
éĻį ä¹ĭ
éĻį åĲ´
çĶ¨ å¿ĥ
çĶ¨ åĳ½
å°ı åĨĽ
å°ı è¯´
å°ı å¼Ł
åı¸ åĨľ
åĲĦ åĨĽ
åĲĦ åĽŀ
åĲĦ å®ľ
åĲĦ æ´ŀ
åį´è¯´ é»Ħå¿ł
åį´è¯´ é²ģèĤĥ
åį´è¯´ è¢ģæľ¯
è¥¿ æ´
å°½ æĿĢ
å°½ çĥ§
æķ¢ æĿ¥
æĥĬ æĥ¶
æīĭ ä¹¦
æīĭ æĳĩ
å¤ľ æĿ¥
å¤ľ è¡Į
è´¥ ç»©
äº¦ çļĨ
åĲķ å¸¸
åĲ¬ åĲ¾
æĩ¿ ç¬ĳæĽ°
è¯· èĩª
è¯· åħ³åħ¬
è¯· éĻĽä¸ĭ
è¯· äºĮå«Ĥ
è¢« æĪĳ
è¢« ä»ĸ
è¢« èµµäºĳ
è¢« åĽ°
åĽ½ äºº
åĽ½ æģ©
ç½ ¾
ç½ ĳ
å¸Ŀ åīį
å¸Ŀ å®¤
è´¼ èĩ£
é¢Ĩ ä¼Ĺ
åı¸é©¬ åħ¬
åı¸é©¬ åŃļ
è®¸ ä»ª
å·¦ èĩĤ
éĶ Ģ
éĶ Ħ
ä¸įåı¯ è¡Į
ä¸įåı¯ å¤į
çĳľ ç¬ĳæĽ°
äºĮäºº èĩ³
åĲį çĪµ
è¢ģ éļĹ
éĿŀ æĪĳ
éĿŀ æ¯Ķ
æķĻ ä¸Ķ
éģĵ ä¸Ń
éģĵ è¢į
èº« æĹł
èº« è¢«
èº« è¾¹
ç«ĭ ä¸Ģ
ç«ĭ æĿĢ
ç«ĭ ä¸ļ
ç«ĭ èĲ¥å¯¨
å¤ļ å¹´
å¤ļ çĹħ
çľĭ è§ģ
çľĭ åĲ¾
çľĭ ä¹¦æ¯ķ
åĲĮ å®Ī
ä¼ı åĩł
æķĳ æĪĳ
æķĳ éĨĴ
æĦı ä¹Ł
æŃ¦ çİĭ
æŃ¦ çļĩå¸Ŀ
æĪĲ äºĨ
å¤ı åĽĽæľĪ
åħ³åħ¬ å¤§æĢĴ
åħ³åħ¬ çĪ¶åŃĲ
æŁĲ ä¸İ
æŁĲ èĻ½
ç»į å¤§æĢĴ
æķĮ æ¥¼
å®ļ éĻ¶
è¿ĩ æŃ¤
åĲĪ å½ĵ
å¹´ çºª
æĸ© æĿ¥ä½¿
çł Ģ
å®¶ å¥´
èµ¶ åĩº
èİ ¹
å¼ķåħµ åİ»
å¼ķåħµ åħ¥
å¼ķåħµ æľĽ
å¼ķåħµ æĿĢåĪ°
ç¬ĳ èĢĮä¸į
ä½ľ ä¹±
ä½ľ è¯´å®¢
åĪĢ åī²
å¹¶ å°Ĩ
é«ĺ åĨĪ
åĮĹ æľī
è¿½ å¯»
èĪ¹ å¤´
è°ĭ ä¹ĭ
æļ ¨
éĻĪ åħ°
éĻĪ éªŀ
æĬķ ä¹ĭ
æĬķ è¢ģç»į
æĿİ æĦı
æĿİ è¾ħ
æĿİ ç¦ı
è½¦ éªĳ
èįĨå·ŀ ä¹ĭäºĭ
å½Ĵ åĪ°
è°ĵ åŃĶæĺİæĽ°
éĩį æĿĥ
éĩį æŀ£
æģĲ äºº
æģĲ ä¼¤
åĳĬ ä»¥
æĦ¿ ä¹Ł
æĦ¿ å¾Ĺ
æĦ¿ éļı
æĦ¿ æķĪ
åıĳ æİĺ
æĶ¾ ä¹ĭ
æĶ¾ åİ»
æİ¥ è§ģ
éļı èº«
èĻ½ ä¼Ĺ
èĻ½ å¤ļ
èĻ½ èĤĿèĦĳæ¶Ĥåľ°
ä»ĸ åİ»
ä»ĸ åį´
åķ ¸
çĪ¶ èĢģ
çĪ¶ ä»ĩ
çĽ´ æĿĢ
èľĢåħµ çļĨ
èľĢåħµ åıĪ
åıĹ æķĮ
ä¸įèĥ½ ä¸ĭ
ä¸įèĥ½ æķĳ
ä¸įèĥ½ çŃĶ
ä¸įèĥ½ å¾ĹèĦ±
ä¸įèĥ½ æĬµå½ĵ
ä¸įèĥ½ å¾Ĺåĩº
å¤ıä¾¯ å¨ģ
å¤ıä¾¯ æĥł
å¦ĤæŃ¤ ä¹ĭ
å¦ĤæŃ¤ æĹłç¤¼
åĨį æľī
åĨį ä¼ĳ
åĪĻ èįĨå·ŀ
è¿ŀ èĲ¥
è¿ŀ çıł
ç¿ ł
ä¹ĺ é£İ
ä¹ĺ èĪŁ
æĹĹ æģ¯
å°ļ åŃĺ
å¤į çĶŁ
å¤į å¤º
éªĳ åĿĲ
åĬŁ èĩ£
è¶³ ä»¥
å¥ı è¯·
ä¼ĳ åĲ¬
åĲķå¸ĥ äºİ
åĲķå¸ĥ ä¹ĥ
åĿĲ å®Ī
çĭ ®
éĥ¡ äºº
éħĴ åĲİ
éħĴ éĨī
å¥ī å¤©åŃĲ
æĽ´ æį¢
çł´ æĪĳ
ä¹ī å£«
ä¹± ç®Ń
å°ģ æĽ°
å°ģ ä¾¯
å°ģ è°ŀ
ä¹ħ å¿ħ
ä¹ħ ä½ı
è¯¸èĳĽ æŃ¦ä¾¯
è¯¸èĳĽ éĿĵ
æľ¬ æĺ¯
æľ¬ å¤Ħ
è¦ģ æĸ©
è¦ģ åĩºæĪĺ
åįĵ èĨº
åĶ¤ è¯¸å°Ĩ
åķĨè®® æ¬²
çĸĳ æľī
ç¤¼ å¾ħä¹ĭ
é¾Ļ é£ŀ
é¾Ļ é©¹
èĳ£ åĲİ
èĳ£ å¤ªå¸Ī
å¤©ä¸ĭ å¹¸çĶļ
è§£ åİ»
è§£ è¡£
è§£ åħ¶ç¼ļ
éĥ¨ åħµ
æĶ¶ ä½ı
æĶ¶ èī¾
æľĿ è´º
å§ĵ æĿİ
éĩĳ çŁ³
éĩĳ éĽģ
éŃıå»¶ ä¹Ł
åŃĻæĿĥ åľ¨
èİ· å¤§èĥľ
é½Ĳ æĺİ
é½Ĳ å¤ĩ
é£İ éĽ¨
é£İ éĽ·
é£İ éĽª
é£İ éª¤èµ·
åŃĹ åŃ£
åĨĽå£« æĽ°
åĨĽå£« çļĨ
å½¼ å°Ĩ
æ¶ ¦
æ¶ ¨
æ¶ ĵ
è§Ĥ ä¹¦
éĢģ ä¹ĭ
éĢģ åİ»
äº® èĩª
åı¸é©¬æĩ¿ ä¸º
åı¸é©¬æĩ¿ è§ģ
è¿ľ æİ¥
è¿ľ å¿Ĺ
é¡» åıĳ
é¡» è¦ģ
å¼ĥ æŃ¤
å¸¦ é¢Ĩ
å¸¦ ç®Ń
éĵ ĥ
èī¯ å°Ĩ
ä½Ĩ éĹ»
åĽ´ åľº
åĵŃ åĳĬ
æ¨ ½
èħ ¿
è¿ĺ èĲ¥
è¿ĺ ä¸ľåĲ´
å¯Ĩ åĳĬ
å¯Ĩ åĶ¤
çı į
è¾ŀ èĢĮåİ»
è¾ŀ ä¸įåıĹ
ä½ł æĪĳ
ä½ł äºĮäºº
ä½ł ä¸¤ä¸ª
åħ« çĻ¾
åħ« éĹ¨
åħ« å²ģ
å°Ħ æĿ¥
æıĲ å¤§åħµ
çĻ½ æ²³
æ²³ åįĹ
åı¹ æľį
ä¼ł ä¸ĭ
ä¼ł æªĦ
æĢĿ æĽ°
å¥½ äºº
å¥½ æŃ¹
é¥® äºĨ
åĿļ å£ģ
åı· æ³£
éĥĥ åıĪ
æīĵ æŃ»
æīĵ æİ¢
åĭ¿ ä½¿
ä¸įçŁ¥ åħ¶æĦı
è½» è¿Ľ
èĤ¯ éĻį
æ» ¥
æ» Ķ
è± Ĩ
åħ± çĽ¸
åħ± æĶ»
åĨ² å¼Ģ
æľį ä¹ĭ
ä¸įæķ¢ åĩº
æ¢ ĨåŃĲ
è°¢ ä¹ĭ
è°¢ æĹĮ
èĽ Łé¾Ļ
å®ľ è¿Ł
æ±Ĥ åĴĮ
æ·± ä¸º
å¼ķåĨĽ èĩ³
åĪ« äºº
çĹħ åĬ¿
åĨ³ è®¡
åĨ³ èĥľè´Ł
èĻİ è§Ĩ
èĻİ é¡»
èĻİ å¨ģ
æļĹ ä¼ı
æļĹ å¼±
ä¸¾ æĿ¯
ä¸¾ åŃĿå»ī
ä¸ĥ åĽŀ
ä¸ĥ åįģ
ä¸ĥ ä¸ĩ
åŃ¤ äº¦
åŃ¤ èº«
åŃ¤ ç©·
é©¬è¶ħ æĽ°
ç¥ŀ åħµ
çĶ² åŃĲ
å¾ģ åįĹ
æĸŃ åĲ¾
æĸŃ æ¡¥
æĸŃ ç»Ŀ
å±ħ ä½ķèģĮ
èĴĻ å¤´
å¹¸ è®¸éĥ½
æĮĩ æľĽ
å¯¹ å±±
åĲİä¸» ä»İä¹ĭ
é£Ł æ±īç¦Ħ
å¤©åŃĲ è¯ı
å¨ģ æĿĥ
ä¾į å¥ī
åħ¨ ç«¯
åıªè§ģ éŃıåħµ
åıªè§ģ åīįéĿ¢
æ¯į åŃĲ
éªĤ ä¸įç»Ŀåı£
æķ£ éªĳ
æģ¨ ä¹ĭ
ç§° å¥ĩ
åį¿ è¨Ģ
èģļ äºİ
åĭĩ å°Ĩ
æĽ¾ è§ģ
çī¹ éģ£
é»Ħå¿ł æĽ°
æĸ° åĲĽ
æľķ èĩª
æľķ èº¬
åĪº ä¹ĭ
åºľ åºĵ
çŁ³ éĺµ
åħŃ åĽŀ
ç³ Ĭ
ä¼Ĳ ä¸ŃåİŁ
èĥĮåĲİ éŃıåħµ
å¿§ ä¹Ł
ä¸´ æ±Ł
èĽ® äºº
éĿĴ æĹĹ
éĿĴ åı²
éĢĥ èµ°
ç¥ĸ èĮĤ
æ¡¥ èķ
å¯» ä¸įè§ģ
èĭ± ä¿Ĭ
ä½¿äºº å¾Ģ
ä½¿äºº è¯·
ç»ĵ ä¸ľåĲ´
ç»ĵ æĿŁ
èĶ¡ çĲ°
å¤§åĨĽ èĩ³
ç¦» å¯¨
çĽĸ åĽł
éĺŁ ä¸Ń
éĺŁ éĩĮ
ä¸ĢéĿ¢ ä½¿äºº
ä¸ĢéĿ¢ éģ£äºº
çĶĺ å½ĵåĨĽä»¤
ä¸¥ çĻ½èĻİ
ä¹Ŀ å·ŀ
ä¹Ŀ æ±Ł
ä¹Ŀ å²ģ
åĲİäºº æľī
è¢Ń æĪĳ
åĢĴ éĢĢ
åĸĦ ä¿Ŀ
æľ¨ éĹ¨
æľ¨ åĮ£
åĬł ä¹ĿéĶ¡
ä¸įå¦Ĥ æĦı
æĥ§ åĵī
æĥ§ æĢ¯
æģ¯ æĢĴ
çĦ¶åĲİ åı¯
æĹ§ äº¤
èĭŀ æĽ°
æ³° æĽ°
çªģ åħ¥
æĭĴ æĽ¹æĵį
ç¦ģ åħµ
èµ´ æķĮ
èµ´ å¸Ń
éĢł æľ¨çīĽæµģé©¬
è¤ļ æĽ°
æĭĽ è°ķ
æĭĽ åĭŁ
äºĮåįģ æĹ¥
æĮº ä¸Īåħ«
å²¸ åı£
æķ¬ ç¤¼
åĬĿ æĪĳ
çĿ¿ å¤§åĸľ
å¼Ĥ äºº
å¼Ĥ æĹ¥
å¼Ĥ å¸¸
æ»¡ åľ°
æ»¡ æľĿ
ç¾¤ è´¼
çģµ åīį
æĴ ĩ
åĪ© äºİ
èĩ´ æĦı
ä»ª è¡¨
ä»ª äºŃ
èİ« æµĭ
åıĺ åĮĸ
åĪĿ åĪ°
æľ± åħī
çģŃ æĹı
å¤§äºĭ æµİçŁ£
ä»¥ä¸º ä½ķå¦Ĥ
ä»¥ä¸º çĸĳåħµ
ä»¥ä¸º ä¹ħè®¡
åĤķ æĽ°
åĸĬå£° å¤§ä¸¾
è¿Ļ çŃī
è¿Ļ æĿ¡
æĢĢ æģ¨
å¤§è´¥ èĢĮåĽŀ
åĢĺ èĭ¥
ç©º ä¸Ń
ç©º åŁİ
ç©º å¯¨
æľªçŁ¥ åŃĶæĺİ
æĬĺ ä¼¤
æĳ ĺ
åį§ çīĽ
æī¶ çĹħ
æī¶ ç¤¾ç¨·
æĭĶ åĩº
äºī è¡¡
æ½ Ń
æ½ ¸çĦ¶
æĺ¥ é¦Ļ
æµİ åĮĹ
ä¸ģ ä»ª
æīĺ åĲį
æīĺ çĸ¾
éĻ¤ éĿŀ
æİ© å¿ĥ
å¿ĥä¸Ń å¿§éĹ·
æĪª åħ¶
è¢į è¢ĸ
æľīä½ķ éļ¾
ç¥Ń æĸĩ
æ´Ľ æ°´
å¹¼ åŃĲ
æ´ŀ åı£
çĬ¹ çĦ¶
æ¨ª æĪª
æ¨ª çŁĽ
æįī å¾Ĺ
å®Ŀ è´Ŀ
è°ĥ æ²»
ä¼ĹçļĨ å¤§æĥĬ
ä¼ĹçļĨ å¤±èī²
èµį æį§
èµį éĩĳçıł
æ³£ æĭľæĽ°
åĪĨåħµ ä¸ĢåįĬ
æ²» ä¸Ń
æ²» åĽ½
çłį åĢĴ
å´ ĸ
å¸Ń ä¸Ĭ
å¸Ń åį·
çĶ° æ¥·
åº¶ äºº
æĬµ æĮ¡
è¿Ł å»¶
èįĢ é¡Ĺ
ä¹ĭæĦı èĭ¥ä½ķ
éģĹ è¯ı
ç²¾åħµ äºĶåįĥ
åĩł äºº
åĩł æĹ¥
æĺŁå¤ľ èĩ³
åĩī å·ŀ
ç´ł ä¸İ
çĽ¸è§ģ æ¯ķ
å»· å°ī
èĤī è®¡
æĺĵ å·ŀ
è¯¯ äºĭ
èĭ¦ åĬĿ
èĭ¦ èĤīè®¡
åħ¥è§ģ åĲİä¸»
èĸ ¨
çº¢ åħī
åĨĽå¸Ī ä½ķæķħ
éŃıä¸» æĽ°
åĲ´åħµ å¤§è´¥
å¼łç¿¼ æĽ°
åºŁ ä¸»
åºŁ éķ¿ç«ĭ
éĶ¦ è¡£
ä¹¡ ä¸Ń
ä¹¡ éĩĮ
ç®¡ ä»²
çİĩ å¤§åĨĽ
æĸ½ ç¤¼æ¯ķ
çļĵ æĽ°
å·®äºº èµį
åı° ä¸Ĭ
å¤¹ å±±å³ª
æĹłä¸į éªĩçĦ¶
å½ĵåħĪ åĩºé©¬
è¶Ĭ å²Ń
èĿ Ĺ
åıĤ è§ģ
æ²Ľ åŁİ
åĿļå®Ī åĭ¿
åº¦ ä¹ĭ
åĽŀè§ģ çİĦå¾·
åĽŀè§ģ åĳ¨çĳľ
åĢŁ æĪĳ
åĢŁ ç²®
åĢŁ èįĨå·ŀ
æļĤ ä¸Ķ
éĺ» ä½ı
éģ£ä½¿ èµį
æİĮ ä¸Ń
å¹¶æĹł ä¸Ģäºº
å·¾ å¸¼
è´¹ èĢĢ
éŀŃ æĮŀ
åĩ¤ ä»ªäºŃ
æĢ¨ è¨Ģ
å¼© é½Ĳåıĳ
æ¦ Ĥ
éĺ¿ çŀĴ
æľ¬éĥ¨ åĨĽé©¬
è¯ļ å¿ĥ
æĭį æ¡Ī
éģ£äºº å¾Ģ
æĹı å¼Ł
ç»Ĩä½ľ æĬ¥çŁ¥
éĨī åį§
æİĪ ä¸İ
è¥¿åĩī å·ŀ
è¥¿åĩī å¤ªå®Ī
è¥¿åĩī ä¹ĭåħµ
æķĪ åĬĽ
åľ£ é©¾
æĢ» æĳĦ
ä¸Ģå½ªåĨĽ åĪ°
ä¸Ģå½ªåĨĽ æĿĢæĿ¥
æĶ¹ ä¸º
æĶ¹ æĬ¹
æİĴ å¼Ģ
æİĴ æĪĲéĺµåĬ¿
çĪµ ç¦Ħ
åµ Į
é¥®éħĴ éĹ´
éĽª æģ¨
æ²Ļ æĳ©
æ²Ļ æ¼ł
ä¸įè¶³ èĻĳ
å¦Ħ è¨Ģ
èĥ¡ çĥĪ
ç§» åħµ
å®£ è°ķ
å¯¸ åĬŁ
æ¥Ļ æĽ°
æ¸Ń æ²³
å¿ĺ ä¹ĭ
éģŃ æŃ¤
æ¸Ĳ è¿ĳ
åĲĦèĩª æĶ¶åħµ
æ±īä¸Ńçİĭ æĽ°
å·¡ èŃ¦
å¼łä»» æĽ°
éĩı ä¸Ģ
äºĶåįģ äºº
å¾ĲçĽĽ æĽ°
åŃĺ æģ¤
éŃıçİĭ æĽ¹ä¸ķ
ç¾İ äºº
åĨµ ä»Ĭ
åħ¥å¸Ĳ åĳĬæĽ°
ç®Ĺ ä¹Ł
æĿľ è¢Ń
å®½ ä»ģ
åĩĮ æĵį
ç«¯ çļĦ
æ®ĭ åħµ
æ®ĭ æļ´
åħĭ å¤į
ç»§ æ¯į
åºĦ ä¸Ĭ
å·´ éĥ¡
åı¯éĢŁ åİ»
è°ģæķ¢ åİ»
ä¸īåįģ éªĳ
çīĻ éĹ¨
æľĢ ä¸º
æľĢ åĸĦ
æ´» åĳ½
åģĩ èĬĤéĴº
çĨŁ æĢĿä¹ĭ
è¿½ä¹ĭ ä¸įåıĬ
åĲİäººæľīè¯Ĺèµŀ ä¹ĭæĽ°
é»ĳ æ°Ķ
å½¢ è²Į
åľ¨åĲİ åĽŃ
ä¸īæĹ¥ åĲİ
ä¸īæĹ¥ åĨħ
æĬ¼ è¿ĩ
èį¡ èį¡
ç¤º ä¼Ĺ
å¤ıä¾¯éľ¸ æĽ°
çŀĴ æĪĳ
ç«ĸ åŃĲ
ç«ĸ èµ·
çĲ® æĽ°
æ¯Ľ åĲİ
åĽĽä¸ĭ æĹłè·¯
æ¯ĶåıĬ å¤©æĺİ
ç¯¡ ä½į
ä»į ä»¤
åıĪåĶ¤ åħ³åħ´
èĢĢ æŃ¦æī¬å¨ģ
åĢ¾ åĽ½
èįĨè¥Ħ ä¹Ŀéĥ¡
éĦ ĦåŁİ
éĻĦ ä½ĵ
æ¬£ åĸľ
äºĮåŃĲ æĽ°
åħ¥åĲİ å®«
åħ¥åĲİ åĽŃ
åīįåĲİ å¤¹æĶ»
åĲ´ä¸» åŃĻæĿĥ
æĹ©æĻļ å¿ħ
éº¦ çĶ°
å´Ķ ç¦¹
æºª è¾¹
æĿŁ èįī
åįł æį®
ä¼ĺ ç¤¼çĽ¸å¾ħ
çŃµ å®´
çŃµ å¸Ń
æĻĶ æĽ°
åħ·è¨Ģ åīįäºĭ
åŃĶèŀį æĽ°
åĿł é©¬
åĿł äºİé©¬ä¸ĭ
ç»ķ åŁİ
å®¿ åį«
æĥ¶ æĥ¶
éĽ¶ èĲ½
å¤ªå°ī çİĭ
å±ı éĢĢå·¦åı³
åįģäºĮ æľĪ
å¾ħä¹ĭ çĶļåİļ
æįŁ åħµ
åįİæŃĨ å¥ıæĽ°
åĨĴ æ¸İ
æĢķ æŃ»
éĤ£éĩĮ èĤ¯
ä½¯ è¾ĵ
æĳĩ æĹĹ
éģ® æĭ¦
æģ¢ æĽ°
èįĴ æ·«
éĻĪä»ĵ éģĵåı£
å¿Į ä¹Ł
æī¯ ç¢İ
æ²¹ æŁľ
æĿİåĦĴ æĽ°
æıĴ æĹĮæĹĹ
é¦Ĩé©¿ å®īæŃĩ
åįģæķ° äºº
åĿŀ ä¸Ń
åĨ¬ åįģæľĪ
å®ª èĭ±
æŃ¤å¿ħ æĺ¯
å¯Ŀ é£Ł
çŁ¥æĺ¯ è®¡
å¤ºè·¯ èµ°èĦ±
æ½ľ åľ°
çħ§ èĢĢ
è¹ Ī
åĨ¯ ç¤¼
æģŃ ç¥ĸ
å¤©åľ° éĹ´
äºĭä¸į æĪĲ
äºĭä¸į å®ľè¿Ł
çīĩ è¨Ģ
çīĩ çĶ²
åģ· è¿ĩ
æİ¢åĲ¬ èĻļå®ŀ
åĮ¹é©¬ åįķæŀª
åŀĴ æĸŃ
è´¾åħħ æĽ°
çĽĹ è´¼
éĢĲ ä¸Ģ
éķ¿æ²Ļ å¤ªå®Ī
åĽ½ä¹ĭ è´¼
åĨ· ç®Ń
åĲ¾äº¦ æ¬²
æģķ ä¹ĭ
åĽĽåįģ ä¹Ŀ
äºİåĲī ç«ĭäºİ
çļĤ æĹĹ
çļĤ ç»¦
ä¸Ģç®Ńå°Ħ åİ»
éĢı éĩįåĽ´
ä»İèĢħ æĽ°
èĴ¯ èī¯
éĥŃåĽ¾ æĽ°
ä¹ĭä¸» ä¹Ł
å·¨ éĽ·
åĩ¯ æŃĮ
åĮº å¤Ħ
æĮŁ ä½ı
æĮŁ å¤©åŃĲ
èº«éķ¿ ä¹Ŀå°º
åłķ æ³ª
èĦĳ è¢ĭ
æ´»æįī äºĨ
æĵĤé¼ĵ åĳĲåĸĬ
æĿĳ å¤«
å¤§ä¼ļ æĸĩæŃ¦
ä¸įåı¯ä¸į éĺ²
ç´« é«¯
éĥ¿ åŁİ
éķ¿åĿĤ æ¡¥
åĿĩ æĽ°
çĭĤé£İ éª¤èµ·
ä¹° é©¬
ä¹ĭè°ĭ ä¹Ł
è¾ĵ äºĨä¸Ģéĺµ
åĽŀå¤´ çľĭæĹ¶
åĪĨæĭ¨ å·²æ¯ķ
åĶĲ åĴ¨
é¥¶ ä½ł
èĭĹ æ³½
èĩªåĪİ èĢĮæŃ»
åīįèĩ³ ä¸Ģ
åıªå®ľ åĿļå®Ī
çĿģ çĽ®
åįĬæĻĮ æĸ¹èĭı
æľªåı¯è½» æķĮ
æĮ¡ ä½ı
æĮ« åĬ¨
æĬ¤éĢģ è½¦ä»Ĺ
ä¸¤è·¯åħµ æĿĢæĿ¥
æŁ´æ¡ĳ éĥ¡
æĤĶä¹ĭ æĹłåıĬ
å·¥ éĥ¨
éĿ¢å¦Ĥ éĩįæŀ£
è£´ åħĥç»į
æ£º æ¤ģ
æĸ½ç¤¼ æĽ°
æŃ¤ä½ķ äººä¹Ł
ä¸ĭåħ³ æĿ¥
å¾Ĳå¾Ĳ èĢĮéĢĢ
çĬĴ åĨĽ
éĩĳé¼ĵ é½Ĳé¸£
åģĥ æĹĹæģ¯
æ·³äºİ ä¸¹
èŃ ¬
è°¥ çĪ¶
å¹ķ åºľ
å¹ķ å®¾
æĭħ åľŁ
æŃ£è¯´ ä¹ĭéĹ´
æ»¡éĿ¢ ç¾ŀæĥŃ
å¨ģé£İ åĩĽåĩĽ
å¨ģéľĩ å¤©ä¸ĭ
æĺ¯å¤ľäºĮæĽ´ æĹ¶åĪĨ
è¯¦ ä¹ĭ
ä»¥ç»Ŀ åĲİæĤ£
ä¸Ĭæµģ å¤´
æĢ¥éĢĢ æĹ¶
ä½ľä¸Ģ ä¹¦
æįĲ çĶŁ
æĻ®åĩĢ æĽ°
æłĳæľ¨ ä¸ĽæĿĤ
äºĭæĢ¥ çŁ£
èĤ¡ èĤ±
çĹĬ åı¯
èĶ½ æĹ¥
è¡Ģæµģ æĪĲ
æī¬å·ŀ åĪºåı²
ä¸Ģç°ĩ äººé©¬
æĬĽ æĪĪ
ç¥Ī ç¥·
å¿½åıĪ æĬ¥
å¹¶ä¸įè§ģ ä¸Ģäºº
åıĹç¦ħ åĿĽ
é²ľ è¡Ģ
åħ«è·¯ è¯¸ä¾¯
å¼ĵç®Ń æīĭ
èļ ķ
å¾½ æĽ°
æİ³ æİł
åĿŁ å¢ĵ
åĮĨ åĮĨ
ç§ĺ ä¹¦
éĩįåĬł èµıèµĲ
åıįéĹ´ ä¹ĭè®¡
æļĹæļĹ ç§°å¥ĩ
ç¼ĵç¼ĵ èĢĮè¡Į
éĻĦèĢ³ ä½İè¨Ģ
æĹłè¨Ģ åı¯
èĬĴ çłĢ
åĿĲèĢĮ å¾ħ
è¿Ļä¸ª æ¶Īæģ¯
æĢ¥åĪĩ éļ¾
æīĢä½© ä¹ĭåīĳ
æµĬ ä¹Ł
æīĺçĹħ ä¸įåĩº
ç¢Į ç¢Į
æĭĨå¼Ģ è§Ĩä¹ĭ
åħµä¸´ åŁİä¸ĭ
æŃ»æĹł æģ¨
çĸ¼ çĹĽ
çĭĦéģĵ åŁİ
ä½ķè¶³ä¸º å¥ĩ
æĬ±å¤´é¼łçªľ èĢĮåİ»
æĬĸæĵŀ ç²¾ç¥ŀ
åħµå¾® å°Ĩå¯¡
è°Ĳ çŁ£
åŃĻä»² è°ĭ
éªĨ è°·
éªı é©¬
ç¦½ åħ½
æŃ¦åŁİ å±±
åĬ¿ç©· åĬĽ
è¿ŀçİ¯ è®¡
éĩĳåŁİ å¤ªå®Ī
çļĩåŃĲ åįı
èħĲ åĦĴ
ä¹Ŀæ³ī ä¹ĭä¸ĭ
å¤©èī²å·² æĻļ
äºİä¸Ńåıĸ äºĭ
èĩªå¤ĸ èĢĮåħ¥
æĿĢæĿ¡ è¡Ģè·¯
çļĨå°ģ åĪĹä¾¯
å½ĵçĶ¨ä½ķ çŃĸ
é½ĳ ç²ī
ä¸įæķ¢æŃ£ è§Ĩ
åħīç¦Ħ å¤§å¤«
è¸Ĭ è·ĥ
ç¡¬ å¼©
èı ľ
å¤©èį¡ å±±
å½ĵå¤į å¦Ĥä½ķ
æŃ£å¥Ķèµ° éĹ´
å¸ĥåĳĬ å¤©ä¸ĭ
æĸ¹å¤© æĪŁ
è¥¿å¹³ åħ³
ä¸įèĥ½å®¹ çī©
æ®Ħ çģŃ
è±º çĭ¼
è°ıè®® å¤§å¤«
æ²ĽåĽ½ è°¯
çĽĺèĽĩ è°·
çĵ¦åı£ åħ³
åĸıåĸı è¿ŀå£°
ä¸įçĥĤ ä¹ĭèĪĮ
å¼Ī æ£ĭ
æ±² æ°´
éĥĹ èĻĳ
ä¹ĥåħ³åħ´ ä¹Ł
éĺ³å®ī åħ³
éĻĪåħĥ é¾Ļ
åķ¼ åĵŃ
èµĲéħĴ åİĭæĥĬ
åĩŃä¸īå¯¸ ä¸įçĥĤä¹ĭèĪĮ
å¯¡ä¸įæķĮ ä¼Ĺ
èĪĮè¾© ä¹ĭå£«
é¥¶æ±Ŀ æĢ§åĳ½
ä¸ĢæĹħ ä¹ĭå¸Ī
æŃ¤èĩ£ä¹ĭ æľªè§£
åŃĲåįĪ è°·
è¥¿æ´ ±
éĩĳéĽģ æ¡¥
æ¡¥èķ ¤
åºŁéķ¿ç«ĭ å¹¼
æ²Ļæĳ© æŁ¯
åģĥæĹĹæģ¯ é¼ĵ
¢ éĻµ
© ¹
¬ éģĵ
® èŀį
¶ èĥ¸
¹ ģ
¹ éĽ
¾ åİ¿
æ ©¹
ç ¹ģ
è ŀ
è Ł
é į
Ġ çİĦå¾·
Ġ æĽ¹æĵį
Ī é±¼
ĭ é¡¿
Ĵ éºŁ
Ł åħĥ
ãĢĤ âĢľ
ãĢĤ âĢĶâĢĶ
äº ļ
åı ¨
åĲ ģ
åĲ Ŀ
ä¹ĭ ä¹Ł
ä¹ĭ ä½¿
ä¹ĭ å¯¨
ä¹ĭ ä¸ľ
ä¹ĭ è®®
ä¹ĭ å¤«
ä¹ĭ ç²®
ä¹ĭ è¡¨
ä¹ĭ èĢ³
ä¹ĭ éļ¾
ä¹ĭ å®³
ä¹ĭ åıĶ
ä¹ĭ æ¯į
ä¹ĭ åįĴ
ä¹ĭ ç¦ı
ä¹ĭ å¢ĥ
ä¹ĭ çĽŁ
ä¹ĭ å½¢
ä¸į æĹ¥
ä¸į åį³
ä¸į å¾Ģ
ä¸į åĸľ
ä¸į æķĳ
ä¸į å¤±
ä¸į çĿĢ
ä¸į åħ±
ä¸į çĲĨ
ä¸į æµİ
ä¸į ä¹ł
ä¸į æķ°æĹ¥
ä¸į æĦ§
ä¸į æķ·
å¾ µ
æĺ ¶
æĺ Ĩ
æĺ ł
äºº æĽ°
äºº ä¸ĭ
äºº åİ»
äºº äºĭ
äºº æ°ı
åĨĽ æľī
åĨĽ æĹł
åĨĽ èĩ³
åĨĽ åĪĨ
åĨĽ éĢĢ
è¯ ¤
è¯ °
è¯ ĺ
èĢ ĥ
åħµ åľ¨
åħµ æĹł
åħµ è´µ
åħµ å¤§ä¹±
å¿ Ĵ
å¿ Ŀ
é© ½
å¤§ å£°
å¤§ åĬ¿
å¤§ èĢ³
å¤§ èİ·
å¤§ è®¾
å¤§ åº¦
å¤§ æºĥ
å¤§ æĮ¯
å¤§ æģ¸
å¤§ çĬĴä¸īåĨĽ
ä¸Ģ ä¹Ł
ä¸Ģ éĹ¨
ä¸Ģ çĶŁ
ä¸Ģ ä¼ļ
ä¸Ģ èĲ¥
ä¸Ģ åıĳ
ä¸Ģ æĮĩ
ä¸Ģ éĢļ
ä¸Ģ çķª
ä¸Ģ å°º
ä¸Ģ æ¢¦
ä¸Ģ çŁĽ
ä¸Ģ æĿ¡è·¯
ä¸Ģ å®µ
é©¬ å¤´
é©¬ éĤĪ
é©¬ åŃŁèµ·
å°Ĩ æŃ¤
å°Ĩ éħĴ
å°Ĩ ä½Ĳ
å°Ĩ åľ¨å¤ĸ
èµ ĺ
å· ·
æĪ ³
ä¼ ī
ä¼ Ļ
æĿ¥ è·¯
æĿ¥ æİ¢
æĿ¥ æ±Ĥ
æĿ¥ çļĦ
æĿ¥ åĬ©æĪĺ
æĿ¥ æŃ¤ä½ķ
è® ¹
æľī ä¸ī
æľī åı¸
æľī ç½ª
æľī ä½ķä¸į
æľī ä»ĩ
æľī çĲĨ
æľī è¿Ŀ
çĽ ¼
æī ģ
æĵį çŁ¥
æĵį éĹ»
æĵį äº¦
æĵį å°ģ
æĵį åĶ¤
æĵį æī§
æĵį åı¹æĽ°
æĵį éĹ»è¨Ģ
æĵį éĹ®åħ¶æķħ
æĵį ç»ĥ
æĵį çĦ¶ä¹ĭ
æŃ¤ ä¸º
æŃ¤ æĹ¥
æŃ¤ åıĸ
æŃ¤ æķ°
æŃ¤ éģĵ
æŃ¤ è°ĭ
æŃ¤ æ³ķ
æŃ¤ åĲ¾ä¹ĭ
ä¸ĭ æĽ°
ä¸ĭ å°Ĩ
ä¸ĭ å£«
ä¸ĭ é¦ĸ
ä¸ĭ åłĤ
ä¸ĭ åįķ
ä¸ĭ éĺ¶
ä¸ĭ èĲ¥å¯¨
äºİ æĽ¹æĵį
äºİ æ±Ł
äºİ åĨĽä¸Ń
äºİ è¥Ħéĺ³
äºİ éĺµåīį
äºİ å±±åĥ»
ä¸Ń åħ´
ä¸Ń å¤§å¤«
ä¸Ń éĢĶ
æĬ ĳ
ä¸º ä¹Ł
ä¸º åħ¬
ä¸º å¤ĩ
ä¸º å·¦
ä¸º åı³
ä¸º å®¶
ä¸º æľ¬
ä¸º ä¾įä¸Ń
ä¸º ä¸ĸåŃĲ
ä¸º åªĴ
çĶ µ
è§ģ æľī
è§ģ æĪĳ
è§ģ åĲķå¸ĥ
è§ģ åįĵ
è§ģ åŁİä¸Ĭ
èĢĮ ä¸º
èĢĮ æ¬²
èĢĮ å¾ħ
èĢĮ å°±
èĢĮ ç¬ĳæĽ°
èĢĮ è°¢æĽ°
éĢ ¾
ä½ķ åĲİ
ä½ķ ä¹ĥ
ä½ķ æīĢ
ä½ķ åıĬ
ä½ķ å°ļ
ä½ķ åıį
ä½ķ ç½ª
ä½ķ æŃ¢
ä½ķ æĽ¾
ä½ķ åĬ³
ä½ķ çĥ§
ä½ķ è¿Ł
åĩº äºĨ
åĩº åĪ°
åĩº éĹ¨
åĩº èº«
åĩº å¤ĸ
åĩº åĬĽ
åĩº æľĿ
åĩº å±¯
åĩº æ±īä¸Ń
åĩº æĢ¨è¨Ģ
åĲ¾ äºİ
åĲ¾ ä¹Ł
åĲ¾ åīį
åĲ¾ åį³
åĲ¾ æĸ¹
åĲ¾ çĶļ
åĲ¾ çĪ¶
åĲ¾ æĥ³
åĲ¾ éļıåĲİ
åĲ¾ èĭ¥ä¸į
åĲ¾ æĿ¥æĹ¥
åĲ¾ å½ĵåħĪ
åĲ¾ çĪ±
åĲ¾ å¦¹
åĲ¾ æľīä¸Ģè®¡
åĲ¾ æĹłå¿§çŁ£
åĲ¾ å¤ľæ¢¦
éĻ ķ
åı¯ éĹ®
åı¯ åĳ½
åı¯ æĪĲ
åı¯ æĸ©
åı¯ è°ĵ
åı¯ åıĬ
åı¯ ä½¿äºº
åı¯ çģŃ
åı¯ åĪĨåħµ
åı¯ èĥľä¹Ł
è´ §
åĲİ å¿ĥ
åĲİ ä¸ĸ
åĲİ åľŁ
åĲİ åłĤ
ä»¥ åĨĽ
ä»¥ æĺİ
ä»¥ åħ¬
ä»¥ å°ĨåĨĽ
ä»¥ ä¸ŀçĽ¸
ä»¥ çł´
ä»¥ æ±Ĥ
ä»¥ è¾¾
ä»¥ è®¨
ä»¥ éĢļ
ä»¥ ç»§
ä»¥ æħ¢
ä»¥ æħ°
ä»¥ èµĦ
ä»¥ å®īæ°ĳ
ä»¥ éĢĢèľĢåħµ
æĺİ å¸Ŀ
æĺİ çıł
æĽ¹ å¯¨
æĽ¹ æĺĤ
åħ¬ ä¸İ
åħ¬ èĩª
åħ¬ èĥ½
åħ¬ å¤§æĢĴ
åħ¬ åı°
ä¸Ĭ é¦ĸ
ä¸Ĭ éĽ¨
ä¸Ĭ å²Ń
è¡ ¢
è¡ ħ
å± ¦
ä»Ĭ åį´
ä»Ĭ æĦ¿
ä»Ĭ æĹ©
ä»Ĭ åı¸é©¬æĩ¿
ä»Ĭ å¼ĥ
ä»Ĭ é©¬è¶ħ
ä»Ĭ éĥ½çĿ£
ä»Ĭ çī¹
ä»Ĭ éģĩ
ä»Ĭ ä½ķæķħ
ä»Ĭ å¤§çİĭ
ä»Ĭ ä¸»ä¸Ĭ
ä»Ĭ åľ¨ä½ķå¤Ħ
çİĦ æŃ¦
ä¸İ äºº
ä¸İ å¼łé£ŀ
ä¸İ ä¸»åħ¬
ä¸İ å½¼
ä¸İ ä¸ľåĲ´
ä¸İ é©¬è¶ħ
ä¸İ éĥ½çĿ£
ä¸İ åį¿
ä¸İ ä¼Ĺå®ĺ
ä¸İ åĪĺçĴĭ
ä¸İ æĽ¹åĨĽ
ä¸İ æ³ķæŃ£
å¼ł èī¯
å¼ł ä»ª
å¼ł åĨĢ
æĭ ¯
æĭ Ń
åİ» æĬķ
åİ» åĲĳ
åİ» å¯»
åħ¶ åĨĽ
åħ¶ ä¸Ģ
åħ¶ ä¸Ĭ
åħ¶ äºĮ
åħ¶ åīį
åħ¶ èĥ½
åħ¶ æ°´
åħ¶ å¿ł
åħ¶ å¤´
åħ¶ èĥĮ
åħ¶ å®³
åħ¶ å¥³
åħ¶ ä¸Ńæľī
çİĦå¾· åħ¬
çİĦå¾· èĩª
çİĦå¾· åĪ°
çİĦå¾· æŃ£
çİĦå¾· éĹ®æĽ°
çİĦå¾· é¢Ĩåĳ½
çİĦå¾· æĭľè°¢
çİĦå¾· åı±æĽ°
çİĦå¾· æĸ¹æīį
çİĦå¾· ç§°è°¢
æĹ¥ ä¸Ń
æĹ¥ æľŁ
æĹ¥ ç£
æĹ¥ æļ®
åŁİ åĮĹ
åŁİ äºŃä¾¯
åŁİ åŀ£
ä»¤ å°Ĩ
ä»¤ æĺİ
ä»¤ åħĪ
ä»¤ ä¼Ĺ
ä»¤ äºĳéķ¿
ä»¤ æĽ¹ä»ģ
ä»¤ åħ³åħ´
ä¹ĥ äºİ
ä¹ĥ èĩ³
ä¹ĥ å¤©
ä¹ĥ æ±ī
ä¹ĥ å¼łé£ŀ
ä¹ĥ åŃĻæĿĥ
ä¹ĥ æļĹ
ä¹ĥ èµµäºĳä¹Ł
èĩª åľ¨
èĩª æĬķ
èĩª è§£
èĩª éĢģ
èĩª æĸĻ
èĩª åı·ä¸º
èĩª ç¼¢
äºĮ åĽ½
äºĮ çĻ¾ä½Ļ
åĽŀ æķĳ
åĽŀ åĳĬ
åĽŀ å¾Ĳå·ŀ
åĽŀ éŁ³
åŃĶæĺİ ä»¥
åŃĶæĺİ åĽŀ
åŃĶæĺİ å¼ķ
åŃĶæĺİ åħ¥
åŃĶæĺİ éģĤ
åŃĶæĺİ æĢ¥
åŃĶæĺİ å¤§æĥĬ
åŃĶæĺİ çľŁ
åŃĶæĺİ å¤§æĢĴæĽ°
åŃĶæĺİ çŃĶæĽ°
åŃĶæĺİ åĽŀåĪ°
å¼ķ åĩº
å¼ķ è¿Ľ
å¼ķ çĻ¾ä½Ļéªĳ
å¼ķ è½»éªĳ
è¨Ģ ä¸į
è¨Ģ äºİ
å¦Ĥ æĹł
å¦Ĥ åĲĮ
å¦Ĥ çĻ½
å¦Ĥ éģĩ
å¦Ĥ åıįæİĮ
åľ¨ ä¸Ń
åľ¨ æĦı
åľ¨ ä½į
åľ¨ è®¸æĺĮ
åľ¨ æĸ°éĩİ
åľ¨ èĪ¹ä¸Ĭ
åľ¨ èĪ¹ä¸Ń
åľ¨ è¢ģç»įå¤Ħ
åľ¨ æķĮæ¥¼ä¸Ĭ
åľ¨ å½ĵéĺ³éķ¿åĿĤ
æĥ ®
æĺ¯ ä½ķå¤Ħ
åħ¥ å±±
åħ¥ æĭľ
åħ¥ èįĨå·ŀ
åħ¥ èĲ¥
åħ¥ æĢĢ
åħ¥ å¸Ĳä¸Ń
çĽ¸ éĹ®
çĽ¸ åĲĪ
çĽ¸ ä¼ł
çĽ¸ æİ¢
çĽ¸ å¯¹
çĽ¸ çº¦
å¾Ĺ è§ģ
å¾Ĺ æ°´
å¾Ĺ è¿ĩ
å¾Ĺ ç½ª
å¾Ĺ åħį
æĹł å¾·
æĹł åĬŁ
æĹł å¥Ī
æĹł åı¯ä¸º
æĿĢ è¿ĩ
æĿĢ æĪ®
æĶ ĺ
æģ º
åħĪ æĿĢ
åħĪ è¯´
åħĪ çŁ¥
åħĪ èµ°
åħĪ å¼ķä¸ĢåĨĽ
åħĪ éģ£äºº
ä¸ī ä¹Ł
ä¸ī ç®Ń
ä¸ī æĢĿ
ä¸ī æ´ŀ
ä¸ī çĻ¾ä½ĻéĩĮ
è¯´ å¾Ĺ
è¯´ ä¸ľåĲ´
æĪĳ æľ¬
èĩ³ å°Ĭ
èĩ³ æ±Łå¤ı
èĩ³ åĽĽæĽ´
èĩ³ éĿ¢åīį
é£ ¨
è· ĭ
åŃĲ ä¹Ł
åŃĲ ä¼¯
åŃĲ ä¾Ħ
åŃĲ çīĻ
åŃĲ åħ°
åĪ° åŁİä¸ĭ
åĪ° å¸Ĳä¸ĭ
çŁ¥ æĵį
çŁ¥ åħµæ³ķ
å¤© æľī
å¤© è´¥
å¤© èµĲ
åįģ åĽŀ
åįģ ä¸īå¹´
åįģ ä¸ĢåĽŀ
åįģ ä¹ĿåĽŀ
çļĨ æĽ°
çļĨ çŁ¥
çļĨ åĲ¬
çļĨ åĽł
çļĨ ä¸įæķ¢
äºĭ åı¯
äºĭ åľ¨
äºĭ æĹł
äºĭ å¿ħ
äºĭ æĪĲ
äºĭ å®ļ
å¿ħ ä¸Ń
å¿ħ å°½
æ±Ŀ å¿ħ
æ±Ŀ èĥ½
æ±Ŀ äº¦
æ±Ŀ ä½ķäºº
æĹ¶ äºº
æĹ¶ ä¸º
æĹ¶ ä¹Ł
æĹ¶ å½ĵ
æĹ¶ éĤĵèī¾
æĹ¶ è¾°
æĹ¶ å»ºå®īäºĮåįģ
å½ĵ åį³
éŃı éĥ½çĿ£
åıĪ åİ»
åıĪ èµ°
åıĪ è¡¨
åıĪ ä¸įçŁ¥
åıĪ å¼ķåĨĽ
åıĪ æĭ¨
åıĪ ä¸ĢæĹ¥
åıĪ é¸£
åĪĺ åº¦
åĪĺ å·´
å·² åĲİ
å·² æĺ¯
å·² éĢĢ
å·² ä¸§
åıª èĪ¹
åıª å°±
åıª çĸĳ
åıª å¥½
åıª æĢķ
åıª åģļ
èĭ¥ æĿ¥
èĭ¥ äºĳéķ¿
èĭ¥ æŀľ
å±± åŁİ
å±± æ²³
å±± å°ıè·¯
æĬ¥ çİĦå¾·
æĬ¥ ç§°
äºĳ éĽ¾
æ¬² ä¸º
æ¬² åĩº
æ¬² å¾Ĺ
æ¬² æĬ¥
æ¬² æķĳ
æ¬² åıį
æ¬² è¦ģ
æ¬² å¯»
æ¬² åĩºæĪĺ
æ¬² æĬ¥ä»ĩ
åį´ ä¹ĭ
åį´ åıª
åį´ éĥ½
åį´ å¾ħ
åį´ åĨį
åį´ ä¸įçŁ¥
æ¯ Ļ
æŃ£ è¥¿
æŃ£ è¯ĿéĹ´
æĪĺ å°Ĩ
æĪĺ è´¥
æĪĺ åĲķå¸ĥ
ä½¿ å½¼
è·¯ åı£
è·¯ éĢĶ
å¯¨ åŃĲ
éķ¿ äºĮ
éķ¿ ä¹ħ
éķ¿ æıĸ
èĻ «
çİĭ åĮĸ
çİĭ åĮ¡
çİĭ èİ½
çľ Ń
æ³ Į
å·ŀ å¹³
åŃĻ ä¼ĳ
åŃĻ éĥİ
å®ī å¿ĥ
å®ī åĽ½
å®ī å¤©ä¸ĭ
å®ī éĤĳ
éģĤ æķĻ
éģĤ æĭ¨
éģĤ åĬł
éģĤ è¿Ľåħµ
éģĤ çĤ¹
éģĤ è¿ŀå¤ľ
çº £
å¿ĥ å®ŀ
éĹ® ä»ĸ
éĹ® åĢĻ
é¢ ĵ
é¢ ĸ
åıĸ æ±Ŀ
åıĸ èľĢ
åıĸ éħĴ
åıĸ ä¹Ĳ
åıĸ å¾Ĳå·ŀ
åıĸ è¥Ħéĺ³
èµ· åĨĽ
èµ· ä¹ī
èµ· è°¢æĽ°
æŃ» ä¹Ł
æŃ» å®Ī
æŃ» åĳ½
æŃ» äº¦
è¡Į åħµ
è¡Į èµ°
è¡Į åĬ¨
è¡Į åĪº
å®Ī è¡ĹäºŃ
åĲ´ æľī
åĲ´ æĩ¿æĽ°
åĲ´ ç¡ķ
æĽ¹æĵį ä»¥
æĽ¹æĵį äº¦
æĽ¹æĵį å¤§åĸľ
è®¡ ä¼ļ
è®¡ çĤ¹
çŃī æĽ°
çŃī åķĨè®®
ä¾¿ ä¸º
ä¾¿ æĿĢ
ä¾¿ è¿ĺ
ä¾¿ åĪº
ä¾¿ åĢĴ
åĪĨ éģĵ
åĪĨ å¼Ģ
åĪĨ æķ£
åĪĨ åĪĹ
åĳ½ å·¦åı³
ä»İ å®¹
å» ª
æľª ä¸º
æľª èĩ³
æľª éģĩ
æľª è¯Ĩ
æľª éĨĴ
è¯¸ åŃĲ
æĻ Ĵ
èĪ °
å¸ĥ äºİ
å¸ĥ å¤§æĢĴæĽ°
å¸ĥ åĪĹ
å¸ĥ è¢ĭ
èľĢ åĨĽ
ç¬ ®èŀį
ä¸ľ åįİ
ä¸ľ æµ·
æĿĥ éĹ®
ä¾¯ æ²³
é£ŀ æĿ¥
é£ŀ æ£¹
æĢ¥ éĹ®
æĢ¥ çŁ£
æĢ¥ æĿ¥æķĳ
éĿ¢ ä¸įæĶ¹
åįĹ åĮĹ
åįĹ é¡¿
åįĹ çļ®
éĹ» åħ¬
éĹ» è¯´
èµ° åĽŀ
èµ° æĹ¶
èµ° è·¯
åĽĽ éĺŁ
åĽĽ äºĶåįģåĲĪ
æķ° æŀª
æķ° æŃ¥
èĩ£ æŃ»
èĩ£ è¯·
èĩ£ éĿŀ
èĩ£ åıĹ
åį³ èĩ³
åį³ åıĸ
åį³ è¯·
åį³ èµĲ
åį³ ä½¿äºº
å¿½ å¸Ĳä¸ĭ
ä¸¤ æĿ¡è·¯
å¾Ģ åĬ©
å¤ĩ å½ĵ
å¤ĩ è¿°
æīĢ èµĲ
äºĶ åĽŀ
äºĶ åħ³
æŁ ¥
å¹³ ä¾¯
éĢĢ äºĨ
éĢĢ æŃ¥
æľĽ éĻĽä¸ĭ
éĹ¨ åĨħ
éĹ¨ èĢĮåħ¥
æµ ļ
ä¸ĩ åħ¨
ä¸ĩ æĶ¿
ä¸ĩ æĪ·
æ±ī ä¹ĭ
æ±ī åĨĽ
æ±ī éĺ³
æ±ī ç¥Ģ
åľ° ä¸Ĭ
åľ° æĸ¹
åľ° åĲį
æķħ æīĺ
ç² ª
ç§ ĥ
æĸ¹ è§ģ
æĸ¹ åĩº
æĸ¹ æķ¢
æĸ¹ æŃ¢
æĸ¹ éĨĴ
æĸ¹ æĤŁ
çĶŁ éĹ¨
çĶŁ åĬĽ
å¤Ħ èĢĮèµ°
å¤Ħ ä¸ĸ
æĸĩ åı°
æĸĩ çļĩå¸Ŀ
æĸĩ åĩŃ
æ°´ çģ«
æ°´ åı£
éĻį äºĨ
éĻį ä¹¦
éĻį è´¼
éĻį æĹĹ
éĻį åįĴ
çĶ¨ æīĭ
çĶ¨ éĵģ
çĶ¨ èį¯
çĶ¨ æŃ¤è®¡
å°ı åŃĲ
å°ı èĩ£
å°ı åİ¿
å°ı ä¾Ħ
åį´è¯´ éŃıå»¶
åį´è¯´ åŃĻçŃĸ
åį´è¯´ éĻĨéĢĬ
å£° åĸı
å°½ æķ°
å°½ åıĳ
å°½ çĿĢ
æķ¢ éĹ®
é»Ħ é¾Ļ
é»Ħ åĬŃ
é»Ħ æ±īåįĩ
æĥĬ åĢĴ
æĥĬ éĹ®åħ¶æķħ
æīĭ æĮĩ
æīĭ æĮģ
ç¦ ¾
è®® æ¬²
è®® ç«ĭ
å¤ľ åĪĻ
è´¥ éĺµ
äº¦ åľ¨
äº¦ èĩ³
äº¦ çŁ¥
äº¦ å½ĵ
äº¦ éĿŀ
äº¦ éªĤæĽ°
çĸ ¥
åĲ¬ ä»İ
åĲ¬ åħ¶è¨Ģ
æĩ¿ å¤§æĥĬæĽ°
è¯· åħ¬
è¯· å¸Ŀ
è¯· å¤«äºº
è¢« åĲ¾
è¢« ä¼¤
åĽ½ æľī
åĽ½ çİĭ
åĽ½ ä¹¦
åĽ½ å¯º
ç½ ©
ä¸Ķ æĽ°
ä¸Ķ æĿĥ
ä¸Ķ ä½ı
å¸Ŀ ä¹ĥ
è´¼ åħļ
è®¸ åħģ
è®¸ è´¡
å¿ł å¿ĥ
å¿ł åĲĽ
å¿ł åŃĿ
éĶ ¹
éĶ ħ
ä¸įåı¯ éĢłæ¬¡
çĳľ ä»¤
çĳľ åĳ½
äºĮäºº æĽ°
å¾ħ æĿ¥
å¾ħ ä¸ºä¸Ĭå®¾
ç»´ ä»¤
éĿŀ æ±ĿçŃī
æķĻ è¯²
åĨħ åıĺ
ä¸ŀçĽ¸ æľī
ä¸ŀçĽ¸ ä»¤
ä¸ŀçĽ¸ æ¬²
ä¸ŀçĽ¸ éĴ§
ä¸ŀçĽ¸ ä¸´ç»Ī
éģĵ å£«
èº« èĻ½
èº« å¸¦
ç«ĭ èµ·
å¤ļ å¸¦
å¤ļ åįĬ
åĲĮ åĽŀ
åĲĮ å¹´
åĲĮ åĬĽ
ä¼ı æĥŁ
æķĳ åİ»
æķĳ å¾Ĺ
æķĳ çģŃ
æķĳ åħµåĪ°
æŃ¦ å°ĨåĨĽ
éĺ³ åŁİ
æĪĲ ä½ķ
æĪĲ çĸ¾
æĪĲ å¤§åĬŁ
åĳ¨ æĹ¨
æŁĲ åİ»
æŁĲ èĩª
æŁĲ å·²
æŁĲ æľīä¸Ģ
ç»į æ±ī
çŃĸ æĢĴ
æĭľ è¯·
æĭľ è¿İ
æĭľ æ¯ķ
å®ļ çĦ¶
å®ļ è¦ģ
çģ« æĢ¥
çģ« èĪ¹
è¿ĩ å¤±
å¹´ äºĶåįģ
æĸ© é¢ľèī¯
éĺµ äº¡
éĺµ èĦļ
çł Ĥ
çł ļ
èµ¶ æĿĢ
å¸Ī çĪ¶
å¸Ī å©Ĩ
å¼ķåħµ åĪ°
å¼ķåħµ æķĳ
å¼ķåħµ äºĶåįĥ
ç¬ĳ ä¹ĭ
ä½ľ æŃ¤
ä½ľ ä¹Ĳ
ä½ľ èī²
åĪĢ æŀª
åĪĢ åľ¨æīĭ
å¹¶ è¾Ķ
é«ĺ ä¸ĭ
ä¼ļ è¯¸å°Ĩ
åĽł èĢĮ
åĽł è°ĵ
åĽł æĮĩ
çĲ Ĳ
æ¬¡ æĽ°
ç²® å¹¿
å¤´ é£İ
å¤´ çĽ®
å¤´ ä¸Ģä¸ª
äº² ä¿¡
äº² ç»Łå¤§åĨĽ
äº² åĨĴçŁ¢çŁ³
éľ Ģ
éľ ľ
éľ ¹éĽ
åĮĹ éĿ¢
å¤ĸ çĶ¥
èµµ å¿ł
èµµ åĴ¨
åĬ¿ å¿ħ
éĻĪ çºª
çĶļ äºİ
çĶļ å½ĵ
çĶļ å¥½
çĶļ ä¸¥
çĶļ çĽĽ
çĶļ ç´§
èįĨå·ŀ æľīå¤±
èįĨå·ŀ å·²è¢«
æį ¶èĥ¸
å½Ĵ åİ»
å½Ĵ åºľ
çĮ ľ
è°ĵ æĵįæĽ°
è°ĵ äºĳéķ¿æĽ°
éĩį äºĭ
éĩį åıł
æģĲ æĺ¯
æģĲ æĥ§
åĳĬ æĪĳ
åĳĬ éĢĢ
åĳĬ å¸ĥæĽ°
èĢ³ çĽ®
æĦ¿ å°Ĩ
æĦ¿ åį³
æĦ¿ æ±Ĥ
æĦ¿ ä¹ŀ
æĦ¿ æĺİåħ¬
æĹ© åĩº
æĶ¾ çĤ®
æİ¥ ä½ı
æİ¥ æµİ
éļı å°Ĩ
éļı æĪĳ
éļı çĿĢ
æı Ń
èĻ½ æŃ»
çĪ¶ ä¹ĭä»ĩ
çĽ´ æĿĢåħ¥
èľĢåħµ å°½
èľĢåħµ åĬ¿å¤§
åıĹ æĥĬ
åıĹ ç¼ļ
åıĹ èĭ¦
ä¸įèĥ½ åĩº
ä¸įèĥ½ è¿Ľ
ä¸įèĥ½ åĨ³
ä¸įèĥ½ ä¿Ŀ
ä¸įèĥ½ åıĸèĥľ
åħ´ æ±īå®¤
å¤ıä¾¯ åĴĮ
å¤ıä¾¯ é©¸é©¬
åĨį åĩº
åĨį ä»¤
åĨį éĹ®
åĨį æķ´
åĪĻ åĲ¾
åĪĻ æĺ¯
åĪĻ åĲĮ
åĪĻ ä¸ľåĲ´
è¿ŀ å¼©
è¿ŀ ç»ľ
ç¿ Łåħĥ
ä¹ĺ ä¹±
ä¹ĺ æŃ¤æĹ¶
ä¹ĺ å°ıè½¦
å°ļ åı¯
å°ļ çĦ¶
å°ļ ä¸Ķ
å¤į ä½ķ
å¤į ä»ĩ
ç¨ ¿
åĬŁ çĽĸ
åĬŁ ä¸ļ
åĬŁ ç»©
å¥ı ç§°
ä¼ĳ åİ»
ä¼ĳ åĬ¨
ä¼ĳ åĴİ
éĴ Ī
èĢģ æĲº
å¥ī çĮ®
æĽ´ æĹł
åĬĽ åĬĿ
åĬĽ ç©·
çł´ ä¹Ł
çł´ åŁİ
çł´ é©¬è¶ħ
çł´ ç»½
ä¹ī æ°Ķ
ä¹ī çĬ¶
å°± éĩĮ
å°± åĿĲ
å°± å½¼
ä¹± çŁ³
å°ģ çĪµ
å¼Ģ å¼ĵ
ç®Ń ä¸Ĭ
ä¹ħ äºĭ
ä¹ħ å®Ī
ä¹ħ æĮģ
ä¹ħ æħķ
åıį èĢ¶
åıį ä¸įå¦Ĥ
åıį åıĽ
æľ¬ èĲ¥
è¦ģ ä»ĸ
åįĵ æĢĴ
åĶ¤ å·¦åı³
åķĨè®® èµ·åħµ
åŃŁ èĬĤ
åŃŁ åĿ¦
çĸĳ å¿ĥ
ç¤¼ è´¤
å¤©ä¸ĭ ä¹ĭ
å¤©ä¸ĭ ä¹ĭäºĭ
å¤©ä¸ĭ å¤§ä¹±
å¤©ä¸ĭ å¥ĩæīį
ä¸»åħ¬ ä½ķä¸į
å²Ĥ ä¸įåı¯
æĹ¢ æĺ¯
æĹ¢ æĿĢ
æĿ¨ å¤§å°Ĩ
æĿ¨ é¾Ħ
æ°ĳ åħµ
ç»Ł å¤§åħµ
æĶ¶ å¾Ĺ
æĶ¶ å½ķ
é² ¸
é² Īé±¼
æľĿ å¤ķ
åĬ¨ æŃ¢
åĬ¨ æĳĩ
å§ĵ åŃĻ
éĩĳ çİī
éĩĳ éĶģ
éŃıå»¶ è§£
çķĻ æŃ¤
åĨĽé©¬ äºİ
æĵĴ ä¸ĭ
æĵĴ åĪĺå¤ĩ
é£İ èµ·
å±¯ å°ıæ²Ľ
åŃĹ æŃ£
åŃĹ ä¼¯
çª Ł
çľŁ å®ŀ
èµµäºĳ çŃī
æīį ä¹Ł
æīį å¾·
éĥŃ å¤«äºº
èĥĮ ä¸Ĭ
èĥĮ æ°´
ç© °
éŁ© çĳ¶
åĪĺå¤ĩ ä¹Ł
éĢģ äºĨ
å¾Ħ è¢Ń
è¿ľ å°ĨåĨĽ
è¿ľ æľĽ
å¼ĥ åį´
å¼ĥ ä¸ĸ
åĴ Ĵ
å¸¦ çĿĢ
èī¯ é©¬
èī¯ è¾°
èī¯ è´±
å¤«äºº åİ»
ä½Ĩ ä»¥
åĽ´ åĽ°
åĵŃ æ³£
è¿ĺ æľī
è¿ĺ æĪĳ
è¿ĺ æĪĲéĥ½
æ¬¡æĹ¥ æĹ©
æ¬¡æĹ¥ å¹³æĺİ
èįī ä¸Ń
èįī æľ¨
èįī åłĨ
ç½ª ä¹Ł
ä½ł ä¸¤å®¶
åħ« æĸ¹
åħ« å¹´
åħ« åŃĹ
åħ« åįģä½Ļ
å°Ħ ç®Ń
çĮ® éĹ¨
çĮ® åĬŁ
æıĲ å¤´
æıĲ éĿĴé¾ĻåĪĢ
çĻ½ æĹ¥
çĻ½ åıĳ
å·® éĶĻ
ä¼ł åı·ä»¤
æĬĬ éĹ¨
æĬĬ æŀª
åįĬ å¹´
åįĬ æ¸¡
åįĬ çĤ¹
å¥½ é©¬
å¥½ ç»ĵ
å¥½ åŃ¦
äºİæĺ¯ äºĮäºº
äºİæĺ¯ åı¸é©¬æĩ¿
äºİæĺ¯ å§ľç»´
åĿļ åĽº
åĿļ è¾ŀä¸įåıĹ
é¼ĵ ç½¢
å¨ ´
è¯ı ä¹¦
éĤ£ ä¸ª
éĤ£ å°ĳå¹´
æµģ æ³ª
æµģ èĬ³
å¸¸ æĽ°
å¸¸ è¨Ģ
å¸¸ æĢĢ
æīĵ åŁİ
åįģä½Ļ æ¬¡
æİ¢ åŃĲ
æİ¢ çľĭ
æİ¢ åĲ¬å¾Ĺ
åĭ¿ å¤ļè¨Ģ
ä¸įçŁ¥ æīĢ
è½» åĬ¨
éĽĦ å¸Ī
æ» ©
æ» ĭ
åħ± ä¼Ĳ
åħ± è¯Ľ
åħ± è®º
åĨ² åĩ»
å®³ äºĨ
ä¸įæķ¢ ä¸įä»İ
ä¸įæķ¢ åīįè¿Ľ
ä¸įæķ¢ æģĭæĪĺ
ä¸įæķ¢ æĿ¥è¿½
æ¢ ¢
ç¬¬ ä¸Ģä¸ª
ç¬¬ ä¸īæĹ¥
è°¢ åĪ«
æ±Ĥ è§ģ
çĴ §
å¼ķåĨĽ åĩºè¿İ
åĪ« äºĭ
åĪ« åĽ¾
çºµ åħµ
çºµ æľī
çºµ çģ«
çĹħ èĢħ
çĹħ ä½ĵ
ä»» ä»İ
å®¹ çº³
å®¹ è²Į
èĻİ åį«
èĻİ ä½ĵ
èĻİ å¨ģå°ĨåĨĽ
äººé©¬ åĽ°ä¹ı
æļĹ åıĸ
æļĹ åľ°
æļĹ æĬķ
æļĹ åı·
æļĹ èĹı
åĬ© ä¹Ł
è¯Ĺ ä¸Ģé¦ĸ
æŃ¢ çķĻ
æŃ¢ æľīä¸Ģ
æŃ¢ åī©
æŃ¢ å¤±æİª
ä¸¾ åħµ
ä¸¾ çĽ®
ä¸¾ æŃ¢å¤±æİª
ä¸ĸ å±ħ
è¡£ ä¸Ń
è¡£ é£Ł
ä¸ĥ æĹ¥
ä¸ĥ å°º
èĦ ¸
èĦ ī
èĦ Ĭ
åıĶ ä¾Ħ
åŃ¤ åŁİ
è´¤ èĩ£
å¤º åĲ¾
èĻļ ç«ĭ
èĻļ ä¼ł
ä¿Ŀ ä¹ĭ
ä¿Ŀ å¥ı
ç¥ŀ æĢĿ
ç¥ŀ éĢŁ
ç¥ŀ äºŃ
ç¥ŀ åįľ
è°ģ ä¸º
è°ģ èĤ¯
æĸŃ äºĨ
åľŁ èī²
åľŁ å´©
åľŁ åĿĳ
å±ħ ä½ı
å±ħ å·¦
å±ħ åı³
å±ħ ä¸§
æĮĩ æķĻ
åħĥ å®µ
ç¨ĭ è¿ľå¿Ĺ
å¯¹ åĿĲ
å¯¹ è¯ģ
æģ© äºİ
æģ© åĳ½
æģ© ä¹ī
å¨ģ éķĩ
å¨ģ ç¦ı
ä¾į åį«
åıªè§ģ åŃĶæĺİ
åıªè§ģ èľĢåħµ
åıªè§ģ å¼łé£ŀ
æ¯į èĩ³åŃĿ
æķ£ æµģè¨Ģ
æģ¨ èĢħ
éľĩ æĽ°
ç§° ç¾¡
æħĮ ä»¤
åį¿ åı¯
èĲ½ åĲİ
èĲ½ èįĴ
éĻµ è¿Ł
èģļ ä¼ļ
èģļ ä¼ĹåķĨè®®
ä¸Ĭé©¬ èĢĮåİ»
åĭĩ ä¸įåı¯å½ĵ
æľīä¸Ģ æ³ī
çī¹ åĳ½
çī¹ è¯·
é©¾ èĪŁ
éĢŁ æĪĺ
çĵ ®
æĸ° ä¹¦
æĸ° çł´
çº¦ äºİ
çº¦ æĪĺ
çº¦ æľŁ
æľķ æ¬²
æľķ éĹ»
åĪº äºİé©¬ä¸ĭ
çŁ³ ä¸Ĭ
çŁ³ å£ģ
ä¸ķ å¤§åĸľ
åħŃ ä¸ĩ
åħŃ çĶ²
åħŃ å²ģ
åħŃ åĩºç¥ģå±±
å¼łéĥĥ å®Ī
å¿§ çŁ£
æ¸Ĭ æĽ°
ä¸´ æķĮ
ä¸´ éļ¾
ä¹ĭè¨Ģ ä¹Ł
éĢĬ ç¬ĳæĽ°
å¥³ åĦ¿
èĽ® æ´ŀ
ç»Ĩ å¥ı
ç»Ĩ è¿°
éĿĴ è¡£
èµĲ ä¸İ
ç¥ĸ çĪ¶
å¤ªå®Ī å¼łæĿ¨
å¯» éĹ®
èĭ± æĿ°
ä½¿äºº éĢģ
åĴĮ ä½ł
è¯Ī è°ĭ
ç¦» æ´Ľéĺ³
æŃ¥ åįĴ
æİ¨ ä¸ĭ
æİ¨ çĹħ
æİ¨ åĢĴ
æİ¨ éĺ»
ä¸ĢéĿ¢ ä»¤
ä¸ĢéĿ¢ ä»¤äºº
åħī èĬĴ
ä¸¥ å¯Ĵ
ä¹Ŀ æĹı
è¢Ń èįĨå·ŀ
æľīè¯Ĺ æĽ°
æľīè¯Ĺ åı¹æĽ°
é¡º å¤©
å¢ ©
æľ¨ çŃı
æľ¨ çĤ®çŁ³
åĬł ä¹ĭ
åĬł åħµ
ä¸įå¦Ĥ åĿļå®Ī
æĥ§ ä¹Ł
ä»¤äºº äºİ
ä»¤äºº éĢģ
çĲĨ å®ľ
åŃŁèİ· åħ¥
åŃŁèİ· å¤§åĸľ
åħ¸ æĽ°
ç¦ģ æŃ¢
éĢł æĪĲ
ä¸Ģå£° æ¢ĨåŃĲ
ä¸ĭé©¬ åıĹéĻį
åĬ« åİ»
æĭĽ åĳ¼
äºĮåįģ åĽĽäºº
æ±ĿçŃī çļĨ
åĬĿ ä¸»åħ¬
å¦» å¥³
çĿ¿ ä»İä¹ĭ
åİŁæĿ¥ åŃĶæĺİ
é©± æľ¨çīĽæµģé©¬
å¼Ĥ åº¦
åİ¿ å°ī
ä¼¤ åħ¶
åİļ å¾ħ
åİļ æĦı
åİļ ç¤¼
åİļ èµı
åĦ¿ æĦ¿
æ»¡ åŁİ
æ»¡ å¤©
æ»¡ åº§
å®Ĺ é¢Ħ
å¼łè¾½ ä¹Ł
éľ¸ çİĭ
æĬ¤ è½¦
åħ¥åŁİ è§ģ
æĮģ çŁĽ
æ±Łä¸ľ åŃĻæĿĥ
åĪ© åĪĢ
åľ¨æŃ¤ éĹ´
èİ« ä¸į
é¢Ĩåħµ äºĶä¸ĩ
å¿½çĦ¶ ä¸Ģéĺµ
æ®¿ å®ĩ
å¾¡ æķĮ
éĢļ å§ĵåĲį
æĽ¹åħµ å¤§è´¥
æĽ¹åħµ å¤§ä¹±
åĢĺ å½¼
åĢĺ éŃıåħµ
æľªçŁ¥ çİĦå¾·
æĬĺ åħ¶å¤§åįĬ
ä¼Ĺå®ĺ åĳĬåħį
éº ĴéºŁ
ç»Ī éĿŀ
åħ· éģĵ
åį§ åĨħ
åį§ èļķ
æī¶ æŁ©
æī¶ èĢģæĲº
æĢ§ èµ·
æĢ§ åĪļ
æĭĶ åĪĢ
äºī åĬŁ
æĿ¥è§ģ æĵį
æĿ¥è§ģ åŃĻæĿĥ
æŀģ åĸĦ
æŀģ å¹¿
æ¨Ĭ åı£
çĭ¬ æľī
çĭ¬ èĩª
çĭ¬ æĪĺ
çĭ¬ çĶŁ
èµ·åħµ åįģä¸ĩ
çĻ¾ä½Ļ æĹ¥
é©¬å²± æĽ°
åĪĺè¡¨ æĽ°
å¼º çĽĽ
ä¸ģ å»ºéĺ³
ä¸ģ å»Ļ
æİ© ä¹ĭ
æİ© èĩ³
æĪª åĩº
è¢į å¸¦
è¢į éĵł
å¿ħæľī åĩĨå¤ĩ
å¿ħæľī åŁĭä¼ı
æľīä½ķ èī¯çŃĸ
è¯Ĩ åĲ¾
è¯Ĩ çł´
å¹¼ å¸¸
è´¾ èĮĥ
æ´ŀ åħµ
çĬ¹ èĩª
éĢĨ ä¸į
æ¯ı å¤ľ
æįī äºĨ
ä¸§ äºĭ
åĩºé©¬ äºİ
åĩºé©¬ æĲ¦æĪĺ
è°ĥ çĲĨ
ä¼ĹçļĨ æĽ°
ç¥¸ ç¦ı
ç¥¸ ä¸įè¿ľçŁ£
çĥ§ ç»Ŀ
åĳ¼ æĽ°
æĭ¥ åħ¥
æĭ¥ èĢĮæĿ¥
éķĩ è¥¿å°ĨåĨĽ
éķĩ åĽ½å¯º
èĦ± ä¸ĭ
èĦ± åİ»
åıªå¾Ĺ ä¸ĭé©¬
åĪĨåħµ äºĶè·¯
æ²» ç½ª
çłį åİ»
å¤ıä¾¯æĥĩ æĽ°
æĸĩæŃ¦ çĻ¾å®ĺ
çĶ° éĩĮ
çĶ° ç»Ń
åĽŀæĬ¥ åŃĶæĺİ
è½¬ è¿Ĳ
åı¤ ä¹ĭ
ä»ĵ æĽ°
ä»ĵ äºŃ
æķ´ çĤ¹
åħį èĩ´
åħį åħ¶æŃ»
æĬµ èµĸ
åı¯ä»¥ ä¿Ŀ
å°½çļĨ æĮĤåŃĿ
ä¸Ķè¯´ çİĦå¾·
éģį è¡Į
éģį è§Ĩ
éģį ç«ĸ
éģĹ è¨Ģ
éģĹ è¡¨
çķ¥ æĹł
åĲ¬å¾Ĺ è¿Ļä¸ªæ¶Īæģ¯
åħĦå¼Ł ä¹Ł
èĹ ©
åįĩ åłĤ
åĪĹ éĺµ
åĩł ä¸ª
æĺŁå¤ľ æĬķ
æĮºæŀª çĽ´åıĸ
éķ¿å®ī æĿ¥
æł¡ åĪĢæīĭ
ä¸įèĤ¯ åıĳåħµ
åĳĺ å¤§å°Ĩ
è¿Ĳ çŃ¹
èµ¤ åĦ¿
æ³ª æµģ
è±« ç«ł
æĽ¹çľŁ ä¸ºå¤§éĥ½çĿ£
éŀ Ĵ
éŃıä¸» æĽ¹é«¦
æĮī åħµ
æĮī è¾Ķ
å¼łç¿¼ ä¹Ł
å¼ķä¸ĢåĨĽ ä»İ
åıĮ åħ¨
ä»° æľĽ
å¿½è§ģ ä¸Ģ
èĽ®åħµ å¤§è´¥
éģ¿ ç¥¸
éģ¿ å¸Ń
ä¼ıåħµ é½Ĳåĩº
ä¼ıåħµ åĽĽèµ·
æĸ½ çĬ¬é©¬ä¹ĭåĬ³
æĮĤ åį°
ä¹ĺåĬ¿ è¿½èµ¶
å·®äºº åİ»
é¸£ é¼ĵ
éĻĨéĢĬ æĽ°
ä¸ĵ æľĽ
å¦¾ èº«
éļĲ åĮ¿
åĨĻ çĿĢ
æĹłä¸į æĥĬéªĩ
æĹłä¸į ä¸ĭæ³ª
ä¹ŀ éĻĽä¸ĭ
è¯Ŀ è¯´
å¹¿ å®Ĺ
æĬ¥çŁ¥ çİĦå¾·
æĬ¥çŁ¥ åŃĶæĺİ
æŀĿ ç®Ń
ä¸īè·¯ å¤¹æĶ»
ç«¥ è°£
ä¹ĭæĹ¶ ä¹Ł
åįķ éģĵ
éĺ´ éĺ³
åħ» èĢģ
å¦Ļ çŃĸ
åī² åľ°
åī² æį®
åī² éº¦
åĽĽéĿ¢ åĸĬå£°å¤§éľĩ
éģ£ä½¿ èĩ³
éģ£ä½¿ èµįè¯ı
æİĮ å¤§æĿĥ
ç§¦ èī¯
ç¯ ±
ç¯ ·
å®¢ åķĨ
è°¦ æĽ°
è´¹ åĬĽ
åĩºè¿İ ä¹ĭ
æĢ¨ æľĽ
å¿ĥèħ¹ ä¹ĭäºº
æĻ¯ å¸Ŀ
æĻ¯ èĢĢ
æŃ»äºİ æŃ¤åľ°
å±¯åħµ åŁİå¤ĸ
å»ĸåĮĸ æĽ°
æĬļ æ°ĳ
è¿ŀå¤ľ æĬķ
ç´¯ åıĬ
èĥĨ å¯Ĵ
æŃ¦å£« æİ¨åĩºæĸ©ä¹ĭ
åŃ¦ å£«
è¯ļ ä¸º
è¯ļ å®ŀ
åī¯ éĥ½çĿ£
å¼łé²ģ å¤§åĸľ
æĭį æīĭ
å¼ķä¸Ģ éĺŁ
ç´¢ èįĨå·ŀ
ç©¿ äºĨ
ç»Ĩä½ľ åĽŀæĬ¥
éĹ»ä¹ĭ å¤§æĢĴ
æķĪ æŃ»
æ±ł ä¸Ń
åľ£ æľĿ
éĹ®åħ¶ æĿ¥æĦı
è¦Ĩ å§ĵ
ä¸Ģå½ªåĨĽ ä»İ
ä¸Ģå½ªåĨĽ æĭ¦ä½ı
èĿī æĽ°
æĶ¹ å®¹
æİĴ éĬ®é©¾
çĦī èĥ½
è®¾å®´ åºĨè´º
ä½ķä»¥ çŁ¥
æģ¶ ä¹ĭ
æ¸ħ å¹³
æ²Ļ åı£
æ²Ļ åľŁ
å²Ĥåı¯ åĽł
ä¸įè¶³ ä»¥
ä¸įè¶³ ä¸İ
éĻ¶ æģŃç¥ĸ
å¯ĩ å°ĨåĨĽ
ç§» æĹ¶
æłĳ ä¸Ĭ
è¨Ģæľª ç»Ŀ
æīİ èĲ¥
éĺģ ä¸ĭ
åĿ¡ åīį
æ¸Ń åĮĹ
æ¸Ń æ¡¥
å¿ĺ åį´
å¿ĺ æģ©
æĥľ åĵī
å¾ĢæĿ¥ é©°
åĲĦèĩª éĢĥçĶŁ
çĮĽ èĻİ
çĮĽ çľģ
éĩı æ±Ŀ
åĵĢ åĳĬ
æĹ©æľī æİ¢é©¬
æ¸© æĽ°
ç¾İ çİī
ä¸¥é¢ľ æĽ°
æĶ»æīĵ ä¸įä¸ĭ
çĥĪ çģ«
éĴŁä¼ļ æĽ°
é¦Ļ é¥µ
æŀľçĦ¶ æĺ¯
æĿľ å·¥éĥ¨
åĽŃ éĹ¨
éĢ¼ è¿ĳ
ä¹ĥæĺ¯ éŃıå»¶
åºĦ éĻ¢
äºĮåįģä½Ļ ä¸ĩ
åı¸é©¬å¸Ī æĽ°
æĶ¶æĭ¾ è¡Įè£ħ
åĪ¶ ä¹ĭ
äººçļĨ è¨Ģ
å·´ èľĢ
äºİæŃ¤ å¤Ħ
æĭįé©¬ æĮºæŀª
æĭįé©¬ æĿ¥è¿İ
æ¹ ĺ
çİ¯ ç»ķ
ä¸ģå¥ī æĽ°
è±«å·ŀ çī§
ä¸įå¿ħ å¤ļè¨Ģ
çĽĳ ä¸ĭ
çĽĳ çĿ£
çĽĳ ç¦ģ
åĽŀåĪ° æľ¬å¯¨
åĿĲäºİ å¸Ĳä¸Ń
æĿ¨ä»ª æĽ°
çħ Į
ä¸ĢçĻ¾ äºº
ä¸Ģä¸ª ä¸ª
çĨŁ å¨´
çĽĬå·ŀ åĪĺçĴĭ
èĨ ı
åĲŀ åĲ´
è¾Ľ æķŀ
åĮ» èĢħ
ä¸ĢåĪĢ æĸ©
ä¸ĢåĪĢ æĸ©ä¹ĭ
è¡Ĺ å¸Ĥ
äºĮæĽ´ æĹ¶åĪĨ
æ·· æĿĢ
åİīå£° å¤§åı«æĽ°
åİīå£° èĢĮè¨ĢæĽ°
çī§ ç«¥
æħ° å¹³çĶŁ
æĻĵ å¤ľ
æı´ åħµ
ç«ĸ åĦĴ
çģ¯ çĥĽ
åį´è¯´æĽ¹æĵį åľ¨
æ¯Ĵ èĽĩ
å°¹ å¤§çĽ®
æĵįä»¤ è®¸è¤ļ
æİ· åīĳ
ä¸īåįģä½Ļ å¹´
é»Ħå·¾ ä½Ļåħļ
å¥ĭåĬĽ åĲĳåīį
å±±è°· ä¹ĭä¸Ń
æŃ»èĢħ ä¸įè®¡åħ¶æķ°
çĶŁæĵĴ è¿ĩåİ»
éĦ ¢éĻµ
ä¸ĺ å»º
åĲ´ä¸» çļĵ
ç¦Ģ æĽ°
çĥŁ èµ·
çĥŁ çģ«
æĿŁ åıĳ
åįł ä½ı
ä¸ĭä»¤ æĽ°
ä¸ºä¸Ĭ å°Ĩ
èĩªåĽŀ æĪĲéĥ½
æŃ£åľ¨ å¸Ĳä¸Ń
çĸ® åı£
å°ĺ åŁĥ
åħµä¸į èĩ³
æĪ¿ å±ĭ
æĪı è¨Ģ
ä¼ĺ æĽ°
çŃµ ä¼ļ
äºĨä¸Ģ ç¨ĭ
çīµ å¼ĺ
è¿½æĿĢ äºĮåįģä½ĻéĩĮ
åĮ¹å¤« ä¹ĭåĭĩ
åħ·è¨Ģ åħ¶äºĭ
åħµè´¥ å°Ĩäº¡
åºĨ åĬŁ
æİĺ åľ°éģĵ
ç±³ ä»ĵ
ç»ķ æ²³
éļĶ å²¸
ä»ĸäºº æīĢ
æ®µ è°·
çıª æĽ°
éĢĶ ä¸Ń
èĩªçĽ¸ æ®ĭå®³
å®īæ°ĳ å·²æ¯ķ
æľªå°Ŀ ä¸į
ä¹Ķ çĳģ
ç»ĥ æ°´åĨĽ
æĬĹ æĽ°
æĬĹ æĭĴ
æĭ© ä¸»
é¡¹ äºĭ
å¹³çĶŁ æīĢ
çķı æĥ§
çĪ¶äº² ä½ķæķħ
å·¢ æ¹ĸ
å·¢ ç©´
æĬĦ åĪ°
åĩºå¸Ī ä¼ĲéŃı
æĢª å¼Ĥ
æ²¿ æ²³
æ²¿ éĢĶ
æµ© å¤§
æµ© æµ©
èĭı ç§¦
éĹ¨æĹĹ ä¹ĭä¸ĭ
æ°´åĨĽ éĥ½çĿ£
éĴ§ åĳ½
æ¶ª æ°´
è´¤å¼Ł åı¯
æĳĩ åĬ¨
ä¹ĭåĬŁ ä¹Ł
åİĨ æķ°
éģ® éģĵ
åĿĳ ä¹ĭ
åĢį åĬł
åĲĦå¤Ħ éļĺåı£
è¢ĸ ä¸Ńåıĸ
éŁ³ èĢĹ
åıĹè®¡ èĢĮåİ»
åıĹè®¡ å¼ķåħµèĢĮåİ»
éĺ¶ä¸ĭ ä¸Ģäºº
åĨĽåĻ¨ ç²®èįī
æĵĤ æľ¨çĤ®çŁ³
æ³¢ æ¶Ľ
æīĭæī§ éķ¿
è´¹ç¥İ æĽ°
å¤ªåŃĲ åŃĻ
æĬĺäºĨ è®¸å¤ļ
æ¼ı æ³Ħ
äºĽ å°ĳ
äºĽ äººé©¬
å®ª æĽ°
çĶ· åŃĲ
èĩªå·± åį´
ä¼Ĺè°ĭå£« æĽ°
éĽ¾ æķ£
å§Ķ çĶ¨
ç§į è¾ĳ
åĹŁ æĢ¨
è¹ ĭé¡¿
ä¸ĢæŀĿ åĨĽ
åħ¶ä¸į å¤ĩ
ä¸īçĻ¾ äºº
äºĭä¸į å¯Ĩ
äºĭä¸į åĨ³
ç§Ģ æĽ°
æĭľè¾ŀ èĢĮåİ»
åģ· çĶŁ
è¯ĪéĻį ä¹¦
èĢ¿ æŃ¦
ç»Ļ ä¸İ
éĢĲ åĩº
å£ķ åłĳ
æĥŃ æĦ§
åĮ¡ æī¶æ±īå®¤
çĶŁæŃ» ä¹ĭäº¤
æĭľä¼ı æĽ°
æ»ļ æ»ļ
æĿ¥ä½¿ æĽ°
åı¯å¾Ĺ ä¹Ł
æĹłè·¯ åı¯
ç¥ľ æĽ°
éĿ¢çĽ® è§ģ
çĸĨ åľŁ
ä¹±ç®Ńå°Ħ æŃ»
å±±è·¯ èĢĮèµ°
è¥¿åįĹ ä¸Ĭ
åıįè´¼ ä¼ĳèµ°
ä¸įå¾Ĺå·² ä¹Ł
åĲ¬ä»¤ æĽ°
èĴ¯ èī¯æĽ°
æ¿¡é¡» åı£
å¼ķä¸Ģåįĥ åħµ
åįĸ ä¸»
æĿĢèĩ³ å¤©æĺİ
èº«éķ¿ ä¸ĥå°º
çł´æĽ¹ ä¹ĭåĲİ
åħ«åįģ ä¸īä¸ĩ
èĮħ èįī
å¤§ä¼ļ è¯¸å°Ĩ
æĪĴ ä¹ĭ
ä¸Ĭå±± æĿ¥
ä¸īæ±Ł åŁİ
ä¸īæ±Ł åı£
æĦģ äºĳ
åĲĦå¼ķ äºĶåįĥåħµ
ä¸įåı¯ä¸į éĻ¤
ç´« èĻļ
äº« ç¥Ń
åįı åĬĽ
å¤§æ±ī çļĩåıĶ
åĩºå¸Ĳ ä¸Ĭé©¬
åı¯çł´ çŁ£
åıªéģĵ æĺ¯
ç¥Ŀ æĽ°
æŀŃ é¦ĸ
è¯¸å°ĨçļĨ æĽ°
æĢ»çĿ£ åĨĽé©¬
ä»¥æĬ¥ éĻĽä¸ĭ
åĽĽæĽ´ éĢłé¥Ń
å¾¡æŀĹ åĨĽé©¬
åĲ¯ å¥ı
å®ĵ æĽ°
æĿ¥çĽ¸ æĬķ
èĭĹ è£Ķ
ç²ī ç¢İ
é²į éļĨ
æľªåı¯è½» åĬ¨
åĲ¾èĩªæľī è®¡
è¾Ħ åħ¥
åĽĽè·¯ åħµ
æħİ ä¹ĭ
é¦ĸå°¾ ä¸įèĥ½
éħĴèĩ³ æķ°å·¡
æĹ©æľīç»Ĩä½ľ æĬ¥åħ¥
æĤĶä¹ĭ ä¸įåıĬ
è¡Įä¸įåĪ° åįģéĩĮ
è¡Įä¸įåĪ° æķ°éĩĮ
æ²¿æ±Ł ä¸Ģå¸¦
äºķ ä¸Ń
ä¸ĢéĺŁ åĨĽé©¬
æĶ¯ åĲ¾
éķ¿åı¹ ä¸Ģå£°
éģĤä¸į å¤į
ä¿Ĭ æĿ°
èĤĿ èĥĨ
éĿ¢å¦Ĥ åľŁèī²
ä¸ĩä½Ļ äºº
çĸĳæĥĳ ä¸įå®ļ
åĸĿä»¤ å·¦åı³æİ¨åĩºæĸ©ä¹ĭ
å¥ĭçĦ¶ æĽ°
è½¬è¿ĩ å±±åĿ¡
åĽĽéĿ¢åĽ´ åĲĪ
åħĭæĹ¥ åħ´å¸Ī
ç¾ŀæĥŃ æ»¡éĿ¢
é¼ĵåĻª åĳĲåĸĬ
ä¹ĭåĲį å°Ĩ
ä»¥éŀŃ æĮĩæĽ°
åıªå¾ħ èľĢåħµ
ç§ī çĥĽ
åģĥ åŁİ
åģĥ æľĪ
å¡« å¡ŀ
å¤§æ±Ł ä¹ĭä¸Ń
äºĭå·² èĩ³æŃ¤
æĢĴæ°Ķ åĨ²
è¿ĩäºĨ æķ°æĹ¥
èģļæĸĩæŃ¦ åķĨè®®
èĦ±èº« ä¹ĭè®¡
æĮ¥åĪĢ çºµé©¬
æ²®æİĪ æĽ°
æĭĺ æī§
éªł éªĳ
è¿ĽéĢĢ ä¸įå¾Ĺ
è¿ĽéĢĢ æĹłè·¯
èĲ§ æĢĢ
çĲħçĲĬ çİĭ
éĴ¢ åĪĢ
ç¼ĺ æķħ
åįĩå¸Ĳ èĢĮåĿĲ
ä¸įä¹ī ä¹Ł
èĩªä¹± çŁ£
åįģä¸ĥ åĽŀ
çģ«æĬĬ é½Ĳæĺİ
çĶ³å¥ı æľĿå»·
è¾ķéĹ¨ å°Ħ
é³ Į
é³ ŀ
ä¹ĭæĤ£ ä¹Ł
æľīæīĢ ä¸įåıĹ
åĲ¾ä»¤ æ±Ŀ
èĩªéĢĢ çŁ£
æĹłåıĬ çŁ£
å²ĳ æĺı
å¹³åľ° æ°´æ·±
æĭ¨åĽŀé©¬ èµ°
è¶ĬåĲī åħĥå¸ħ
ä¸Ľ ä¸Ń
ä¹ĭå¤§ æĤ£
ä¸ºåĽ½ éĻ¤å®³
è°Į æĽ°
åįģä¸ī åĽŀ
é¢Ŀ æĽ°
çģĮ ä¹ĭ
ä¼ıè·¯ åĨĽ
åĤ² æħ¢
ä¸ĢæĬĬ çģ«
æĿ¥èĢħ ä½ķäºº
åīĬ åİ»
åįģåĽĽ åĽŀ
å½ĵä¸ĸ èĭ±éĽĦ
å¤ľè§Ĥ å¤©è±¡
éĻĨç»Ń è¿Ľåıĳ
çĻ»é«ĺ æľĽä¹ĭ
ä¼¤æĦŁ ä¸įå·²
åĪĿæĽ´ æĹ¶åĪĨ
éļĲéļĲ æľī
ä½İå¤´ ä¸įè¯Ń
æĦķçĦ¶ æĽ°
ä¸ºèįĨå·ŀ ä¹ĭä¸»
åĬªåĬĽ åĲĳåīį
åįģåħŃ åĽŀ
æ²Ķ éĺ³
æ´Ĵ æ³ª
èº«æĬ« é¹¤æ°ħ
åĲİäººæľīè¯Ĺåı¹ ä¹ĭæĽ°
æĬļæİĮ å¤§ç¬ĳæĽ°
çĽĳåĨĽ åį«çĵĺ
åıī æīĭ
æĹ¥è¡Į åįĥéĩĮ
å¦Ĥåħ¶ ä¸įçĦ¶
åįģåħ« åĽŀ
åĶ¯ åĶ¯
ä¸ĢåĪĢçłį äºİé©¬ä¸ĭ
æĭĤè¢ĸ èĢĮèµ·
ä»ĭ æĦı
è¡Ķ æŀļ
ä¸įåı¯èĥľ æķ°
çĭĲ çĸĳ
æĭĽåĨĽ ä¹°é©¬
åºŁç«ĭ ä¹ĭäºĭ
é¼İè¶³ ä¹ĭåĬ¿
åĴ¬çīĻ åĪĩé½¿
æľĭ åıĭ
æĹº æ°Ķ
åıªåī© å¾Ĺ
æŃ£æħĮ æĢ¥
éĤ¢ è´ŀ
éĤµ æĤĮ
éĢĢåĲİ ä¾¿èµ°
ä¸įåı¯å¤± ä¹Ł
æĤł æĤł
åĵŃå£° ä¸įç»Ŀ
çĮ®äºİ éº¾ä¸ĭ
ä¹Ĳåĺī åŁİ
å¼ĵå¼¦ åĵįå¤Ħ
çĶĺéľ² å¯º
è¿ģå»¶ æĹ¥ä¹ħ
ä¸įå°± æŃ¤æĹ¶
ä¿Ħ ä½ķçĥ§
åĪĨå®¾ä¸» èĢĮåĿĲ
ä¹¦éĻ¢ ä¸Ń
åºĶå¼¦ èĲ½é©¬
åĲĽåĳ½ æľīæīĢä¸įåıĹ
æĺŃçĥĪ çļĩå¸Ŀ
ä¼łåĽ½ çİº
ä¸įçŁ¥ä½ķå¤Ħ åİ»äºĨ
ä¸´æ·Ħ ä¾¯
å¼ĵé©¬ çĨŁå¨´
å¾¡åı² å¤§å¤«
æĭ½èµ· åĲĬæ¡¥
åĶ¾æīĭ åı¯å¾Ĺ
ä¸Ļ å¯ħ
ä¸įçľģ äººäºĭ
å¤§é©± å£«é©¬
ä»¥ä¸Ĭ å®¾
åħ¶æĸĩ æĽ°
åľ¨è¥¿ æĸ¹
å¤©éĻį å¤§
è¡ĮåĿĲ ä¸įå®ī
èĻİçī¢ åħ³
æļĹå¿ĸ æĽ°
çŁ³å¤´ åŁİ
é¡ºæµģ èĢĮä¸ĭ
é¡¿è¶³ æĽ°
åħľ éį
æľīæľºå¯Ĩ äºĭ
è½© æĺĤ
æ²Ĥ éĥ½
å¤ªç¥ĸ æŃ¦çļĩå¸Ŀ
åĲĦä¸º åħ¶ä¸»
æłĭ æ¢ģ
ä¹īéĩĬ ä¸¥é¢ľ
å¼ĢäºĨ åŁİéĹ¨
æ¢ĵ æ½¼
éĿĴåĽĬ ä¹¦
æĭĽè´¤ çº³å£«
æľªçŁ¥åħ¶è®¡ å¦Ĥä½ķ
å«ī å¦Ĵ
æİĪä»¥ å¯Ĩè®¡
éŃĤä¸į éĻĦä½ĵ
çİĭåŃĲæľįçŃī åĽĽäºº
ä¸ĸæīĢç½ķ æľī
æĿĢçīĽå®° é©¬
åħ¨è£ħæĥ¯ å¸¦
é¤ Ĳ
åŃ© åĦ¿
ä¸Ģå¹² äºº
ä¸ºèĤī æ³¥
ä»¥è°¢ å¤©ä¸ĭ
æŃ£è¸Įèºĩ éĹ´
å¿ĥç¥ŀ æģįæĥļ
çķħ é¥®
ç½¾ åı£
ä¼łä¸ĭ åı·ä»¤
è¿ĻæĿ¡ è®¡
æ½¸çĦ¶ æ³ªä¸ĭ
æįŁåħµ æĬĺå°Ĩ
é½ĳç²ī çŁ£
è¥¿æ´± æ²³
åħµè´µ ç¥ŀéĢŁ
æĿ¥æŃ¤ä½ķ å¹²
ä¸ĬéĽ¨ ä¸ĭåįķ
æĹ¥ç£ ¾
ä¹ĥå¼łé£ŀ ä¹Ł
äºĭå®ļ ä¹ĭåĲİ
è®¡ä¼ļ å·²å®ļ
éľ¹éĽ ³
æī¶èĢģæĲº å¹¼
ä¿Ħä½ķçĥ§ æĪĪ
åħľéį ª
« é»Ħ
¬ åľ°
¬ é«¯
¯ éĥ
± çľ
² æ¯Ķ
å ¬
ç µ
Ġ åĲķ
Ġ åı¸é©¬æĩ¿
Ġ å§ľç»´
Ġ æŃ¦ä¾¯
Ġ æĽ¹åŃŁå¾·
Į èµĽ
Ĳ è§Ĩ
ķ æ¸ł
ĺ å¾
ļ ç®Ń
ľ éħĴ
Ń å½Ĵ
ï¼Į âĢľ
ä¹ ³
æĽ ľ
åĲ ¼
âĢĿ ï¼Ľ
ä» Ģ
ä» ħ
ä¹ĭ åİ»
ä¹ĭ è¡Į
ä¹ĭ èĥ½
ä¹ĭ æķ°
ä¹ĭ åĽ½
ä¹ĭ åĮĹ
ä¹ĭ åĪĻ
ä¹ĭ åħĦ
ä¹ĭ ä¹Ĳ
ä¹ĭ èī²
ä¹ĭ æľ¯
ä¹ĭ åĪ©
ä¹ĭ æ¯Ķ
ä¹ĭ éģĹ
ä¹ĭ èĭ¦
ä¹ĭ è¾±
ä¹ĭ å¦Ļ
ä¹ĭ æľŁ
ä¹ĭ æĢ¨
ä¹ĭ çĪµ
ä¹ĭ ç§ģ
ä¹ĭ è¯į
ä¹ĭ æ»¨
ä¹ĭ è¿ĩä¹Ł
ä¹ĭ æĹıå¼Ł
ä¸į å¤§
ä¸į ä¸Ģ
ä¸į ä¸Ń
ä¸į ä½¿
ä¸į ç«ĭ
ä¸į çľĭ
ä¸į è¿½
ä¸į å¼Ģ
ä¸į è§£
ä¸į å·®
ä¸į é¥®
ä¸į æ±Ĥ
ä¸į åĬ©
ä¸į ç¦»
ä¸į æ»¡
ä¸į èĩ´
ä¸į äºī
ä¸į æĿĢä¹ĭ
ä¸į è½¬
ä¸į åħį
ä¸į è¿Ł
ä¸į çĽ¸è§ģ
ä¸į çº³
ä¸į è¾±
ä¸į æ¶Ī
ä¸į åħĭ
ä¸į èĻŀ
ä¸į å¿¿
ä¸į æķ°éĩĮ
ä¸į æĢ¯
ä¸į å¤ļæĹ¶
ä¸į åįģåĲĪ
ä¸į åĢ¦
ä¸į ç§»æĹ¶
å¾ ĩ
å¾ ĺå¾
å® ķæ¸ł
åĪ ¤
åŃ °
åŃ ½
æĺ ķ
äºº ä»¥
äºº èĩ³
äºº çŁ£
äºº å°½
äºº æĿ°
äºº èĩ£ä¹ĭ
äºº ä¼¦
åĨĽ äºİ
åĨĽ åĽŀ
åĨĽ åĬĽ
åĨĽ å°ĳ
åĨĽ å¨ģ
åĨĽ èµ¶æĿ¥
åĨĽ ä¸īåįĥ
åĨĽ èµĦ
åĨĽ æĹħ
åĨĽ éľĢ
è¯ ¢
åħµ å¨ģ
åħµ å¤§è´¥
åħµ æľº
åħµ åįĴ
å¤§ å¼ł
å¤§ è¨Ģ
å¤§ éŃı
å¤§ å¤±
å¤§ ç»Ł
å¤§ æīį
å¤§ çŁ³
å¤§ æĥ§
å¤§ æŀĹ
å¤§ çķ¥
å¤§ æĤĶ
è¿ Ń
ä¸Ģ è¯
ä¸Ģ å°ı
ä¸Ģ åĽ½
ä¸Ģ é¢Ĩ
ä¸Ģ ä¹ĺ
ä¸Ģ åĨ³
ä¸Ģ ç¨ĭ
ä¸Ģ åĩ»
ä¸Ģ éĨī
ä¸Ģ æĿ¯
ä¸Ģ åįģäºĮ
ä¸Ģ æīĭæī§
ä¸Ģ æł·
ä¸Ģ çº¸
ä¸Ģ æ´¾
è§ ¥
è§ ŀ
é©¬ èĩ³
é©¬ å°½
é©¬ äº¦
é©¬ åĲĮ
é©¬ ä¼ĳ
å°Ĩ æľī
å°Ĩ åĩº
å°Ĩ æŃ»
å°Ĩ å°½
å°Ĩ èĪ¹
å°Ĩ åį±
å°Ĩ åŃŁèİ·
å°Ĩ ç»Ī
å°Ĩ äºİåĲī
å°Ĩ è¿ĩæĿ¥
å°Ĩ ä½ķçŃĸ
å°Ĩ æīįä¹Ł
èµ §
èµ ĮèµĽ
å· ³
å· ½
æĪ į
æĿ¥ éĹ®
æĿ¥ å¾Ģ
æĿ¥ æķĮ
æĿ¥ å½Ĵ
æĿ¥ åĳĬ
æĿ¥ åı¬
æĿ¥ æįī
æĿ¥ çĽ¸è§ģ
åĩ ĳ
æĵ İ
å¸ Į
å¸ ĸ
æľī äºĮ
æľī æĿĢ
æľī åħĪ
æľī æķ°
æľī äºĶ
æľī è¡¨
æľī èľĢåħµ
æľī å¤©ä¸ĭ
æľī åŃĻæĿĥ
æľī éļ¾
æľī æ³ķ
æľī ä»ĬæĹ¥
æľī è´Ł
æľī è§Ĵ
æľī ç´¯
æľī çĸ¾
æľī ç»Ĩä½ľ
æľī äºĮåŃĲ
æľī éĿŀå¸¸
æľī è°ĭçķ¥
æľī æŃ»èĢĮå·²
çĽ Ĳ
çĽ ±çľ
æĸ Ĳ
æī Ī
æĵį ä¸į
æĵį åħ¥
æĵį å¾Ĺ
æĵį å·²
æĵį èĢħ
æĵį åĸľ
æĵį äº²
æĵį èĲ¥
æĵį å¼ķåĨĽ
æĵį åı¬
æĵį å°Ŀ
æĵį äº²èĩª
æŃ¤ è·¯
æŃ¤ å¯¨
æŃ¤ åĲį
æŃ¤ åĽł
æŃ¤ èĢģ
æŃ¤ çľŁ
æŃ¤ éļ¾
æŃ¤ æģ¨
æŃ¤ åį±
æŃ¤ ç¥¸
æŃ¤ è®º
æŃ¤ æĺĵ
æŃ¤ ä½ķäºº
æŃ¤ è¯ļ
æŃ¤ èģĮ
æŃ¤ ä¸Ģè·¯
æŃ¤ ä¸ºä¸ĬçŃĸ
åİ ¨
ç» ®
ç» ħ
ä¸ĭ åŁİ
ä¸ĭ çļĦ
ä¸ĭ æ¯Ĵ
ä¸ĭ è¯´è¯į
äºİ äºĭ
äºİ å°ĨåĨĽ
äºİ åĽ½
äºİ è¢ģç»į
äºİ æĢĢ
äºİ ç¥ģå±±
äºİ åŁİä¸Ĭ
äºİ éķ¿å®ī
äºİ æĽ²
äºİ éĺµä¸Ń
äºİ éĺ¶ä¸ĭ
äºİ åºľä¸Ń
äºİ éĤºéĥ¡
äºİ çĭ±ä¸Ń
äºİ çİĭäºĭ
ä¸Ń éĹ¨
ä¸Ń å¹´
ä¸Ń åłĤ
ä¸Ń è´µ
ä¸Ń èĹı
ä¸Ń æ¯Ĵ
ä¸Ń çº¢å¿ĥ
ä¸º åħĪ
ä¸º å®ī
ä¸º ä¸ľ
ä¸º èĥ½
ä¸º å®ĺ
ä¸º åºĶ
ä¸º ä¹Ĳ
ä¸º åıĶ
ä¸º è°ĭå£«
ä¸º çĽŁ
ä¸º æı´
ä¸º å¤ªåĤħ
ä¸º å¤ªå°ī
ä¸º çļĩåĲİ
ä¸º éķ¿åı²
ä¸º ä¸Ńéĥİå°Ĩ
ä¸º åıĤåĨĽ
ä¸º å·¦å°ĨåĨĽ
ä¸º çĸĳåħµ
ä¸º çĽ¸åĽ½
ä¸º æĽ¹æĵįæīĢ
ä¸º åı¸ç©º
ä¸º åº¶äºº
ä¸º ä»ĸäººæīĢ
çŁ ľ
çĶ ¸
çĶ ľ
çĶ ¬éģĵ
è§ģ äºİ
è§ģ åħ¬
è§ģ è¯´
è§ģ èĢħ
è§ģ æĿĥ
è§ģ æķĻ
è§ģ åĬ¿
è§ģ åĲİä¸»
è§ģ æ¯į
è§ģ åħĪä¸»
è§ģ æĽ¹åħµ
è§ģ æľº
è§ģ åĪĺçĴĭ
è§ģ è´£
ï¼ģ âĢĻ
èĢĮ åıĪ
èĢĮ ä»İ
èĢĮ ä¸įåı¯
èĢĮ å®ļ
èĢĮ æĶ»
èĢĮ è§Ĩ
èĢĮ æİ¥
èĢĮ ä¸įèĥ½
èĢĮ æ±Ĥ
èĢĮ æŃ¢
èĢĮ é£Ł
èĢĮ åĳĬæĽ°
èĢĮ éĹ®ä¹ĭ
èĢĮ æĦĪ
èĢĮ æĵĴä¹ĭ
è° §
è° Ģ
è° ĺ
ä½ķ åıĪ
ä½ķ å®ī
ä½ķ é¡»
ä½ķ çī©
ä½ķ èĭĹ
åĩº äºİ
åĩº æĭľ
åĩº è¡Ģ
åĩº é¬¼
åĩº åįĹéĹ¨
åĩº ç®ķè°·
åĲ¾ åİ»
åĲ¾ åıĸ
åĲ¾ ç¬ĳ
åĲ¾ è§Ĩ
åĲ¾ ä¸įèĥ½
åĲ¾ åĨį
åĲ¾ èĢ¶
åĲ¾ æĽ¾
åĲ¾ åľ¨æŃ¤
åĲ¾ æľīä½ķ
åĲ¾ çĪ¶åŃĲ
åĲ¾ åĽº
åĲ¾ æīĭä¸ĭ
åĲ¾ æĺİæĹ¥
åĲ¾ åĨĽå¿ĥ
åĲ¾ ä½ķæĥ§åĵī
éĻ Ľ
æĢ ¿
æĢ ģ
æĢ ħ
ä¾ ¥
åı¯ äºİ
åı¯ å½ĵ
åı¯ ä¾¿
åı¯ éĢĢ
åı¯ æķĻ
åı¯ ç«ĭ
åı¯ å¼ķåħµ
åı¯ åıĳ
åı¯ åħ´
åı¯ å¤į
åı¯ å¯Ĩ
åı¯ ä»»
åı¯ å®¹
åı¯ å¤º
åı¯ ä¸Ģé¼ĵ
åı¯ åĽ¾ä¹Ł
åı¯ å®ļä¹Ł
è´ ©
è´ »
å¯ Ĥ
å¯ Ķ
å¾· æĽ°
å¾· æĵį
å¾· èĸĦ
åĳ Ģ
åĲİ ä¼ļ
åĲİ æĭ¥
åĲİ æĿľå·¥éĥ¨
ä»¥ æŁĲ
ä»¥ æķĮ
ä»¥ å¤´
ä»¥ è¿İ
ä»¥ ç¤¼
ä»¥ æĶ¶
ä»¥ éĩĳ
ä»¥ æĵĴ
ä»¥ æŀª
ä»¥ åħ¨
ä»¥ è¾ħ
ä»¥ å¤§åħµ
ä»¥ èį¯
ä»¥ æĺ¾
ä»¥ è¿İä¹ĭ
ä»¥ æĭĴä¹ĭ
ä»¥ åĲİäºĭ
ä»¥ æĦļæĦı
æĺİ ä¹Ł
æĺİ è¨Ģ
å¥ ¥
æĽ¹ éĥ½çĿ£
æĽ¹ èĬĤ
æĽ¹ åŃĲä¸¹
æĽ¹ çĨĬ
æĽ¹ ç¾²
æĽ¹ éĺ¿çŀĴ
åħ¬ ä¸º
åħ¬ ä¸»
åħ¬ å»
åħ¬ çľŁ
åħ¬ å®ľ
åħ¬ ä½ķä¸į
åħ¬ åı¯éĢŁ
ä¸Ĭ è¨Ģ
ä¸Ĭ èĩ³
ä¸Ĭ æĬ¥
ä¸Ĭ éĿ¢
ä¸Ĭ åĽ½
ä¸Ĭ å»º
ä¸Ĭ çİī
ä¸Ĭ å¯¿
ä¸Ĭ åĨĻ
åī Ĳ
è¡ ¬
çļ ¿
çļ ĭ
ä»Ĭ ä¸į
ä»Ĭ åĲ¾
ä»Ĭ åħ¬
ä»Ĭ ä¸İ
ä»Ĭ çİĦå¾·
ä»Ĭ ä¹ĥ
ä»Ĭ åħĪ
ä»Ĭ æĪĳ
ä»Ĭ å¤©
ä»Ĭ åıª
ä»Ĭ ä»İ
ä»Ĭ å¿½
ä»Ĭ éģ£
ä»Ĭ åıį
ä»Ĭ æľĿ
ä»Ĭ åŃĻæĿĥ
ä»Ĭ ä½ķä¸į
ä»Ĭ çļĩåıĶ
ä»Ĭ å²ģ
ä»Ĭ å¤§å°ĨåĨĽ
ä»Ĭ åĲ´ä¾¯
ä»Ĭ éŃıçİĭ
ä»Ĭ æŀľçĦ¶
çİĦ åŃĻ
ä¸İ ä¼Ĺ
ä¸İ åĲ´
ä¸İ èľĢ
ä¸İ èĩ£
ä¸İ çŃĸ
ä¸İ èĤĥ
ä¸İ çĪ¶
ä¸İ éŃıå»¶
ä¸İ èī¾
ä¸İ éŃıåħµ
ä¸İ å¤«äºº
ä¸İ åĳ¨çĳľ
ä¸İ éĻĽä¸ĭ
ä¸İ æľķ
ä¸İ å¼łè¾½
ä¸İ äºĮå°Ĩ
ä¸İ é²ģèĤĥ
ä¸İ é©¬å²±
ä¸İ å¤ıä¾¯æĥĩ
ä¸İ æĽ¹çľŁ
ä¸İ çĶĺå®ģ
ä¸İ æĽ¹ä¸ķ
ä¸İ åĲ¾æľī
ä¸İ ç®ĢéĽį
ä¸İ ä¼Ĺè°ĭå£«åķĨè®®
ä¸İ äºīéĶĭ
å¼ł å°ĨåĨĽ
å¼ł è¶ħ
å¼ł æĻ®
å¼ł éŁ³
å¼ł äºĮå¼Ł
å¼ł äºĮåħ¬
å¼ł çº¯
æĭ Ļ
æĭ ļ
åİ» å¾Ĺ
åİ» å°±
åħ¶ é©¬
åħ¶ æīĢ
åħ¶ çĶŁ
åħ¶ åı£
åħ¶ é¦ĸ
åħ¶ æľ¯
åħ¶ æĥħ
åħ¶ ç²®èįī
åħ¶ èĤī
åħ¶ èģĮ
åħ¶ åħļ
åħ¶ å¿ħåĩº
çŃ ĭ
çİĦå¾· ä¹Ł
çİĦå¾· åĽŀ
çİĦå¾· éģĤ
çİĦå¾· ä¾¿
çİĦå¾· è°ĵ
çİĦå¾· æģĲ
çİĦå¾· æĹ¢
çİĦå¾· çķĻ
çİĦå¾· è§Ĩä¹ĭ
çİĦå¾· æħĮ
çİĦå¾· åħ¥åŁİ
çİĦå¾· ä»İåħ¶è¨Ģ
çİĦå¾· æħĮå¿Ļ
çİĦå¾· çľĭæ¯ķ
çİĦå¾· ä¾¿æķĻ
çİĦå¾· çľĭäºĨ
çİĦå¾· æĢ¥æŃ¢ä¹ĭæĽ°
çİĦå¾· æĭ±æīĭ
æĹ¥ çŁ£
æĹ¥ éĹ´
æĹ¥ çĶļ
åŁİ ä¸ľ
åŁİ ä¸ĭå¯¨
èĥ ĸ
ä»¤ åİ»
ä»¤ å°ĨåĨĽ
ä»¤ ä»ĸ
ä»¤ èµµäºĳ
ä»¤ å½¼
ä»¤ åĪĺå¤ĩ
ä»¤ å§ľç»´
ä»¤ é»Ħå¿ł
ä»¤ å¤§å°Ĩ
ä»¤ å¤ıä¾¯æĥĩ
ä»¤ ä¼ĹåĨĽ
ä»¤ å»ĸåĮĸ
ä»¤ è¿ĳèĩ£
åŃĶ åİ»
ä¹ĥ åĪĨ
ä¹ĥ åĲĮ
ä¹ĥ ä½ľ
ä¹ĥ äºĳéķ¿
ä¹ĥ åıį
ä¹ĥ å§ľç»´
ä¹ĥ éĹ®æĽ°
ä¹ĥ ä¸ľåĲ´
ä¹ĥ ä»¤äºº
ä¹ĥ æĽ¹æ´ª
ä¹ĥ ä½ľä¹¦
ä¹ĥ æ±īå®¤å®Ĺäº²
ä¹ĥ åħµå®¶
ä¹ĥ åı¸é©¬æĩ¿ä¹Ł
ä¹ĥ ä¸Ńå±±éĿĸ
è¾ ľ
èĭ ĳ
èĩª å°Ĩ
èĩª æĿĢ
èĩª å®ī
èĩª èµ·
èĩª éĻį
èĩª æĪĲéĥ½
èĩª æ¯Ķ
èĩª è®¸æĺĮ
èĩª ä»£
èĩª ç»Łå¤§åĨĽ
åº ĸ
åº ļ
äºĮ åĽŀ
äºĮ å¯¨
äºĮ éĩĮ
äºĮ æ¬¡
äºĮ å°ģ
äºĮ èĻİ
äºĮ åıĶ
äºĮ å¥³
äºĮ çĻ¾ä½Ļäºº
äºĮ å¤«äººæĽ°
äºĮ å°ıå°Ĩ
åĽŀ æĪĺ
åĽŀ éĥ½
åĽŀ èĪ¹
åĽŀ è½¦
åĽŀ å¥ı
åĽŀ äº¬
åŃĶæĺİ åıĪ
åŃĶæĺİ è¯·
åŃĶæĺİ å¤§æĥĬæĽ°
åŃĶæĺİ æİ¥åħ¥
åŃĶæĺİ åıĪæĽ°
åŃĶæĺİ è°ĵçİĦå¾·æĽ°
åŃĶæĺİ åĪĨæĭ¨å·²æ¯ķ
å¼ķ äºĶä¸ĩ
å¼ķ ä¸īçĻ¾
å¼ķ ä»İèĢħ
å¼ķ é¢Ī
è¨Ģ ä¸įåı¯
å¦Ĥ æİ¢
å¦Ĥ èĻİ
å¦Ĥ éª¤éĽ¨
åľ¨ åħĪ
åľ¨ å¿ĥ
åľ¨ åĮĹ
åľ¨ è¾¹
åľ¨ åºľ
åľ¨ åº§
åľ¨ æ²³åĮĹ
åľ¨ åħ³ä¸Ĭ
åľ¨ æ·®åįĹ
åľ¨ åŁİåĨħ
æĥ ķ
æĺ¯ å±±
æĺ¯ éĿŀ
æĺ¯ å¦Ĥä½ķ
æĺ¯ å²ģ
åħ¥ åħ¶
åħ¥ åħ³
åħ¥ æĬ¥
åħ¥ æµ·
åħ¥ åĳĬæĽ°
åħ¥ è°ıæĽ°
åħ¥ å¢ĥ
åħ¥ åĨĢå·ŀ
åħ¥ çĽ¸åºľ
åħ¥ ä¹¦éĻ¢
çĽ¸ è¯·
çĽ¸ æķĮ
çĽ¸ æİ¥
çĽ¸ æķ¬
çĽ¸ éĢļ
çĽ¸ æµİ
çĽ¸ è¾ħ
çĽ¸ éĢ¢
çĽ¸ æĬ±
çĽ¸ ç»§
çĽ¸ è¯ķ
çĽ¸ è®¿
å¾Ĺ ä¹Ł
å¾Ĺ èįĨå·ŀ
å¾Ĺ ä»ĸ
å¾Ĺ æĢ§åĳ½
è¢ Ĵ
æĹł ä»¥
æĹł åľ°
æĹł äº²
æĹł å¥½
æĹł æĥħ
æĹł å¼Ĥå¿ĥ
æĿĢ èº«
æĿĢ åĲķå¸ĥ
æĿĢ åĩºåŁİ
æĿĢ è¿ŀå¤©
æĿĢ éĢıéĩįåĽ´
æĿĢ ä¸ĭåħ³æĿ¥
æĿĢ ä¸Ĭå±±æĿ¥
åħĪ æŃ¤
åħĪ çİĭ
åħĪ éģ£
åħĪ åħĦ
åħĪ é¥®
åħĪ æĽ¾
åħĪ æĭ¨
åħĪ åıĸèįĨå·ŀ
ä¸ī å£°
ä¸ī ç½ª
ä¸ī åįĩ
ä¸ī åģľ
ä¸ī åĽĽåįģ
ä¸ī é©¬åĲĮ
äºĨ é©¬
äºĨ åŃĶæĺİ
äºĨ åŃĹ
äºĨ åįĬæĻĮ
ä¸» è§ģ
è¯´ æĪĳ
è¯´ ä¹¦
è¯´ éģĵ
è¯´ åĲķå¸ĥ
è¯´ éŃıåħµ
è¯´ å§ľç»´
è¯´ çĬ¹æľª
æĪĳ ä»¥
æĪĳ æĹł
æĪĳ çŁ¥
æĪĳ ä¾¿
æĪĳ éĹ»
æĪĳ å¾ħ
æĪĳ æĦı
æĪĳ ä¹İ
æĪĳ èĢ³
æĪĳ æĸĻ
æĪĳ å¤§äºĭ
æĪĳ ä¸īäºº
æĪĳ ä¸¤ä¸ª
æĪĳ æŃ»ä¹ĭåĲİ
æĪĳ ä»¬
æĪĳ åĴĮä½ł
åīį è·¯
åīį åĽł
åīį åĬŁ
åīį æľīä¸Ģ
åīį çķª
åīį éģ®
åħ³ å¼ł
åħ³ å®ļ
èĩ³ æĢ¥
èĩ³ èįĨå·ŀ
èĩ³ æ¬¡æĹ¥
èĩ³ è®¸éĥ½
èĩ³ æľŁ
èĩ³ æĻĵ
èĩ³ å°¾
èĩ³ åįĬå¤ľ
åŃĲ è¿ľ
åŃĲ å»º
åŃĲ æĪ¿
åŃĲ åŃĲåŃĻ
åĪ° å¾Ĺ
åĪ° ä»»
åĪ° å¾Ĳå·ŀ
åĪ° æ´Ľéĺ³
åĪ° æ±Łè¾¹
åĪ° åįĬè·¯
çŁ¥ çİĦå¾·
çŁ¥ æĽ¹æĵį
çŁ¥ å½¼
çŁ¥ éģĩ
å¤© æĹ¥
å¤© çº
å¤© ç¥ŀ
å¤© æľº
åįģ ä¼¤
åįģ æĸ¤
çļĨ å·²
çļĨ æ¬²
çļĨ æĥĬ
çļĨ å½Ĵ
çļĨ çĶ±
çļĨ èµĸ
çļĨ æ±īå®¤å®Ĺäº²
çļĨ æĸ©äºİå¸Ĥ
äºĭ èĢħ
äºĭ åĬ¡
äºĭ æ¯įèĩ³åŃĿ
æĦ Ĩ
éķ Į
å¿ħ éĿŀ
å¿ħ ç«ĭ
å¿ħ åĽł
å¿ħ çĸĳ
å¿ħ æĵĴ
å¿ħ æĿĢä¹ĭ
å¿ħ æŃ»äºİ
å¿ħ ä¹ĺèĻļ
æ±Ŀ è§ģ
æ±Ŀ ä»¥
æ±Ŀ å¿ĥ
æ±Ŀ ä¸Ķ
æ±Ŀ èĻ½
æ±Ŀ è¦ģ
æ±Ŀ èĢ¶
æ±Ŀ ä¸ľåĲ´
æ±Ŀ ä¸īäºº
æ±Ŀ è¾Ī
æ±Ŀ çĪ¶åŃĲ
æ±Ŀ è¯ķ
æ±Ŀ ä¸įè¯Ĩ
æ±Ŀ çĦīæķ¢
æĹ¶ å·²
æĹ¶ åĢĻ
å½ĵ äºİ
å½ĵ æŃ»
å½ĵ ç«ĭ
å½ĵ çģŃ
å½ĵ ä½ķä»¥
å½ĵ ä»£
éŃı æŃ¦
éŃı ç»Ł
åıĪ æĪĺ
åıĪ è¯·
åıĪ ç«ĭ
åıĪ èµ¶
åıĪ æľīä¸Ģ
åıĪ ä½¿äºº
åıĪ æĸĹ
åıĪ åħ¼
åıĪ èįĲ
åıĪ åĢ¼
åĪĺ å®ī
åĪĺ å°ĨåĨĽ
åĪĺ å»¶
åĪĺ å¼ĺ
åĪĺ çĲ°
åĪĺ å¾ª
å·² èĩª
å·² æĿĢ
å·² éĻį
å·² è´¥
å·² è¿ĩ
å·² æĬķ
å·² å½Ĵ
å·² ä¹ħ
å·² ç»Ŀ
å·² ç»Ī
åıª å°Ĩ
åıª æŃ¤
åıª å®Ī
åıª ç®Ń
åıª ä¸įåĩº
åıª æ¶Ī
åıª æģĲæľī
èĭ¥ åħ¶
èĭ¥ åĪ°
èĭ¥ å¾ħ
èĭ¥ ä¸ŀçĽ¸
èĭ¥ çł´
èĭ¥ å®¹
èĭ¥ æľīå¤±
å±± è¥¿
å±± è´¼
å±± åĬ¿
å±± èĦļ
å±± å¤´ä¸Ĭ
å±± å¼Ģè·¯
å±± è¶Ĭå²Ń
æĬ¥ åŃĻæĿĥ
ä¼Ĺ åħµ
ä¼Ĺ åĨĽå£«
äºĳ æ¸¸
äºĳ å¯Ĩå¸ĥ
æ¬² çĶ¨
æ¬² çł´
æ¬² åĽ¾
æ¬² è¯Ľ
æ¬² ä¸ºåĨħåºĶ
åį´ è§ģ
åį´ åľ¨
åį´ ä»İ
åį´ åıį
åį´ ä¸įè§ģ
æ¯ ĵ
æ¯ ĸ
æŃ£ å¦Ĥ
æŃ£ åºĶ
æŃ£ èµ¶
æŃ£ æĢĿ
æŃ£ åħĥ
æŃ£ ä½į
æŃ£ æĸĹ
æŃ£ è®º
æŃ£ èĻĳ
æŃ£ æĴŀ
æŃ£ åı¯ä¹ĺ
æŃ£ å°Ħä¸Ń
æŃ£ é¥®éħĴéĹ´
æĪĺ æĹł
æĪĺ çĻ¾
æĪĺ åĽ½
æĪĺ æķ°åĲĪ
æĪĺ åľº
ä½¿ äºĳéķ¿
ä½¿ å¼łé£ŀ
ä½¿ å¼łè¾½
è·¯ å¾Ħ
éķ¿ æĽ°
éķ¿ å¤§
éķ¿ æ°´
éķ¿ çŃĸ
éķ¿ æĺŁ
éķ¿ çŁŃ
éķ¿ ç¯ĩ
èĻ ¬é«¯
çİĭ æŃ»
çİĭ èĢħ
çİĭ ä¾¯
çİĭ åĪĻ
çİĭ çľŁ
çİĭ åı¸å¾Ĵ
çİĭ ä½Ĳ
çİĭ æĺ¶
ç¥ ģ
çľ ł
æ³ ¾åİ¿
å·ŀ åİ¿
å·ŀ å¹³æĽ°
å·ŀ è¡Ļ
åŃĻ é«ĺ
åŃĻ æŃĨ
åŃĻ èµĦ
åŃĻ ç¿Ĭ
åŃĻ ä¼¯ç¬¦
å®ī åł
å®ī åį±
å®ī éĤ¦
éģĤ åĩº
éģĤ èĩª
éģĤ åĽŀ
éģĤ åıĸ
éģĤ æľĽ
éģĤ å°½
éģĤ æĬķ
éģĤ æĶ¾
éģĤ è¾ŀ
éģĤ èģļ
éģĤ åĪĨåħµ
éģĤ éĩįèµı
éģĤ åı±éĢĢ
éģĤ åĭĴåħµ
çº ½
å¿ĥ å®ī
å¿ĥ æħĮ
å¿ĥ åıĺ
å¿ĥ ä¸įè¶³
éĹ® ä½ķæķħ
åıĸ åŁİ
åıĸ æ°´
åıĸ çĻ½
åıĸ çī©
åıĸ æĪĲéĥ½
åıĸ éķ¿å®ī
åıĸ ä¸ŃåİŁ
åıĸ éĽĴåŁİ
åıĸ éĽįå·ŀ
åıĸ æ¡Ĥéĺ³
åıĸ çº¸ç¬Ķ
éļ ³
éļ ½
èµ· å±ħ
èµ· å¤§åĨĽ
æŃ» çĶŁ
æŃ» äº¡
æŃ» æį®
æŃ» äºİé©¬ä¸ĭ
çĦ¶ èĢĮèµ·
èĢħ ä¸įè®¡åħ¶æķ°
è¡Į äºº
è¡Į æĿİ
è¡Į éħĴ
è¡Į æĹłæķ°
è¡Į æŃ¤è®¡
è¡Į åıĤåĨĽ
åĿ ¤
å®Ī åħ¶
å®Ī è¾¹
å®Ī æ±īä¸Ń
å®Ī æ±Łå¤ı
åĲ´ èĩ£
åĲ´ ä¼ļ
åĲ´ æ°ı
åĲ´ æĻ¯
åĲ´ åŃĲåħ°
ä¿ ĺ
å°ĨåĨĽ åį´
å°ĨåĨĽ æĹ¢
å°ĨåĨĽ ä½ķæķħ
å°ĨåĨĽ èİ«éĿŀ
æĽ¹æĵį è§ģ
æĽ¹æĵį èĩª
æĽ¹æĵį å¿ħ
æĽ¹æĵį å¼ķåħµ
æĽ¹æĵį å¤§åĨĽ
æĽ¹æĵį æĢ§åĳ½å¦Ĥä½ķ
æĽ¹æĵį å¥¸è®¡
è®¡ æĽ°
è®¡ ç©·
è½ ²æ¯Ķ
éª ¡
çŃī å®Ī
çŃī è¯¸å°Ĩ
ä¾¿ è§ģ
ä¾¿ å¼ķ
ä¾¿ èĥ½
ä¾¿ åĲĮ
ä¾¿ æĬķ
ä¾¿ åı«
ä¾¿ åĸĿ
ä¾¿ å·®äºº
ä¾¿ ä¼łä»¤
åĪĨ å¤©ä¸ĭ
åĪĨ å±¯
åĪĨ å·¦åı³
åĪĨ åĪ«
åĪĨ è°ĥ
åĪĨ æ¯«
åĪĨ ä¸¤å¤´
åĳ½ ä¹ĭ
åĳ½ åĲ¾
åĳ½ åĿĲ
ä¹¦ ä¸Ģ
ä¹¦ äºİ
ä¹¦ äºĳ
ä¹¦ ä¸įå°½
å£« è½½
ä»İ å¤©
ä»İ å±±
ä»İ è´¼
ä»İ å¾ģ
ä»İ æĹ±è·¯
éĤ ¯éĥ
é¡ ½
æľª ä¹Ł
æľª åĽŀ
æľª å®ī
æľª éĹ»
æľª ç«ĭ
æľª æľį
æľª æĻļ
æľª åĩł
æĻ ¦
èī ³
èī ĺ
å¸ĥ æĢĴ
å¸ĥ å¤§åĸľ
å¸ĥ æķ£æµģè¨Ģ
èĤ ²
èľĢ åľ°
èľĢ éĺµä¸Ń
æ² ĥ
ä¸ľ è¡Į
ä¸ľ éĺ¿
ä¸ľ å¸Ĥ
ä¸ľ éĥ¡å¤ªå®Ī
æĿĥ éĩį
æĿĥ éĹ»è¨Ģ
ä¾¯ çĪµ
ä¾¯ éĢī
é£ŀ åİ»
é£ŀ èĩ³
é£ŀ æ²Ļ
é£ŀ çłĤ
æĢ¥ æķĻ
æĢ¥ å¥Ķ
æĢ¥ æĶ¶åĨĽ
æĢ¥ æİ£
æĢ¥ éĢĢåĨĽ
æĢ¥ éĹªè¿ĩ
è¿Ľ åĨĽ
è¿Ľ è´¡
éĿ¢ çļ®
åįĹ å½ĿéĻµ
åįĹ éĺĻ
åĵ Ħ
éĹ» ä»¤
éĹ» åŃĶæĺİ
éĹ» å¾Ĺ
éĹ» èĢħ
éĹ» åĲĽ
éĹ» å¥ı
èµ° é©¬
èµ° å¾Ĺ
èµ° èĩ³
èµ° åĪ°
èµ° çļĦ
èĥ½ ä¹Ł
èĥ½ èĥľ
åĽĽ äºĶ
åĽĽ è¾¹
åĽĽ çĻ¾ä½Ļ
åĽĽ çķª
åĽĽ åĳĺå°Ĩ
æķ° å£°
æķ° éĺµ
æķ° çķª
æķ° çĻ¾ä½Ļäºº
èĩ£ æľī
èĩ£ ä»Ĭ
èĩ£ è¨Ģ
èĩ£ æīĢ
èĩ£ æķ¢
èĩ£ çĪ¶
èĩ£ æľ¬
èĩ£ è§Ĥ
èĩ£ ä¸įèĥľ
çĻ¾ ä¸Ń
çĻ¾ åıĳ
çĻ¾ èĪ¬
çĻ¾ æĪĺçĻ¾
çī ¡
æ¸ ¯
æ¸ º
å§ Ĳ
åį³ åıĳ
åį³ å°ģ
åį³ æĦĪ
åį³ ä¸ĭä»¤
åį³ éĻįè¯ı
åį³ ä¼łä»¤æķĻ
åį³ ä¸ĭè¯ı
å¿½ æĽ¹æĵį
ä¸¤ å±±
ä¸¤ æīĭ
ä¸¤ ç«ĭ
ä¸¤ åı£
ä¸¤ å¼Ł
ä¸¤ éļ¾
ä¸¤ åĤį
ä¸¤ äº¬
ä¸¤ å»Ĭ
éĥ½ äºŃä¾¯
å¾Ģ æĹ¥
å¾Ģ åīį
å¾Ģ èĢħ
å¾Ģ ä¸ľåĲ´
å¾Ģ æ²³åĮĹ
æ±Ł éĿ¢ä¸Ĭ
å¤ĩ ç»Ĩ
å¤ĩ å®īæķ¢
å¤ĩ ä¸Ģèº«
æīĢ æľī
æīĢ ä½¿
æīĢ ç¬ĳ
æīĢ æĸĻ
æīĢ åĽ°
æīĢ éģĹ
æīĢ ç®¡
æīĢ ç§¯
æīĢ åĢļ
æīĢ ä¹ĺä¹ĭ
äºĶ æĸ¹
äºĶ èĻİ
äºĶ åįģä½ĻåĲĪ
å¹³ å¤ªå®Ī
å¹³ åĮĹå°ĨåĨĽ
éĢĢ åĩº
éĢĢ åĪĻ
éĢĢ åħ¥åŁİ
éĢĢ äºĮåįģéĩĮ
éĢĢ ä¸īåįģéĩĮä¸ĭå¯¨
æľĽ æĪĲéĥ½
æľĽ è¥Ħéĺ³
æľĽ æĺİåħ¬
æľĽ åŃĲæķ¬
æľĽ åįĹå®ī
æľĽ å±±è°·ä¸Ń
æľĽ å±±è·¯èĢĮèµ°
éĹ¨ ä¸Ĭ
éĹ¨ èĢĮåĩº
éĹ¨ æĪ·
æµ ¦
æµ ĩ
ä¸ĩ å¼©é½Ĳåıĳ
æ±ī åŁİ
æ±ī å°ĨåĨĽ
æ±ī æ±Ł
æ±ī å®ģ
åľ° éĽ·
æķħ çŁ¥
æķħ çķĻ
æķħ æĹ§
æķħ åĢŁ
å¤ª æĢ¥
å¤ª æŀģ
åĢ ħ
ç§ ½
ç§ ĳ
ç§ Ńå½Ĵ
æĸ¹ éĿ¢
æĸ¹ ä¼ĳ
æĸ¹ æģ¯
æĸ¹ åľĨ
çĶŁ äºİ
çĶŁ çŁ£
æĸĩ ä¸¾
æ°´ åħµ
æ°´ ä¸Ĭ
æ°´ æīĭ
æ°´ åľŁ
æ°´ å¯¨ä¸Ń
åĭ ¾
èĲ ¤
çĶ¨ äºº
çĶ¨ éķ¿
çĶ¨ åħ¶è¨Ģ
çĶ¨ æĻº
å°ı æ¡¥
å°ı äººä¹ĭ
å°ı éľ¸çİĭ
åı¸ èķĥ
åĲĦ å°Ĩ
åĲĦ çĽ¸
åĲĦ åĪĨ
åĲĦ é¢Ĩ
åĲĦ éĥ¡
åĲĦ éĥ¨
åĲĦ æĮģ
åĲĦ æį®
åĲĦ èĹı
åĲĦ ä¾Ŀæ¬¡
åį´è¯´ åĲķå¸ĥ
åį´è¯´ ä¸ľåĲ´
åį´è¯´ é©¬è¶ħ
åį´è¯´ åĲİä¸»
åį´è¯´ å¾ĲæĻĥ
åį´è¯´ æĽ¹ä¸ķ
åį´è¯´ æĿİåĤķ
åį´è¯´ éĥŃæ·®
åį´è¯´ åŃĻåĿļ
åį´è¯´ è¯¸èĳĽæģª
è¥¿ ç¾Į
è¥¿ æĽ¹æİ¾
å°½ å°Ĩ
å°½ åİ»
å°½ åľ¨
å°½ æĺ¯
å°½ å¿ĥ
å°½ æķĻ
å°½ æĶ¾
å°½ æıĲ
å°½ èĲ½
æķ¢ åİ»
æķ¢ çĥ¦
ä½Ļ åĨĽ
ä½Ļ åħµ
ä½Ļ èĢħ
é»Ħ çĲ¬
é»Ħ æī¿å½¦
æĥĬ èµ°
æĥĬ è§Ĩä¹ĭ
è®® èĢħ
è®® èµ·åħµ
å¤ľ èĩ³
å¤ľ æĪĺ
å¤ľ åįĬ
è´¥ äº¡
äº¦ æĽ°
äº¦ åı¯
äº¦ ä¸İ
äº¦ åĪ°
æ· ĭ
æ· ĳ
åĲķ å»º
åĲķ æį®
çĸ «
åĲ¬ ä¹Ł
åĲ¬ è¯´
åĲ¬ æķĻ
æĩ¿ èĩª
è¢« ç»´
è¢« åĲķå¸ĥ
è¢« éŃıå»¶
è¢« éŃıåħµ
è¢« è¯Ľ
åĽ½ ä¸Ń
åĽ½ äºĭ
ä¸Ķ æľī
ä¸Ķ å½ĵ
ä¸Ķ è¯·
å¸Ŀ ä¸ļ
å¸Ŀ æ³£
è´¼ å¯ĩ
åĸľ èī²
åĸľ æĤ¦
è®¸ è¯¸
è®¸ èĬĿ
è®¸ è¯º
å·¦ åĩº
é« Ģ
é« ĵ
å¿ł åĭĩ
å¿ł è´ŀ
ä¸įåı¯ åİ»
ä¸įåı¯ è¿½
ä¸įåı¯ åºŁ
ä¸įåı¯ åĩºæĪĺ
ä¸įåı¯ æľīè¯¯
äºĮäºº åĩº
äºĮäºº å¤§åĸľ
å¤« èĢ³
åĲį åŃĹ
åĲį æŃ£è¨Ģ
å¾ħ èľĢåħµ
å¾Ĳ åħ¬æĺİ
å®ĺ èĩ³
å®ĺ æ°ĳ
å®ĺ çĪµ
å®ĺ èģĮ
é¦ Ĺ
ç»´ å¤§åĸľ
ç»´ å¤§æĢĴ
ç»´ å¤§åĸľæĽ°
éĿŀ åĲ¾
éĿŀ åı¯
éĿŀ åħ¬
éĿŀ æķ¢
éĿŀ ä¸įæ¬²
éĿŀ èĭ±éĽĦä¹Ł
éĿŀ ä¸Īå¤«ä¹Ł
æķĻ åİ»
æħ §
åĨħ æĹł
åĨħ èĹı
éħ ·
éħ ¸
ä¸ŀçĽ¸ ä¼ĳ
ä¸ŀçĽ¸ åºľ
ä¸ŀçĽ¸ éģĹ
ä¸ŀçĽ¸ æĸ°äº¡
èº« ä¸Ģ
èº« ä¸Ń
èº« äº¡
ç«ĭ åľ¨
ç«ĭ ä¸Ģäºº
ç«ĭ æĸ©ä¹ĭ
ç«ĭ å¤§åĬŁ
ç«ĭ åŁºä¸ļ
ç«ĭ éĻĪçķĻçİĭ
å¤ļ çŁ£
å¤ļ éĻį
çľĭ äºĨä¸Ģéģį
åĲĮ èĥ
åĲĮ åħ¥
åĲĮ æŃ»
åĲĮ éĥ¡
åĲĮ å§ĵ
åĲĮ åŃĻä¹¾
åĲĮ ä¼´
ä¼ı åĨĽ
ä¼ı ä¸ĭ
ä¼ı è¯Ľ
ä¼ı ä¸¤åĨĽ
åºĶ åĳ½
åºĶ åıĺ
æķĳ åĽŀ
æķĳ ä½ł
æĦı ä¹İ
æĦı çĶļ
æŃ¦ åĬŁ
æŃ¦ çķ¥
æŃ¦ åį«
éĺ³ äºº
éĺ³ ä¾¯
æĪĲ äº²
æĪĲ å®ľ
æĪĲ çĹħ
æĪĲ ç«ł
æĪĲ æ°ĶåĬĽ
æĪĲ åĢħ
åħ³åħ¬ è§ģ
åħ³åħ¬ ä¹ĥ
åħ³åħ¬ æĢ¥
åħ³åħ¬ äº¦
åħ³åħ¬ æķĻ
åħ³åħ¬ å¤§æĥĬ
åħ³åħ¬ æĢĴæĽ°
åħ³åħ¬ ä¾Ŀè¨Ģ
æŁĲ ä¹ĭ
æŁĲ å°Ĩ
æŁĲ äºĮäºº
æŁĲ æĸĻ
æŁĲ èĩªæľī
æŁĲ ç´łçŁ¥
ç»į ä»¥
ç»į åĸľ
ç»į æĢĴæĽ°
çŃĸ åºĶ
çŃĸ å¤§åĸľ
æķĮ åħµ
æķĮ ä¸įä½ı
æĭľ éĻį
æĭľ åĪ«
æĭľ è´º
å®ļ æĬ¤
çģ« å¾·
çģ« æĶ»
è¿ĩ å°½
è¿ĩ æ²³
åįĥ äºº
åįĥ çĻ¾
åįĥ åĳĺ
å¹´ ä¹ĭ
å¹´ å°ĳ
å¹´ è¿Ī
æĸ© ä½¿
æĸ© éŃıå»¶
æĸ© èĽĩ
éĺµ æĿ¥
éĺµ åĲİ
éĺµ éĹ¨
éĺµ åĲ¦
å®¶ äºĭ
å®¶ å®¢
å®¶ å«Ĥ
å®¶ èµĦ
èįĨ æ¥ļ
èµ¶ åħ¥
å¼ķåħµ äºİ
å¼ķåħµ å¾Ģ
å¼ķåħµ æĶ»
å¼ķåħµ æĿ¥è¿İ
å¼ķåħµ æĲ¦æĪĺ
å¼ķåħµ å±¯äºİ
å¼ķåħµ å¾ĦåĪ°
å¼ķåħµ ä¸Ģä¸ĩ
åı£ èĻ½
åı£ åĲĲ
ç¬ĳ èĢĮ
ä½ľ åĪ«
ä½ľ è¯Ĺ
ä½ľ åĩĨå¤ĩ
ä½ľ æŃĮ
æĶ» æĿĢ
æĶ» åĲķå¸ĥ
æĶ» åĽ´
æĶ» åĨĢå·ŀ
åĪĢ åīĳ
å¹¶ ä¸įåĩºæĪĺ
é«ĺ å¹³
é«ĺ çļĩ
é«ĺ è´¤
é«ĺ éĻµ
é«ĺ åı°
é«ĺ æŀķ
ä¼ļ ä¸Ĭ
ä¼ļ èģļ
ä¼ļ çĮİäºİ
åĽł ä½ķ
æ¬¡ åĲİ
ç²® å®ĺ
å¤´ æĿ¥
å¤´ å·²
äº² åħĦ
äº² éĢģ
äº² ä¸´
äº² è§£åħ¶ç¼ļ
åĮĹ é£İ
åĮĹ éĹ¨å¤ĸ
å¤ĸ åħµ
å¤ĸ æĹł
å¤ĸ æı´
è¿½ æĢ¥
èµµ å¼ĺ
äºĳéķ¿ éĹ®
äºĳéķ¿ å¤§æĢĴ
åĲĽ çŃī
åĲĽ çĪ¶
èĪ¹ åĩº
è°ĭ ä¹Ł
èĥľ æĽ°
èĥľ äºĨ
èĥľ åĪĻ
èĥľ æį·
éĻĪ åħµ
éĻĪ åŃĻ
éĻĪ å¹³
éĻĪ å°±
éĻĪ åħµäºİ
æĬķ è¢ģæľ¯
æĬķ å¤§å¯¨
æĬķ å®¿
æĬķ åįİå®¹éģĵ
è¦ Ī
æĿİ å°ģ
æĿİ æļ¹
æĿİ é¹ı
æ¯ķ è½¨
çĶļ å¤§
çĶļ çŁ£
çĶļ åĲĪ
çĶļ çĸĳ
èįĨå·ŀ åħµ
èįĨå·ŀ åĪºåı²
èįĨå·ŀ çī§
æį ±
å½Ĵ ä¹ĭ
å½Ĵ å¿ĥ
å½Ĵ çŁ£
å½Ĵ æĸ°éĩİ
å½Ĵ å¤§å¯¨
æ¡ Ģ
è°ĵ ç¾¤èĩ£æĽ°
éĩį æķ´
æģĲ çİĦå¾·
åĳĬ åŃĶæĺİ
åĳĬ æĬ¥
åĳĬ çİĦå¾·æĽ°
åĳĬ è¾ŀ
åĳĬ æ±Ĥ
åĳĬ ç¤º
èĢ³ è¾¹
èĢ³ çķĶ
æĦ¿ åİ»
æĦ¿ åĬ©
æĹ© è§ģ
éģ£ ä¸Ģ
éģ£ å°Ĩ
éģ£ åŃĲ
éģ£ åī¯å°Ĩ
èĲ¥ éĹ¨
èĲ¥ å¤ĸ
èĲ¥ èĢĮèµ°
åıĳ éģ£
è§Ĩ äºĭ
æĶ¾ åĲ¾
æĶ¾ è¡Į
æĶ¾ ä»ĸ
æĶ¾ åĨ·ç®Ń
æİ¥ å¾Ĺ
æİ¥ è¯ı
éļı å¾ģ
éļı æľº
èĻ½ ä¸º
èĻ½ èĥ½
ä»ĸ æĿ¥
ä»ĸ äººä¹ĭ
åıĬ è¯¸
èĤĥ ä¹ĥ
çĪ¶ æĽ°
çĪ¶ ä¹ĭ
çĽ´ æĿ¥
çĽ´ èµ¶
çĽ´ å¦ĤæŃ¤
èľĢåħµ æĿ¥
èľĢåħµ å¿ħ
èľĢåħµ å·²
èľĢåħµ ä¹ĭåĲİ
é¥ ¯
åıĹ éŃı
åıĹ å®³
åıĹ è¾±
å¤± æŃ¤
å¤± å®Ī
å¤± åı£
ä¸įèĥ½ æĬµæķĮ
åħ´ ä»ģä¹ī
å¦ĤæŃ¤ è¡Įä¹ĭ
å¦ĤæŃ¤ æ¨¡æł·
åĨį å¾Ĺ
åĨį å®¹
åĪĻ çĶŁ
è¿ŀ èĥľ
è¿ŀ åı«
è¿ŀ éĶģ
è¿ŀ è¾ĵ
ç¿ ħ
ä¹ĺ è½¦
ä¹ĺ çĿĢ
ä¹ĺ éĨī
èĴ ²
èĴ Ĥ
åħĦ åľ¨
æĹĹ é¼ĵ
å°ļ æ¬²
å°ļ ä¸İå®¡éħį
å¤į è§ģ
å¤į è¨Ģ
å¤į åıĳ
å¤į åĩºç¥ģå±±
éªĳ å°Ħ
éªĳ æł¡å°ī
éªĳ çĻ½é©¬
åĬŁ æĪĲ
åĬŁ åĭĭ
çĹ Ĵ
å¥ı å¸Ŀ
ä¼ĳ éĹ®
ä¼ĳ éģĵ
ä¼ĳ è¦ģ
åĲķå¸ĥ æĿ¥
å¼łé£ŀ ä¾¿
å¼łé£ŀ èµ¶æĿ¥
å¼łé£ŀ å¤§åĸĿä¸Ģå£°
è¾¹ æ´ª
è¾¹ æĿĢæĿ¥
åĿĲ éķĩ
å¸Ĳ å¤ĸ
çĭ Ī
éĥ¡ ä¸»
éĴ Ŀ
èĢģ èĢħ
èĢģ åĮ¹å¤«
èĢģ è¿Ī
å¥ī é©¾
å¥ī äºĮå«Ĥ
æĽ´ ä»¥
æĽ´ æ·±
åĬĽ å¤§
åĬĽ æķĮ
åĬĽ ä¹ı
çł´ çŁ£
çł´ è¢ģç»į
çł´ æĮĩ
æł ª
å°± åľ¨
å°± åĳ½
å°± æķĻ
å°± å¯Ŀ
å¥Ķ ä¸§
ä¹± è´¼
ä¹± ä¸ĸ
ä¹± æ£Ĵ
å°ģ éĩĳ
å°ģ åŃĻæĿĥ
å¼Ģ åħ¶
å¼Ģ åħ³
å¼Ģ å±±
ç®Ń ä¸ºèªĵ
ç®Ń å¦Ĥé£ŀ
ä¹ħ ä¹İ
ä¹ħ è¿ľ
ä¹ħ åĲİå¿ħ
è¯¸èĳĽ å°ļ
è¯¸èĳĽ åŃĲçĳľ
çĬ Ĭ
åıį å¤į
åıį åĬ©
åıį åıĹåħ¶
æľ¬ å½ĵ
æľ¬ ä¹¡
è¦ģ è§ģ
è¦ģ æĪĳ
è¦ģ ç´§
åįĵ åĩº
åįĵ å¤§åĸľ
åįĵ å¤§æĢĴ
åįĵ ç¬ĳæĽ°
åĶ¤ æĽ°
åĶ¤ çİĭå¹³
åĶ¤ éĽĨ
åĶ¤ è¯¸å°ĨæĽ°
åķĨè®® æŃ¤äºĭ
åķĨè®® åģľå½ĵ
é¼ Ļ
ç¤¼ å£«
æ® ¡
æ® ĵ
èĳ£ éĩį
èĳ£ å¦ĥ
å¦Ĥä½ķ å¯¹çŃĶ
è§£ çĶ²
è§£ éĹ·
è§£ éĩĬ
ä¸»åħ¬ å®ľ
ä¸»åħ¬ ä¹ĭåĳ½
å²Ĥ å®¹
å²Ĥ çĭ¬
å²Ĥ åı¯ä»¥
æĹ¢ åĩº
æĹ¢ çĦ¶
æĹ¢ çł´
çĥ ¹
å®« å¥³
æĿ¨ çĲ¦
æĿ¨ æĿ¾æĽ°
æĿ¨ ç¥ļ
æ°ĳ çļĨ
æ°ĳ æľĽ
æ°ĳ å¼º
ç»Ł åĨĽ
ç»Ł ç¬ĳæĽ°
éĥ¨ åĨĽ
æĶ¶ åĽŀ
æĶ¶ åĬŁ
æĶ¶ æ³ª
åīĳ çłį
åĬ¨ ä¹Ł
åĬ¨ ä¸īåĨĽ
åĬ¨ å¹²æĪĪ
å§ĵ çİĭ
å§ĵ é»Ħ
å§ĵ åĳ¨
å§ĵ èµµ
ä¸Ģäºº åİ»
ä¸Ģäºº ä¹ĥ
éĩĳ éĪ
éŃıå»¶ ä¸º
éŃıå»¶ é¢Ĩåĳ½
åŃĻæĿĥ ä»¤
çķĻ ä½ı
åĨĽé©¬ éĴ±ç²®
é½Ĳ åĪ°
é½Ĳ èµ·
é£İ åĲ¹
é£İ ä¸Ģç¯ĩ
åŃĹ ä¹Ł
åŃĹ å½¦
åŃĹ å£«åħĥ
çľŁ ä¸ª
çľŁ å½ĵä¸ĸä¹ĭ
çľŁ å¿łèĩ£ä¹Ł
èī¾ ç¬ĳæĽ°
åĨĽå£« å¤ļ
åĨĽå£« æĬ¥çŁ¥
èµµäºĳ åĩºé©¬
èµµäºĳ å¼ķä¸ĢåĨĽ
æīį åĲį
éĥŃ äºĮäºº
éĥŃ å¤ªåĲİ
éĥŃ å¥īåŃĿ
èĥĮ å°Ħ
äº¤ å¥ĳ
å·¦åı³ çļĨ
å·¦åı³ æĢ¥æķĳ
éļ¾ è¡Į
éļ¾ éĢĥ
ç© ¹
ç¼ İ
ç¼ Ł
éŁ© å°ĨåĨĽ
éŁ© åµ©
éŃıåħµ åĪ°
éŃıåħµ çļĨ
éŃıåħµ æĸ¹éĢĢ
ä»ģ äºº
æŀª æ³ķ
è§Ĥ æ¯ķ
åĪĺå¤ĩ æķĮæīĭ
éĢģ äºİ
éĢģ åĽŀ
éĢģ å¥³
éĢģ åĩºåŁİå¤ĸ
æ³ķ ä»¤
å¾Ħ è·¯
å¾Ħ åıĸèįĨå·ŀ
å·Ŀ å°Ĩ
è¿ľ è¡Į
è¿ľ èĻĳ
é¡» è¯¯äºĨ
å¼ĥ åħ³
å¼ĥ åīĳ
å¼ĥ èĲ¥èĢĮèµ°
çĿĢ ä¸Ģ
çĿĢ æħĮ
å¸¦ äºĨ
å¸¦ åĪĢ
å¸¦ å¤ļå°ĳ
éĵ ¸
å¤«äºº æīĢçĶŁ
ä½Ĩ ä»Ĭ
ä½Ĩ é¡»
ä½Ĩ ä¸įçŁ¥
åĽ´ åŁİ
åĵŃ åĳĬæĽ°
åĵŃ åĢĴäºİåľ°
è¿ĺ åĲ´
è¿ĺ è®¸éĥ½
è¿ĺ ä¹¡
å¯Ĩ éģ£
å¯Ĩ è¯Ń
å¯Ĩ éģ£äºº
çı ©
è¾ŀ è°¢
èįī è¯ı
ç½ª ä¸įå®¹
ä½ł æĿ¥
ä½ł åį´
ä½ł çŃī
ä½ł ä¾¿
ä½ł éģĵ
ä½ł ä»¬
æ°Ķ è±¡
æ°Ķ æ¦Ĥ
å°Ħ åİ»
å°Ħ æ³ķ
å°Ħ åħ¥åŁİä¸Ń
çĮ® é¦ĸ
çĮ® æį·
çĮ® çŃĸæĽ°
çĮ® èĮ¶
ä¸ª å¯¨æłħ
ä¸ª äººæĥħ
ä¿¡ ä¹ĭ
æıĲ åħµæĿ¥
çĻ½ è¡£
çĻ½ æµª
æ²³ éĹ´
é²ģ èĬĿ
å·® å®ĺ
å·® æŁĲ
å·® å¤±
å·® å¿ĥèħ¹äºº
ä¼ł ç¤º
æĢĿ æĬ¥
æĢĿ å½Ĵ
æĢĿ å¿µ
æĢĿ å¾Ĺä¸Ģ
é¥® æķ°æĿ¯
è¢ģç»į æīĭä¸ĭ
å¨ ±
å¨ Ħ
åı· æĽ°
åı· å¸¦
æµģ èĲ½
æµģ åħī
å¸¸ ä»¥
å¸¸ äºĭ
å¸¸ çĲĨ
å¸¸ éĽķ
æīĵ åĩº
æīĵ å°Ĩä¸ĭæĿ¥
åįģä½Ļ ä¸Ī
æİ¢ æ¶Īæģ¯
åĭ¿ è¨Ģ
åĭ¿ æĥĬ
åĭ¿ è½»
ä¸įçŁ¥ åħ¶
ä¸įçŁ¥ æĺ¯
ä¸įçŁ¥ èĢ¶
ä¸įçŁ¥ ä½ķæķħ
ä¸įçŁ¥ ä½ķå¾Ģ
ä¸įçŁ¥ ä½ķæĦı
è½» æģķ
éĽĦ çķ¥
å®ŀ æľī
ä»ĬæĹ¥ å¦Ĥä½ķ
è¯¸å°Ĩ éĹ®æĽ°
èĤ¯ ä»İ
æ» ´
æ» ĳ
æĲ ħ
åħ± æĪ®
åħ± çł´æĽ¹æĵį
åĨ² è¦ģ
åĨ² æķ£
åĨ² æĿĢä¸Ģéĺµ
æľį ä¼Ĺ
æľį ç½ª
ä¸įæķ¢ è¨Ģ
ä¸įæķ¢ è¿ĳ
ä¸įæķ¢ åĩºæĪĺ
ä¸įæķ¢ è¿ĳåīį
æ¢ ¨
ä¼Ĺå°Ĩ é¢Ĩåĳ½
ä¼Ĺå°Ĩ æĢ¥æķĳ
å®ľ éĥ½
æ±Ĥ åħ¶
æ±Ĥ éĹ®
æ±Ĥ æķĻ
æ±Ĥ äº²
æ±Ĥ è´¤
æ±Ĥ åħį
æ±Ĥ æı´
æ·± å¤Ħ
æ·± è´£
æ·± æľīè°ĭçķ¥
å¼ķåĨĽ åĪ°
å¼ķåĨĽ æĿ¥åĪ°
åĪ« åİ»
çºµ ä»¤
çºµ æŃ¥
çĹħ äºº
çĹħ å·²
çĹħ äº¡
çĹħ ç¬ĥ
ä»» åħ¶
åĨ³ æĸŃ
ä¹Ĳ åŁİ
ä¹Ĳ å¤ªå¹³
èĻİ ä¾¯
èĻİ çĭ¼
èĻİ æ·»
èĻİ ç©´
èĻİ çĹ´
åĲĳ åįĹ
åĲĳ è¥¿
åĸĬ é©¬åĺ¶
æļĹ åĲĪ
æļĹ ç¬ĳ
æļĹ ä»¤äºº
åĬ© åĪĺå¤ĩ
çŃĶ åºĶ
è®¾ è°ĭ
éĻĽä¸ĭ åľ£
å¥Ī æľī
ä¸¾ èµ·
ä¸¾ å¤§äºĭ
ä¸ĸ ä¹ĭæīį
è¡£ ä¹ĭ
è¡£ è¢į
ä¸ĥ äºĭ
ä¸ĥ éĿ¢
ä¸ĥ å²ģ
èĦ ¯
èĦ Ĥ
èĦ ı
åıĶ æĺİ
åŃ¤ åĨĽ
è´¤ åĵī
è´¤ ç¤¼å£«
å¤º åĽŀ
ä»ĺ æīĺ
é©¬è¶ħ åħµ
é©¬è¶ħ èĭ±åĭĩ
èĻļ ä½ľ
èĻļ åıĳ
èĻļ æĭ½
ä¿Ŀ æ±Ŀ
ä¿Ŀ éĩį
ä¿Ŀ éļľ
ç¥ŀ èī²
ç¥ŀ åĻ¨
ç¥ŀ ç®Ĺ
ç¥ŀ é¬¼
æ¥ «
è°ģ åı¯ä¸º
åľŁ éĺľ
åľŁ å¢Ļ
å±ħ å¤ĸ
æī¿ éľ²
æī¿ çĪ¶åħĦ
åħĥ æģ¶
åħĥ ç»įæĽ°
ç¨ĭ å¾·
ç¨ĭ ç§ī
ç¨ĭ çķ¿
åĲİä¸» å¤§åĸľ
æģ© çĽ¸
é£Ł ä¹ĭ
é£Ł ç¦Ħ
å¤©åŃĲ ä¹ĭåīį
å¤©åŃĲ æĺİè¯ı
å¨ģ ä»ª
å¨ģ å£°å¤§éľĩ
ä¾į ä»İ
æ¸¡ äºĨ
åħ¨ èº«
åħ¨ å¸Ī
åıªè§ģ ä¸Ģ
åıªè§ģ åŁİä¸Ĭ
åıªè§ģ èĽ®åħµ
åıªè§ģ çģ«åħī
æģ¨ ä¸į
æģ¨ åĬĽ
é¸ ¾
é¸ ł
ç§° åĸĦ
ç§° è´º
ç§° è°¢æĽ°
éĻĨ å°ĨåĨĽ
éĻĨ åľ°
èĲ½ å¾Ĺ
èĲ½ åĩ¤
è°ı éĺ»
èģļ ä¼Ĺè°ĭå£«
åĭĩ å£«
åĭĩ çĮĽ
æĽ¾ æľī
æĽ¾ ä¸º
æĽ¾ è¨Ģ
æľīä¸Ģ å¥³
æľīä¸Ģ å¦¹
çī¹ ä»¥
é©¾ èĪ¹
é©¾ æľ¨çīĽæµģé©¬
éģĩ è§ģ
éĢŁ åİ»
éĢŁ åĽŀ
éĢŁ éĢŁ
çĵ ¶
çĵ ľ
åĩ» åīĳ
æĺĶ èĢħ
å»º å¨ģå°ĨåĨĽ
çŁ³ åŃĲ
çŁ³ èĭŀ
ä¸ķ ä»İä¹ĭ
åħŃ å°Ĩ
åħŃ ä¸ģ
ä¼Ĳ åĪĺè¡¨
èĥĮåĲİ åĸĬå£°å¤§éľĩ
èĥĮåĲİ æľīäºº
å¿§ åĽ½
å¿§ ä¹İ
ä¸´ äºİ
ä¸´ æ²®
æĭ¨ åħµ
åŁİä¸Ń åħµ
åŁİä¸Ń æľī
åŁİä¸Ń çģ«èµ·
åŁİä¸Ń æĹłç²®
åį± éĻ©
åį± åľ¨æĹ¦å¤ķ
éĢĬ è°¢
å¹² ç³»
å¥³ ä¹Ł
å¥³ è®¸
èĽ® å°Ĩ
æľ¯ æĽ°
å¼ĵ çŁ¢
å¼ĵ ç¡¬å¼©
æŃ¤äºº ä¹Ł
æŃ¤äºº æ¬²
æŃ¤äºº æĽ¾
éĿĴ æĺ¥
éĿĴ ç½Ĺ
åħĪä¸» å¤§æĢĴæĽ°
ç²¾ ç»Ĩ
ç²¾ çĨŁ
èµĲ ä»¥éħĴé£Ł
éĢĥ å¥Ķ
éĢĥ åĽŀè§ģ
æŀľ ä¸įåĩº
å¤ªå®Ī çīµå¼ĺ
èµı åĨĽ
å¯» ä¹ĭ
å¯» åħĦ
å¯» åľŁäººéĹ®ä¹ĭ
èĭ± æīį
ä½¿äºº æĿ¥
è¯Ī è¨Ģ
è¯Ī ä¹İ
ç»ĵ æĢ¨
çļĦ æĺ¯
ç»Ŀ æĹł
æŃ¥ åħµ
çĽĸ åľ°
çĽĸ ä¸ĸ
æİ¨ æīĺ
æİ¨ è°ĥ
çī© ä»¶
ä¸ĢéĿ¢ å°Ĩ
ä¸ĢéĿ¢ æķĻ
ä¸ĢéĿ¢ äº²èĩª
çĶĺ å¿ĥ
çĶĺ åħ´éľ¸
å¿½æĬ¥ æľī
å¿½æĬ¥ å¤©åŃĲ
åħī æĻ¯
ä¸¥ èĪĨ
ä¹Ŀ å¯¨
è¢Ń åĲ¾
è¢Ń åıĸ
è¢Ń è®¸éĥ½
è¢Ń åħ¶åĲİ
çĻ» ä½į
çĻ» å®Ŀ
åĢĴ æĴŀ
åĢĴ æĤ¬
é¡º æĽ°
åĸĦ äºĭ
åĸĦ æĻĵ
åĬł é¢ĿæĽ°
ä¿± è¢«
ä¸įå¦Ĥ åİ»
è´Ł æīĢ
çīĽ éħĴ
æĿ¾ å¤§åĸľ
çĦ¶åĲİ çĶ¨
çĦ¶åĲİ åĽ¾
æĹ§ è·¯
æĹ§ å¯¨
ä»¤äºº åİ»
ä»¤äºº æİ¢ä¹ĭ
çĲĨ è¯´
åŃŁèİ· å¼ķ
åįİ éĺ´
æī§ æīĭ
æī§ æĪŁ
æī§ ç¼ļ
éĤĵèī¾ çĪ¶åŃĲ
æĥħ ä¹Ł
æĥħ çŁ¥
è¯¸èĳĽäº® ä¹ĭ
ç¦ģ åĨĽ
ä½į æŀģ
èµ´ ä»»
ä¸ĭé©¬ çĽ¸è§ģ
åĬ« é©¾
äºĮåįģ äºº
åĬĿ åĲ¾
åĬĿ éħĴ
åĬĿ è§£
åĩºåŁİ æĬķéĻį
å¦» å¼Ł
åİŁæĿ¥ å¼łé£ŀ
åİŁæĿ¥ åĳ¨çĳľ
é©± é©¾æľ¨çīĽæµģé©¬
å¼Ĥ å§ĵ
åİ¿ åĲı
ä¼¤ ä¸įå·²
åİļ èĳ¬
å®Ĺ åħĦ
å®Ĺ å®¤
å®Ĺ æ´¾
ç¾¤ ä¸ĭ
ç¾¤ èĭ±
ç¾¤ åĩ¶
æĬ¤ é©¾
æĴ °
æĴ ¼
äºŃ éķ¿
èĩ´ ä»¤
åĨĽä¸Ń æľī
åľ¨æŃ¤ å¤Ħ
åľ¨æŃ¤ çŃīåĢĻå¤ļæĹ¶
å¾Ĳå·ŀ æĿ¥
å¾Ĳå·ŀ çī§
åıĺ æ³ķ
ä¹ĭåħµ ä¹Ł
åĪĿ è§ģ
åĪĿ èĩ³
åĪĿ çĻ»å®Ŀ
é¢Ĩåħµ åĪ°
é¢Ĩåħµ åİ»äºĨ
é¢Ĩåħµ äºĶåįĥ
é¢Ĩåħµ åĨĽå®ĺ
æľ± æ²»
çģŃ æ¥ļ
å¤§äºĭ åİ»çŁ£
è®¨ æ±Ŀ
è®¨ åı¸é©¬æĺŃ
å¿½çĦ¶ æĥĬè§ī
å¯¨ä¸Ń çģ«èµ·
æĻļ çŁ£
æ®¿ åīį
æ®¿ éĹ¨
è¿Ļ çķª
è¿Ļ èĪ¬
éĢļ çº¢
åĢĺ æĽ¹åħµ
åĢĺ åĲ´åħµ
ç©º éĺĶ
æ±ľ å¦»
æľªçŁ¥ å¦Ĥä½ķ
æľªçŁ¥ èĥľè´Ł
æľªçŁ¥ æŃ¤äººæĺ¯è°ģ
åĽłæŃ¤ å¤§è´¥
ä¹¾ åĿ¤
æĬĺ ä¸Ģ
æĬĺ åĨ²
æĬĺ ä¸Ģäººä¸Ģéªĳ
æĬĺ ç®Ńä¸ºèªĵ
ä¼Ĺå®ĺ åķĨè®®
ç¥ģå±± å¯¨ä¸Ń
ç»Ī èº«
åħ· ç¤¼
åį§ ä¸įå®ī
åį§ æ¦»åīį
æī¶ åĩº
æī¶ é£İ
æī¶ åį±
æī¶ æĮģ
åĭĴ çĶ²
äºī åıĸ
äºī æĸĹ
æĿ¥è§ģ ä¸ŀçĽ¸
æĥŁ æĺİåħ¬
æŀģ æľī
æŀģ æĺ¯
æŀģ æĺĵ
æĿĢä¹ĭ æľªè¿Ł
é©¬å²± ä¹Ł
é©¬å²± åĪĨä»ĺæĽ°
çºµé©¬ èĢĮåĩº
çºµé©¬ æĮºæŀª
çºµé©¬ æıĲåĪĢ
å¼º è¦ģ
å¼º å¼ĵç¡¬å¼©
æĺ¥ æļĸ
ä¸ĭå¯¨ å·²æ¯ķ
ä¸ģ è°§
æīĺ ä¹ĭéĩį
è¡Ģ åĪĥ
å¿ĥä¸Ń å¤§æĢĴ
å¿ĥä¸Ń ç¨į
å¿ĥä¸Ń çĶļåĸľ
å¿ĥä¸Ń å¤§çĸĳ
å¿ĥä¸Ń éĥģ
æĪª æĿĢä¸Ģéĺµ
å¿ħæľī ä¼ıåħµ
å¿ħæľī äºĭæķħ
åĤħ å©´
ç³ľ äºĮå¤«äºº
ä¸Ģé½Ĳ è¿Ľåħµ
ä¸Ģé½Ĳ æİ©æĿĢ
ä¸Ģé½Ĳ æĭ¥åĩº
æľīä½ķ çĲĨè¯´
ç¥Ń æĹĹ
ç¥Ń çī©
èĴĭ æĺ¾
è¯Ĩ ä¹ĭ
å¹¼ æĹ¶
è®¸è¤ļ ä¹Ł
æ´ŀ ä¸ģ
æ¨ª æŀª
å¿Ĺ ä¹Ł
ç²®èįī è½¦ä»Ĺ
ç²®èįī è½¦è¾Ĩ
æįī æĭ¿
å®Ŀ éĽķå¼ĵ
åĩºé©¬ æĽ°
åĩºé©¬ ä¸İ
åĻ¨ åħ·
åĻ¨ å®ĩ
åĻ¨ çļ¿
ä¸īåįĥ äººé©¬
åįģä¸ĩ åħµ
åįģä¸ĩ æŀĿç®Ń
çĤ¹ è§Ĩ
çĤ¹ éĴ¢
èµį åį°ç»¶
åĳ¼ ä¸º
æĭ¥ çĻ¾ä¸ĩä¹ĭä¼Ĺ
éķĩ åįĹ
éķĩ ä¸ľå°ĨåĨĽ
åĨĢ åİ¿
å¥ĭ æĢĴ
å¥ĭ å¨ģ
åıªå¾Ĺ å°Ĩ
åıªå¾Ĺ ä»İä¹ĭ
åıªå¾Ĺ å¼ĥäºĨ
çłį å¼Ģ
çłį ä¸ºä¸¤æ®µ
çİī é¾Ļ
çİī æ³ī
æĸĩæŃ¦ åķĨè®®
æĸĩæŃ¦ å®ĺåĳĺ
æĸĩæŃ¦ åĲĦå®ĺ
å¸Ń éĹ´
çĶ° çĮİ
çĶ° çķ´
åĽŀæĬ¥ æĽ¹æĵį
æĦŁ ä¸ŀçĽ¸
æĦŁ æ¿Ģ
èĮĥ èł
äºİé©¬ é¡¹
äºĶåįĥ ç²¾åħµ
åı¤ é£İä¸Ģç¯ĩ
ä»ĵ å»ª
æķ´ å¤ĩ
æķ´ èĤĥ
æķ´ è¡£
éļıåĲİ èĢĮè¿Ľ
éļıåĲİ è¿Ľåıĳ
åħį çĶŁ
åħį éģŃ
éĵģ çŁ³
éĵģ æĪŁ
éĵģ ç´¢
éĵģ éĶ¤
è¿Ł ç¼ĵ
ä¼¯ éģĵ
åı¯ä»¥ åŁĭä¼ı
èįĢ æģº
å°½çļĨ å¤±èī²
å°½çļĨ åįĩèµı
ä¸Ķè¯´ åŃĶæĺİ
ä¸Ķè¯´ åħ³åħ¬
ä¸Ķè¯´ è¢ģç»į
ä¹ĭæĦı ä¹Ł
éģį ä½ĵ
éģĹ åĺ±
çºª æĽ°
æ¡ĵ çģµ
åħĦå¼Ł ä¹ĭæĥħ
çĬ¯ ä¹ĭ
çĬ¯ æ³ķ
çĬ¯ çķĮ
èªĵ æĽ°
èªĵ å½ĵ
èªĵ æ¬²
èĹ ī
èĹ Ĳè§Ĩ
éĴŁ æıĲ
çİ° æľī
è°Ń ä»İåħ¶è¨Ģ
èĭ¥ä¸į è¿ĺ
ç²¾åħµ ä¸īåįĥ
ç²¾åħµ äºĶä¸ĩ
ç²¾åħµ çĮĽå°Ĩ
åĩł è¯¯å¤§äºĭ
åīįéĿ¢ æĺ¯
çĹĽ æīĵ
çĹĽ åĵī
æĺŁå¤ľ åĽŀ
åĩī çŃīå¤Ħ
äºĶçĻ¾ éªĳ
äºĶçĻ¾ æł¡åĪĢæīĭ
ç´ł èĳĹ
æĮºæŀª æĿ¥åĪº
åŃĿ æĻ¯
éķ¿å®ī åİ»äºĨ
ä¸įèĤ¯ åıĹ
å¥ĩ è®¡
èĻĳ èĢħ
èĻĳ åĵī
çİĭå¹³ åĪĨä»ĺæĽ°
æĺĵ åıĸ
æĺĵ å¦ĤåıįæİĮ
è¿Ĳ çŁ³
è¿Ĳ èµ´
åŁĭ ä¹ĭ
åŁĭ æĢ¨
åħ¥è§ģ çİĦå¾·
çº³ ä¸ĭ
æĻº æµħ
æº Ĳ
æĿ¡ å¤§è·¯
èĬ³ æŀĹ
ç¢ £
éŀ ĺ
ç»£ æĽ°
æĪĳçŃī æĺ¯
æĪĳçŃī çļĨæĺ¯
éŃıä¸» æĽ¹å¥Ĥ
æĮī ä½ı
æĤ£ èĢħ
æĤ£ éļ¾
æĤ£ çĹħ
æĤ£ å¤´é£İ
æ£ ®
æĪĸ èĢħ
æĪĸ çĶ¨
è¾ħ åĽ½
åºŁ å¸Ŀ
åĪĺçĴĭ æĽ°
ä»² è°ĭ
åħ¶äºº åĳĬæĽ°
æĶ¸ ä¹ĭ
éĶ¦ ç»£
ä¹¡ åħ¬
åıĮ åĪĢ
åıĮ èĤ¡
ä»° è§Ĩ
å¤§çİĭ åı¯
æĿ¥æĹ¥ åı¯
æĿ¥æĹ¥ åĨ³æĪĺ
æĿ¥æĹ¥ åĽĽæĽ´éĢłé¥Ń
é¡¿ å¼Ģ
ç§ĭ æľĪ
ç®¡ å®ģ
åĤ¬ ç²®
èµŀ åĨĽæľº
çİĩ é¢Ĩ
çİĩ å¤§åħµ
éģ¿ äºİ
ä¼ıåħµ äºİ
ä¼ıåħµ å°½åĩº
éŁ¦ æĽ°
ä¸Ģå½ª åĨĽé©¬
æĸ½ è¡Į
åĲķèĴĻ æĽ°
ä¹ĺåĬ¿ è¿½ä¹ĭ
ä¹ĺåĬ¿ æĶ»åĩ»
å·®äºº æĿ¥
äºİç¦ģ æĽ°
äºİç¦ģ è§ģ
å¦¾ å·²
æ¢ģ çķ¿
åĨĻ æ¯ķ
åĨĻ ä¹¦ä¸İ
æĺı æļĹ
æĺı åĢĴäºİåľ°
çĶ» åŃĹ
æĹłä¸į èĥľ
ä¸¤åĨĽ çļĨ
ä¸¤åĨĽ é½Ĳåĩº
ä¸¤åĨĽ ä¼ļäºİ
è¥Ħéĺ³ äºº
è¯Ŀ æĿ¥
è¯Ŀ åĪĨä¸¤å¤´
å¹¿ åħĥ
æķ°åįģ åĳĺ
ä¼łä»¤ æķĻåĨĽå£«
åįķ äºİ
å¤§å°ĨåĨĽ æĽ¹çľŁ
éĺ´ é£İ
å¼łèĭŀ ä¹Ł
æļĤ ä½ı
åħ» åħµ
åħ» æĪĲæ°ĶåĬĽ
åį« å¼ĺ
åī² ä¸ĭ
éĺ» æĮ¡
æĻĭ ä¹ĭå¥½
åĽĽéĿ¢ çļĨ
åĽĽéĿ¢ åĽ´ä½ı
åĽĽéĿ¢ åħ«æĸ¹
æ±ŁåįĹ å²¸
ç¾Į çİĭ
éģ£ä½¿ èĩ´ä¹¦
å°Ĩå£« ä¹ĭå®¶
æŃ¤æĹ¶ åŃĶæĺİ
éģ¥ æľĽè§ģ
éĽ· éľĩ
æľĽè§ģ èľĢåħµ
å®¢ äºº
è°¦ è®©
ä¼ıäºİ å±±è°·ä¸Ń
åĹ ľéħĴ
åĩ¤ çľ¼
åĩºè¿İ æİ¥
æ¶Ī éģ£
ä¸° è¶³
æľĹ æĽ°
è®© çŃī
é¢Ħ æĽ°
ç° ı
ç»ı å¤©çº
æĽ¹åĨĽ å¤§è´¥
æľªåı¯ ä¼Ĳ
æľªåı¯ éĢłæ¬¡
æľªåı¯ åĽ¾ä¹Ł
æľªåı¯ æ·±ä¿¡
æ±īå®¤ åı¯åħ´
æĿİåħ¸ æĽ°
ç´¯ ä¸ĸ
çī¹æĿ¥ æİ¥åºĶ
çī¹æĿ¥ æĬķéĻį
ä¸ŃåĨĽ å¸Ĳ
éĺ¿ å¤ļ
éĺ¿ éĻĦ
èĥĨ èĲ½
åīįæĿ¥ æİ¥åºĶ
èĥľè´Ł ä¸įåĪĨ
éģ£äºº åİ»
ä½¿èĢħ åħĪåĽŀ
é¢Ĩåĳ½ åİ»äºĨ
ç»Ĩä½ľ æĬ¥è¯´
åĨĢå·ŀ çī§
æ¤į æĽ°
ä¸Ģå°Ĩ é£ŀé©¬
æĿĢåħ¥ åŁİä¸Ń
ä¼Ĺäºº æĽ°
éĹ»ä¹ĭ å¤§æĥĬ
è¥¿åĩī åĨĽ
è¥¿åĩī åĨĽé©¬
ç½® ä¹ĭ
å°Ĭ çĪ¶
å°Ĭ é¢ľ
å°Ĭ æĦıèĭ¥ä½ķ
æĭĨ è§Ĩ
èĩªæľī ä¸»å¼ł
ä¸įåı¯è½» åĩº
éĴ¦ æķ¬
ä¸Ģå½ªåĨĽ æĿĢåħ¥
ä¸Ģå½ªåĨĽ æĳĨå¼Ģ
çĪ± æ°ĳ
çĪµ èµı
è®¾å®´ äºİ
ç¨ĭæĻ® çŃī
ä½ķä»¥ çŁ¥åĲ¾
åŁİéĹ¨ å¤ĸ
æ¢¦ è§ģ
æģª æĽ°
æĪĺä¸į åĪ°
æĪĺä¸į åĪ©
éĽª åľ°
ä¸¤ä¸ª åħĪéĶĭ
ç§ģ ä¹¦
ç§ģ å®ħ
å¦Ħ èĩª
èĥ¡ æµİ
èĥ¡ è½¸
åĪĺçİĦå¾· ä¹ĥ
æłĳ ä¸ĭ
å®ł å¹¸
éĢī ä¸Ģ
è¨Ģæľª è®«
ç´§ éļı
éĥŃæ±ľ é¢Ĩåħµ
ä¸¹ åĩ¤çľ¼
æ±Łå¤ı ä¹ĭåħµ
æŁ´ åłĨ
æŁ´ èĸª
èĹı åĲı
ä¹ĭçŃĸ ä¹Ł
å¿ĺ äºĨ
ä¸ºåīį å°ĨåĨĽ
çŃĳ åŁİ
èį¯ ä»¥
æ¸Ĳ éĢĢ
åį³æĹ¥ å°Ĩ
çģ«èµ· ä¸ºåı·
çģ«åħī å¤§èµ·
çĮĽ åħ½
åıĻ è¯Ŀ
éĥĳ çİĦ
éĥĳ ä¼¦
æĦļ è§ģ
åĵĢ åĵī
èĶ¡çĳģ æĽ°
æĬ± ä½ı
æĬ± çĹħ
ä½ķå¦Ĥ äººä¹Ł
éŃıçİĭ å®«
åįĹéĥ¡ å¤ªå®Ī
åĳ¨æ³° æĽ°
ç¾İ èĢĮ
ç¾İ äºĭ
åĨįä¸ī æİ¨è¾ŀ
åĨįä¸ī çĽ¸åĬĿ
æĶ»æīĵ æ¨ĬåŁİ
çĥĪ çĦ°
åħļ åĿĩ
ä¹ĭä¸Ĭ åĿĲ
åĽŀé¡¾ å·¦åı³
æ°¸ ä¸º
æ±Ŀåı¯ å¼ķ
é¦Ļ èĬ±
å¤ªåı²æħĪ æĽ°
æĿľ è¿ľ
å®½ æ´ª
æ®ĭ åĨĽ
åĺ± ä¹ĭæĽ°
åĳĪä¸Ĭ å¯Ĩä¹¦
ä¸įåĲ¬ åı·ä»¤
ä¹ĥæĺ¯ é©¬å²±
åºĦ ä¸»
äºĮåįģä½Ļ éªĳ
æĶ¿ äºĭ
æĶ¿ æ²»
æĶ¶æĭ¾ èĪ¹åıª
çĤİ æĽ°
çĤİ çĥŃ
äººçļĨ è¢«
å¤§åįĬ çļĨæĺ¯
äºİæŃ¤ åľ°
åı¯éĢŁ è¿Ľåħµ
æĭįé©¬ èµ¶æĿ¥
æĭįé©¬ åĲĳåīį
æĹĮæĹĹ èĶ½æĹ¥
é£ŀæĬ¥ åĲķå¸ĥ
æ³ķæŃ£ ä¸º
æĭ¨é©¬ èĢĮåĽŀ
æĭ¨é©¬ åĽŀèµ°
ç¹ĩ æĽ°
ä¸įå¿ħ å¤ļ
è¯» æ¯ķ
è¯ķ ä¹ĭ
å¦ĩ å¥³
éĺľ æĽ°
åħ¶ä½Ļ å°Ĩå£«
èįĲ ä¹ĭ
èįĲ ä¹¦
åĿĲäºİ å¸Ĳä¸Ĭ
æĿ¨ä»ª çŃī
çħ ¨
æľĢ å¥½
ä¸įè®¸ åħ¥æľĿ
ä¸Ģä¸ª æĺ¯
é©¬èħ¾ çĪ¶åŃĲ
æĶ¶åĨĽ åĽŀ
èįĢå½§ è°ıæĽ°
èĨ Ĭ
åĮ» äºº
æĭĶåīĳ æĸ©ä¹ĭ
è¯ŀ æĽ°
è¯ŀ å¤§æĢĴæĽ°
é»ĳ å¤ľ
é»ĳ æ²¹æŁľ
éª¤é©¬ æĮºæŀª
åĩ¶ éĢĨ
åĩ¶ æļ´
å½¢ åĬ¿
ç«¹ å¸Ľ
æķ°æĹ¥ åĲİ
æķ°æĹ¥ ä¹ĭåĲİ
å¿łä¹ī ä¹ĭå¿ĥ
ç¤¾ç¨· ä¹ĭèĩ£
æŃĮ å£°
æŃĮ ç½¢
æŃĮ èĪŀ
åĩ¡ éģĩ
æĬ¼ éĢģ
æĬ¼ äºĨåŃĹ
ä½ķè¶³ æĥ§åĵī
èį¡ å¯ĩå°ĨåĨĽ
çĸı å¤±
ç¤º ä¹ĭ
åģı æ®¿
åģı è£¨
çŀĴ ä¸įè¿ĩ
åĩŃ æłı
å§ĭ çļĩ
çªĥ è°ĵ
åĨł çİī
éĹ² ä½ı
æľīäºº æĿ¥
åĲ¾å½ĵ äº²å¾Ģ
è·Ł çĿĢ
çľģ äº²
èĸĦ ç¤¼
ç¯¡ æ±ī
ç¯¡ å¤º
ç¯¡ çªĥ
å°¹ æ¥·
æĪ´ å¤©
æĪ´ åĳĺ
æİ· ä¹ĭ
ä¸īåįģä½Ļ éªĳ
åıĪåĶ¤ éŃıå»¶
éĽĴ åİ¿
çĻ¾ä¸ĩ åĨĽä¸Ń
åį´è¯´åŃĶæĺİ èĩª
æĶ¶åħµ åĽŀå¯¨
å¾ĦåĪ° åŁİä¸ĭ
æ½ĺ æµļ
å¥ĭåĬĽ æŃ»æĪĺ
å¥ĭåĬĽ åĨ²çªģ
éŀį è¾Ķ
éŀį éŀĴ
åĽĬ åıĸçī©
æĪ· åı£
åĲ¾èĩª å¹¼
åħ³æŁĲ ä¹Ł
æŃ»èĢħ æŀģå¤ļ
åĢ¾ åį±
çĶŁæĵĴ åĪĺå¤ĩ
è´¥åĨĽ ä¹ĭå°Ĩ
èįĨè¥Ħ ä¹ĭä¼Ĺ
èįĨè¥Ħ ä¹ĭæ°ĳ
å°ļä¹¦ äºĭ
çĵĺ æĽ°
å¸ħ åŃĹæĹĹ
åı¸å¾Ĵ çİĭåħģ
åı¸å¾Ĵ çİĭæľĹ
èĦļ åŃĶåĪĨå¢¨
å´Ķ çĲ°
å´Ķ æ¯ħ
å´Ķ å·ŀå¹³
è¯ī ä¸İ
æĿ¥æķĳ åºĶ
å¸Ĥ æĽ¹
ä¸ºä¸Ĭ è®¡
æŃ£åľ¨ ä»ĬæĹ¥
æŃ£åľ¨ å¯¨ä¸Ń
éĩįèµı ä¸īåĨĽ
åĦģ æĽ°
é©¬è°¡ æĽ°
æĪ¿ ä¸Ń
æŃ¤æĺ¯ ä½ķäºº
çŃµ ä¸Ĭ
åºĬ åīį
æļ´ èĻĲ
æĤ¬ å¤´
è¡ĹäºŃ ä¹ĭ
åºĨ èµı
æİĺ ä¸ĭ
åĿł äºİ
å¦Ĥä½ķä¸į æĬ¥
æĪªä½ı åİ®æĿĢ
ç»ķ æłĳ
è°Ī è®º
è°Ī ç¬ĳèĩªèĭ¥
å¾Ĺèĥľ èĢĮåĽŀ
å¤©æ°´ å¤ªå®Ī
å¤©æ°´ å¤ªå®Īçİĭ
éķ¿åŃĲ æĽ¹ä¸ķ
éķ¿åŃĲ åı¸é©¬å¸Ī
éļĶ æ±Ł
ç«ĭé©¬ éĺµåīį
æ®µ çħ¨
èµļ æĪĳ
èµļ å¼ĢåŁİéĹ¨
èĩªçĽ¸ æİ©æĿĢ
èĩªçĽ¸ åĲŀå¹¶
å®īæ°ĳ å·²å®ļ
æľªåıĬ äº¤éĶĭ
æľªåıĬ åĽŀè¨Ģ
æķ°ä¸ĩ ä¹ĭä¼Ĺ
ç¾ŀ è§ģ
æıĲåĪĢ ä¸Ĭé©¬
åįģäºĮ å¹´
çķı ä¹Ł
å´© åľ°
å´© è£Ĥ
ä¸įåĪĨ èĥľè´¥
æľīæŃ¤ è´¥
æľīæŃ¤ æĦı
æĬĦ åĩº
æĬĦ å°ıè·¯
åĲ¾ä¹ĥ å¸¸å±±èµµåŃĲé¾Ļä¹Ł
å¼łç»£ æĽ°
éĤĢ åħ¥åĲİåłĤ
åį³æĹ¶ ä¼łä»¤
é«¦ æĽ°
æģĲæľī ä¼ıåħµ
åĪĢæĸ§æīĭ æİ¨åĩº
ä¸įèĭ¥ ä¸Ķ
åįļ å£«
åįļ éĻµ
åįľ èĢħ
ä¸Ģæŀª æĲł
çĽĶ ç¼¨
å±¡ æ¬¡
èĭı é¡Ĵ
åºĶå£° æĽ°
åºĶå£° èĢĮåĩºæĽ°
æ¶ª æ±Ł
æ¶ª æ°´åħ³
æĲŃ ä¸Ĭç®Ń
èĲ½é©¬ ä¸ĭ
æĸľè°· çķĮåı£
åİĨ åŁİ
åİĨ å¹´
åİĨ ä¸īä¸ĸ
çŁ¥åħ¶ è¯Ī
å¿ħæĿ¥ åĬ«å¯¨
å¼ĢéĹ¨ æĬķéĻį
éĻĩè¥¿ å¤ªå®Īçīµå¼ĺ
ç¡ Ŀ
ç¡ «é»Ħ
å½° æĽ°
åįģäºĶ éĺµ
éŃĤ é£ŀ
æ²¹ æ±Ł
æ²¹ æ±Łåı£
è¥¿åĮĹ ä¸Ĭ
è¥¿åĮĹ è§Ĵä¸Ĭ
åıĹè®¡ åİ»äºĨ
æł¹ æľ¬
ä¸įæĪĺ èĢĮ
ä¸įæĪĺ èĢĮéĢĢ
æĬ¢ åħ³
åī¿ æĪ®
ä¹ĥè°ĵ ä¼Ĺå°ĨæĽ°
å±±åĿ¡ ä¸ĭ
å±±åĿ¡ åĲİ
éķ¿åı² æĿ¨ä»ª
åıĸäºĨ è¥¿å·Ŀ
éĻĪæ³° æĽ°
è½¦ä¸Ĭ ç«¯åĿĲ
çĭ¼ å¿ĥ
çĭ¼ çĭĪ
åĹ£ ä½į
æ§ İ
ä¸įåĪ© ä¹ĭè¨Ģ
ä¸įè¯Ĩ åľ°çĲĨ
ä¸Ńè®¡ çŁ£
å¹¶åĬĽ æĶ»åŁİ
åĨįæĭľ èĢĮ
åį¢ éĢĬ
èĥ¤ æĽ°
æį· éŁ³
æĽ´åħ¼ è¯¸èĳĽäº®
æ½ľ æŃ¥
åĹŁ åĳĢ
ä¸ĢæŀĿ äººé©¬
ä¸īçĻ¾ éĩĮ
ä¸īçĻ¾ åħŃ
æ¯ģ ä¹¦
å°ıåĦ¿ è°£
æİ¢åĲ¬ æ¶Īæģ¯
ä¸ĸä¹ĭ æŀŃéĽĦ
æ¹ĸ åı£
æĹ± å¯¨
åıªåľ¨ æĹ¦å¤ķ
ç¨į æľī
åħ±è®® å¤§äºĭ
æī« å¹³
æī« éĻ¤
æī« èį¡
æ¬¢ ç¬ĳ
æĹłè°ĭ ä¹ĭè¾Ī
æ±Ŀä½ķ äººä¹Ł
äºĶåħŃ åįģ
çĸĨ çķĮ
çĸĨ åľº
å¥ĶåĽŀ æľ¬å¯¨
åŃŁå¾· æĸ°ä¹¦
éĽįéĹ¿ çļĦäºº
æ¦» ä¸Ĭ
åı© é¦ĸ
ä¸Ģè·¯ åıĸ
é©¬èī¯ æĽ°
ä»¥åĽ¾ ä¸ŃåİŁ
äºĮä¸ĩ åħµ
å®īèĲ¥ ä¸ĭå¯¨
æĸ¹ä»Ĭ å¤©ä¸ĭ
åĶ¤åħ¥ å¸Ĳä¸Ń
å«ģ ä¹ĭ
å«ģ åĪĺå¤ĩ
è¯¡è®¡ æŀģå¤ļ
å¼¦ åĵį
ä¸Ģç®Ńå°Ħ æŃ»
å¦ĸ æľ¯
æĸ©é¦ĸ åı·ä»¤
ä¹ħéĹ» å¤§åĲį
é¼ĵå£° åĵįå¤Ħ
éĿĴé¾Ļ åģĥæľĪ
æīĺåŃ¤ äºİ
æ¿¡é¡» åĿŀ
èĸĽ ç¤¼
åĪĺçĴĿ æĽ°
èĭį é¾Ļ
å¦ĤéĽ¨ åıĳ
é£ŀå¥Ķ åīįæĿ¥
èĢģäºº æĽ°
åĵŃæĭľ æĽ°
åĵŃæĭľ äºİ
åĵŃæĭľ äºİåľ°æĽ°
åĭ¿å¿§ èĻĳ
æ·±åħ¥ ä¸įæ¯Ľ
èĮħ å¡ŀ
éĥĿæĺŃ çĹħéĩį
ä¸ĢæŀªåĪº åĢĴ
ä¸ĢæŀªåĪº èĲ½é©¬ä¸ĭ
æĿĳ ä¸Ń
æĺ¯ä½ķ æĦı
æ²Ł å£ĳ
æŁ³ æĿ¡
åĭ¤ åĬ³
å¤ļæĹ¶ çŁ£
æ¬¡åŃĲ åı¸é©¬æĺŃ
èĢģæ¯į å¦»åŃĲ
å°ĳå¹´ å°ĨåĨĽ
çĹĽåĵŃ ä¸įå·²
æĵħ èĩª
é£ĺ èį¡
å¤©èī² å¾®æĺİ
ç¥Ŀ æ¯ķ
å®īå¿į èĥĮä¹ĭ
æŀŃ åħ¶é¦ĸçº§
éĻįèĢħ æĹłæķ°
æĤ² åĪĩ
é¥®å®´ éĹ´
è£¹ é»Ħå·¾
è¤Ĵ å·ŀ
ä¸įé¡» ä¸»åħ¬
åĩºå¯¨ è¿İæİ¥
åı¯ä¸º èĭ±éĽĦ
å½ĵæŃ¤ å¤§ä»»
èľĢå¯¨ æĹ¶
åĽĽæĽ´ æĹ¶åĪĨ
éģĵèį£ æĽ°
åĶĲ å¦ĥ
èħ° æĤ¬
æµģæ¶ķ æĽ°
ç»ĵè¿ŀ ä¸ľåĲ´
é¡¿é¦ĸ æĽ°
éĺ´å¹³ å°ıè·¯
æ¦ľ æĸĩ
å¤§æĪĺ ä¸Ģåľº
æĿ¥çĽ¸ è¯·
å½Ń åŁİ
è´± å¦¾
åıªå®ľ æ·±æ²Łé«ĺåŀĴ
æľªå¾Ĺ åħ¶äºº
æľªå¾Ĺ åħ¶ä¾¿
çĿģ åľĨ
åĲķèĮĥ æĽ°
çĭŃ å¤Ħ
çª¥ ä¹ĭ
ä¿ĿæĬ¤ èĢģå°ı
åı±å·¦åı³ æİ¨åĩºæĸ©ä¹ĭ
ç«ĭé©¬äºİ éĹ¨æĹĹä¸ĭ
éĻĪçķĻçİĭ æĽ°
è¿¤éĢ¦ åīįè¿Ľ
äºĴçĽ¸ äºī
æĹĭ é£İ
èľĢä¸» åĪĺç¦ħ
åĮĹæµ· å¤ªå®Ī
åĶĩ èĭ¥
é¦ĸå°¾ ä¸įèĥ½çĽ¸é¡¾
åıĹäºĨ è®¡çŃĸ
å¥īè¯ı è®¨è´¼
è¦ģåİ» å¤Ħ
æĤĶä¹ĭ ä½ķåıĬ
æĤĶä¹ĭ æĻļçŁ£
éĢµ æĽ°
å¦¨ ä¸»
çĦ° ç¡Ŀ
éĿ¢å¦Ĥ åĨłçİī
çīĮ åį°
ç¾ķ æĽ°
é¡¾è°ĵ è¯¸å°ĨæĽ°
é¡¾è°ĵ ä¼Ĺå°ĨæĽ°
è£´ ç»ª
åĭĥçĦ¶ å¤§æĢĴæĽ°
åĭĥçĦ¶ åıĺèī²
å¤§éĺŁ åĨĽé©¬
å¤§éĺŁ äººé©¬
æĿ¥äºº æĽ°
ä¸ºå°Ĩ èĢħ
ä¸īåĪĨ å¤©ä¸ĭ
è¡ĮåĨĽ åı¸é©¬
æķ°åįĥ è¾Ĩ
åĭī ä¹ĭ
èº¬ èĢķ
éľį åħī
çĬĴ åĬ³
çļĩçĶ« éĥ¦
ç¬¬äºĮ ä¸ª
ç¬¬äºĮ éĺŁ
ç¬¬ä¸ī åŃĲ
è°ģåı¯ ä¸ºä½¿
æĬ¤åį« ä½¿
å¡« èĥ¸
åĩ¤éĽı åħĪçĶŁ
å¾ª çİ¯
äºĭå·² æĢ¥çŁ£
å¸¸æľī æĿĢ
ç¬¬ä¸Ģ åĬŁ
ç¬¬ä¸Ģ å±¯
æľīä½ķéĿ¢çĽ® è§ģ
æĬ«åıĳ è·£è¶³
æĮ¥åĪĢ æĿ¥è¿İ
æĿ¥æĬķ æĽ¹æĵį
è°Ĺ è¨Ģ
åı¯ä¹ĺ åħ¶
åħ¬å®ī åĤħå£«ä»ģ
èĩªåıĸ åħ¶ç¥¸
æĹłåı¯ å¥Īä½ķ
æĪĺåĪ° ä¸īåįģåĲĪ
æŀī é©¾
ä¸¤å·Ŀ ä¹ĭåľ°
éħĮ éħĴ
æ¡Ĥéĺ³ ä¸īéĥ¡
çĪ¶æ¯į å¦»åŃĲ
å±¯ä½ı åĨĽé©¬
é¡¾éĽį æĽ°
ä¸´è¡Į æĹ¶
å¢ŀ çģ¶
åĬ³åĨĽ å·²æ¯ķ
äºİå±± æŀĹ
äºİå±± é¡¶
å½± éĩĮ
åŃĶæĺİåľ¨ å±±ä¸Ĭ
åįģä¸ĥ å²ģ
å¤ĩè¨Ģ åħ¶äºĭ
è´¼å°Ĩ ä¼ĳèµ°
æ´® è¥¿
æ¼Ķ ä¹ī
èĭ¦è°ı ä¸įä»İ
ä¸įæĿĢ æ±Ŀ
ä¸įåıĸ ä¹Ł
ä¸Ģæĭ¥ èĢĮåħ¥
æī° ä¹±
ä¸īä¸ª æľĪ
å²ĳ å¨ģ
æĦ¿éĻĽä¸ĭ å¯Łä¹ĭ
é¥¥ é¦
é¥¥ èī²
å¸¦åīĳ åħ¥å®«
è°¢æģ© æ¯ķ
èµıåĬ³ ä¸īåĨĽ
æĳ© éĻĤ
æĹłçĶ¨ ä¹ĭäºº
ç¥Ī ç¦³
æīĢæĵĴ çŁ£
é¢ĨäºĨ è¨Ģè¯Ń
åĶ¾ éªĤ
çĮª ç¾Ĭ
åĨįä½ľ åķĨè®®
å¸Ĳä¸Ĭ å¸Ĳä¸ĭ
é²ľ æĺİ
åĴ¸ éĺ³
çĮ®ä¸İ ä¸ŀçĽ¸
è£ģ ä¹ĭ
æŀľæľī æŃ¤äºĭ
èµįè¯ı èĩ³
æ¼³ æ°´
æĬµå½ĵ ä¸įä½ı
æĻºåĭĩ è¶³å¤ĩ
çŃĳèµ· åľŁåŁİ
è¯īè¯´ åīįäºĭ
å¼ķä¸ĢåįĥåĨĽ åİ»
æĿ¥èĢħ èİ«éĿŀ
æĸŁ éħĴ
éĢĴ ä¸İ
ä»¥éĽª åĲ¾æģ¨
è¡¥ æĬ¥
èĩªåı¤ ä»¥æĿ¥
åºµ ä¸Ń
å¤ľè§Ĥ å¤©æĸĩ
å¤ľè§Ĥ ä¹¾è±¡
ä¹±åĨĽ æīĢæĿĢ
é½Ĳå£° åĸĿéĩĩ
å®ŀä¸º ä¸ĩå¹¸
ä¹ĶåĽ½èĢģ æĽ°
æ²ĵä¸Ń å±¯çĶ°
åĨ¢ ä¸Ń
é©¬æŃ¥ åħµ
ä¿¯ ä¼ı
æŀ¯ æ¸´
æ²Ī èİ¹
å¿½åĲ¬ çļĦ
å°ıå¿ĥ åľ¨æĦı
èºģ æļ´
å¹´æĺ¥ æŃ£æľĪ
å¹´æĺ¥ äºĮæľĪ
çĲª æĽ°
ä¹ĺéĹ´ åĽ¾ä¹ĭ
éŁ©ç¦ı æĽ°
åħŃéĥ¡ åħ«åįģä¸Ģå·ŀ
å¯»è·¯ èĢĮèµ°
ç´łæľī å¤§å¿Ĺ
åĨĻä¹¦ ä¸Ģå°ģ
éĺ´äºĳ å¸ĥåĲĪ
åįļæľĽ åŁİ
åĨĮ ç«ĭ
ä¸Ģå®¶ èĢģå°ı
å·į å·į
äºİåĲİ åłĤ
ä¸ºå¤©ä¸ĭ ç¬ĳ
è§ģéŃıåħµ åĬ¿å¤§
å½ķ å°ļä¹¦äºĭ
å¦Ĥåħ¶ ä¸įä»İ
ä¸īåĽ½ æ¼Ķä¹ī
æ±Ŀåĭ¿ å¤ļè¨Ģ
å±±é¡¶ ä¸Ĭ
æ¬²ä»¤ æĪĳ
å®ĪéĹ¨ åĨĽå£«
æĥĬè®¶ æĽ°
é«ĺå£° å¤§åı«
é¥¿ æŃ»
èģļä¼Ĺå°Ĩ åķĨè®®
å¯»è§ħ ä¸įè§ģ
æŀĹæľ¨ èĮĤçĽĽ
åº§ä¸Ĭ ä¸Ģäºº
éĽħä¸¹ ä¸ŀçĽ¸
æĭĤè¢ĸ èĢĮåİ»
Ġè¯¸èĳĽäº® æĻº
ä»¥å®ŀ åĳĬ
æĹłåĲį ä¸ĭå°Ĩ
çİĭçĶ« æĽ°
çº¿ ç¼Ŀ
èľĢæ±ī å»ºåħ´
åį³ä¿®ä¹¦ ä»ĺ
æ®Ĭ éģĩ
æľķæĦı å·²åĨ³
ç¢ĳ æĸĩ
æĭĨä¹¦ è§Ĩä¹ĭ
ä¸įè¶³ä¸º èĻĳ
åĨįä¸īåĬĿ è§£
çĺ´ æ°Ķ
åĲĳå¯¼å®ĺ æĽ°
çį Ĺ
ä¸ĭä¹¦ äºº
æ¸Ķ éĺ³
äºĶåįģä½Ļ æĹ¥
å¤´æĪ´ çº¶å·¾
çĮĸ çĭĤ
çĮĸ çįĹ
å¥ıçŁ¥ å¤©åŃĲ
å¦Ĥä½ķèĤ¯ æľį
æĶ¶èģļ è´¥åħµ
å¼ĥçĶ² æĬĽæĪĪ
æ¨µ å¤«
åħ«éĺµ åĽ¾
çĻ½è¢į éĵ¶éĵł
å¾ģè¥¿ å¤§å°ĨåĨĽ
èĮ« èĮ«
äºĮåįģåıª èĪ¹
æ£Ģ çľĭ
ä¸¤è·¯åĨĽ æĿĢæĿ¥
ä¸¤è·¯åĨĽ æĿĢåĩº
å¼ķä¸ĢæŀĿ åħµ
ç§¯èįī å±¯ç²®
æľªæķ¢è½» åĬ¨
ĠĠ ĠĠ
ä¹ĭè®º ä¹Ł
ä¸įå¥½ çľĭ
è°Ħ ä½ŀ
åı¯ä¿Ŀ æĹłèĻŀ
åĳµ åĳµ
ä»¥æŃ» æĬ¥
æĢ¥åĽŀé©¬ æĹ¶
ä¸Ķåĭ¿ è¨Ģ
ä¸įåı¯ä¹ħ çķĻ
æķĳçģ« èĢħ
èµµç´¯ æĽ°
éĻĪè¯´ åĪ©å®³
çĮ¿ èĩĤ
æĤĦ æĤĦ
å¸¦çĶ² çĻ¾ä¸ĩ
ä¸įçŁ¥ä½ķå¤Ħ åħµæĿ¥
åħ±åĽ¾ å¤§äºĭ
åĪ«ä½ľ èī¯åĽ¾
è£¸ è¡£
æ´ªç¦ı ä¹Ł
ä¸Ģå£°åĵį äº®
èĴĭæµİ æĽ°
æºº äºİéħĴèī²
ä¹Įæ¡ĵ è§¦
è¿Ŀä»¤ èĢħæĸ©
çħ® éħĴ
åļ ¼
å¤§åĸĬ ä¸Ģå£°
ä¸Ģå¯¸ äºĶåĪĨ
å°Ĩè®¡å°± è®¡
å°Ĩè®¡å°± è®¡èĢĮè¡Į
æīĳ åľ°
ä¸ºåī¯ åħĪéĶĭ
è°® æĽ°
åĲ¾å®ģ æŃ»
æĿĢå¼Ģ æĿ¡è·¯
æŀ· éĶģ
åĵĤç¬ĳ èĢĮéĢĢ
çĶ¨æŃ¦ ä¹ĭåľ°
å°½éĻį åħ¶ä¼Ĺ
è´¼åĬ¿ æµ©å¤§
é¢Ĩè®¡ åİ»äºĨ
ä¼ıæ³¢ å°ĨåĨĽ
æĤļ çĦ¶
æĤļ æĥ§
é¾Ļéª§ å°ĨåĨĽ
çļĩå¤© åĲİåľŁ
å®¹èº« ä¹ĭåľ°
å¯¹éĿ¢ ä¸įè§ģ
ç§°å¸Ŀ åı·
åĢĴæĪĪ åį¸çĶ²
åĺ±ä»ĺ æĽ°
åĳĪä¸Ĭä¹¦ æľŃ
éĦ±éĺ³ æ¹ĸ
èĵĦ éĶĲ
èļģ èģļ
æĽ© èĢħ
æŃĥè¡Ģ ä¸ºçĽŁ
æĵĲ çĶ²
è´´ èĤī
å¯° å®ĩ
å¼łå¼ĵ åıªç®Ń
çİĦå¾·å¼ķ åħ³
äºĮä½į å¤«äºº
ä¸īéĢļ é¼ĵç½¢
ä»İå¤´ èĩ³å°¾
åĵĳ æ³ī
åĽĽä¸ĸ ä¸īåħ¬
å¿½äººæĬ¥ æĽ°
æīĢå®ľ ä¹Ł
ç½¡ æĺŁ
åĲįä¸į èĻļä¼ł
å¥ıåĩĨ åĲİä¸»
ç¼Ħ åı£
çĻ½æĹĦ é»ĦéĴº
æľįåħ¶ è®º
ç¥ŀæľº å¦Ļç®Ĺ
åĪ©åľ¨ æĢ¥æĪĺ
èİ«å¤§ çĦī
è¡Ģæ°Ķ ä¹ĭåĭĩ
è°ĥç»ĥ åĨĽé©¬
ç§ĭéĽ¨ è¿ŀç»µ
çĶ»æĪĲ åĽ¾æľ¬
æ¬ºåĲ¾ å¤ªçĶļ
ä¹Įç¨ĭ ä¾¯
èĨ³ æ¯ķ
å°ĺåľŁ åĨ²å¤©
çĩķäºº å¼łç¿¼å¾·
ç£Ĳ æ²³
æ¼«å±±éģįéĩİ èĢĮæĿ¥
éĩĳçİ¯ä¸īç»ĵ åħĥå¸ħ
çĥ½çģ« åı°
å¤Ļ å¤ľ
æ±¹ æ¶Į
æľīåĭĩ æĹłè°ĭ
äºİå£ģ è¡£ä¸Ń
éĢįéģ¥ æ´¥
åĲ¾ä¸įå¦Ĥ ä¹Ł
ä»¥åĲ¾ è§Ĥä¹ĭ
åħ¶å¤§ å¦Ĥ
ä¹ĥéŃı ä¹ĭåĲįå°Ĩ
çºł åĲĪ
æĢ¥åĭĴé©¬ åĽŀæĹ¶
æīĢéªĳ ä¹ĭé©¬
åı¸åĨľ æ¡ĵèĮĥ
æīĭæĳĩ ç¾½æīĩ
éĶĢ éĩĳ
ç¬ĳèĢĮä¸į çŃĶ
ä¸įèĥ½ä¸ĭ åĴ½
æ»Ķ å¤©
æķ£éªĳ å¸¸ä¾į
åĸĦä¿Ŀ é¾Ļä½ĵ
åį§çīĽ å±±
æīĺåĲį æ±īçĽ¸
æĪªåħ¶ å½Ĵè·¯
éŀŃæĮŀ å£«åįĴ
è¥¿åĩīå¤ªå®Ī é©¬èħ¾
çīĻéĹ¨ å°Ĩ
æ´»åĳ½ ä¹ĭæģ©
åĢ¾åĽ½ ä¹ĭåħµ
éģ®æĭ¦ ä¸įä½ı
å®ªèĭ± æĽ°
çīĩçĶ² ä¸įåĽŀ
èŃ¬ å¦Ĥ
ç§ĺä¹¦ éĥİ
éĩĳåŁİå¤ªå®Ī æĿ¨æ¬£
èŁ ł
ä¸įåħ± æĪ´å¤©
ä¸įä¹ł æ°´æĪĺ
æĺĨ ä»²
å¤§å£° æĽ°
å¤§èİ· èĥľæį·
æīģ èĪŁ
ä»¥å®īæ°ĳ å¿ĥ
ä¸īæ´ŀ åħĥå¸ħ
è·ĭ æīĪ
éķ¿äºĮ å°º
ç§ĥ é¾Ļ
å£°åĸı æĽ°
èº«å¸¦ éĩįä¼¤
å¤´ä¸Ģä¸ª æ±ī
æŃ¢åī© å¾Ĺ
èĲ½èįĴ èĢĮèµ°
æİ¨çĹħ ä¸įåĩº
åį§èļķ çľī
éĢĨä¸į éģĵ
çĥ§ç»Ŀ æłĪéģĵ
éĦ¢éĻµ ä¾¯
ç±³ä»ĵ å±±
æĭ©ä¸» èĢĮäºĭ
æµ©æµ© èį¡èį¡
äºĽå°ĳ åĨĽå£«
åįĸä¸» æ±Ĥ
ç´«èĻļ ä¸Ĭäºº
ä¸Ļå¯ħ æĹ¥
ä»¥ä¸Ĭå®¾ ä¹ĭç¤¼
å¤©éĻįå¤§ éĽª
ç½¾åı£ å·Ŀ
¬åľ° ä¹ĭæīį
ä¸įæĿĢä¹ĭ æģ©
å¾ĺå¾ Ĭ
æľīç´¯ åįµ
çĽ±çľ Ļ
åĲ¾åĽº çŁ¥
åħ¬å» ¨
å¦Ĥæİ¢ åĽĬåıĸçī©
çĽ¸è¯ķ èĢ³
ä¸īé©¬åĲĮ æ§½
è¯´çĬ¹æľª äºĨ
åŃĲåŃĲåŃĻ åŃĻ
æŃ£èµ¶ ä¹ĭéĹ´
æŃ£æĸĹ éĹ´
éķ¿æ°´ æł¡å°ī
çİĭä½Ĳ ä¹ĭæīį
å®īåł µ
è¡ĮæĹłæķ° éĩĮ
è½²æ¯Ķ èĥ½
ä¹¦ä¸įå°½ è¨Ģ
éĤ¯éĥ ¸
é£ŀæ²Ļ èµ°çŁ³
é£ŀçłĤ èµ°çŁ³
çĻ¾åıĳ çĻ¾ä¸Ń
çĻ¾æĪĺçĻ¾ èĥľ
åĲįæŃ£è¨Ģ é¡º
æĸ©èĽĩ èµ·ä¹ī
ç®Ńå¦Ĥé£ŀ èĿĹ
éĩĳéĪ ļç®Ń
ç½ªä¸įå®¹ è¯Ľ
æĢĿå¾Ĺä¸Ģ è®¡
æī¿éľ² çĽĺ
åħŃä¸ģ åħŃçĶ²
åĪĿçĻ»å®Ŀ ä½į
å¿ĥä¸Ńéĥģ éĹ·
çĤ¹éĴ¢ çŁĽ
èĮĥèł ¡
åŃĿæĻ¯ çļĩå¸Ŀ
åıĮèĤ¡ åīĳ
ç»ıå¤©çº ¬åľ°ä¹ĭæīį
æ±īå®¤åı¯åħ´ çŁ£
å¤©æ°´å¤ªå®Īçİĭ é¢Ģ
¥ è®
¦ æŃ¦
¦ é¹
µ å±±è°·ä¸Ń
¸ éĺģ
º èĹľ
» åĲŁ
æ ¾
Ġ æĪĺ
Ġ çł´
Ġ åŃĻæĿĥ
Ġ åĪĺçļĩåıĶ
Ġ èµµåŃĲé¾Ļ
Ġ å¼łç¿¼å¾·
Ġ æĽ¹éĺ¿çŀĴ
ħ å´ĸ
Ĩ æĢħ
ĭ çĮİ
ĭ æĪĴ
ĳ éģĹ
ĳ æ±ł
Ķ æĤ
ĸ ä¹ĭ
ļ æĽ°
Ł çĦ¶
ł ä¸ģ
ł èº¬
Ń çĵĴ
ï¼Į âĢĶâĢĶ
äº ¢
äº ©
ä¹ Ĥ
ä¹ ĸ
åı µ
åĲ ĵ
âĢĿ ï¼ļ
ä» ·
ä¹ĭ ä¸Ģ
ä¹ĭ ä»¤
ä¹ĭ çĽ¸
ä¹ĭ å®ī
ä¹ĭ çŁ£
ä¹ĭ æĿĥ
ä¹ĭ éĻį
ä¹ĭ æĢĴ
ä¹ĭ ä¼ļ
ä¹ĭ ä¹İ
ä¹ĭ åİŁ
ä¹ĭ å¤©ä¸ĭ
ä¹ĭ é£İ
ä¹ĭ è¯ı
ä¹ĭ æµģ
ä¹ĭ æľį
ä¹ĭ ä¸ĸ
ä¹ĭ è°ı
ä¹ĭ å¼ĵ
ä¹ĭ åħī
ä¹ĭ çĽĽ
ä¹ĭ åıĺ
ä¹ĭ å¤§äºĭ
ä¹ĭ å¼º
ä¹ĭ å®Ŀ
ä¹ĭ åĻ¨
ä¹ĭ èĬĤ
ä¹ĭ åį°
ä¹ĭ åŃ¦
ä¹ĭ åĽº
ä¹ĭ èº¯
ä¹ĭ å¢ĵ
ä¹ĭ çĳŀ
ä¹ĭ å¹¸ä¹Ł
ä¹ĭ æ´ªç¦ıä¹Ł
æĿ Ń
åĨ ĵ
ä¸į æŃ£
ä¸į å®Ī
ä¸į èĤ
ä¸į çĶŁ
ä¸į æĭľ
ä¸į éĹ´
ä¸į çĶļ
ä¸į å½Ĵ
ä¸į èĥĮ
ä¸į å¯Ĩ
ä¸į ä¿Ŀ
ä¸į æĸŃ
ä¸į å»º
ä¸į çĶĺ
ä¸į ä¾Ŀ
ä¸į åľ¨æŃ¤
ä¸į åıĺ
ä¸į ä»¥ä¸º
ä¸į åĲī
ä¸į æĻº
ä¸į åĩĨå¤ĩ
ä¸į èĪį
ä¸į å°Ĭ
ä¸į æķĪ
ä¸į é¥®éħĴ
ä¸į æĥľ
ä¸į çĨŁ
ä¸į åģļ
ä¸į ç«Ń
ä¸į ä¸ĢåĲĪ
ä¸į æıĲéĺ²
ä¸į å¦¨
ä¸į ç¨³
ä¸į è¶ĭ
ä¸į è¾ŀèĢĮåİ»
ä¸į äºļ
ä¸į è¿Ń
ä½ Ľ
æĹ »
åŃ ±
åŃ ķ
åŃ ĳéģĹ
å¼ Ĭ
å¼ Ĺ
æĺ §
äºº å¦Ĥ
äºº åľ¨
äºº æĹł
äºº å¤«
äºº èĢ³
äºº è¯Ń
äºº ä¸įåıĬ
äºº å½¹
äºº è¡Ķæŀļ
äºº åĸĬé©¬åĺ¶
åĨĽ åĩº
åĨĽ åľ¨
åĨĽ èĭ¥
åĨĽ å°ĨåĨĽ
åĨĽ å®ŀ
åĨĽ å®¹
åĨĽ æł¡
åĨĽ æĬ¥çŁ¥
åĨĽ ä¼ıäºİ
åĨĽ å¤§åįĬ
åħµ åĽŀ
åħµ çļĨ
åħµ ä¹ĭè®¡
åħµ å°Ĩå£«
åħµ çĸ²
åĽ ·
å¿ ¤
æķ ²
èĩ »
å¤§ åİ
å¤§ è°ĭ
å¤§ åħ´
å¤§ æĺŁ
å¤§ èµı
å¤§ æľ¨
å¤§ æ®¿
å¤§ åĲī
å¤§ çłį
å¤§ æĪŁ
å¤§ æĤ£
å¤§ æ¢ģ
å¤§ èĥĨ
å¤§ éĽĨ
å¤§ ç´¢
å¤§ æİĴ
å¤§ æłĳ
å¤§ åĩ¶
å¤§ åħ¬åŃĲ
å¤§ æįŁ
å¤§ èįĴ
å¤§ è®¾ç¥Ń
å¤§ ç°ı
å¤§ éĢĨä¸įéģĵ
ä¸Ģ å¤§
ä¸Ģ å¤©
ä¸Ģ å±±
ä¸Ģ å¯¨
ä¸Ģ å¿ĥ
ä¸Ģ èµ·
ä¸Ģ åĳ½
ä¸Ģ ä¹¦
ä¸Ģ æŃ¦
ä¸Ģ ç¬ĳ
ä¸Ģ å¤±
ä¸Ģ é¾Ļ
ä¸Ģ åĽ¾
ä¸Ģ å±¯
ä¸Ģ æĺŁ
ä¸Ģ åĭĩ
ä¸Ģ æľ¨
ä¸Ģ è§Ĵ
ä¸Ģ åıĺ
ä¸Ģ è¯Ń
ä¸Ģ ç©º
ä¸Ģ ä¸Ī
ä¸Ģ å¸Ń
ä¸Ģ è§Ī
ä¸Ģ å²ģ
ä¸Ģ å¼©
ä¸Ģ åī¯
ä¸Ģ å¢ĥ
ä¸Ģ éģŃ
ä¸Ģ åģľ
ä¸Ģ åĮ¹å¤«
ä¸Ģ å®¿
ä¸Ģ çĽĺ
ä¸Ģ ä¸Ĭå°Ĩ
ä¸Ģ çĽı
ä¸Ģ å©¢
ä¸Ģ éĶ¦åĽĬ
ä¸Ģ æ£Ĵ
ä¸Ģ å±Ĥ
ä¸Ģ çĻ¾ä½ĻåĲĪ
ä¸Ģ ä»¶äºĭ
ä¸Ģ å¹ħ
ä¸Ģ èĪĮè¾©ä¹ĭå£«
è§ Ĳ
é©¬ æĿ¥
é©¬ ä¸įèĥ½
é©¬ éĵģ
é©¬ ä¸įåıĬ
é©¬ å£®
é©¬ å¿«
é©¬ å°¾
é©¬ éŀį
é©¬ åĪ°æĿ¥
é©¬ éĴ§
é©¬ ä¸įèĥ½è¡Į
é©¬ ä¸ĢåĮ¹
é©¬ çİ©
é©¬ æĹ¥ç£¾
å°Ĩ ä¸Ĭ
å°Ĩ å¼ł
å°Ĩ åİ»
å°Ĩ åŁİ
å°Ĩ æĽ¹æĵį
å°Ĩ ä¸¤
å°Ĩ æĸ©
å°Ĩ åĲķå¸ĥ
å°Ĩ å§ľç»´
å°Ĩ è¯ı
å°Ĩ åĭĩ
å°Ĩ å¤§åĨĽ
å°Ĩ å¥Īä½ķ
å°Ĩ åŃŁè¾¾
å°Ĩ åį°
å°Ĩ è¦Ĩ
å°Ĩ ä¸ĢæŃ»
å°Ĩ èĪ¹çŃı
å°Ĩ å¦Ĥä¹ĭä½ķ
å°Ĩ åħ¥åİ»
å°Ĩ çĻ¾ä½ĻæĹ¥
å· ħå´ĸ
æĪ ¾
ä¼ ·
çİ Ī
æĿ¥ å°Ĩ
æĿ¥ æĭľ
æĿ¥ èĪ¹
æĿ¥ å¥ı
æĿ¥ æľĿ
æĿ¥ ä»ª
æĿ¥ å¯¨ä¸Ń
æĿ¥ æĺ¥
æĿ¥ ç¦Ģ
æĿ¥ å¯¨åīį
æĿ¥ ä½ķè¿Ł
æĿ¥ ç´¢èįĨå·ŀ
æĿ¥ èµļæĪĳ
åĩ ½
åĩ Ħ
åĩ ĭ
æĵ ¢
éĹ ¾
å¸ ®
å¸ ı
å¸ ļ
è® ¥è®
æľī ä¸º
æľī åħ³
æľī åįģ
æľī äºĳ
æľī å¿ĥ
æľī è®¡
æľī èĥ½
æľī æĸĩ
æľī é»Ħ
æľī åįĥ
æľī è°ĭ
æľī è¦ģ
æľī åĪĺå¤ĩ
æľī çĹħ
æľī è¯Ī
æľī è¯Ĩ
æľī åŁĭä¼ı
æľī å®¢
æľī å¿ĥèħ¹
æľī èį¯
æľī å¤§åĬŁ
æľī å¼Ĥå¿ĥ
æľī åĽĽåŃĲ
æľī åĲŀå¹¶
æľī èī¯è°ĭ
æľī éļĻ
æľī èĻļåĲį
æľī åĸľèī²
æĸ ĳ
æĸ ĭæĪĴ
æī Ľ
æĵį çļĨ
æĵį ä½¿
æĵį åıĸ
æĵį ä¾¿
æĵį ä»İ
æĵį å¿½
æĵį å¾Ģ
æĵį æķħ
æĵį æģĲ
æĵį æ¬¡æĹ¥
æĵį ä¸Ĭé©¬
æĵį æĭ¨
æĵį åĩºé©¬
æĵį ä¹ĭå¿ĥ
æĵį å¤§æĥĬæĽ°
æĵį åĽŀé¡¾
æĵį åĿĲäºİ
æĵį éĹ»çŁ¥
æĵį åı±æĽ°
æĵį è§Ĥä¹ĭ
æĵį éªĤæĽ°
æĵį å¤§ç¬ĳ
æĵį ä¸ĭä»¤
æĵį åį³ä»¤
æĵį åĸľæĽ°
æĵį ä¸įä¿¡
æĵį ä¹ĥä»¤
æĵį åıĪéĹ®
æĵį æī¬éŀŃ
æĵį ä»¥éŀŃæĮĩ
æŃ¤ åħ³
æŃ¤ æ¬²
æŃ¤ çŁ£
æŃ¤ åį³
æŃ¤ éĹ¨
æŃ¤ è´¥
æŃ¤ åĬŁ
æŃ¤ éĥ¡
æŃ¤ æľĪ
æŃ¤ çĹħ
æŃ¤ çŁ³
æŃ¤ ä»ĩ
æŃ¤ è¯Ń
æŃ¤ å¿ħæľī
æŃ¤ çķª
æŃ¤ åĽ½å®¶
æŃ¤ èĩĤ
æŃ¤ äºĶè·¯
æŃ¤ äºĮå¤Ħ
æŃ¤ æ¦ĩ
æŃ¤ ä¸įç¥¥
åİ ķ
ç» ŀ
éģ Ĳ
éģ ĳ
ä¸ĭ åĽŀ
ä¸ĭ å¾Ĺ
ä¸ĭ éĹ®
ä¸ĭ è®¡
ä¸ĭ å®ļ
ä¸ĭ è§Ĩ
ä¸ĭ æ¡¥
ä¸ĭ å¾¡
ä¸ĭ å¸Ń
ä¸ĭ å²Ń
ä¸ĭ æĭľæĽ°
ä¸ĭ å°ıèĪ¹
ä¸ĭ è¾¨
äºİ å¿ĥ
äºİ éĹ¨
äºİ æ±ī
äºİ æ°´
äºİ éģĵ
äºİ ä¸»åħ¬
äºİ ä¸ĸ
äºİ æ±īä¸Ń
äºİ åŁİä¸Ń
äºİ ç³ľ
äºİ çĶ°
äºİ åŁİä¸ĭ
äºİ æľĿå»·
äºİ å°Ĭ
äºİ å±±ä¸Ĭ
äºİ æ±Łè¾¹
äºİ å¯¿æĺ¥
äºİ åĽĽæµ·
äºİ æ±īæ°´
äºİ å®«ä¸Ń
äºİ è½¦åīį
äºİ ç¥ŀä»Ļ
äºİ åłĤä¸ĭ
åľ Ī
åľ ŃçĵĴ
ä¸Ń æĿ¥
ä¸Ń å¹³
ä¸Ń è´¼
ä¸Ń å¤ĸ
ä¸Ń ä¸Ģäºº
ä¸Ń é£İ
ä¸Ń æ¶ĵ
ä¸º ä¸į
ä¸º ä¸Ń
ä¸º ä»Ĭ
ä¸º æ±Ŀ
ä¸º å¯¨
ä¸º èĩ£
ä¸º æ¬¡
ä¸º çĪ¶
ä¸º åħĦ
ä¸º é¾Ļ
ä¸º ä¸»åħ¬
ä¸º ç¬¬
ä¸º åĬ©
ä¸º éĻĽä¸ĭ
ä¸º è°ģ
ä¸º å¹¸
ä¸º åį¿
ä¸º ä»ĩ
ä¸º åħ¸
ä¸º åĦ¿
ä¸º å¦Ļ
ä¸º å¤ªåĲİ
ä¸º ä¸ŃåĨĽ
ä¸º æ±īä¸Ńçİĭ
ä¸º æł¡å°ī
ä¸º å¸Ĳåīį
ä¸º å©¿
ä¸º æĽ¹æ°ı
ä¸º é¢ĺ
ä¸º åı³å°ĨåĨĽ
ä¸º å¾ģè¥¿å°ĨåĨĽ
ä¸º åĪĹä¾¯
ä¸º åĲĳå¯¼å®ĺ
ä¸º å·¦åĨĽ
ä¸º åı³åĨĽ
ä¸º çĽŁä¸»
ä¸º åħ³åĨħä¾¯
ä¸º æ°´åĨĽéĥ½çĿ£
ä¸º å¤ĸæı´
è§ģ ä¹Ł
è§ģ æĹł
è§ģ èľĢ
è§ģ çĶ¨
è§ģ çŃĸ
è§ģ çĪ¶
è§ģ ä¸Ģäºº
è§ģ çľŁ
è§ģ èµµäºĳ
è§ģ è¿ĺ
è§ģ å¤©åŃĲ
è§ģ é»Ħå¿ł
è§ģ åħĪçĶŁ
è§ģ åħĪå¸Ŀ
è§ģ åŁİéĹ¨
è§ģ æ±īä¸Ńçİĭ
è§ģ è²ĤèĿī
è§ģ æĢª
èĢĮ ä½ķ
èĢĮ ä½¿
èĢĮ éĹ®
èĢĮ å¤©ä¸ĭ
èĢĮ æ°ĳ
èĢĮ åĬ¨
èĢĮ åĽ¾
èĢĮ å¥½
èĢĮ è§Ĩä¹ĭ
èĢĮ ä¸įæķ¢
èĢĮ åĲĳ
èĢĮ å¤º
èĢĮ å±ħ
èĢĮ æ¸¡
èĢĮ è°ı
èĢĮ åįĴ
èĢĮ å¿ĺ
èĢĮ å¯Ŀ
èĢĮ ä¸ºä¹ĭ
èĢĮ æłĸ
è° ±
ä½ķ èĩª
ä½ķ èĩ³
ä½ķ åĸľ
ä½ķ å¾ħ
ä½ķ éļ¾
ä½ķ ä¸įçŁ¥
ä½ķ é¢ľ
ä½ķ çĭ¬
ä½ķ æĤ£
ä½ķ å¿į
ä½ķ æįŁ
ä½ķ å¤ļçĸĳ
ä½ķ ç¢į
ä½ķ ä¸¾åĬ¨
ä½ķ æĽ¼
åĩº ä¹Ł
åĩº å±±
åĩº ä¼Ĺ
åĩº çĶŁ
åĩº æķĮ
åĩº åĪĻ
åĩº ç¤º
åĩº éĩįåĽ´
åĩº æĸľè°·
åĩº çĮİ
åĩº åĮĹéĹ¨
åĩº è¾ķéĹ¨
åĲ¾ ä¸Ģ
åĲ¾ æŃ£
åĲ¾ ä½¿
åĲ¾ çĶŁ
åĲ¾ å¾ħ
åĲ¾ çľĭ
åĲ¾ å®¶
åĲ¾ æģĲ
åĲ¾ æĶ¾
åĲ¾ å°ļ
åĲ¾ æľ¬
åĲ¾ çĸĳ
åĲ¾ å§ĵ
åĲ¾ æĢĿ
åĲ¾ ä»»
åĲ¾ æĺĶ
åĲ¾ å¥³
åĲ¾ åĨĽä¸Ń
åĲ¾ ç»Ī
åĲ¾ å°Ŀ
åĲ¾ èľĢä¸Ń
åĲ¾ ä¸įåĲ¬
åĲ¾ ä¹ĭæīĢ
åĲ¾ æĪĲåĬŁ
åĲ¾ å¹³çĶŁ
åĲ¾ éĶĲæ°Ķ
åĲ¾ æĦ¿å¾Ģ
åĲ¾ ä¹ħéĹ»
åĲ¾ æľīä½ķéĿ¢çĽ®
åĲ¾ æľ¬æ¬²
åĲ¾ éļıåĲİä¾¿
åĲ¾ éģįè§Ĥ
åĲ¾ å¢ĥçķĮ
åı¯ æĹł
åı¯ èĩ³
åı¯ æĬ¥
åı¯ å®Ī
åı¯ åĲĮ
åı¯ æķĳ
åı¯ æĹ©
åı¯ çĸĳ
åı¯ æĶ¶
åı¯ èİ·
åı¯ æĸŃ
åı¯ æģ¨
åı¯ åĩ»
åı¯ ä¾Ŀ
åı¯ æĸ©ä¹ĭ
åı¯ èĦ±
åı¯ ä¹ĺèĻļ
åı¯ ä½ľä¹¦
åı¯ æĶ¯
åı¯ éĢĢèľĢåħµ
åı¯ èİ·åħ¨èĥľ
åı¯ å®īå¤©ä¸ĭ
ä¹Ł åĪ°
å¾· ç¥ĸ
å¾· ä¼Ł
åĳ »åĲŁ
åĲİ åħµ
åĲİ æĹ¥
åĲİ èĩ³
åĲİ å¯¨
åĲİ å°ĨåĨĽ
åĲİ çĶŁ
åĲİ åĽ¾
åĲİ å¦»
åĲİ åĽŃ
åĲİ éĻ¢
åĲİ å¦ĥ
åĲİ å¿ħçĶŁ
ä»¥ èĩ³
ä»¥ åıĸ
ä»¥ åĲ´
ä»¥ åĪĨ
ä»¥ å®ļ
ä»¥ å¸Ī
ä»¥ åĪĢ
ä»¥ åĳĬ
ä»¥ è§Ĥ
ä»¥ æľį
ä»¥ å¼ĵ
ä»¥ åħī
ä»¥ ä¸§
ä»¥ åħį
ä»¥ æľĿå»·
ä»¥ æĺİåħ¬
ä»¥ ç§ģ
ä»¥ ä»£
ä»¥ æĦļ
ä»¥ åĪ¶
ä»¥ å®¾
ä»¥ æĥĳ
ä»¥ å¾ħä¹ĭ
ä»¥ å½°
ä»¥ å¯Ĩä¹¦
ä»¥ æĿĸ
ä»¥ åºĶä¹ĭ
ä»¥ éĩįä»»
ä»¥ éģı
ä»¥ ä½ķçŃĸ
ä»¥ é¸©
ä»¥ åĨ³éĽĮéĽĦ
ä»¥ èµİ
ä»¥ ä»¤è¯¸ä¾¯
ä»¥ å¨±
æĺİ ä¸Ĭ
æĺİ çŁ¥
æĺİ æķĻ
æĺİ å¹´
æĺİ åĳĬ
æĺİ æĹ¨
å¥ ģ
å¥ ķ
æĽ¹ å¯¨ä¸Ń
æĽ¹ å®īæ°ĳ
æĽ¹ èĲ¥åĨħ
åħ¬ ä¸į
åħ¬ æĿ¥
åħ¬ å½ĵ
åħ¬ èĭ¥
åħ¬ æīĢ
åħ¬ è®®
åħ¬ éģĵ
åħ¬ éĹ®æĽ°
åħ¬ åĭ¿
åħ¬ è®º
åħ¬ æĤĮ
åħ¬ æĦıèĭ¥ä½ķ
ä¸Ĭ å°ĨåĨĽ
ä¸Ĭ åĳ½
ä¸Ĭ åĲĪ
ä¸Ĭ åĿĲ
ä¸Ĭ æ¡¥
ä¸Ĭ ç¼ļ
ä¸Ĭ åı°
ä¸Ĭ æ¥¼
ä¸Ĭ è¦Ĩ
ä¸Ĭ åĿ¡
ä¸Ĭ åħļ
ä¸Ĭ å±±åĿ¡
ä¸Ĭ åİħ
ä¸Ĭ é«ĺéĺľå¤Ħ
åī ľ
ä»Ĭ äºº
ä»Ĭ ä»¥
ä»Ĭ äºĭ
ä»Ĭ å¿ħ
ä»Ĭ æ±Ŀ
ä»Ĭ æķ°
ä»Ĭ èĩ£
ä»Ĭ çĶ¨
ä»Ĭ äº¦
ä»Ĭ åĲ¬
ä»Ĭ æŁĲ
ä»Ĭ ç»į
ä»Ĭ åĽł
ä»Ĭ å±ħ
ä»Ĭ èĴĻ
ä»Ĭ æľķ
ä»Ĭ è¯¸èĳĽäº®
ä»Ĭ æĽ¹ä»ģ
ä»Ĭ å½ĵåħĪ
ä»Ĭ çī¹æĿ¥
ä»Ĭ ä¸ĢæĹ¦
ä»Ĭ æĹłç«¯
ä¸İ éŃı
ä¸İ äºĳ
ä¸İ åĳ½
ä¸İ å¸ĥ
ä¸İ å¸Ŀ
ä¸İ åĲĮ
ä¸İ ç»į
ä¸İ èįĨå·ŀ
ä¸İ åŃĻæĿĥ
ä¸İ é»Ħå¿ł
ä¸İ æ¸Ĭ
ä¸İ åħĪçĶŁ
ä¸İ æħĪ
ä¸İ å¦»
ä¸İ æĽ¹åħµ
ä¸İ çĻ¾å§ĵ
ä¸İ çļĩåıĶ
ä¸İ çİĭå¹³
ä¸İ å¤ıä¾¯æ¸Ĭ
ä¸İ æĿİåħ¸
ä¸İ ä½¿åĲĽ
ä¸İ ç¨ĭæĻ®
ä¸İ èĶ¡çĳģ
ä¸İ åĳ¨æ³°
ä¸İ æĸĩä¸ĳ
ä¸İ èĳ£æī¿
ä¸İ åħ³æŁĲ
ä¸İ åĦģ
ä¸İ å¤ıä¾¯æ¥Ļ
ä¸İ åħ¶åŃĲ
ä¸İ éĥŃåĽ¾
ä¸İ åį¿çŃī
ä¸İ èĻİæ·»
éĺ Ħ
éĺ Ĭ
å¼ł åħĪ
å¼ł å½ĵ
å¼ł çŃī
å¼ł ä¸¾
å¼ł çī¹
å¼ł åįİ
å¼ł éģµ
å¼ł è±¡
å¼ł éĴ§
å¼ł çļĩåĲİ
å¼ł å¼ķæľ¬éĥ¨
å¼ł åĪ«é©¾
å¼ł åŃĲå¸ĥ
å¼ł ä¾įç«ĭäºİä¾§
æĭ ¬
æĭ Ĺ
åİ» ä¹ĭ
åİ» æĹ¥
åİ» æĶ»
åİ» è§£
åİ» è¿ľ
åİ» å¤º
åİ» å¿ħæľī
åİ» è®¸éĥ½
åİ» åıĸèįĨå·ŀ
åħ¶ æĹ¶
åħ¶ ä½¿
åħ¶ éĻį
åħ¶ å®ĺ
åħ¶ èĪ¹
åħ¶ åĬŁ
åħ¶ é£İ
åħ¶ ä»»
åħ¶ æ´ŀ
åħ¶ å½¢
åħ¶ æ¯Ĵ
åħ¶ èĪĮ
åħ¶ å°¸é¦ĸ
åħ¶ æŃĮæĽ°
åħ¶ æīĭæĽ°
åħ¶ è°¶
çİĦå¾· äºİ
çİĦå¾· åĩº
çİĦå¾· åħ¥
çİĦå¾· èĩ³
çİĦå¾· åıĪ
çİĦå¾· å·²
çİĦå¾· æ¬²
çİĦå¾· åıĸ
çİĦå¾· å¾ħ
çİĦå¾· çľĭ
çİĦå¾· å¼ķåħµ
çİĦå¾· åĨį
çİĦå¾· åĨĽé©¬
çİĦå¾· æļĹ
çİĦå¾· ä½¿äºº
çİĦå¾· å¿Ļ
çİĦå¾· çŃĶæĽ°
çİĦå¾· åħ¥è§ģ
çİĦå¾· äº²èĩª
çİĦå¾· éĹ»çŁ¥
çİĦå¾· åıªæĺ¯
çİĦå¾· æİ£
çİĦå¾· æĢ¥ä»¤
çİĦå¾· åĸľæĽ°
çİĦå¾· æ³£æĽ°
çİĦå¾· è§Ĩåħ¶äºº
çİĦå¾· éº¾åĨĽ
æĹ¥ ä¹Ł
æĹ¥ åīį
æĹ¥ çĽĽ
åŁİ æ¥¼ä¸Ĭ
ä»¤ çİĦå¾·
ä»¤ åĪĺ
ä»¤ åıĸ
ä»¤ å®Ī
ä»¤ åĲ´
ä»¤ èĩ£
ä»¤ å¤ĩ
ä»¤ ä½ľ
ä»¤ åĨĽé©¬
ä»¤ åĭ¿
ä»¤ è¯¸å°Ĩ
ä»¤ é©¬è¶ħ
ä»¤ å¼łéĥĥ
ä»¤ åħĪéĶĭ
ä»¤ å¾ĲæĻĥ
ä»¤ é²ģèĤĥ
ä»¤ èµ·åħµ
ä»¤ è¿Ľåħµ
ä»¤ ä¸īåĨĽ
ä»¤ ä¸¥é¢ľ
ä»¤ ä½Ĺ
ä»¤ é«ĺé¡º
ä»¤ æ»¡å®ł
ä»¤ çİĦå¾·ä¸º
åŃĶ åŃĲ
åŃĶ åŃĲäºĳ
åŃĶ æĸĩä¸¾
ä¹ĥ åħ¶
ä¹ĥ åħ¥
ä¹ĥ å¾Ĺ
ä¹ĥ è¯´
ä¹ĥ åıĸ
ä¹ĥ å¾Ģ
ä¹ĥ çĶ¨
ä¹ĥ å¼ķåħµ
ä¹ĥ äº²
ä¹ĥ åĳĬ
ä¹ĥ ç¬ĳæĽ°
ä¹ĥ çĻ½
ä¹ĥ ä¿Ŀ
ä¹ĥ åı±
ä¹ĥ æ±Łä¸ľ
ä¹ĥ åºŀå¾·
ä¹ĥ åŃĻä¹¾
ä¹ĥ åħ¥è§ģ
ä¹ĥ åĽ½å®¶
ä¹ĥ ç§»
ä¹ĥ èľĢä¸Ń
ä¹ĥ ç³ľç«º
ä¹ĥ å°ļä¹¦
ä¹ĥ åįĹéĺ³
ä¹ĥ éŃıå°Ĩ
ä¹ĥ åĽ½ä¹ĭ
ä¹ĥ èĴĭéĴ¦
ä¹ĥ æ±īæľĿ
ä¹ĥ å¾Ĳå¾Ĳ
ä¹ĥ åĲ´å°Ĩ
ä¹ĥ é«ĺæĺİ
ä¹ĥ å¼łè¾½ä¹Ł
ä¹ĥ å¼łèĭŀä¹Ł
ï¼ģâĢĿ ï¼Ł
èĭ Ľ
èĩª æ¬²
èĩª ä»İ
èĩª å½Ĵ
èĩª è°ĵ
èĩª åĪ«
èĩª é¡¾
èĩª å¾Ĳå·ŀ
èĩª çºµé©¬
èĩª è¯¯
èĩª æĢ»
èĩª çĦļ
èĩª ä¸ľåĮĹ
èĩª è´¬
å£ ³
äºĮ çİĭ
äºĮ ç½ª
äºĮ éĺŁ
äºĮ å®¢
äºĮ ä¸īåįģ
äºĮ åħ¬åŃĲ
äºĮ é¹¿
äºĮ åįĥä½Ļäºº
äºĮ ä¸īåįģä¸ĩ
äºĮ é¢Ĺ
äºĮ çĻ¾äºº
åĽŀ æľĽ
åĽŀ å¸Ī
åĽŀ è§Ĥ
åĽŀ åŁİä¸Ń
åĽŀ åİ¿
åĽŀ ä¹¡
åĽŀ éĽĴåŁİ
åŃĶæĺİ äºİ
åŃĶæĺİ èĩ³
åŃĶæĺİ ä¾¿
åŃĶæĺİ åį³
åŃĶæĺİ è°ĵ
åŃĶæĺİ éļı
åŃĶæĺİ å¤į
åŃĶæĺİ å¤§æĢĴ
åŃĶæĺİ æĮĩ
åŃĶæĺİ ä¹ĭè®¡
åŃĶæĺİ åħ¥åŁİ
åŃĶæĺİ äº²èĩª
åŃĶæĺİ å¿ħçĦ¶
åŃĶæĺİ éĹ»ä¹ĭ
åŃĶæĺİ å¤§åĸľæĽ°
åŃĶæĺİ èĩªå¼ķ
åŃĶæĺİ åį³ä»¤
åŃĶæĺİ æĢ¥ä»¤
åŃĶæĺİ å¤ļè°ĭ
åŃĶæĺİ è¯·åħ¥
åŃĶæĺİ è¾ŀäºĨ
åŃĶæĺİ ä¹ĭä¹¦
åŃĶæĺİ åĽŀä¹¦
åŃĶæĺİ åĺ±æĽ°
åŃĶæĺİ è°ĵè¯¸å°ĨæĽ°
åŃĶæĺİ æļĹæĢĿ
åŃĶæĺİ åıĺèī²æĽ°
éĿ ¶
å¼ķ èĩ³
å¼ķ ä»ĸ
å¼ķ äºĮå°Ĩ
å¼ķ çĻ¾ä½Ļ
å¼ķ è®¸è¤ļ
å¼ķ è¯±
å¼ķ ä¸īä¸ĩ
å¼ķ æķ°çĻ¾äºº
å¼ķ çĻ¾ä¸ĩä¹ĭä¼Ĺ
å¼ķ éĵģéªĳ
å¼ķ äºĶåįĥåĨĽ
å¼ķ äº²éļı
å¼ķ ä¸īçĻ¾åĨĽ
å¼ķ äºĶåįĥç²¾åħµ
è¨Ģ çİĦå¾·
è¨Ģ åľ¨
è¨Ģ æĺ¯
è¨Ģ æĽ¹æĵį
è¨Ģ èľĢåħµ
è¨Ģ åĪĺå¤ĩ
è¨Ģ åĳ¨çĳľ
è¨Ģ åħ¶äºĭ
å¦Ĥ è§ģ
å¦Ĥ åħ¬
å¦Ĥ å¤©
å¦Ĥ ä»İ
å¦Ĥ çģ«
å¦Ĥ èľĢåħµ
å¦Ĥ å½¼
å¦Ĥ æľĪ
å¦Ĥ èĤ¯
å¦Ĥ è¿Ł
å¦Ĥ éĨī
å¦Ĥ æ¢¦
å¦Ĥ éº»
å¦Ĥ ä¸įä»İèĢħ
åľ¨ å¤©
åľ¨ éŃı
åľ¨ åĲ´
åľ¨ èº«
åľ¨ å·¦åı³
åľ¨ åĪ«
åľ¨ èĥĮåĲİ
åľ¨ æĪĲéĥ½
åľ¨ å¸Ĳä¸ĭ
åľ¨ è¥Ħéĺ³
åľ¨ ä¸ŃåĨĽ
åľ¨ å£ģ
åľ¨ åįĹéĥ¡
åľ¨ åºĦ
åľ¨ éĤ£éĩĮ
åľ¨ åºľä¸Ń
åľ¨ å®«ä¸Ń
åľ¨ èº«ä¸Ĭ
åľ¨ æĸ°åŁİ
åľ¨ è¿ĻéĩĮ
åľ¨ éĹ¨æĹĹä¸ĭ
åľ¨ çĻ½å¸ĿåŁİ
åľ¨ ä¸Ģè¾¹
åľ¨ ä¸Ĭæĸ¹è°·
åľ¨ èĪ¹å¤´ä¸Ĭ
åľ¨ æłĳä¸Ĭ
æĥ ĨæĢħ
æĺ¯ ä¸º
æĺ¯ æĹł
æĺ¯ å¼ĥ
æĺ¯ ç»Ŀ
æĺ¯ æ±ĿçŃī
æĺ¯ çĬ¹
æĺ¯ é«ĺå®ļ
åħ¥ æĽ°
åħ¥ æĿ¥
åħ¥ èĪ¹
åħ¥ å¥ı
åħ¥ è¾ŀ
åħ¥ çĻ½
åħ¥ è°·
åħ¥ åłĤ
åħ¥ å¥ıæĽ°
åħ¥ æ¨ĬåŁİ
åħ¥ å¯¿æĺ¥
åħ¥ è´¡
åħ¥ åįĹéĥĳ
åħ¥ æ°´å¯¨
åħ¥ è°·ä¸Ń
åħ¥ äº¬å¸Ī
åħ¥ åį§åĨħ
åħ¥ èĨı
çĽ¸ è¿ĳ
çĽ¸ è¾ŀ
çĽ¸ ä¿¡
çĽ¸ å®¹
çĽ¸ åĸĦ
çĽ¸ åİļ
çĽ¸ æĸĹ
çĽ¸ æīĺ
çĽ¸ çŀĴ
çĽ¸ ä¾µ
çĽ¸ æĿĤ
çĽ¸ è²Į
çĽ¸ èµł
çĽ¸ è°ĵæĽ°
çĽ¸ é²įä¿¡
å¾Ĺ é©¬
å¾Ĺ ä»¥
å¾Ĺ çŁ¥
å¾Ĺ åĲķå¸ĥ
å¾Ĺ å¤©ä¸ĭ
å¾Ĺ çĹħ
å¾Ĺ åħ¶ä¸»
è¢ Ħ
è¢ Ľ
æĹł åĩº
æĹł å¾Ĺ
æĹł çŁ¥
æĹł éĹ®
æĹł å®Ī
æĹł åĪĨ
æĹł å¤Ħ
æĹł å¤ļ
æĹł æĦı
æĹł å¤´
æĹł è¶³
æĹł ä»¥ä¸º
æĹł æ¯Ķ
æĹł åı¯ä»¥
æĹł éģĹ
æĹł åº¦
æĹł ç©·
æĹł åİ»è·¯
æĹł äºĮæĹ¥
æĹł æļĩ
æĹł æŃ¤å¿ĥ
æĹł å¤įæľī
æĹł æĪıè¨Ģ
æĹł å®¹èº«ä¹ĭåľ°
æĹł åŃĳéģĹ
æĿĢ äºİ
æĿĢ åİ»
æĿĢ èµ·
æĿĢ å¤ĩ
æĿĢ ä»ĸ
æĿĢ åħ¥åŁİ
æĿĢ åĽ½è´¼
æĿĢ å¥½äºº
æģ ½
æİ ĸ
åħĪ æľī
åħĪ è§ģ
åħĪ ä»¥
åħĪ èĩª
åħĪ æĺ¯
åħĪ æĹ¶
åħĪ æĬ¥
åħĪ èµ·
åħĪ çļĩ
åħĪ å°Ħ
åħĪ éĢļ
åħĪ æĿ¥è§ģ
åħĪ éĻ¤
åħĪ æĪª
åħĪ æį®
åħĪ åħ¥è§ģ
åħĪ å°Ŀ
ä¸ī æĽ°
ä¸ī åĽĽ
ä¸ī å¤ľ
ä¸ī æķĻ
ä¸ī éģĵ
ä¸ī å¼Ł
ä¸ī çĻ¾ä½Ļ
ä¸ī è½½
ä¸ī åį·
ä¸ī åĮ¹é©¬
ä¸ī åħ¬ä¹ĭ
ä¸ī çĻ¾ä½Ļéªĳ
ä¸ī å±Ĥ
ä¸ī ä»¶äºĭ
äºĨ å¤©åŃĲ
äºĨ æłĪéģĵ
ä¸» æĮģ
ä¸» çģ¯
ä¸» æķĮäºº
è¯´ æĽ¹æĵį
è¯´ çĶļ
è¯´ èľĢåħµ
è¯´ åĪĺå¤ĩ
è¯´ åĪĺè¡¨
æĪĳ å°Ĩ
æĪĳ åľ¨
æĪĳ æ¬²
æĪĳ æŃ»
æĪĳ èĢħ
æĪĳ æķħ
æĪĳ æĸ¹
æĪĳ èĻ½
æĪĳ ä¸įèĥ½
æĪĳ å¥ī
æĪĳ å¦Ĥä½ķ
æĪĳ æĹ¢
æĪĳ èĢĮåİ»
æĪĳ çļĦ
æĪĳ å¿ĥä¸Ń
æĪĳ åĽĽäºº
æĪĳ å¯¡
æĪĳ ä¸ĢæĹ¶
æĪĳ ä¸»äºº
åīį å¯¨
åīį è¿ĩ
åīį èĪ¹
åīį èĲ¥
åīį å¥Ķ
åīį ä¸ĭå¯¨
åīį çĽŁ
åīį æĿł
åħ³ çº¯
èĩ³ äº²
èĩ³ ä¸ľåĲ´
èĩ³ åºľ
èĩ³ åİļ
èĩ³ æ±Łä¸ľ
èĩ³ äºŃ
èĩ³ æĪĲéĥ½
èĩ³ è®¸æĺĮ
èĩ³ æĸ°éĩİ
èĩ³ äºĮæĽ´
èĩ³ æ³¸æ°´
èĩ³ éĺ¶ä¸ĭ
èĩ³ å®ĺæ¸¡
èĩ³ è½¦åīį
èĩ³ æ¦»åīį
èĩ³ éķ¿åĿĤæ¡¥
èĩ³ ä¸ľåįİ
èĩ³ ä¸ŃéĹ¨
è· ¸
åŃĲ åĪĺ
åŃĲ å¼Ł
åŃĲ å¥³
åĪ° ä»Ĭ
åĪ° éĹ¨
åĪ° èľĢåħµ
åĪ° è®¸éĥ½
åĪ° å¸Ĳä¸Ń
åĪ° è®¸æĺĮ
åĪ° éĿ¢åīį
åĪ° åŁİä¸ĭåı«éĹ¨
åĪ° åĲĬæ¡¥è¾¹
çŁ¥ äºº
çŁ¥ æŃ¤
çŁ¥ åħ¬
çŁ¥ æ±Ŀ
çŁ¥ ä¼ļ
çŁ¥ çĪ¶
çŁ¥ ç¤¼
çŁ¥ éŃıåħµ
çŁ¥ åĲ¦
çŁ¥ æĽ¹åħµ
çŁ¥ éŃıçİĭ
çŁ¥ åľ°çĲĨ
çŁ¥ äºĭæĢ¥
çŁ¥ æľīåĩĨå¤ĩ
å¤© äºº
å¤© åħµ
å¤© å·²
å¤© å¤ĸ
å¤© éĽ¨
å¤© å¯Ĵ
å¤© éĻħ
å¤© åħ¬å°ĨåĨĽ
åįģ åıª
åįģ èĥľ
åįģ ä¹Ŀ
åįģ ä¸Ī
åįģ æķ°ä¸ĩ
åįģ è¾Ĩ
çļĨ èµ·
çļĨ éĻį
çļĨ è¦ģ
çļĨ çĿĢ
çļĨ å±ħ
çļĨ ä¸įå¾Ĺ
çļĨ ä¸ĭé©¬
çļĨ ç©º
çļĨ éĽĨ
çļĨ ç©¿
çļĨ å¤§ç¬ĳ
çļĨ æİ©éĿ¢
äºĭ ä¸»
äºĭ ä¹İ
äºĭ éĻĽä¸ĭ
äºĭ åıĺ
äºĭ åĪĺè±«å·ŀ
äºĭ åħ¶ä¸»
æĦ į
åĸ ŁçĦ¶
éķ «
éķ ¶
å¿ħ è¡Į
å¿ħ åĸľ
å¿ħ æĢĴ
å¿ħ æĪĲ
å¿ħ å¼ķåħµ
å¿ħ æĬķ
å¿ħ åıį
å¿ħ è½»
å¿ħ éĢŁ
å¿ħ ä¸įä»İ
å¿ħ èĩ³çŁ£
å¿ħ èİ·å¤§èĥľ
æ±Ŀ åİ»
æ±Ŀ æĺ¯
æ±Ŀ å¸Ī
æ±Ŀ é¡»
æ±Ŀ ä¸įå¾Ĺ
æ±Ŀ ä½ķæķħ
æ±Ŀ çĭ¬
æ±Ŀ èĭ¥ä¸į
æ±Ŀ èĤī
æ±Ŀ ä¹ĭåĬŁ
æ±Ŀ æĺ¯ä½ķäºº
æĹ¶ è¿ĳ
æĹ¶ è¢ģç»į
æĹ¶ å¸¸
æĹ¶ åĩ»ä¹ĭ
æĹ¶ å»ºåħ´
æĹ¶ å¤©æ°Ķ
å½ĵ éĻį
å½ĵ å¦Ĥä½ķ
å½ĵ è¯Ľ
å½ĵ èĭ¥ä½ķ
éŃı ä¹Ł
éŃı å¿ħ
éŃı äºĮäºº
éŃı å®¶
éŃı åĨĽä¸Ń
éŃı éĤĪ
éŃı ä¸İåĲ´
èį §
åıĪ åĸľ
åıĪ æķĻ
åıĪ å¼ķåħµ
åıĪ å°ģ
åıĪ ä¸Ģäºº
åıĪ åĵŃ
åıĪ å¯Ĩ
åıĪ åı¬
åıĪ ç½®
åıĪ éĢī
åıĪ éģŃ
åıĪ è´¥èµ°
åıĪ åĺ±
åıĪ åĩºç¥ģå±±
åıĪ æ·»
åıĪ å¤±äºĨ
åĪĺ ä¸ŀ
åĪĺ èįĨå·ŀ
åĪĺ æĶ¾
åĪĺ å¤«äºº
åĪĺ éĻ¶
åĪĺ èĻŀ
åĪĺ çĽĬå·ŀ
åĪĺ ä¸¤å®¶
åĪĺ æ³Į
å·² åħĪ
å·² ä½¿
å·² èµ°
å·² è®¸
å·² è¿ĳ
å·² å·®
å·² åįĬ
å·² æĸŃ
å·² ç½¢
å·² çģŃ
å·² ç»ı
å·² æĭĨ
å·² è¡°
å·² ç®Ĺå®ļ
å·² åİĨä¸īä¸ĸ
åıª ä¸Ģ
åıª çĶ¨
åıª é¢Ĩ
åıª èº«
åıª æĦ¿
åıª åı«
åıª ç´¢
èĭ¥ åİ»
èĭ¥ ä»¤
èĭ¥ åľ¨
èĭ¥ åħĪ
èĭ¥ çŃī
èĭ¥ ä»İ
èĭ¥ åĲ¬
èĭ¥ äºĮäºº
èĭ¥ æĪĲ
èĭ¥ æĸ©
èĭ¥ å¤±
èĭ¥ ä¸įèĥ½
èĭ¥ å¤į
èĭ¥ æĽ´
èĭ¥ åĪĺå¤ĩ
èĭ¥ è¿ĺ
èĭ¥ ä¸¾
èĭ¥ ä¸įå¾Ĺ
èĭ¥ éĢ¼
èĭ¥ æĹłäºº
èĭ¥ åħ¶ä¸į
å±± ä¸į
å±± ä¹Ł
å±± åĤį
å±± ä¹ĭä¸Ĭ
å±± å²Ń
å±± å´©
å±± åĨĪ
æĬ¥ ä¹İ
æĬ¥ åı¸é©¬æĺŃ
æĬ¥ åħĪå¸Ŀ
æĬ¥ çĪ¶ä»ĩ
ä¼Ĺ ä½į
ä¼Ĺ éħĭéķ¿
äºĳ ä¹ĥ
äºĳ æĢ¥
äºĳ æ±ī
äºĳ è°ĵ
äºĳ æĶ¶
äºĳ ä¸ĭé©¬
äºĳ éĽĨ
æ¬² æĪĺ
æ¬² åĮĹ
æ¬² çĮ®
æ¬² éĻ¤
æ¬² å°Ĭ
æ¬² æĭĶåīĳ
æ¬² éĻ·
æ¬² æĪĲåĬŁ
æ¬² åĿł
æ¬² åħĪåıĸ
æ¬² ä½ķå¾Ģ
æ¬² è¿ģéĥ½
æ¬² å°½è¯Ľ
æ¬² æĶ¶åħµåĽŀ
åį´ ä¸İ
åį´ å¾Ĺ
åį´ æĹ©
åį´ æĶ¾
åį´ éģĩ
åį´ è§ģçİĦå¾·
æŃ£ åı¯
æŃ£ æĹł
æŃ£ æľĽ
æŃ£ éģĵ
æŃ£ é¡»
æŃ£ æĹ¦
æŃ£ æ²¡
æŃ£ æĥĬçĸĳ
æŃ£ æ²īåĲŁ
æŃ£ ä¸ºæŃ¤
æĪĺ äºİ
æĪĺ äºĨ
æĪĺ èĩ³
æĪĺ æĹ¶
æĪĺ å£«
æĪĺ éĢĢ
æĪĺ åĪĻ
æĪĺ åĬŁ
æĪĺ é©¬è¶ħ
æĪĺ åħ·
æĪĺ ä¸īåįģä½ĻåĲĪ
æĪĺ èĪ°
ä½¿ æĿ¥
ä½¿ æĵį
ä½¿ æĽ¹æĵį
ä½¿ å¤ĩ
ä½¿ è´¼
ä½¿ å¼Ł
ä½¿ å¤ıä¾¯æĥĩ
ä½¿ éŃıäºº
ä½¿ ä¸Ģåı£
è·¯ è¿ĩ
è·¯ èĢĮèµ°
è·¯ æĿĢæĿ¥
å¯¨ æĹ¶
å¯¨ åı£
å¯¨ äººé©¬
éķ¿ æĸĩ
éķ¿ ä¹Ĳ
éķ¿ äºŃ
éķ¿ é«¯
éķ¿ åĲģ
çİĭ å¸Ī
çİĭ èĤĥ
çİĭ æ°Ķ
çİĭ æ°ı
çİĭ æĥĩ
çİĭ ä¿®
çİĭ æ²Ī
çİĭ ç²²
çİĭ é¢Ģ
çİĭ åŀķ
çİĭ ç¾İäºº
æ³ ŀ
å·ŀ æ³°
åŃĻ æŃ¦
åŃĻ äº®
åŃĻ å¼Ĥ
åŃĻ çļİ
åŃĻ åŃĲäºĳ
å®ī äºİ
å®ī çĦ¶
å®ī åĸľ
å®ī åĿĲ
å®ī ä¸°
å®ī éĹ²
éģĤ éĻį
éģĤ è¿İ
éģĤ äº²
éģĤ å¤į
éģĤ è§£
éģĤ å¯Ĩ
éģĤ åĨ³
éģĤ åħ¥åŁİ
éģĤ èµ·åħµ
éģĤ çİĩ
éģĤ éģ£äºº
éģĤ æĶ¶åħµ
éģĤ èµ·èº«
éģĤ ä¸Ĭè¡¨
éģĤ éĤĢ
éģĤ ä¿®ä¹¦
éģĤ è¯·çİĦå¾·
éģĤ ä½ľä¹¦
éģĤ è®¾å®´çĽ¸å¾ħ
éģĤ åĤ¬åĨĽ
çº ±
çº Ľ
å¿ĥ å¤ļ
å¿ĥ èĢ³
å¿ĥ æľį
å¿ĥ å¿µ
å¿ĥ èĥĨ
å¿ĥ çªĿ
å¿ĥ çĶŁä¸Ģè®¡
éĹ® æĪĳ
éĹ® éļ¾
éĹ® ä¹ĭæĽ°
éĹ® å¸Ĳä¸ĭ
éĹ® ä¼Ĺå°ĨæĽ°
éĹ® å§ĵåĲį
éĹ® æĺ¯è°ģ
éĹ® å·¦åı³æĽ°
éĹ® è´¾è¯©æĽ°
éĹ® åĲĳå¯¼å®ĺæĽ°
é¢ Ĭ
åıĸ å°ıè·¯
åıĸ æ¨ĬåŁİ
åıĸ éĶ¦è¢į
åıĸ æ°ĳéĹ´
åıĸ æŃ¦éĻµ
éļ ħ
èµ· äºİ
èµ· èĩª
èµ· äºĭ
èµ· é©¾
èµ· åºĬ
èµ· ä¸Ĭåº¸
èµ· åĢ¾åĽ½ä¹ĭåħµ
æŃ» æīĢ
æŃ» ä¹İ
æŃ» èĬĤ
æŃ» å°¸
æŃ» æĹłçĽĬ
èĢħ ä¸»
èĢħ ä¸įè¿ĩ
èĢħ æĺ¯è°ģ
è¡Į äºİ
è¡Į å¤©
è¡Į èĢħ
è¡Į è®¡
è¡Į èĲ¥
è¡Į ä¸ĥ
è¡Į åĩ¶
è¡Į åĪĳ
å®Ī ä¹Ł
å®Ī ä¹ī
å®Ī æĪĲéĥ½
å®Ī ç¥ģå±±
å®Ī è®¸éĥ½
å®Ī åı°
å®Ī ä¸įä½ı
å®Ī æ¨ĬåŁİ
å®Ī åĿĽ
å®Ī å°ıæ²Ľ
å®Ī åħĸå·ŀ
å®Ī æ±ĿåįĹ
å®Ī éĻĩè¥¿
å®Ī å®ĺæ¸¡
å®Ī æŃ¤åŁİ
å®Ī ç»µç«¹
å®Ī å¢ĵ
å®Ī éĺĨä¸Ń
åĲ´ ä¸Ń
åĲ´ å¯¨
åĲ´ èĪ¹
åĲ´ æ°ĳ
åĲ´ å¢ĥ
åĲ´ è´¨
åĲ´ çº²
åĲ´ çĭĹ
åĲ´ æķ¦
ä¿ ¸
ä¿ ¾
å°ĨåĨĽ ä¸İ
å°ĨåĨĽ ä¸Ķ
å°ĨåĨĽ åĻ¨
å°ĨåĨĽ åį°
æĽ¹æĵį æľī
æĽ¹æĵį æĺ¯
æĽ¹æĵį çŁ¥
æĽ¹æĵį åĳ½
æĽ¹æĵį å¤Ħ
æĽ¹æĵį æķĻ
æĽ¹æĵį èĻ½
æĽ¹æĵį åħ¥åŁİ
æĽ¹æĵį äº²èĩª
æĽ¹æĵį å¿ħçĦ¶
æĽ¹æĵį éĹ»ä¹ĭ
æĽ¹æĵį æĶ¶åĨĽ
æĽ¹æĵį å¥¸éĽĦ
æĽ¹æĵį ä¸ºéŃıçİĭ
æĮ Ŀ
æĮ ł
éª ¸
éª ļ
çŃī äºº
çŃī éĥ½
çŃī ä¿±
çŃī åĻ¨
çŃī ä¸īåįģä½Ļäºº
ä¾¿ äºİ
ä¾¿ ä»¥
ä¾¿ åĪ°
ä¾¿ æŃ»
ä¾¿ æĬĬ
ä¾¿ å¥½
ä¾¿ å®ľ
ä¾¿ è¿ŀå¤ľ
ä¾¿ åĽ¾ä¹ĭ
ä¾¿ è·³
çģ °
åĪĨ äºİ
åĪĨ è·¯
åĪĨ äºī
åĪĨ æĻĵ
åĪĨ å´©
åĪĨ äºĶè·¯
åĳ½ äºº
åĳ½ ä¸º
åĳ½ å°½
åĳ½ æĸ©ä¹ĭ
åĳ½ æŃ¦å£«
åĳ½ çīµåĩº
ä¹¦ åĪ°
ä¹¦ å¤§æĢĴæĽ°
ä¹¦ è®°
ä¹¦ ä¸Ģå°ģ
å£« ä¹Ł
ä»İ åħ¬
ä»İ åīį
ä»İ æĿĥ
ä»İ åľ°
ä»İ åŁİä¸Ĭ
ä»İ å·¦è¾¹
ä»İ æĸľè°·
ä»İ å±±åĥ»å°ıè·¯
ä»İ éĤ£æĿ¡è·¯
ä»İ å±ıåĲİ
ä»İ è¾°æĹ¶
éĤ Ļ
éĤ ¸éĺģ
æľª åİ»
æľª åĪĨ
æľª å¾Ģ
æľª å¹³
æľª æĪĲ
æľª è¶³
æľª è¿ĺ
æľª å®ģ
æľª éĻ¤
æľª æ¶Ī
æľª å¤®
æľª åĩºèĮħåºĲ
è¯¸ å¯¨
è¯¸ å¼Ł
è¯¸ åİ¿
è¯¸ æĸĩæŃ¦
å² Ĳ
æĻ ¤
èĪ µ
å¸ĥ ä¹ĭ
å¸ĥ ä»¤
å¸ĥ è¯·
å¸ĥ æĪĲ
å¸ĥ å¤§æĢĴ
å¸ĥ è¡£
å¸ĥ ä»İä¹ĭ
å¸ĥ è¢į
å¸ĥ æĹłå¿ĥæģĭæĪĺ
èĤ ¢
èĤ ĵ
èľĢ ä¹ĭ
èľĢ ä¹Ł
èľĢ çŁ£
èľĢ å¸Ŀ
èľĢ éĥ¡
èľĢ éĶ¦
èľĢ éĥ¡å¤ªå®Ī
èľĢ èĲ¥åĨħ
ç¬ Ľ
æ² ¦
æ² ½
ä¸ľ ä¸ĭ
ä¸ľ åħ³
ä¸ľ åıĸ
ä¸ľ åĨ²
ä¸ľ æľīåŃĻæĿĥ
æĿĥ è§ģ
æĿĥ ä¹ĥ
æĿĥ éĹ»
æĿĥ å¤§æĥĬ
æĿĥ éĹ®æĽ°
æĿĥ æĳĦ
æĿĥ éĹ®ä½ķäºº
æĿĥ æŁĦ
é£ŀ ä¸Ĭ
é£ŀ åħ¥
é£ŀ äº¦
é£ŀ èħ¾
é£ŀ æĢĴæĽ°
é£ŀ èº«ä¸Ĭ
é£ŀ çĨĬ
æĢ¥ æĬ¥
æĢ¥ è¡Į
æĢ¥ å¾Ģ
æĢ¥ ä¸įåı¯
æĢ¥ å¼ķåħµ
æĢ¥ æĶ»
æĢ¥ æĬķ
æĢ¥ éģ£
æĢ¥ å¼ķåĨĽ
æĢ¥ æĭĶ
æĢ¥ åĽŀæĬ¥
æĢ¥ æľªåı¯
æĢ¥ åĽŀåĨĽ
æĢ¥ åĭĴåħµ
æĢ¥ æĬ«æĮĤä¸Ĭé©¬
æĢ¥ åĤ¬åħµ
æĢ¥ é¸£éĩĳæĶ¶åĨĽ
æĢ¥ èģļä¼Ĺå°ĨåķĨè®®
è¿Ľ æĿ¥
è¿Ľ åīį
è¿Ľ åĪĻ
è¿Ľ å°ģ
è¿Ľ çĮ®
è¿Ľ è®¡æĽ°
éĿ¢ ä¹ĭäº¤
éĿ¢ é¢Ĭ
åįĹ åĨĽ
åįĹ é£ŀ
åįĹ èĪ¹
åįĹ è°·
åįĹ åĲĳ
åįĹ éĹ¨å¤ĸ
éĹ» æľī
éĹ» åĲ´
éĹ» åŃĻæĿĥ
éĹ» ä¸ľåĲ´
éĹ» è¾¾
éĹ» å¤©åŃĲ
éĹ» é²ģèĤĥ
éĹ» çļĩåıĶ
éĹ» æŃ¤ä¿¡
èµ° æ³Ħ
èµ° éĢı
èĥ½ ä½¿
èĥ½ èĢħ
èĥ½ æķĳ
èĥ½ åĪ¶
åĽĽ èĩ³
åĽĽ åĪĨ
åĽĽ åĽ´
åĽĽ å®Ŀ
åĽĽ äºĶçĻ¾
åĽĽ æ³ī
åĽĽ åįģä½Ļäºº
åĽĽ åįĥä½Ļäºº
æķ° å¤Ħ
æķ° å°º
æķ° è´¥äºİ
èĩ£ ä¸ĭ
èĩ£ ä¹Ł
èĩ£ ä¸İ
èĩ£ æķħ
èĩ£ äº¦
èĩ£ èĻ½
èĩ£ æīį
èĩ£ å®°
çĻ¾ ä¸ĸ
çĻ¾ æŃ¥
çĻ¾ èĬ±
çĻ¾ æĹłä¸Ģ
çī Ī
æ¸ ĳæ±ł
åį³ çĶ¨
åį³ å¼ķåħµ
åį³ ä»¤äºº
åį³ éĻ¤
åį³ å·®äºº
åį³ æıĲåħµ
åį³ èµ·èº«
åį³ ä»¥æŃ¤
åį³ åĪĨåħµä¸¤è·¯
åį³ åħ·è¡¨
å¿½ åĪ°
å¿½ éģĩ
å¿½ ä½¿åĳ½
å¿½ çıŃéĥ¨ä¸Ń
é» ľ
ä¸¤ åħµ
ä¸¤ å¯¨
ä¸¤ éĥ½
ä¸¤ åĽ½
ä¸¤ éªĳ
ä¸¤ éĥ¡
ä¸¤ æľĿ
ä¸¤ æľĪ
ä¸¤ æĬĬ
ä¸¤ åħ¨
ä¸¤ å²¸
ä¸¤ éªĳé©¬
éĥ½ æľī
éĥ½ éĹ¨
éĥ½ åłĤ
å¾Ģ ä¸ĭ
å¾Ģ è¥¿
å¾Ģ æĪĲéĥ½
å¾Ģ æ´Ľéĺ³
å¾Ģ å°ıæ²Ľ
å¾Ģ å±±ä¸Ń
å¾Ģ è¯´ä¹ĭ
å¾Ģ å±±ä¸ľ
å¾Ģ äº¬å¸Ī
æ±Ł é²Īé±¼
å¤ĩ è¯·
å¤ĩ åĲĮå®Ĺ
æīĢ è¡Į
æīĢ éĹ»
æīĢ è¯·
æīĢ æĸ©
æīĢ åĵŃ
æīĢ ä¼ł
æīĢ å¤º
æīĢ å±ħ
æīĢ å¿§
æīĢ è¾±
æīĢ ç®Ĺ
æīĢ è¿·
æīĢ æĥĳ
æīĢ æģ¨èĢħ
æīĢ åºĦéĻ¢
äºĶ æ¬¡
äºĶ æĸĹ
äºĶ å²ģ
äºĶ åĩ¤
äºĶ å¯¸
äºĶ æºª
å¹³ äºĨ
å¹³ çŁ£
å¹³ åĮĹ
å¹³ å·Ŀ
å¹³ åĲŀ
éĢĢ éģ¿
éĢĢ åħ¥åŁİä¸Ń
æľĽ åį³
æľĽ èįĨå·ŀ
æľĽ éĥ½çĿ£
æľĽ åŁİä¸Ń
æľĽ åħĪçĶŁ
æľĽ ç¥ģå±±
æľĽ ä¸ľåįĹ
æľĽ æĸľè°·
æľĽ éĻĩè¥¿
æľĽ è¥¿åĮĹ
æľĽ éĺ³å¹³åħ³
æľĽ æľ¬éĺµ
æľĽ æĬ¥ä¹İ
éĹ¨ æ¥¼
ä¸ĩ åĭ¿
ä¸ĩ åĮ¹
ä¸ĩ ä¸ĸä¹ĭ
ä¸ĩ å¹¸ä¹Ł
æ±ī èĩ£
æ±ī åĲĽ
æ±ī ç»Ł
æ±ī å¤©åŃĲ
æ±ī ç¦ħ
æķħ ä½¿
æķħ è¡Į
æķħ ä½ľ
æķħ èĢ³
æķħ ä¸įæķ¢
æķħ åĲı
æķħ ä¹¡
æķħ æľªæķ¢
å¤ª èĻļ
å¤ª åĴĮ
å¤ª åĮ»
å¤ª çī¢
åĢ ¡
ç§ ¬
æĸ¹ æĿ¥
æĸ¹ ä¾¿
æĸ¹ è®¸
æĸ¹ æ¯ķ
æĸ¹ å¼Ģ
æĸ¹ åħį
æĸ¹ éĶĲ
æĸ¹ å¯¸
æĸ¹ çŁ¥æĺ¯
çĶŁ èĢħ
çĶŁ å¹³
çĶŁ ç¿¼
çĶŁ åĽĽåŃĲ
çĶŁ çĸ¾çĹħ
çķ ĭçĮİ
å¤Ħ æĸ©
å¤Ħ æ²»
æĸĩ èĭ¥
æĸĩ èĻİ
æĸĩ æĪ¿
æ°´ èĢħ
æ°´ ä¸įåı¯
æ°´ ä¸ĭå¯¨
æ°´ æĹ±
æ°´ åıł
æ°´ æ³Ľ
éĻį æĽ¹æĵį
éĻį ç¥ŀ
éĻį é¡º
çĶ¨ äºĭ
çĶ¨ è°ĭ
çĶ¨ è½¦
çĶ¨ åĬĽ
çĶ¨ æŀª
çĶ¨ å¤©åŃĲ
çĶ¨ éĿĴ
çĶ¨ ç´¢
çĶ¨ åħ¶è®¡
çĶ¨ æĭĸåĪĢ
å°ı åı¯
å°ı è®¡
å°ı æ°ĳ
å°ı åĪ©
å°ı æŀĿ
å°ı çĸ¾
å°ı éº¦
å°ı ä¹Ķ
åĲĦ åĩº
åĲĦ è¨Ģ
åĲĦ å°½
åĲĦ å¼ķåĨĽ
åĲĦ è®¾
åĲĦ èµĲ
åĲĦ éĢĥ
åĲĦ åĬł
åĲĦ éľ¸
åĲĦ æĢĢ
åĲĦ éķĩ
åĲĦ è¯ī
åĲĦ å¼ķä¸īåįĥ
åĲĦ ç½¢åħµ
åĲĦ è·¨
åĲĦ äºĭåħ¶ä¸»
çĪ ¨
åį´è¯´ éŃı
åį´è¯´ å¤ıä¾¯æĥĩ
åį´è¯´ éŃıä¸»
åį´è¯´ æĽ¹æ´ª
åį´è¯´ åĪĺçĴĭ
åį´è¯´ åı¸é©¬æĺŃ
åį´è¯´ åºŀç»Ł
åį´è¯´ åĪĺçİĦå¾·
åį´è¯´ æ±īä¸Ńçİĭ
åį´è¯´ è¢ģå°ļ
åį´è¯´ æ¯ĭä¸ĺä¿Ń
åį´è¯´ éŃıä¸»æĽ¹çĿ¿
åį´è¯´ ç«łæŃ¦
è¥¿ å¯¨
è¥¿ å·ŀ
è¥¿ éĥ½çĿ£
è¥¿ å¾ģ
è¥¿ çªģ
è¥¿ çķª
å£° ä¸įç»Ŀ
å°½ ä¸º
å°½ å½Ĵ
å°½ æĶ¶
å°½ å¸¦
å°½ æīĵ
å°½ ç»Ŀ
å°½ æĥħ
å°½ æĿĢä¹ĭ
å°½ åºŁ
å°½ å±ŀ
å°½ çĺ
å°½ æ¹¿
å°½ åİ»åħ¶ç¼ļ
æķ¢ ä¹±è¨Ģ
ä½Ļ ä¼ĹçļĨ
ä½Ļ æĿŃ
é»Ħ åı£
é»Ħ é¡»
é»Ħ åĪĿ
é»Ħ æĿĥæĽ°
é»Ħ ç½Ĺ
æĥĬ æģĲ
æĥĬ æĢª
æīĭ æ®µ
ç¦ §
è®® å¤§äºĭ
å¤ľ èµ°
å¤ľ å®¿
å¤ľ ä½ľä¸Ģ
è´¥ å°Ĩ
è´¥ åĪĻ
äº¦ å°Ĩ
äº¦ èĩª
äº¦ åıª
äº¦ ä¿±
äº¦ è°ıæĽ°
äº¦ æĭĶåīĳ
æ· ¡
åĲķ æľĽ
åĲ¬ è®¡
åĲ¬ åĳ½
åĲ¬ è°ĥ
åĲ¬ åĲ¾è¨Ģ
æĩ¿ éĹ®æĽ°
æĩ¿ åı¹æĽ°
æĩ¿ ä»İä¹ĭ
æĩ¿ å¤§åĸľæĽ°
æĩ¿ åĶ¤åħ¥
æĩ¿ åıĹåĳ½
æĩ¿ å¤§æĥĬå¤±èī²
è¯· æŃ»
è¯· ä½ı
è¯· èĤĥ
è¯· å§ľç»´
è¯· åĴĮ
è¯· åºŀç»Ł
è¯· è¾Ĥ
è¯· æ±īä¸Ńçİĭ
è¯· éĻĪçĻ»
è¯· äºĮå¤«äºº
è¢« ä»¥
è¢« æĸ©
è¢« èľĢåħµ
è¢« å¼łé£ŀ
è¢« å²±
è¢« é»Ħå¿ł
è¢« åºŀå¾·
è¢« è®¸è¤ļ
è¢« è´£
è¢« åħ³å¹³
è¢« åįİéĽĦ
è¢« çģ«çĥ§
è¢« ä¹±åĨĽæīĢæĿĢ
åĽ½ å£«
åĽ½ æĪļ
ç½ ²
ä¸Ķ åĪ°
ä¸Ķ æķĻ
ä¸Ķ å®¹
ä½ı æķ°æĹ¥
ä½ı éĺµè§Ĵ
å¸Ŀ çŁ¥
å¸Ŀ æĹ¶
å¸Ŀ å¿ĥ
å¸Ŀ éĹ®
å¸Ŀ åĳ½
å¸Ŀ å°ģ
å¸Ŀ å¤§æĥĬ
å¸Ŀ å·¦åı³
å¸Ŀ æĪĺæłĹ
è´¼ å¿ħ
è´¼ éĺµ
åĸľ å¾Ĺ
é¢Ĩ çĿĢ
é¢Ĩ ç²¾åħµ
é¢Ĩ æľ¬éĥ¨
é¢Ĩ äºĶåįĥåħµ
é¢Ĩ ä¸īä¸ĩåĨĽ
é¢Ĩ åı¸éļ¶æł¡å°ī
é¢Ĩ çĽĬå·ŀçī§
é¢Ĩ èįĨå·ŀçī§
åı¸é©¬ éĥ½çĿ£
åı¸é©¬ ä»²è¾¾
åı¸é©¬ å¾½
åı¸é©¬ å¾·æĵį
è®¸ ä¹ħ
è®¸ åĴĮ
å·¦ å¯¨
å·¦ è´¤
å·¦ èħ¿
å¿ł åıĪ
å¿ł çĥĪ
ä¸įåı¯ å¤§
ä¸įåı¯ è¨Ģ
ä¸įåı¯ ä¾¿
ä¸įåı¯ å¤ļ
ä¸įåı¯ çķĻ
ä¸įåı¯ ä¸ĢæĹ¥
ä¸įåı¯ å¿į
ä¸įåı¯ è¿Ŀ
ä¸įåı¯ éĶĻ
ä¸įåı¯ æµĭ
ä¸įåı¯ ä¹ħå±ħ
ä¸įåı¯ æĢłæħ¢
ä¸įåı¯ ä¸İæķĮ
çĳľ ä»¥
çĳľ éĹ®
çĳľ äº¦
çĳľ è°ĵ
çĳľ å¤§æĢĴ
çĳľ å¤§æĥĬ
çĳľ éĹ®æĽ°
çĳľ æĢĴæĽ°
äºĮäºº ä¹ĥ
äºĮäºº åħ¥
äºĮäºº å¼ķåħµ
äºĮäºº å¸¦
äºĮäºº åİ»äºĨ
äºĮäºº æĦŁ
äºĮäºº åĳĬæĽ°
äºĮäºº ä¹ĭå¤´
å¤« å¦ĩ
åĲį éĹ»
åĲį éľĩ
åĲį åĲī
åĲį åŀĤ
åĲį èªī
å¾ħ åħ¬
å¾ħ å®¢
å¾ħ ä»¥ä¸Ĭå®¾ä¹ĭç¤¼
å¾Ĳ åķĨ
å¾Ĳ éĥ¡
è¢ģ åħ¬
è¢ģ å°ĨåĨĽ
è¢ģ éģĹ
å®ĺ éģĵ
å®ĺ æİĪ
å®ĺ è¯°
å®ĺ åħµå°Ĩå£«
é¦ Ī
ç»´ ä¹ĥ
ç»´ èĩª
ç»´ ä»İä¹ĭ
ç»´ å¤§æĥĬæĽ°
ç»´ èĩªå¼ķåħµ
éĿŀ åħ¶
éĿŀ æ±Ŀ
éĿŀ æĽ¹æĵį
éĿŀ åĳ½
éĿŀ å¤«äºº
éĿŀ è½»
éĿŀ åŃĲé¾Ļ
éĿŀ åĩ¡
éĿŀ åį§é¾Ļ
éĿŀ æīĢä»¥
éĿŀ ä¿Ĺ
éĿŀ æ±Ŀä¹ĭ
éĿŀ å®¹æĺĵ
éĿŀ åĪĺå¤ĩæķĮæīĭ
éĿŀ æīĢå®ľä¹Ł
æķĻ äºº
æķĻ æ±Ŀ
æķĻ æŁĲ
æķĻ å·¦åı³
æķĻ æĬĬ
æķĻ æ¼Ķ
æķĻ ç»ĥæ°´åĨĽ
åĨħ ä¸Ģ
åĨħ ä¸Ń
åĨħ ä¸Ģäºº
åĨħ å®¤
åĨħ æĬ«
åĨħ è½¬åĩº
éħ ¥
éħ ī
ä¸ŀçĽ¸ èĩª
ä¸ŀçĽ¸ çŁ£
ä¸ŀçĽ¸ åĳ½
ä¸ŀçĽ¸ ä¹ĭè¨Ģ
ä¸ŀçĽ¸ å¤§åĨĽ
ä¸ŀçĽ¸ çĶ¨åħµ
ä¸ŀçĽ¸ ä¹ĭåĳ½
ä¸ŀçĽ¸ åľ¨æĹ¥
ä¸ŀçĽ¸ å¼łæĤĮ
éģĵ ä¹Ł
éģĵ æĹģ
èº« ä¸º
èº« æķħ
èº« è¡£
èº« ä¹ĭåľ°
èº« èº¯
ç«ĭ å¯¨
ç«ĭ åºĻ
ç«ĭ èĦļ
ç«ĭ åĹ£
å¤ļ äºº
å¤ļ éĹ®
å¤ļ ç«ĭ
å¤ļ æīį
å¤ļ æĽ¾
å¤ļ è´Ł
å¤ļ ç«ĭåĬŁ
çľĭ å¾Ĺ
çľĭ ä¹¦
çľĭ éĹ´
çľĭ è§Ĩ
çľĭ ä»Ĭå¤ľ
çľĭ è§ĳ
åĲĮ æĹ¥
åĲĮ äºĭ
åĲĮ å£°
åĲĮ åıĹ
åĲĮ åĿĲ
åĲĮ è§Ĥ
åĲĮ çĲĨ
åĲĮ åĪĹ
ä¼ı èĩª
ä¼ı æľĽ
ä¼ı åīĳ
ä¼ı ä¾į
åºĶ åľ¨
åºĶ æī¿
åºĶ å¯¹
åºĶ åĬŃ
æķĳ æĹ¶
æķĳ æ°ĳ
æķĳ éļ¾
æķĳ åħµèĩ³
æķĳ åħµä¸įèĩ³
æŃ¦ åħ³
æŃ¦ äºĭ
æŃ¦ å®ĺ
æŃ¦ åºĵ
æĪĲ å»ī
æĪĲ å¤§ä¸ļ
æĪĲ çİĭéľ¸
æĪĲ çļĭ
æĪĲ å¸Ŀä¸ļ
åĳ¨ æĺĵ
åĳ¨ æĸĩçİĭ
åĳ¨ æĺķ
åĳ¨ æ¯ĸ
å¤ı äºĶæľĪ
å¤ı æģĤ
åħ³åħ¬ æīĢ
åħ³åħ¬ ä¸ĭé©¬
åħ³åħ¬ åĤ¬
åħ³åħ¬ é¦ĸçº§
åħ³åħ¬ éĹ»è¨Ģ
åħ³åħ¬ åĭĴé©¬
åħ³åħ¬ åħµè´¥
åħ³åħ¬ æĢ¥æŃ¢ä¹ĭæĽ°
åħ³åħ¬ ä¸İåŃĻä¹¾
åħ³åħ¬ æĺ¾åľ£
æŁĲ äºİ
æŁĲ è§ģ
æŁĲ çŁ¥
æŁĲ è¯·
æŁĲ éĿŀ
æŁĲ äº²
æŁĲ å¥ī
æŁĲ æīį
æŁĲ æĿĢä¹ĭ
æŁĲ èĩªå¹¼
ç»į åħµ
ç»į çŃī
ç»į å¤§åĸľ
ç»į éŃıç»Ł
çŃĸ æĢĴæĽ°
çŃĸ è§Ĩåħ¶äºº
çŃĸ é©¬åīį
æĭľ äºĳéķ¿
æĭľ æ±Ĥ
æĭľ è§ģæĽ¹æĵį
å®ļ ä¸ĭ
å®ļ äºĨ
å®ļ æķ°
å®ļ è®®
å®ļ åĽ½
çģ« åĬ¿
çģ« çĦļ
çģ« ç§į
è¿ĩ äºİ
è¿ĩ èĪ¹
è¿ĩ èĨĿ
è¿ĩ èªī
åĲĪ ä¸º
åĲĪ æŃ»
åįĥ è½½
åı³ åĩº
å¹´ è¿ĳ
å¹´ ä¸īåįģ
å¹´ é½¿
æĸ© ä¹Ł
æĸ© è®«
æĸ© å¼łæĿ¾
æĸ© çİĭåıĮ
éĺµ ä¹Ł
éĺµ åľĨå¤Ħ
éĩĮ åĲī
ç¾ ģ
å®¶ æľī
å®¶ éĹ¨
å®¶ è´¢
å®¶ è´«
èµ¶ äºĨ
å¼ķåħµ åĽŀ
å¼ķåħµ æĿĢæĿ¥
å¼ķåħµ åĩºè¿İ
å¼ķåħµ æķ°ä¸ĩ
å¼ķåħµ è¿½æĿ¥
å¼ķåħµ åĨ²åĩº
å¼ķåħµ ä¸Ģä¸ĩäºĶåįĥ
åı£ åĩºæĢ¨è¨Ģ
ç¬ĳ è°Ī
ä½ľ è¡¨
ä½ľ åķĨè®®
ä½ľ ç¥¸
ä½ľ åīįéĺŁ
ä½ľ çİĦæŃ¦
ä½ľ ä½ķä¸¾åĬ¨
æĶ» ä¹Ł
æĶ» åĪĺå¤ĩ
æĶ» æĭĶ
æĶ» åħ¶åĲİ
æĶ» åĮĹåİŁ
åĪĢ åħµ
åĪĢ çºµé©¬
åĪĢ èµ´ä¼ļ
åĪĢ çłįæŃ»
å¹¶ åħ¶
å¹¶ æīĢ
å¹¶ è½¦
å¹¶ ä¸įæķ¢
å¹¶ ä¸¾
å¹¶ ä¸įæĽ¾
é«ĺ å¤Ħ
é«ĺ å¸Ŀ
é«ĺ åĲį
é«ĺ ä¹ī
é«ĺ å§ĵ
é«ĺ äºĮå°Ĩ
é«ĺ åį§
é«ĺ è®º
é«ĺ è´µ
é«ĺ åįģä¸Ī
ä¼ļ ä¼Ĺ
ä¼ļ è®®
ä¼ļ æİ¥
ä¼ļ å¤§åĸľ
ä¼ļ é¥®
åĽł å¾Ĺ
åĽł éĹ»
åĽł æĢĿ
åĽł è°ı
åĽł æĥ§
åĽł éħĴéĨī
çĲ ĥ
å»¶ ä¹ĭ
å»¶ çĨĻ
å»¶ æ´¥
æ¬¡ å¤ľ
æ¬¡ æĹ©
å¤´ èĲ¥
è¿İ è§ģ
è¿İ çİĦå¾·
äº² ä¸İ
äº² åİ»
äº² å¥³
äº² æį§
äº² æĪļ
åĮĹ ä¸īéĹ¨
åĮĹ éĤĻ
åĤ ¨
å¤ĸ äºĭ
å¤ĸ éĿ¢
å¤ĸ æīĺ
è¿½ æĢĿ
èµµ æľĪ
èµµ å½¦
èµµ è¡¢
äºĳéķ¿ ä¹ĭ
äºĳéķ¿ åİ»
äºĳéķ¿ å¤§åĸľ
äºĳéķ¿ éĹ®æĽ°
äºĳéķ¿ èµ¶æĿ¥
éĹ´ æľī
åĲĽ ä»¥
åĲĽ åħ¶
åĲĽ çİĭ
åĲĽ æģ©
èĪ¹ å¦Ĥ
èĪ¹ è¾¹
èĪ¹ å°¾
è°ĭ éĢĨ
è¡¨ çķ¥æĽ°
èĥľ äºİ
èĥľ åĲ¾
åĬ¿ åĬĽ
éĻĪ çĶŁ
éĻĪ åºĶæĽ°
éĻĪ ä¸ĥäºĭ
æĬķ ä¸ľ
æĬķ è¥¿
æĬķ å¥Ķ
æĬķ çĮ®
æĬķ åĪĺè¡¨
æĬķ æ²³åĮĹ
æĬķ éĢĴ
æĬķ æ±ŁèĢĮæŃ»
æĿİ ä¼ı
æĿİ åĪ«
æĿİ æ°ı
æĿİ éĢļ
æĿİ çıª
æĿİ æĺ¥é¦Ļ
çĶļ ä¹Ł
çĶļ å¾Ĺ
çĶļ äºĭ
çĶļ ä¾¿
çĶļ éĩį
çĶļ çļĦ
çĶļ éĶĲ
è½¦ ä¹ĺ
è½¦ çĽĸ
è½¦ åĦ¿
æį »
æį ŀ
å½Ĵ è§ģ
å½Ĵ æĪĳ
å½Ĵ å¤©
å½Ĵ æĽ¹æĵį
å½Ĵ è®¡
å½Ĵ åĽ½
å½Ĵ åĳĬ
å½Ĵ è¿ĺ
å½Ĵ ä¹¡
å½Ĵ çĶ°éĩĮ
è°ĵ ä¹ĭ
è°ĵ å¸ĥæĽ°
è°ĵ æī¿æĽ°
è°ĵ èµµäºĳæĽ°
è°ĵ åŃŁèİ·æĽ°
è°ĵ éŁ©éģĤæĽ°
è°ĵ äºĮåŃĲæĽ°
éĩį éĽ¾
éĩį éĵł
éĩį åħ´æ±īå®¤
æģĲ æĵį
æģĲ ä¸Ń
æģĲ åŃĶæĺİ
æģĲ å°ĨåĨĽ
æģĲ è¢«
æģĲ å¤©ä¸ĭ
æģĲ éļ¾
æģĲ éŃıåħµ
æģĲ ä¸įå¾Ĺ
æģĲ æľīå¤±
æģĲ äºİè·¯
æģĲ æĹłçĽĬ
æģĲ èĢģå°ĨåĨĽ
æģĲ ä¸įåłª
æģĲ æĥ¹
æģĲ æĢĸ
åĳĬ äºİ
åĳĬ åĪ«
åĳĬ ç§°
åĳĬ åīįäºĭ
åĳĬ æĪĴ
èĢ³ èģ
èĢ³ é¼»
æĦ¿ åħ¬
æĦ¿ åĲ¬
æĦ¿ è¯·
æĦ¿ ä¸ŀçĽ¸
æĦ¿ åĲĮ
æĦ¿ èµĲ
æĦ¿ ä¸ºåīįéĥ¨
æĦ¿ ä¸ºåīįéĥ¨åħĪéĶĭ
æĹ© åĽŀ
æĹ© å®ļ
æĹ© å½Ĵ
æĹ© åĽ¾
éģ£ åħµ
éģ£ æŁĲ
éģ£ éĴŁä¼ļ
éģ£ éĤĵèĬĿ
å¼Ł èĳ£
åıĳ æĢĴ
åıĳ åĵĢ
åıĳ æªĦ
åıĳ ä½¿å¾Ģ
è§Ĩ æĪĳ
æĶ¾ é©¬
æĶ¾ åħ¥åŁİ
æİ¥ æĿ¥
æİ¥ äºĨ
éļı åħ¥
éļı å¾Ģ
éļı æīĭ
éļı ä¸ŀçĽ¸
éļı çĪ¶
éļı é©¬è¶ħ
éļı æĪĳåİ»
èĻ½ æľª
èĻ½ è´¥
èĻ½ åĭĩ
èĻ½ äº¡
èĻ½ èµ´
ä»ĸ ä¹Ł
ä»ĸ æĺ¯
ä»ĸ å¿ħ
ä»ĸ å¾Ģ
åıĬ ä¹Ł
åıĬ ä»Ĭ
èĤĥ éĹ»è¨Ģ
çĪ¶ ä¸§
çĪ¶ å°¸
çĪ¶ åĲŁ
çĪ¶ æĽ¹åµ©
èĬ ľ
çĽ´ å¾ħ
çĽ´ é¡»
çĽ´ æĴŀ
çĽ´ æĿĢèĩ³
èľĢåħµ é½Ĳ
èľĢåħµ æİ©æĿĢ
èľĢåħµ å¤ºäºĨ
èľĢåħµ éĢĢåİ»
èľĢåħµ åīįéĺŁ
èľĢåħµ æ¼«å±±éģįéĩİèĢĮæĿ¥
é¦ĸ åħĪ
åıĹ ä»¤
åıĹ ä¸ŀçĽ¸
åıĹ å°ģ
åıĹ è´£
åıĹ çĪµ
åıĹ èģĮ
åıĹ æĪ®
åıĹ åħĪå¸ĿæīĺåŃ¤ä¹ĭéĩį
åıĹ æ±īç¦ħ
å¤± äºİ
å¤± åį´
å¤± åĪ©
å¤± è¯Ń
å¤± éĻ·
å¤± æĥĬæĽ°
ä¸įèĥ½ å¾Ĺ
ä¸įèĥ½ å®Ī
ä¸įèĥ½ èĥľ
ä¸įèĥ½ ä¸»å¼ł
ä¸įèĥ½ æĪĲäºĭ
ä¸įèĥ½ çĲĨäºĭ
ä¸įèĥ½ æĬµæĮ¡
åħ´ å¤į
åħ´ ä¹īåħµ
å¤ıä¾¯ æģ©
å¤ıä¾¯ åŃĺ
å¤ıä¾¯ åħ°
å¦ĤæŃ¤ èĭ±éĽĦ
å¦ĤæŃ¤ çĽ¸å¾ħ
å¦ĤæŃ¤ åħīæĻ¯
åĨį è§ģ
åĨį åħ¥
åĨį è¯´
åĨį çĶŁ
åĨį å¤į
åĨį æĵĴ
åĨį è°ı
åĨį åĭ¿å¤ļè¨Ģ
åĪĻ åħĪ
åĪĻ åĲ´
åĪĻ å¤±
åĪĻ æ±ŁåįĹ
è¿ŀ åŁİ
è¿ŀ æİ¥
è¿ŀ å°Ħ
æĤ ¯
æĤ ¼
ç¿ İ
ä¹ĺ èĥľ
ä¹ĺ å°ıèĪŁ
ä¹ĺ å¤§èĪ¹
ä¹ĺ æŃ¤æľºä¼ļ
èĴ ¸
èĴ ºèĹľ
åħĦ ä»Ĭ
åħĦ è¨Ģ
æĹĹ è§Ĵ
å°ļ ä¸į
å°ļ éĹ®
å°ļ å¤ļ
å°ļ çĪ¶
å¤į èĩ³
å¤į æĪĺ
å¤į åħ´
ç¨ »
åİŁ ç³»
éªĳ ä¸ĢåĮ¹
æĺŃ ä»¤
æĺŃ çŃī
æĺŃ å¤§åĸľ
æĺŃ ç¬ĳæĽ°
æĺŃ ä»İä¹ĭ
åĬŁ æĽ¹
åĬŁ é«ĺ
è¶³ æĺ¾
é¾ Ľ
å¥ı å¸ĿæĽ°
å¥ı åĩ¯æŃĮ
åķĨ äºº
åķĨ éĩı
ä¼ĳ è¯´
ä¼ĳ æħĮ
åĲķå¸ĥ å·²
åĲķå¸ĥ åıĹ
å¼łé£ŀ åľ¨æŃ¤
å¼łé£ŀ é¦ĸçº§
å¼łé£ŀ å¤§åı«æĽ°
è¾¹ å®ĺ
è¾¹ è¿ľ
è¾¹ åºŃ
åĿĲ ä¸Ĭ
åĿĲ é¢Ĩ
åĿĲ çĿĢ
åĿĲ å®¢
çĭ ©
éħĴ èĤī
éĴ ³
éĴ ģ
èĢģ å¤«äºº
èĢģ ä¸Ī
èĢģ å¦ĩ
èĢģ ç¿ģ
å¥ī æĵį
å¥ī ä¸Ĭ
å¥ī å®ĹåºĻ
æĽ´ ç«ĭ
æĽ´ æľīä½ķ
åĬĽ åıĸ
åĬĽ å°½
åĬĽ æĸ©
åĬĽ æĶ»
åĬĽ éļ¾
èĳĽ éĻĤ
çł´ ä¹İ
çł´ èľĢåħµ
çł´ ç«¹
æł ½
ä¹ī ä¹Ł
ä¹ī æ¸ł
å°± è¦ģ
å°± å¯¨ä¸Ń
å°± ç¼ļ
å°± ä¸Ńåıĸ
å¥Ķ è¿ĩ
å¥Ķ æºĥ
ä¹± åĲ¾
ä¹± çŁ£
ä¹± å°Ħ
ä¹± çłį
ä¹± æĪĳåĨĽå¿ĥ
å°ģ å®ĺ
å°ģ æ¸Ĭ
å°ģ éĹŃ
å°ģ åħ¶åŃĲ
å¼Ģ éģĵ
å¼Ģ åı£
å¼Ģ è§Ĩä¹ĭ
å¼Ģ çĽ®
å¼Ģ åŁº
ç®Ń çļĨ
ç®Ń å¦ĤéĽ¨åıĳ
ä¹ħ ä¸į
ä¹ħ åľ¨
ä¹ħ æ¬²
ä¹ħ æĪĺ
ä¹ħ çķĻ
ä¹ħ å¿ħæľī
ä¹ħ éķĩ
ä¹ħ åģľ
è¯¸èĳĽ åĨĽå¸Ī
åıį å¿ĥ
åıį èĢħ
åıį çŁ£
åıį èĩ£
åıį æĦı
åıį éģŃ
åıį ä¸ºæīĢ
åıį åĽ½ä¹ĭè´¼
æľ¬ åĽ½
æľ¬ å¾ħ
æľ¬ å§ĵ
è¦ģ åľ¨
è¦ģ åľ°
è¦ģ çĶ¨
è¦ģ å®³
åįĵ å¤§æĢĴæĽ°
åįĵ å¤§åĸľæĽ°
è¶ħ å¤§æĢĴ
åĶ¤ èµµäºĳ
åĶ¤ ä¼Ĺå°Ĩ
åĶ¤ éĽ¨
åĶ¤ è²ĤèĿī
åķĨè®® è¿Ľåħµ
åķĨè®® åħ´åħµ
åķĨè®® éĢĢåħµä¹ĭçŃĸ
çĸĳ æĪĳ
ç¤¼ æĽ°
ç¤¼ å¾ħ
é¾Ļ åºĬ
é¾Ļ æ¦»
é¾Ļ èĤĿ
æ® Ĥ
æ® Ľ
èĳ£ æĺŃ
èĳ£ è¶ħ
èĳ£ åĴĮ
èĳ£ è¡¡
èĳ£ æĺŃæĽ°
èĳ£ ç¥Ģ
èĳ£ åĽ½èĪħ
èĳ£ ç¦§
å¦Ĥä½ķ æķ¢
å¦Ĥä½ķ å®¹
å¦Ĥä½ķ è¿ĻéĩĮ
å¦Ĥä½ķ åİ»å¾Ĺ
å¤©ä¸ĭ äºĭ
å¤©ä¸ĭ å¤§äºĭ
å¤©ä¸ĭ è±ªæĿ°
è§£ æķĳ
è§£ å¼Ģ
è§£ éĢģ
è§£ èī¯
è§£ åĽ´
è§£ åį±
è§£ åĬĿ
è§£ æĬķå¤§å¯¨
ä¸»åħ¬ å°Ĩ
ä¸»åħ¬ ä¸įåı¯
ä¸»åħ¬ åĭ¿
ä¸»åħ¬ ä»ĬæĹ¥
ä¸»åħ¬ ä½ķåľ¨
å²Ĥ æĹł
å²Ĥ æĥ§
å²Ĥ ä¸įè§ģ
å²Ĥ è¯Ĩ
æĹ¢ ä¸İ
æĹ¢ å¹³
æĹ¢ èĴĻ
æĹ¢ æī¿
å®« å®ĺ
å®« å¤ĸ
å®« éĹ¨å¤ĸ
å®« éĻ¢
å®« éĺĻ
æĿ¨ æ´ª
æĿ¨ å¾·ç¥ĸ
æ°ĳ æĹł
æ°ĳ å®ī
æ°ĳ å¤«
æ°ĳ æ®·
ç»Ł ä¸Ģ
ç»Ł é¢Ĩå¤§åĨĽ
éĥ¨ èĲ½
æĶ¶ åıĸ
æĶ¶ å¤į
æľĿ è§ģ
æľĿ èĩ£
æľĿ æľį
æľĿ åłĤ
åīĳ èĲ½
åīĳ åį°
åīĳ åī²
åĽ¾ å¯Įè´µ
å§ĵ èĳ£
å§ĵ åŃĹ
å§ĵ éĥŃ
å§ĵ åºŀ
å§ĵ åįİ
éĩĳ æŀĿ
éĩĳ åĩ¤
éŃıå»¶ åľ¨
åŃĻæĿĥ ä¹Ł
åŃĻæĿĥ å¤§æĥĬ
åŃĻæĿĥ æ²īåĲŁ
çķĻ äºĮäºº
çķĻ ä½ł
çķĻ æĽ¹ä»ģ
çķĻ æģĭ
çķĻ å¤ĸäºº
åĨĽé©¬ æĿ¥
åĨĽé©¬ èĩ³
åĨĽé©¬ æĿ¥åĪ°
åĨĽé©¬ çĸ²
åĨĽé©¬ è°¡æĽ°
èİ· å¾Ĺ
èİ· å¤§åĸľ
èİ· å¿»çĦ¶
æĵĴ ä¹Ł
æĵĴ æ±Ŀ
æĵĴ è¯¸èĳĽäº®
æĵĴ æįī
æĵĴ æŃ¤äºĮäºº
é½Ĳ ä¹ĭ
é½Ĳ æĿ¥
é½Ĳ ä¸Ĭ
é½Ĳ å¿ĥ
é½Ĳ ä¸¾
é£İ ä¸Ń
é£İ è¿ĩ
é£İ æµģ
é£İ æ¸ħ
é£İ æ³¢
é£İ é£ĺ
é£İ æµª
é£İ åĶ¤éĽ¨
å±¯ ç²®èįī
å±¯ åĲĪæ·Ŀ
åŃĹ ä¹ī
åŃĹ å¹¼
åŃĹ æĺ¾
çª į
çª ¦æŃ¦
çľŁ åĲ¾
çľŁ å®ļ
çľŁ å¤§åĸľ
çľŁ ä¸Īå¤«ä¹Ł
çľŁ å°Ĩæīįä¹Ł
èī¾ è§ģ
èī¾ å¤§æĥĬ
èī¾ ä»İåħ¶è¨Ģ
çĿ£ åĨĽ
çĿ£ å°Ĩ
çĿ£ ä¸ĢåĨĽ
èµµäºĳ è°ıæĽ°
å½¼ è§ģ
å½¼ åį´
å½¼ éĺµ
å½¼ æĸĻ
å½¼ å¿ħä¸į
éĥŃ èĥľ
éĥŃ éĺ¿å¤ļ
èĥĮ æĽ°
èĥĮ åīĳ
äº¤ ä»ĺ
äº¤ æĥħ
äº¤ éĢļ
äº¤ éĽĨ
äº¤ éĶĻ
äº¤ è¾ī
å·¦åı³ å°Ĩ
å·¦åı³ çŃĶæĽ°
å·¦åı³ åĳĬæĽ°
å·¦åı³ è¿ĳä¾į
æ¶ İ
è¿ĳ æľī
è¿ĳ åŁİ
è¿ĳ å¾Ĺ
è¿ĳ æĪĳ
è¿ĳ åĽł
éļ¾ å¾Ĺ
éļ¾ éģĵ
éļ¾ å¿ĺ
éļ¾ æµĭ
ç¼ ©
ç¼ ®
ç¼ Ĩ
ç¼ Ļ
éŁ© èŀį
éŁ© çĲ¼
éŁ© æļ¨
éŃıåħµ å¤§åįĬ
éŃıåħµ å¤§éĺŁ
ä»ģ èĢħ
ä»ģ å¤§æĥĬ
ä»ģ æĻº
æŀª åĪº
æŀª æĲł
è§Ĥ çİĦå¾·
è§Ĥ èĢħ
è§Ĥ å¤©è±¡
åı« åıį
åı« èĭ¦
éĢģ ç²®
éĢģ å½Ĵ
éĢģ éħĴ
éĢģ å¯Ĩä¹¦
éĢģ ä¸İæĽ¹æĵį
çļĩ ä¸Ĭ
çļĩ ä¸Ī
éĤĵ å°ĨåĨĽ
éĤĵ é¾Ļ
éĤĵ èĮĤ
éĤĵ ç¦¹
éĤĵ å£«è½½
äº® æīĢ
åģ ¿
æ³ķ åŃĿçĽ´
å¾Ħ è¿Ľ
å¾Ħ æľĽ
çĤ ¬
çĤ ³
çĤ ľ
åı¸é©¬æĩ¿ å¼ķåħµ
åı¸é©¬æĩ¿ åķĨè®®
åı¸é©¬æĩ¿ çĪ¶åŃĲ
åı¸é©¬æĩ¿ åĸĦèĥ½çĶ¨åħµ
è¿ľ åĽ¾
é¡» æĺ¯
é¡» å¼ĥ
é¡» éĺ²
å¼ĥ èĪ¹
çĿĢ æŀª
çĿĢ å¿Ļ
çĿĢ æ£ĭ
åĴ ı
å¸¦ åİ»
éĵ ¾
éĵ Ń
éĵ ģå±±
èī¯ è¨Ģ
èī¯ å·¥
èī¯ ç¦½
ä½Ĩ å¾Ĺ
ä½Ĩ è¯´
ä½Ĩ å¤ĩ
ä½Ĩ åı¯æĥľ
ä½Ĩ ç¬ĳèĢĮä¸įçŃĶ
æľĪ ç»Ļä¸İ
åĽ´ çĮİ
åĽ´ è£¹
åĽ´ å¾Ĺéĵģæ¡¶çĽ¸ä¼¼
åĵŃ åĪ°
åĵŃ èĢ¶
åĵŃ æ±Ĥ
å§ľç»´ å¼ķåħµ
å§ľç»´ å±¡
å§ľç»´ æ·±å¾Ĺ
èħ ®
è¿ĺ åħµ
è¿ĺ å°Ĩ
è¿ĺ å¯¨
è¿ĺ å®«
è¿ĺ æľĿ
è¿ĺ å»ºä¸ļ
å¯Ĩ å¤Ħ
å¯Ĩ ä½¿äºº
å¯Ĩ æŀĹ
æ¬¡æĹ¥ å¤©æĺİ
çı Ŀ
è¾ŀ ä¹Ł
è¾ŀ å¸Ŀ
è¾ŀ æľĿ
èįī æĬĬ
èįī æĸĻ
èįī èĪį
èįī æĪ¿
èįī åĪĽ
ç½ª å¤§
ç½ª åľ¨
ä½ł ä¸Ķ
ä½ł çĶļ
ä½ł åİŁæĿ¥
ä½ł è¿Ļ
æ°Ķ æ»¡
æ°Ķ åĳ¨åħ¬çĳ¾
æ°Ķ åĸĺ
åħ« åįģäºĮ
åħ« åį¦
åħ« çĻ¾äºº
å°Ħ åĽŀ
å°Ħ é©¬è¶ħ
å°Ħ çĽ®
å°Ħ åĢĴ
çĮ® ä¹¦
çĮ® åĪĢ
çĮ® å¤´
çĮ® æŃ¤è®¡
çĮ® ä¸İæĽ¹æĵį
çĮ® è¯ĪéĻįä¹¦
ä¸ª åŃĹ
ä¿¡ åħ¶è¨Ģ
æıĲ å¤§åĨĽ
çĻ½ æ°´
çĻ½ åŃĹ
çĻ½ èĽĩ
çĻ½ é¹¤
çĻ½ ç»¢
æ²³ ä¸Ń
æ²³ åı£
æ²³ å²¸
å°ĳ äºĭ
å°ĳ ä½ı
å°ĳ è°ĭ
å°ĳ åºľ
å°ĳ æģ¯
ä¼ł è¨Ģ
ä¼ł èĩ³
ä¼ł æİĪ
ä¼ł äºİä¸ĸ
æĢĿ è¿ľ
åįĬ æĹ¥
å¥½ è°ĭ
é¥® æ°´
é¥® ä¹İ
ä¸ľåĲ´ åİ»äºĨ
ä¸ľåĲ´ å¤§å°Ĩ
ä¸ľåĲ´ åĲķèĴĻ
ä¸ľåĲ´ éģ£ä½¿
äºİæĺ¯ çİĦå¾·
äºİæĺ¯ ä»¤
äºİæĺ¯ èľĢåħµ
äºİæĺ¯ ä¸īäºº
äºİæĺ¯ åı¸é©¬æĺŃ
äºİæĺ¯ ä¸¤åĨĽ
åĿļ åĨĽ
åĿļ ä¸º
åĿļ å¤§æĢĴ
é¼ĵ ä¹Ĳ
é¼ĵ åĲı
è¯ı å°ģ
è¯ı åı¸é©¬æĩ¿
éĥĥ å¤§æĢĴ
éĤ£ æŀª
éĤ£ å°ıå°Ĩ
å¸¸ èĩª
å¸¸ ä½¿
æīĵ å¾Ĺ
æīĵ äºĨ
æīĵ ä½ł
æīĵ ä¸ĢçĻ¾
æīĵ éĤĵè´¤
æīĵ çł´äºĨ
åįģä½Ļ éªĳ
æİ¢ äºĭ
æİ¢ çĹħ
æİ¢ ç»Ĩ
åĭ¿ çĶŁ
åĭ¿ è´Ł
åĭ¿ èĩ´
åĭ¿ å¿ĺ
åĭ¿ å¤įè¨Ģ
ä¸įçŁ¥ åħµ
ä¸įçŁ¥ ä½ķäºº
ä¸įçŁ¥ åħµæ³ķ
ä¸įçŁ¥ ä¸ºä½ķ
ä¸įçŁ¥ åľ¨ä½ķå¤Ħ
ä¸įçŁ¥ åŃĺäº¡
è½» èº«
è½» æ¸ħ
å®ŀ æĹł
å®ŀ åĳĬ
å®ŀ ä¿¡
å®ŀ èµĸ
å®ŀ è¯ī
å®ŀ ä¸ºæ±ī
ä»ĬæĹ¥ å¹¸å¾Ĺ
ä»ĬæĹ¥ ä¹ĭåį±
åºŀ èĪĴ
è¯¸å°Ĩ ä¸Ń
è¯¸å°Ĩ åķĨè®®
è¯¸å°Ĩ æĹłä¸į
è¯¸å°Ĩ åĲĦèĩª
è¯¸å°Ĩ åĲ¬ä»¤
èĤ¯ å®¹çº³
æ» ı
è± ļ
åħ± çŁ¥
åħ± èµ·
åħ± è°ĭ
åħ± ä¸ĥ
åħ± è¯Ń
åħ± æī¶æ±īå®¤
åĨ² æĿ¥
åĨ² è½¦
åĨ² æ³¢
åĨ² å°Ĩè¿ĩæĿ¥
æľį æĽ°
æľį äºº
æľį èį¯
å®³ ä»ĸ
åĳ¨çĳľ ä¸º
åĳ¨çĳľ çģµæŁ©
ä¸įæķ¢ æĿ¥
ä¸įæķ¢ åıĹ
ä¸įæķ¢ åĬ¨
ä¸įæķ¢ äº¤éĶĭ
ä¸įæķ¢ äº¤æĪĺ
ä¸įæķ¢ è¿½è¢Ń
æ¢ §
èĢĮåİ» èĢħ
ä¼Ĺå°Ĩ åĬĿ
ä¼Ĺå°Ĩ ä¸Ģé½Ĳ
ä¼Ĺå°Ĩ å¿¿æĢĴ
ä¼Ĺå°Ĩ å¾Ĺä»¤
ç¬¬ åħ«
å®ľ åį³
å®ľ æ·±
å®ľ åŁİäºŃä¾¯
æ±Ĥ åĮ»
çĴ Ĩ
æ·± åı¯
æ·± åĸľ
æ·± éĩį
æ·± è¿ľ
æ·± èį·
å¼ķåĨĽ èµ¶
å¼ķåĨĽ èĢĮåĩº
å¼ķåĨĽ åīįæĿ¥
å¼ķåĨĽ æĲ¦æĪĺ
å¼ķåĨĽ èĩªåĽŀ
åĪ« æ±Ĥ
çºµ èĻİ
ä»» çĶ¨
è¾½ è¥¿
å®¹ åĲ¾
å®¹ æĪĳ
åĨ³ ä¸į
åĨ³ çŁ£
åĨ³ æ°´
åĨ³ èĥľ
åĨ³ æ¼³æ²³
ä¹Ĳ å°±
èĻİ ä¹Ł
èĻİ åı£
èĻİ å¸Ĳ
èĻİ åĲŀ
äººé©¬ çļĨ
äººé©¬ ä¿±
è°· åĪ©
åĲĳ æĵį
åĲĳ æĻļ
åĸĬ æĿĢè¿ŀå¤©
æļĹ æ¸¡
æļĹ çº¦
æļĹ æĥ³
æļĹ ç®Ĺ
æļĹ è¯µ
åĬ© æģ¶
åħģ æĭľè°¢
åħģ ä½¯
è¯Ĺ ä¸Ń
è®¾ æŃ¤
è®¾ éħĴ
è®¾ éĨ
è®¾ ä¼ıåħµ
éĻĽä¸ĭ ä¸Ķ
éĻĽä¸ĭ ä¸įåı¯
éĻĽä¸ĭ ä½ķä¸į
éĻĽä¸ĭ èĭ¥ä¸į
æŃ¢ æĽ°
æŃ¢ åĽł
æŃ¢ å¸¦
ä¸¾ éħĴ
ä¸ĸ äºº
ä¸ĸ çŁ£
ä¸ĸ ä»£
ä¸ĸ é£Łæ±īç¦Ħ
ä¸ĥ åŃĲ
ä¸ĥ åĪĨ
ä¸ĥ æĵĴ
ä¸ĥ åºĻ
ä¸ĥ åįģäºĮ
ä¸ĥ çĽı
ä¸ĥ åįģä½Ļä¸ĩ
å®ģ çİĭ
åŃ¤ ä¸İ
åŃ¤ å½ĵ
åŃ¤ ä½ķå¿§
è´¤ æĦļ
å¤º åīĳ
èĻļ å¦Ħ
ä¿Ŀ åĽ½
è°ģ èĥ½
å¾ģ è¢į
å¾ģ å¼łç»£
å¾ģ é¼Ļ
æĺŁ æľĪ
æĺŁ è§ģäºİ
åľŁ å¡«
èĴĻ æģ©
èĴĻ ä¸įå¼ĥ
å¹¸ èµĸ
æĮĩ æĹ¥
æĮĩ çĶ»
æī¿ åĹ£
åı¬ æĿ¥
åı² å®ĺ
åħĥ åħĥå¹´
åĲİä¸» åį³
åĲİä¸» è§Īè¡¨
åĲİä¸» éĹ»å¥ı
æģ© ç¤¼
æģ© ä¿¡
æģ© éģĩ
æģ© åħ»
æģ© æĥł
å¨ģ å¾·
å¨ģ åĬ¿
å¨ģ éĢ¼
ä¾į å¾¡åı²
æ¸¡ æ·®
æ¸¡ æ±īæ°´
åħ¨ åĨĽ
åħ¨ å°ļ
åħ¨ åĬŁ
åħ¨ æĢ¿
åıªè§ģ ç»¿è¢į
æ¯į æĽ°
æ¯į åĳ½
éªĤ æĪĺ
éªĤ è´¼
æķ£ åİ»
æģ¨ æĽ°
æģ¨ åĲ¾
æģ¨ ä¸įèĥ½
æģ¨ ä¸įå¾Ĺ
èĶ ĵ
ä¸ĢåĨĽ æĿĢæĿ¥
ç§° å°Ĭ
ç§° è´ºæĽ°
ç§° é¢Ĥ
éĻĨ æĪĺ
éĻĨ æĻ¯
éĻĨ ç»©
æħĮ å¼ķ
æħĮ èµ°
æħĮ ä¸ĭé©¬
åį¿ æľīä½ķ
éĻµ æĽ¿
è°ı ä¹ĭ
è°ı ä¸įä»İ
è°ı ç«ł
èģļ å±±æŀĹ
èģļ éĵģå±±
ä¸Ĭé©¬ æĬķ
ä¸Ĭé©¬ åĩºåŁİ
åĭĩ çŁ£
åĭĩ èĢĮæĹłè°ĭ
æĽ¾ è°ı
æľīä¸Ģ åŁİ
æľīä¸Ģ ä¸ª
æľīä¸Ģ å½ª
æľīä¸Ģ éĿ¢ä¹ĭäº¤
çī¹ å¥ī
çī¹ å·®
çī¹ åħ·
çī¹ ä»¤æŁĲ
é©¾ å¹¸è®¸éĥ½
éģĩ èĻİ
éģĩ æ°´åıł
éĢŁ è¿Ľ
éĢŁ å¾Ģ
éĢŁ éĢĢ
éĢŁ è¯·
é»Ħå¿ł åĩºé©¬
åĩ» è´¼
æĸ° éĻį
æĸ° å®ļ
çº¦ èµ°
çº¦ åħ±
çº¦ æĿŁ
æľķ èĭ¥
æľķ æķħ
æľķ æĥ³
æĺĶ æĽ¹æĵį
æĺĶ æ¥ļ
æĺĶ é«ĺç¥ĸ
å»º å§ĭ
å»º å¤§åĬŁ
å»º å¥ĩåĬŁ
çŁ³ è½¦
çŁ³ å¹¿åħĥ
ä¸ķ å¤§æĥĬ
åħŃ äºº
åħŃ åĲĪ
åħŃ ä¸ĥ
åħŃ æĹ¬
åħŃ åįģä½Ļäºº
çĴĭ è§Ĩä¹ĭ
å¼łéĥĥ ä¹Ł
å¼łéĥĥ å¤§è´¥
äº¡ çĪ¶
äº¡ åĪĻ
ä¼Ĳ ä¸ľåĲ´
èĥĮåĲİ å§ľç»´
èĥĮåĲİ å¼łéĥĥ
èĥĮåĲİ åĸĬå£°
èĥĮåĲİ åħ³åħ´
ä¸įå¾Ĺ èĦ±èº«
æĸĻ éģĵ
æ¸Ĭ å¤§æĥĬ
ä¸´ äº¡
ä¸´ æ´®
æĭ¨ è½¬
åŁİä¸Ń çĻ¾å§ĵ
åŁİä¸Ń ç²®å°ĳ
åĸĿ ä½ı
åĸĿ æķĻ
åĸĿ æķ£
ä¹ĭè¨Ģ çĶļå½ĵ
åį± ç¬ĥ
éĢĬ å¤§åĸľ
å¹² åĪ°
å¹² ä¼ĳ
å¥³ åŃĲ
å¥³ è¡£
å¥³ å·«
èĢĮæĿ¥ éĻį
èĢĮæĿ¥ æĬķ
èĽ® éĤ¦
èĽ® å§ĳ
åı± ä¹ĭ
æŃ¤äºº æľī
æŃ¤äºº ä¸įåı¯
æŃ¤äºº å§ĵ
éĿĴ åŁİ
éĿĴ å¤©
éĿĴ éĿĴ
éĿĴ çº¢
éĿĴ èĿ
éĿĴ éľĦ
éĿĴ çĲĲ
åħĪä¸» éĹ®æĽ°
åħĪä¸» è§Ĩä¹ĭ
åħĪä¸» åı¹æĽ°
åħĪä¸» æĢĴæĽ°
èµĲ ä»¥
èµĲ åĿĲ
éĢĥ åİ»
éĢĥ æķ£
éĢĥ å¸Ń
éĢĥ éģ¿
éĢĥ å¾ĹæĢ§åĳ½
ç¥ĸ å¼¼
æŀľ åºĶ
å¤ªå®Ī åı¸é©¬
å¤ªå®Ī åĳ¨é²Ĥ
å¤ªå®Ī å¼łéĤĪ
å¤ªå®Ī æľ±åħī
æ¡¥ ä¸ľ
æ¡¥ æ¢ģ
èµı ç½ļ
å¯» çĿĢ
èĭ± ä¸»
èĭ± çģµ
èĭ± è±ª
ä½¿äºº åħĪ
ä½¿äºº å¯Ĩ
ä½¿äºº å¯ĨæĬ¥
åĴĮ ä¹ĭ
åĴĮ è§£
åĴĮ éŃıå»¶
åĴĮ æ°Ķ
ç»ĵ ç§¦
ç»ĵ åħ¶å¿ĥ
çļĦ é©¬
çļĦ åĨĽå£«
çļĦ ä¾¿åİ»
çļĦ æķħäºĭ
ç»Ŀ ä¼¦
ç¦» å±±
ç¦» èįĨå·ŀ
ç¦» èĲ¥
ç¦» å¾Ĳå·ŀ
åĲ¦ åĪĻ
æŃ¥ æŃ¥
æİ¨ åį´
æİ¨ ä¸įçŁ¥
ä¸ĢéĿ¢ å¤§æĹĹ
ä¸ĢéĿ¢ ä¹ĭè¯į
çĶĺ æĿ¾
çĶĺ éĽ¨
ä½ķä¸į æĭľ
ä½ķä¸į éĢŁ
ä½ķä¸į æĿĢä¹ĭ
å¿½æĬ¥ äºĳéķ¿
å¿½æĬ¥ èľĢåħµ
å¿½æĬ¥ è¢ģç»į
å¿½æĬ¥ åĲ´åħµ
å¿½æĬ¥ éĥŃæ·®
å¿½æĬ¥ è´¹ç¥İ
å¿½æĬ¥ åħ¬åŃĲåĪĺçĲ¦
è¥Ħ åŁİ
çıŃ æĽ°
ä¸¥ åħµ
ä¸¥ çº²
ä¹Ŀ äºĶ
ä¹Ŀ éĩĮ
ä¹Ŀ æµģ
è¢Ń åıĸèįĨå·ŀ
è¢Ń åħĸå·ŀ
çĻ» ä¸º
çĻ» å±±
ä¾Ŀ åħ¶
ä¾Ŀ è®¡
åħĪçĶŁ å¹¸
å¢ Ģ
å¢ µå±±è°·ä¸Ń
åĸĦ ä½¿
æľ¨ ä¸º
æľ¨ å±¥
æľ¨ èĢĮæłĸ
å®´ æ¯ķ
å®´ é¥®
ä½ķæķħ ä»¥
ä½ķæķħ æ¬²
ä½ķæķħ èĥĮåıį
ä¿± æĽ°
ä¿± å·²
ä¿± å¤ĩ
ä¿± åıĳ
ä¿± ç©¿
ä¿± ç½ļ
ä¸įå¦Ĥ ä»¥
ä¸įå¦Ĥ æĪĳ
ä¸įå¦Ĥ æĬķéĻį
ä¸įå¦Ĥ æĹ©éĻį
ä¸įå¦Ĥ åħĪåıĸ
ä¸įå¦Ĥ ä¸ĶéĢĢ
è´Ł æĵį
è´Ł ä¹ī
çīĽ æĸĹ
æĿ¾ äº¦
æĿ¾ æ±Łé²Īé±¼
çĽĽ æĽ°
çĽĽ ç§°
çĦ¶åĲİ ä»¤
çĦ¶åĲİ å¼ķåħµ
çĦ¶åĲİ åıĳ
çĦ¶åĲİ èµ·åħµ
çĦ¶åĲİ å¾Ĳå¾Ĳ
çĦ¶åĲİ å¾ĲåĽ¾
æĹ§ æĥħ
æĹ§ å²ģ
åħĪéĶĭ åį°
çĲĨ éļ¾å®¹
åŃŁèİ· æĿ¥
åįİ è¦Ī
çªģ èµ·
çªģ éĺµ
æī§ æĹĹ
æī§ éŀŃ
æī§ æĿ¯
æħĪ ç¬ĳæĽ°
éĤĵèī¾ åĪĨåħµ
åĬ³ åĽ°
æĭĴ æĽ¹
æĭĴ æĪĳ
æĥħ åĪĩ
æĥħ çĲĨéļ¾å®¹
åħ¸ ç¦ģåħµ
é¢ľ æĽ°
è¯¸èĳĽäº® å¿ħ
è¯¸èĳĽäº® ä¹ĭè®¡
èµ´ èįĨå·ŀ
èµ´ è¥Ħéĺ³
èµ´ æ¨ĬåŁİ
èµ´ è®¸æĺĮ
éĢł éĢĨ
åĬ« åħ¬åį¿
æĭĽ éŃĤ
äºĮåįģ å·ŀ
äºĮåįģ åĲĪ
æ±ĿçŃī åı¯
æ±ĿçŃī æĹł
æ±ĿçŃī é¡»
æ±ĿçŃī çļĨæĺ¯
æ±ĿçŃī åĽŀåİ»
åĬĿ æĵį
åĬĿ æľķ
åĩºåŁİ è¿İæķĮ
åĩºåŁİ åĬ³åĨĽ
å¦» ä¸¥æ°ı
åİŁæĿ¥ å¦ĤæŃ¤
åİŁæĿ¥ éŃıå»¶
åİŁæĿ¥ åı¸é©¬æĩ¿
åİŁæĿ¥ éĤ£
åİŁæĿ¥ é©¬è¶ħ
åİŁæĿ¥ é»Ħå¿ł
åİŁæĿ¥ åį´æĺ¯
ä¹ĭäºº çŁ£
å¼Ĥ å¿Ĺ
åİ¿ åīį
åİ¿ å®ĺ
ä¿® å¾·
ä¿® çĲĨ
ä¿® çŁŃ
ä¿® å¯Ĩä¹¦
ä¼¤ èĢħ
ä¼¤ å®³
ä¼¤ åĲ¾ä¸»
åİļ å¾·
åİļ å¾ħä¹ĭ
æ»¡ åı£
æ»¡ é¥®
æ»¡ å¼ĵ
å®Ĺ æŃ£
å®Ĺ å¼Ł
å¿Ļ çīĻ
å¤§å°Ĩ åĲķæĹ·
æĬ¤ ç²®
æĽ¹ä»ģ å¼ķä¼Ĺå°Ĩ
åħ¥åŁİ åİ»äºĨ
æĮģ ä¹ħ
æĮģ è¯ı
æĮģ æĪĪ
æ±Łä¸ľ ä¹ĭ
æ±Łä¸ľ ä¹ĭåľ°
èĩ´ ä¹ĭ
èĩ´ çĶŁ
èĩ´ è´¥
äºĮå°Ĩ äº¤éĶĭ
äºĮå°Ĩ åıĹè®¡
åĨĽä¸Ń éĥİ
åĨĽä¸Ń å¤§ä¹±
åĨĽä¸Ń èĻļå®ŀ
åĨĽä¸Ń æĹłæĪıè¨Ģ
èİ« å¦Ĥ
åıĺ æĪĲ
åĪĿ æĹ¶
åĪĿ å¹³
åĪĿ è§ī
åĪĿ éĻĦ
è¯Ń è¨Ģ
è¯Ń å¤±
é¢Ĩåħµ ä½¿
é¢Ĩåħµ åīįè¿Ľ
é¢Ĩåħµ ä¸īä¸ĩ
é¢Ĩåħµ æĿ¥æķĳ
æľ± äºĮäºº
æľ± æĪ·
çģŃ éĹ¨
çģŃ æ³ī
çģŃ ä¸īæĹı
å¾ĲæĻĥ é¢Ĩåħµ
å¾ĲæĻĥ åĩºé©¬
å¤§äºĭ å·²å®ļ
å¤§äºĭ å®ļçŁ£
å¤§äºĭ æĪĲçŁ£
å¤§äºĭ è°ĲçŁ£
è®¨ èįĨå·ŀ
è®¨ èĳ£åįĵ
è®¨ æ±īè´¼
æĸĹ åĪ°
æĸĹ çīĽ
åĮĸ å¤ĸ
å¿½çĦ¶ é¼ĵè§Ĵé½Ĳé¸£
ä»¥ä¸º å·±
ä»¥ä¸º ä¸Ńè®¡
ä»¥ä¸º æİİè§Ĵä¹ĭåĬ¿
æĻļ ä¹Ł
åĸĬå£° èµ·
åĸĬå£° ä¸įç»Ŀ
åĸĬå£° å¿½èµ·
å¾¡ åīį
å¾¡ èĲ¥ä¸Ń
å¾¡ çĶ¨ä¹ĭçī©
è¿Ļ è¾¹
è¿Ļ ä¸Ģè·¯
éĢļ åĴĮ
éĢļ å¤©æĸĩ
æĢĢ æĢ¨
éĩİ è°·
éĩİ åįĥéĩĮ
æĽ¹åħµ èµ¶æĿ¥
æĽ¹åħµ æľĽè§ģ
åĢĺ æĽ¹æĵį
åĢĺ èľĢåħµ
åĢĺ ä¸įå¦ĤæĦı
ç©º æľī
ç©º è´¹
ä¸įè§ģ å®¹
æ±ľ äºĮè´¼
éĻ© éģĵ
éĻ© æģ¶
éĻ© äºĽ
æľªçŁ¥ çĮ®å¸Ŀ
æľªçŁ¥ æĢ§åĳ½å¦Ĥä½ķ
åĽłæŃ¤ å¾ĹèĦ±
ä¼Ĺå®ĺ åıĪ
ä¼Ĺå®ĺ æķĳéĨĴ
ç¥ģå±± ä¹ĥ
ç¥ģå±± ä¹Ŀå¯¨
çĻ¾å§ĵ æľī
æĳ ¸
æľº ä¼¯
æľº äºĭä¸įå¯Ĩ
äººæĬ¥ åħ¥
äººæĬ¥ è¯´
äººæĬ¥ ä»ĩ
ç»Ī æľī
åħ· è¿°
åħ· æľĿæľį
åį§ åºĬ
åį§ äºİå¸Ĳä¸Ń
åĽ° åľ¨
æī¶ æĵį
æī¶ å¸Ŀ
æī¶ çİĭå®¤
åĢĻ ä¹ĭ
åĭĴ ä½ı
åĭĴ åı£
åĭĴ åħµæĿ¥
å« ¡
äºī æĪĺ
äºī å¤©ä¸ĭ
æĿ¥è§ģ æĪĳ
æĿ¥è§ģ åħĪä¸»
æŀģ éļ¾
æŀģ å¥½
æŀģ æľīèĥĨ
æŀģ å¤©éĻħ
æ¨Ĭ èĥ½
æ¨Ĭ æ°ı
çĭ¬ ä¸į
çĭ¬ åĿĲ
æĿĢä¹ĭ éĹ´
èµ·åħµ æĿ¥
é©¬å²± åķĨè®®
çºµé©¬ èµ¶æĿ¥
çºµé©¬ æĿ¥è¿İ
çºµé©¬ èĪŀåĪĢ
çºµé©¬ åĬłéŀŃ
å¼º ä¸Ń
å¼º å£®
å¼º å¼±
æĺ¥ æŃ£æľĪ
æĺ¥ ä¸īæľĪ
ä¸ĭå¯¨ å·²å®ļ
æīĺ ä¹Ł
æīĺ ä»ĸäºº
éĻ¤ æŃ»
éĻ¤ æİĪ
éĻ¤ æļ´
éĻ¤ æł¹
è¡Ģ æĪĺ
æİ© æ³ª
æİ© é¥°
å¿ĥä¸Ń ä¸įå®ī
å¿ĥä¸Ń çĬ¹è±«
å¿ĥä¸Ń ä¸įæĤ¦
è¿Ľåħµ æĶ»
æĪª æĿĢ
æĪª åħ¶åĲİ
å¿ħæľī å¼Ĥå¿ĥ
èĳ£åįĵ ä¸ĵæĿĥ
ç³ľ å¤«äººæĽ°
ä¸Ģé½Ĳ æĿĢåĩº
ä¸Ģé½Ĳ æĶ¾çģ«
ä¸Ģé½Ĳ åĳĲåĸĬ
ä¸Ģé½Ĳ æĶ¾ç®Ń
ä¸Ģé½Ĳ å°Ħä¹ĭ
æľīä½ķ äºĭ
æľīä½ķ çĽĬ
æľīä½ķ äºĭæķħ
ç¥Ń åĳĬ
ç¥Ń ç¤¼
ç¥Ń èĳ¬
ç¥Ń å¥ł
è¯Ĩ äºº
è¯Ĩ æĹ¶åĬ¡
å¹¼ ä¸»
åĪĨä»ĺ æ¯ķ
åĪĨä»ĺ éŃıå»¶
åĪĨä»ĺ ä½łçĶļ
æ´ŀ ä¹ĥ
çĬ¹ æ¬²
çĬ¹ çĸĳ
çĬ¹ åŃĺ
æ¨ª è¡Į
æ¨ª æµģ
éĢĨ èĢ³
æ¯ı äºº
æ¯ı éĺŁ
ç²®èįī ä¸°è¶³
ä¸§ äºİ
å®Ŀ éĥİ
åĩºé©¬ å¤§éªĤæĽ°
åŁİä¸Ĭ çŁ¢çŁ³å¦ĤéĽ¨
é¹ ¦é¹
ä¸īåįĥ ä½Ļ
åįģä¸ĩ ä¹ĭä¼Ĺ
åįģä¸ĩ æĸĽ
ä¼ĹçļĨ åºĶæĽ°
ä¼ĹçļĨ æĦķçĦ¶
ä¼ĹçļĨ æĭľæľį
ç¥¸ ä¹±
åĵ¨ è§ģ
çĥ§ æŃ»
çĥ§ æĸŃ
çĥ§ æµ®æ¡¥
çĥ§ åħ¶ç²®èįī
çĤ¹ ä¸Ĭ
èµį å¾Ģ
èµį è¡¨
èµį ç¤¼
åĳ¼ æĪĳ
åĳ¼ å·¦åı³
åĳ¼ é£İåĶ¤éĽ¨
æ³£ èĢĮ
æ³£ åĪ«
æ³£ å¥ıæĽ°
åŃĻçŃĸ ä¸º
åŃĻçŃĸ åĩºé©¬
çļĩåıĶ ä¿¸
èĦ± äºĨ
æ¼ ĵ
å¥ĭ å¨ģå°ĨåĨĽ
åıªå¾Ĺ æľĽ
åıªå¾Ĺ å¼ĥ
åıªå¾Ĺ åĭīå¼º
åĪĨåħµ ä¸¤
åĪĨåħµ åĬ«å¯¨
æ²» çĹħ
æ²» çĸĹ
çłį ä¹ĭ
çłį æĸŃ
çłį çŁ³
çłį ä¼Ĳ
çłį ç¿»
å¤ıä¾¯æĥĩ å¼ķåĨĽ
å¤ıä¾¯æĥĩ ä¸ºåħĪéĶĭ
èħ¹ å¿ĥ
èħ¹ çĹĽ
èħ¹ æµ¦
åĪĩ èİ«
çİī çŁ³
çİī åı¶
æĸĩæŃ¦ çļĨ
æĸĩæŃ¦ åķĨè®®æĽ°
æĦŁ åħ¬
æĦŁ ä¼¤
èĮĥ åİ¿
ä»Ĺ å¿łä¹ī
æĺĮ éĤĳ
è½¬ åħ¥
è½¬ èº«
äºĶåįĥ äººé©¬
äºĶåįĥ ä½Ļäºº
ç¼ļ èĩ³
ç¼ļ äºİè½¦ä¸Ĭ
åı¤ èĢħ
åı¤ æĢª
ä»ĵ åºĵ
æķ´ è¡£åĨł
äºİåľ° èĢĮ
æµ· å®ĩ
éļıåĲİ æİ¥åºĶ
éļıåĲİ è¿½èµ¶
éļıåĲİ è¿½æĿĢ
éļıåĲİ ä¹ŁåĪ°
è®º ä¹Ł
æĿĢæĿ¥ æİ¥åºĶ
éĵģ æŀª
éĵģ éĶģ
éĵģ éĶ¥
è¿Ł ä¹Ł
ä¼¯ å®ģ
åı¯ä»¥ æĭĴ
åı¯ä»¥ å±¯åħµ
éĺ² æĬ¤
èįĢ æŃ£
èįĢ è°Į
å°½çļĨ æĿĢä¹ĭ
ä¸Ķè¯´ åĳ¨çĳľ
ä¸Ķè¯´ åĲİä¸»
ä¸Ķè¯´ èĳ£åįĵ
ä¹ĭæĦı åĲ¦
éģį åľ°
éģį ç¤º
éģį æıĴæĹĮæĹĹ
éģĹ ä¸ĭ
éģĹ è®¡
çºª å¾ĭ
çĬ¯ èĢħ
çĬ¯ ä¸ŃåİŁ
èªĵ ä»¥æŃ»æĬ¥
åįĩ æ®¿
åĪĹ åĿĲ
éĴŁ è¿Ľ
éĴŁ ç»ħ
éĴŁ ç¼Ļ
çİ° å±ħ
çİ° å±ħä½ķèģĮ
è°Ń æĽ°
è°Ń éĽĦ
èĭ¥ä¸į æĿĢ
èĭ¥ä¸į åħĪ
ç²¾åħµ äºĶçĻ¾
ç²¾åħµ ä¸ĩäºº
æĬ« äºİ
æĬ« éº»
æĬ« åĿļæī§
æĬ« æİ©å¿ĥ
åīįéĿ¢ åıĪä¸ĢåĨĽ
çĹĽ æ¥ļ
æĺŁå¤ľ æĿ¥
æĺŁå¤ľ åĢįéģĵ
çŀ ª
äºĶçĻ¾ åħµ
äºĶçĻ¾ åĨĽå£«
ç´ł è¡£
è² ħ
åŃĻä¹¾ å¾Ģ
å¥ĩ è°ĭ
å¥ĩ èĬ±
èĤī ä¹Ł
èĤī é£Ł
èĤī çĺ¤
èĤī é¢¤
æĺĵ èĢ³
è¯¯ æĪĳå¤§äºĭ
è¿Ĳ ç²®èįī
åŁĭ éĶħ
èĭ¦ èĭ¦
åħ¥è§ģ åŃĶæĺİ
åħ¥è§ģ æĵįæĽ°
çº³ äºĨ
æĻº ä¹Ł
æĻº èĢħ
æĻº åĬĽ
èħ¾ ç©º
èĸ ¤
èĸ °
èµ¤ å¿ĥ
èµ¤ èī²
èµ¤ ä½ĵ
èµ¤ éĿ¢éķ¿
ç«ĭäºİ çĻ½æĹĹ
ç«ĭäºİ èĪ¹å¤´ä¸Ĭ
ç«ĭäºİ èĪ¹å¤´
å³ Ń
æº ¯
æº Ł
æĿ¡ å°ıè·¯
æ³ª å¦Ĥ
æ³ª å¦ĤéĽ¨
äº²èĩª å¾Ģ
äº²èĩª å¼ķåħµ
äº²èĩª æĿ¥çľĭ
è§Ī ä¹ĭ
è§Ī ä¹¦æ¯ķ
æĽ¹çľŁ æĽ°
æĽ¹çľŁ çĹħ
çķª çİĭ
ç¢ Ĺ
éŀ łèº¬
åĨĽå¸Ī å°Ĩä»¤
æŃ¤äºĭ åĨ³
æŃ¤äºĭ æŀģæĺĵ
åĲ´åħµ å·²
æĮī æľĪç»Ļä¸İ
è¢ģæľ¯ å¤Ħ
èĬĤ åĪ¶
æ£ ļ
æĪĸ ä¸º
æĽ¹æ´ª æĽ°
æĽ¹æ´ª çŃī
å¼łç¿¼ åĪĨä»ĺæĽ°
è¾ħ æĶ¿
åºŁ ä¹ĭ
ä»² å¾·
åŁİä¸ĭ æĲ¦æĪĺ
å¼ķä¸ĢåĨĽ åĩº
å¼ķä¸ĢåĨĽ ä¼ıäºİ
ç«Ł ä¸į
ç«Ł å°Ĩ
ç«Ł å¤©
ç«Ł åıĸ
ç«Ł æŃ»äºİ
éĶ¦ ä½ľ
éĶ¦ å±ıå±±
éĶ¦ ç»®
çĶĺå®ģ ä¸ºåħĪéĶĭ
ä¹¡ æ°ĳ
åıĮ æĪŁ
ä»° æħķ
æŃĩ å®¿
å¤§çİĭ ä½ķ
æĿ¥æĹ¥ äº¤éĶĭ
æĿ¥æĹ¥ å¹³æĺİ
æĿ¥æĹ¥ åĨįæĪĺ
ä¼ĹåĨĽ ä¸Ģé½Ĳ
å¿½è§ģ ä¸Ģéģĵ
ç§ĭ å¤©
ç®¡ é¢Ĩ
åĤ¬ åıĸ
åĤ¬ éĢ¼
åŃŁè¾¾ æĽ°
èĽ®åħµ å¼ķè·¯
èµŀ æĽ°
çİĩ åĨĽ
éģ¿ ä¹±
èĪį ä¹ĭ
èĪį æŃ»
èĪį èº«
èĪį å¼Ł
å°ıè·¯ èĢĮèµ°
æĸ½ è®¾
æĸ½ åĭĩ
æĸ½ æľĶ
çļĵ é¦ĸ
çļĵ å¤§åĸľ
çļĵ æľĪ
æĮĤ é½¿
ä¸¤è·¯ åĨĽé©¬
ä¸¤è·¯ å¤¹æĶ»
ä¹ĺåĬ¿ æĶ»ä¹ĭ
ä¹ĺåĬ¿ èµ¶åİ»
é¸£ éĶ£
è¸ µ
ä¸ĵ ä»¥
ä¸ĵ åĪ¶
ä¸ĵ åĬ¡
äºİç¦ģ çŃī
äºİç¦ģ ä»İ
å¦¾ å½ĵ
é¦ĸçº§ æĿ¥
æ¢ģ åħ´
æ¢ģ åı°
æ¢ģ å®½
æ¢ģ åĪļ
æ¢ģ çĪ¶åĲŁ
å¡ ĺ
å¤¹ çŁ³
åĨĻ äºİ
æĺı ä¹±
æĺı åĢĴ
æĺı é»ĳ
æĺı è¿·
å¿į èĢĲ
æĿ¥è¿İ æİ¥
çĶ» ä¸Ģ
çĶ» åľ°
çĶ» çŃĸ
çĶ» åłĤ
æĹłä¸į åħĭ
å½ĵåħĪ å¤§å°Ĩ
å½ĵåħĪ ä¸Ģå°Ĩ
å½ĵåħĪ æĭ¦ä½ı
å½ĵåħĪ çł´æķĮ
ä¸¤åĨĽ åĲĦ
ä¸¤åĨĽ æĿĢåĩº
ä¸¤åĨĽ åĳĲåĸĬ
ä¸¤åĨĽ çĽ¸è¿İ
è¥Ħéĺ³ åŁİå¤ĸ
è¥Ħéĺ³ å¤§è·¯
èĿ İ
ä¹ŀ åĳ½
ä¹ŀ æĹ©
ä¹ĭå¿ĥ ä¹Ł
å¹¿ æ±ī
åĲ¾ä»Ĭ å¥ī
èĪŁ é¹¿
èĪŁ æ¥«
èĪŁ åĨĵ
æ¤ ħ
æī¬ è¨Ģ
æī¬ å£°
æī¬ æŃ¦å°ĨåĨĽ
åħ¬åŃĻ æģŃ
æ¬º ä¸»
æ¬º å¤©
æ¬º æķĮ
æ¬º ä»ĸ
æ¬º åĩĮ
æ¬º æĪĳä¹Ł
æĬ¥çŁ¥ åħ³åħ¬
æĬ¥çŁ¥ åı¸é©¬æĺŃ
ç¥İ åıĪæĽ°
æŀĿ åħµ
åŁĭä¼ı åİ»è®«
åıĤ å·®
åıĤ èµŀåĨĽæľº
åıĤ åĨĽé©¬è°¡æĽ°
è¾± ä¹Ł
è¾± åŃĲ
è¾± ä¹İ
è¾± èĩ£æŃ»
æĺ¯å¤ľ é£İéĽ¨
ä¸īè·¯ åħµé©¬
ç«¥ é¢ľ
éª¨ è¡Ģ
èĳ¬ èº«ä¹ĭåľ°
æ²Ľ åİ¿
æķ°åįģ å¹´
æķ°åįģ ä¸ª
åįķ é©¬
åįķ è¡£
åįķ åĪĢèµ´ä¼ļ
åĳĪ ä¸İ
éĺ´ éŃĤ
å¼łèĭŀ çŃī
å¼łèĭŀ åĪĨä»ĺæĽ°
åº¦ æĹ¥
åĽŀè§ģ åŃĻæĿĥ
åĢŁ å¾Ĺ
æļĤ æĹ¶
åħ» åĨĽ
åį« æĽ°
åİ® æīĵ
å¦Ļ çĶ¨
å¦Ļ é¾Ħ
åī² ä¹ĭ
åī² äºĨ
åī² åħ¶èĪĮ
åī² é¡»å¼ĥ
å¿ħçĦ¶ æĿ¥
æĻĭ å¸Ŀ
åĽĽéĿ¢ åĨĽé©¬
åĽĽéĿ¢ åıĹæķĮ
æ±ŁåįĹ åħ«åįģä¸Ģå·ŀ
éģ£ä½¿ æĿ¥
éģ£ä½¿ å¾Ģ
éģ¥ ä¸º
è´µ ä½ĵ
æİĮ åħµæĿĥ
çľ¼ ä¸Ń
çľ¼ è§ģ
çľ¼ åīį
çľ¼ çĶŁ
çľ¼ çıł
ç§¦ å·Ŀ
ç§¦ çģŃæ¥ļ
å¹¶æĹł åĬ¨éĿĻ
å¹¶æĹł ä¸Ģçī©
è°¦ è¾ŀ
è°¦ æģŃ
å®īæķ¢ æ¬ºæĪĳ
ä¼ıäºİ å·¦
ä¼ıäºİ åı³
ä¼ıäºİ å¯¨å¤ĸ
åĦĴ çĶŁ
éŀŃ æīĵ
éŀŃ çĿ£éĤ®
æľŁ å¹´
çĶ³ çĶŁ
åĩºè¿İ æķĮ
æĢ¨ é¬¼
æ¥¼ ä¸ĭ
æ¥¼ èĪ¹
è®© ä¹ĭ
è·ĥ åĩº
è·ĥ é¾Ļ
è·ĥ èµ·æĽ°
å¿ĥèħ¹ ä¹ĭæĤ£ä¹Ł
é¢Ħ çŁ¥
éĥŃæ·® æĽ°
éĥŃæ·® ä»İä¹ĭ
å¿µ åħ¶
å¿µ åĴĴ
æŃ»äºİ åĨĽä¸Ń
åĺī å¾·
åĺī å¹³
å»ĸåĮĸ èĩ³
ç»ı æĪĺ
ç»ı çĶ±
ç»ı çº¶
æĬļ è°ķ
æĬļ æģ¤
æĬļ åħ¶èĥĮ
è¾Ĥ ä¸º
è¾Ĥ åįľ
æľªåı¯ çŁ¥
æľªåı¯ åĬ¨åħµ
æľªåı¯ çŁ¥ä¹Ł
æ±īå®¤ ä¸įå¹¸
æ±īå®¤ ä¹ĭèĥĦ
æĿİåħ¸ åĨĽä¸Ń
è¿ŀå¤ľ å¥ĶåĽŀ
çī¹æĿ¥ çĽ¸æĬķ
éĢ¢ çĿĢ
éĢ¢ å±±å¼Ģè·¯
æĭ¦ éĺ»
æĭ¦ æĮ¡
èĥĨ æ°Ķ
åĤį æ¶§
åĤį èĭ¥æĹłäºº
æľ¬éĥ¨ åĨĽ
åŃ¦ éģĵ
åŃ¦ æł¡
è¯ļ æĥ¶
åī¯ ä¹ĭ
åĲ´ä¾¯ ä¹ĭå¦¹
éģ£äºº èµį
éģ£äºº æ±Ĥæķĳäºİ
åħ´åħµ éĹ®ç½ª
è§ģäºĨ çİĦå¾·
è§ģäºĨ å¼łé£ŀ
è§ģäºĨ å¤§æĥĬ
åħ³å¹³ æĽ°
ä½¿èĢħ èµįä¹¦
ä½¿èĢħ åĳĪä¸Ĭä¹¦ä¿¡
çĸ¾ å¿Ļ
ç´¢ åĳ½
ç©¿ è¿ŀ
ç©¿ çº¢è¢į
ç©¿ æľ¨å±¥
éĨī æĽ°
éĨī åĲİ
æĿĢåħ¥ åĲ´
æİĪ è®¡
ä¼Ĺäºº éĥ½
è¥¿åĩī ä¾¯
æĭľè°¢ æĽ°
åħ¼ éģĵ
å°Ĭ å¤§
å°Ĭ åĳ½
å¾® åĬŁ
å¾® éľ²
æķĪ çĬ¬é©¬ä¹ĭåĬ³
åľ£ ä¸Ĭ
åľ£ åĲ¬
åľ£ è´¤
éĹ®åħ¶ è®¡
åĽ½å®¶ ä¹ĭæľī
åĽ½å®¶ å¤§è®¡
åħĪå¸Ŀ åľ¨æĹ¥
å±±ä¸Ĭ çŁ¢çŁ³å¦ĤéĽ¨
å±±ä¸Ĭ æĵĤæľ¨çĤ®çŁ³
éĴ¦ æĽ°
ä¸Ģå½ªåĨĽ éĹªåĩº
æŃ¤è¨Ģ æŃ£åĲĪåĲ¾æĦı
æĶ¹ åĲį
æİĴ åĪĹ
è®¾å®´ è¯·
è®¾å®´ å¾ħä¹ĭ
è®¾å®´ åĲİåłĤ
åµ ĭ
ä½ķä»¥ å½ĵä¹ĭ
ä½ķä»¥ å¾¡ä¹ĭ
ä½ķå¤Ħ ä¹Ł
åĲ¾å·² ä»¤
åĲ¾å·² ä»¤äºº
åĲ¾å·² æĿĢä¹ĭ
åŁİéĹ¨ å·²
åŁİéĹ¨ æł¡å°ī
åŁİéĹ¨ å¼Ģå¤Ħ
æģ¶ åħļ
æģ¶ èĿİ
æ¸ħ æ°´
æ¸ħ æľĹ
éŁ©éģĤ ä¸º
æ¢¦ å¯Ĳ
æ¢¦ ä¸īé©¬åĲĮæ§½
èĢĮè¿Ľ æĽ°
åŁİå¤ĸ ä¸ĭå¯¨
æģª å¤§æĢĴ
æ³ī æ¶Į
ä¸¤ä¸ª åķĨè®®
ç§ģ èĩª
ç§ģ è¡Į
ç§ģ éĢļ
å²Ĥåı¯ éĢłæ¬¡
æħĮå¿Ļ çŃĶç¤¼
æħĮå¿Ļ ä¸ĭè½¦
ä»£ ç¦Ģ
ä¸įè¶³ æĥ§ä¹Ł
å®¡ èį£
æĪĪ å®ļ
æĪĪ æĪŁ
æĪĪ çŁĽ
éĻ¶ æĽ°
éĻ¶ æ¿¬
æĭ¾ å¾Ĺ
èĥ¡ æ¸Ĭ
èĥ¡ åįİ
èĥ¡ å¥ĭ
èĥ¡ èµ¤åĦ¿
å£ģ éĹ´
åĪĺçİĦå¾· ä¹ĭå¼Ł
æķ°çĻ¾ åĳĺ
ç§» ç¥¸
è°ĭå£« åķĨè®®
å®£ è¿Ľ
éĢī å®ļ
éĢī å¤©ä¸ĭ
å¼łæĺŃ å¥ıæĽ°
å¼łæĺŃ è°ıæĽ°
å¼łæĺŃ çĮ®è®¡æĽ°
è¨Ģæľª å°½
ç´§ éĹŃ
ç´§ è¦ģåİ»å¤Ħ
éĥŃæ±ľ æĽ°
éĵľ æŁ±
ä¸¹ å¢Ģ
æĺ¨ ä¸º
æĺ¨ éĹ»
ä¾Ħ æĿİæļ¹
è¨Ģè®« ä¸įè§ģ
è¨Ģè®« èĢĮäº¡
åĿ¡ é©»æīİ
æ¸Ń åı£
æ±Łå¤ı å¤ªå®Ī
çķĮ åĪĨ
æĺĶæĹ¥ ä¹ĭè¨Ģ
èĹı åĮ¿
å¿ĺ ä¹ī
éģŃ æĵĴ
ä¸ºåīį åĲİ
çŃĳ åı°
æ¸Ĳ è¿ľ
åĲ¬çŁ¥ èľĢåħµ
åĲ¬çŁ¥ æĬĺäºĨ
çģ«åħī ä¹ĭä¸Ń
é¬ ¯
å·¡ èĪ¹
å·¡ è§Ĩ
éĥĳ æ³°
éĥĳ åº¦
éĥĳ å°ļä¹¦
å¼łä»» æķĻ
æĿĢåĪ° å¤©æĺİ
æĦļ ä»¥ä¸º
æĦļ è¿·
åĵĢ å£°
äºĶåįģ æĸ¤
âĢĻ ãĢĤ
åŃĺ æĹ¥
äººä¹ĭ ä¸ĭ
æĬ± éĺ¿æĸĹ
æĬ± èĨĿ
æ¸© åıĪéĹ®
ç¾İ éħĴ
ç¾İ ä¸½
åĨįä¸ī ç§°è°¢
åĨįä¸ī è¯·éĹ®
åĽº éĿŀ
åĽº è¾ŀ
åº§ éĹ´
çĥĪ å£«
æĸ°éĩİ åİ¿
ä¹ĭå£« ä¹Ł
åĲ¾ä¸İ çİĦå¾·
åĲ¾ä¸İ æ±ĿçŃī
åĽŀé¡¾ è¯¸å°ĨæĽ°
éĿĻ å¤Ħ
æ±Ŀåı¯ åħĪé¥®
èľĢä¸Ń äºº
èİ«éĿŀ è¯Īä¹İ
åĭĴé©¬ éĹ®æĽ°
åĭĴé©¬ å¤§åı«æĽ°
è²ĤèĿī ä¹Ł
å¤ªåı²æħĪ ä¹Ł
å®½ æĢĢ
åħµæĿ¥ æķĳ
æ®ĭ çĶŁ
åĳĪä¸Ĭ åĽŀä¹¦
ä¸įåĲ¬ åĲ¾è¨Ģ
ç»§ ç»Ł
ä¹ĥæĺ¯ å¼łé£ŀ
ä¹ĥæĺ¯ ä¸Ģæ¢¦
åºĦ åĲİ
åºĦ å®¢
äºĮåįģä½Ļ æĹ¥
åĪĺå°ģ æĽ°
åı¸é©¬å¸Ī ä¹Ł
æĶ¶æĭ¾ åĨĽé©¬
æĶ¶æĭ¾ è´¥åĨĽ
æĶ¶æĭ¾ åĨĽåĻ¨
æĶ¶æĭ¾ èµ·ç¨ĭ
çĤİ åĪĺ
åµ© æĽ°
åĪ¶ éĢł
åĪ¶ éĢłæľ¨çīĽæµģé©¬
äººçļĨ ç§°ä¸º
å¤§åįĬ æĺ¯
å·´ ä¸Ń
åĿĽ åīį
æħ¢ è¡Į
è´¾è¯© è°ıæĽ°
æĭįé©¬ äº¤éĶĭ
æĭįé©¬ è½®åĪĢ
æĹĮæĹĹ éģįç«ĸ
ä¸įæĽ¾ è§ģ
ä¸įæĽ¾ äºı
è¿Ŀ äºĨ
è¿Ŀ æĪĳ
çİ¯ ç«ĭ
ä¸īåįģ åħŃå²ģ
æĦĪ æĢĴ
æĦĪ çĸĳ
å®īèĥ½ æķĮ
é£ŀæĬ¥ åĳ¨çĳľ
çĻ¾å®ĺ ä¿±
çīĻ çĪª
æīĭä¸ĭ æŃ¢æľī
ç¼ĵ åĽ¾
ç¼ĵ åĽ¾ä¹ĭ
æĭ¨é©¬ èĢĮèµ°
æĭ¨é©¬ ä¾¿åĽŀ
æĭ¨é©¬ åĽŀéĺµ
ä¸įå¿ħ å¤ļçĸĳ
ä¸įå¿ħ å¿§èĻĳ
è¯» æĽ°
è¯» ä¹ĭ
è¯» ç¥Ńæĸĩ
è¯ķ è¨Ģä¹ĭ
å¦ĩ äººä¹ĭ
åħ¶ä½Ļ å°½
åĽŀåĪ° æ±īä¸Ń
åĽŀåĪ° å¤§å¯¨
åĽŀåĪ° èĲ¥ä¸Ń
å®ĪæĬĬ éļĺåı£
å®ĪæĬĬ åħ³éļĺ
é»Ħç¥ĸ é¦ĸçº§
åĿĲäºİ åºĬä¸Ĭ
å°Ķ ä½ķ
å°Ķ ä¹ĥ
æľĢ åĲİ
æľĢ åĸľ
ä¸įè®¸ åĩºæĪĺ
ä¸įè®¸ å¦ĦåĬ¨
ä¸ĢçĻ¾ æĹ¥
ä¸ĢçĻ¾ äºĶåįģ
é©¬èħ¾ æĽ°
åĲ¾çŃī çļĨ
æ±ĿäºĮäºº åĲĦå¼ķä¸ĢåĨĽ
æ±ĿäºĮäºº åĲĦå¼ķä¸Ģä¸ĩ
èĻŀ èĪľ
é¢ĩ çŁ¥åħµæ³ķ
è¿İæİ¥ åħ¥åŁİ
æĶ¶åĨĽ åĽŀå¯¨
åģĩ æĦı
åģĩ èĬĤ
çĨŁ è¯»åħµä¹¦
æł¡å°ī å°¹å¤§çĽ®
å¡ŀ æĸŃ
å¡ŀ æ»¡
å¡ŀ éĩİ
èĨ Ľ
æĪ® ä¹ĭ
éĹŃ æĪ·
è¾Ľ èĭ¦
åĮ» ä¹Ł
ç¾Ĭ ç¾¤
è¿½ä¹ĭ ä¸įä¸Ĭ
çĭĤ å¯ĩ
åŀĤ æķĳ
é©° éª¤
å¤§å°ı å°Ĩæł¡
ä¸ĢåĪĢ æĸ©äºĨ
éĻ· å®³
åīįåİ» è¿İæķĮ
å½ĵå¤ľ ä¸īæĽ´
çº· çĦ¶
é»ĳ æ³ī
é»ĳ çĥŁ
æ·· åħ¥
æ·· æĿĢä¸Ģéĺµ
éª¤é©¬ èµ¶æĿ¥
åİīå£° å¤§åı«
åİīå£° è¨ĢæĽ°
åİīå£° å¤§éªĤæĽ°
å½¢ å¦Ĥ
èĩªå¼ķ è¯¸å°Ĩ
çŁ¥ä¹ĭ ä¹İ
æŃ£æ¬² ä¸İ
æŃ£æ¬² èµ·åħµ
ç«¹ åĨł
é£ŀé©¬ èµ¶æĿ¥
æķ°æĹ¥ ä¹ĭåĨħ
ç¤¾ç¨· å¹¸çĶļ
åĩ¡ æľī
æĬ¼ åĲİ
ä½ķè¶³ æĮĤé½¿
åĲ¾æ¬² ä»¤
åĲ¾æ¬² æĿĢ
èį¡ çŁ³
åĽĽäºº æĽ°
ç§¯ ç²®
ç§¯ ç²Ł
çĸı ä¸įéĹ´
çĽ´èĩ³ åŁİä¸ĭ
é¡»èĩ¾ å¸Ńæķ£
åĩŃ åĲĬ
ä»Ĭå¤ľ äºĮæĽ´
æĹłäºº åı¯æķĮ
çģ¯ ä¸ĭ
çģ¯ åħī
çģ¯ çģŃ
çģ¯ å½±
å§ĭ åĪĿ
å§ĭ ç»Ī
å²Ĥä¸į èĩª
çªĥ éĹ»
æıĲåħµ å¤§è¿Ľ
æ¯ıæĹ¥ é¥®éħĴ
æ¯ıæĹ¥ æĵįç»ĥ
åĨł åĨķ
å¿« ä¸ĭé©¬åıĹéĻį
éĹ² æķ£
æľīäºº è¨Ģ
æľīäºº åľ¨
åĲ¾å½ĵ ä»¥
è·Ł æĪĳ
æ¯Ĵ æ°Ķ
æ¯Ĵ èį¯
æ¯Ľ åıĳ
æ¯Ľ çļĩåĲİ
çľģ ä¸Ń
å²Ń ä¸Ĭ
è±¡ ä¹Ł
æ¯ĶåıĬ å¹³æĺİ
ç¯¡ éŃı
æĽ² çĽ´
ä»į åĽŀ
ä»į åīį
ä»į å¤į
å°¹ ç¤¼
æĵįä»¤ ä¼Ĺå°Ĩ
ä¾µ æİł
å¯Į æĺ¥
å¯Į æĪ·
æİ· ä¸ĭ
æİ· äºİåľ°ä¸ĭ
åıĪåĶ¤ èµµäºĳ
åıĪåĶ¤ é©¬å¿ł
è½® æµģ
è½® å¤§æĸ§
åį´è¯´åŃĶæĺİ åľ¨ç¥ģå±±
å¾ĦåĪ° æ±īä¸Ń
æ½ĺ åĩ¤
å¥ĭåĬĽ æĿĢåĩº
å¥ĭåĬĽ åĨ²æĿĢ
èĢĢ æĹ¥
èĢĮèµ· æĽ°
ä½ķå¿ħ éĹ®
åĲ¾èĩª ä»İ
æĢľ èĢĮ
æŃ»èĢħ ä¸įåı¯èĥľæķ°
å¤ªåĤħ åı¸é©¬åŃļ
å¤ªåĤħ è¢ģéļĹ
çĩ ĥ
äº¬ åŁİ
å±Ī èĬĤ
åħ¥åĲİ æ®¿
åıªæĺ¯ ä¸įèĤ¯
æŃ£è¡Į ä¹ĭéĻħ
ç¦Ģ æĢ§
çĥ¦ åŃĲæķ¬
çĥ¦ è¶³ä¸ĭ
æĳĨ åľ¨
å´Ķ åĭĩ
æºª åĤįæ¶§
ä¹ĭæīĢ åľ¨
ä¹ĭæīĢ åŃ¦
åįł ä¸Ģè¯
å®Į åĬŀ
è¯ī åĳĬ
é©¬ä¸Ĭ æ¬łèº«
æĿ¥æķĳ æı´
äºİè·¯ åĬ«æİł
äºİè·¯ æĿĢäºº
èĩªåĽŀ èįĨå·ŀ
åº· æĽ°
åħ¥å®« åºŃ
æģ° æ¬²
å¿ħä¸į è´Ł
æŃ£åľ¨ åį±æĢ¥
ç¬Ķ çłļ
æĪĲåĬŁ èĢ¶
åįĥä½Ļ åĨĽ
åįĥä½Ļ åıª
é½¿ å¯Ĵ
å®¡éħį æĽ°
å°ĺ éģ®éģĵ
å®ĭ æŀľ
åħµä¸į åİĮ
åħµä¸į è¡ĢåĪĥ
æĪ¿ éĻµ
æŃ¤åİ» å¦Ĥä½ķ
æŃ¤åİ» èĭ¥ä½ķ
è§ģä¹ĭ ç¤¼
æĢİ å¾Ĺ
æĢİ åľ°
æĢİ èĤ¯
æĢİ å¥Ī
çŃµ éĹ´
åºĬ åĲİ
äºĨä¸Ģ ç®Ń
çīµ ç¾Ĭ
æĸ¹æīį æĶ¾å¿ĥ
æį¢ äºĨ
æĤ¬ é¦ĸ
è¡ĹäºŃ æľīå¤±
ä¸įèĥľ æĤ²
è¿· æ¼«
åºĨ åĸľ
å¦Ĥä½ķä¸į éĻį
æĿ¨å¥ī æĽ°
ç±³ ç²®
åĩĮç»Ł åĽŀ
è°Ī åħµ
è°Ī ç¬ĳ
åĲ¾ä¸» åĲ´ä¾¯
éķ¿åŃĲ æĽ¹æĺĤ
éļĶ æĸŃ
ç«ĭé©¬ æ¡¥ä¸Ĭ
å¾Ħåıĸ éķ¿å®ī
å¾Ħåıĸ æ´®éĺ³
é¼ĵè§Ĵ åıĪé¸£
åħĨ ä¹Ł
æĽ¹çĪ½ éĹ¨ä¸ĭ
æĽ¹çĪ½ åħĦå¼Łä¸īäºº
è¡Įä¸į ä¸Ĭ
è¡Įä¸į æķ°æŃ¥
æľªå°Ŀ æľī
æľªå°Ŀ è§ģ
æľªå°Ŀ å¿ĺ
åį´è¯´çİĦå¾· èĩª
éº¾ åħµ
ä¸įçĶ¨ åħ¬è¨Ģ
æĥĳ ä¹±
èĭ¥å¾Ĺ æŃ¤äºº
é¡¹ ä¸ĭ
å¹³çĶŁ è°¨æħİ
æįŁ æĬĺ
èĻ½æľī ç½ª
ä¹ĺèĻļ èĢĮ
çĮ®å¸Ŀ æĽ°
å¹¸å¾Ĺ çŀ»
ç³ľèĬ³ å®Ī
ä¸įå¿į çĽ¸ç¦»
åĩºå¸Ī è¡¨
å¼łç»£ åĨĽ
éĿĸ æĽ°
ç¥¥ çĳŀ
éĤĢ åŃĶæĺİ
åį³æĹ¶ éģ£
å·¦è¾¹ å¤ıä¾¯æĥĩ
å·¦è¾¹ åħ³åħ´
æģĲæľī æ³Ħæ¼ı
åĨ²çªģ èĢĮæĿ¥
åĨ²çªģ ä¸įåĩº
é©±åħµ èµ¶æĿ¥
åĵ¨é©¬ åĽŀæĬ¥
å¯¿æĺ¥ åŁİä¸Ń
çĩķ éĽĢ
åĪĢæĸ§æīĭ æĭ¥
é±¼ åħ¥
é±¼ èħ¹æµ¦
åįļ å¸¦
åįļ è§Ī
ä½İ å£°
ä½İ è¨ĢæĽ°
åĲ¾å¼Ł ä¹Ł
åĲ¾å¼Ł åħĦ
å±¡ èĥľ
çİĦå¾·ä¸İ åŃĻå¤«äºº
è·ª åĳĬæĽ°
è·ª äºİå¸Ĳä¸ĭ
éĴ§ è¡¡
éĴ§ æĦıèĭ¥ä½ķ
åģļ ä¸Ģ
åģļ äºĨ
æİ¢çŁ¥ æŃ¤äºĭ
èĲ½é©¬ èĢĮæŃ»
ä¿®ä¹¦ ä»ĺ
è·ĥé©¬ èĢĮæĿ¥
è·ĥé©¬ æªĢæºª
éĶĲæ°Ķ æŃ£çĽĽ
ä¼į å»¶
ä¼į çĲ¼
ä¼į åŃļ
éģ® å¤©
éģ® çĽĸ
éģ® æĬ¤
åĲ¾ä¹ĭ æĦ¿ä¹Ł
å¿ħæĿ¥ åĬ«
å¿ħæĿ¥ è¿½èµ¶
èįĴ å±±
æ¸¸ çĮİ
åĲĦå¤Ħ åħ³
åĲĦå¤Ħ åħ³éļĺ
éĻĪä»ĵ åŁİä¸Ń
å¼ĢéĹ¨ æİ¥åħ¥
å¼ĢéĹ¨ æĶ¾åħ¥
çĬ¬ èĢ³
è¯Īè´¥ ä½¯è¾ĵ
æ³łèĭŀ å¯¨
åĲŁ èī¯ä¹ħ
åĲŁ è¯Ĺä¸Ģé¦ĸ
é©¬åĮ¹ åĨĽåĻ¨
é©¬åĮ¹ åĻ¨æ¢°
å¾ĹèĦ± éĩįåĽ´
è¢ĸ ä¸Ń
æĿĢå¥Ķ éķ¿å®īæĿ¥
æģĥ åĬŁ
æģĥ æīį
æģĥ åĭĩ
åįģäºĶ æĹ¥
åįģäºĶ éĩĮ
åįģäºĶ å²ģ
æ²¹ é¼İ
è¥¿åĮĹ è§Ĵ
è¯¸èĳĽçĳ¾ æĽ°
é¼ł è´¼
éĤ£æĹ¶ ä¹ĺèĻļ
è±ª æ°Ķ
è²Į çĶļ
åıĭ ä¹Ł
ä¸įæľį æ°´åľŁ
æĵįè´¼ ä¹ĭé¦ĸ
åī¿ æĿĢ
æĭĪ éĺĦ
ä¹ĥè°ĵ ä¹ĭæĽ°
ä¹ĥè°ĵ è¯¸å°ĨæĽ°
ä¸īåįģéĩĮ è¿İæİ¥
å±±åĿ¡ ä¹ĭä¸Ĭ
éķ¿åı² å¼łæĺŃæĽ°
éķ¿åı² æĿ¨å¤§å°Ĩ
å®īèĤ¯ ä¸İ
æīĭæī§ éķ¿æŀª
éĻĪçķĻ å¤ªå®Īå¼łéĤĪ
æıĴ æĹĹ
æıĴ åīĳ
æıĴ éĿĴé¾Ļ
åīĳéĺģ åħ³
èī¯çŃĸ ä¹Ł
è±¹ æĽ°
è±¹ å¤´
åľŁäºº å¼ķè·¯
å¯»æĢĿ æĹłè®¡
æ·®åįĹ å¾Ħè·¯
æĴ¤ åİ»
è´¹ç¥İ çŃī
åĹ£ åŃĲ
å½ĿéĻµ åŁİ
ä¸įåĪ© äºİ
ä¸įè¯Ĩ æĹ¶åĬ¡
å®ħ ä¸Ń
å¿¿ å¿¿
å¼ķæľ¬éĥ¨ åħµåİ»
åįģæķ° éĩĮ
æľªæķ¢ æĵħ
å¤ªåŃĲ æĽ¹èĬ³
åįĥéĩĮ é©¬
åįĥéĩĮ èĢĮæĿ¥
æİ¥çĿĢ æĽ¹æĵį
åħĦéķ¿ ä½ķæķħ
ä¾įä¸Ń æĿ¨çĲ¦
éĢłåıį èĢ¶
æĬĺäºĨ å¥½
åĨ¬ æľĪ
åĨ¬ åįģäºĮæľĪ
åį· èµ·
åį· åľ°
åį· åĲį
åĨĽåīį è§Ĩä¹ĭ
å°Ĩèĩ³ å£ķè¾¹
ä»¥éĺ² éŃıåħµ
ä»¥éĺ² ä¸įæµĭ
èĥ¸ èĨĽ
èĩªå·± å¨ģé£İ
éĩĬ ä¹ĭ
è·³ ä¸Ĭ
è·³ è·ĥ
çŁ¥æĺ¯ ä¸Ńè®¡
åıĪä»¤ é©¬å²±
æŃ£åĲĪ åŃ¤æĦı
åĲ´æĩ¿ åĽĽå°Ĩ
æĮĳ æĭħ
å£«ä»ģ æĽ°
èĪĮ å¤´
ç¬¦ å®Ŀéĥİ
å§Ķ ä»¥
å§Ķ ä»»
åį³åĳ½ åı¸é©¬æĩ¿
åį³åĳ½ å¤ıä¾¯æĥĩ
åĢļ ä»Ĺ
åĢļ å®ļæĬ¤
ç§į ç§į
é¢ĨåĨĽ æĿ¥
é¢ĨåĨĽ åĪ°
åı³è¾¹ å¼łèĭŀ
çĲ° æĽ°
æ½ľ åħ¥
æ½ľ é¾Ļ
äºĶçĻ¾åĨĽ æĵĤé¼ĵ
è¸ı å¹³
çħ§ æĹ§
çħ§ éī´
åĲ¾ä¸į æĿĢæ±Ŀ
ä»¥èĩ´ æŃ¤è´¥
åŁİåĨħ äºº
åħ¥æľĿ ä¸įè¶ĭ
æģŃ ä¿Ń
å¤©åľ° ä¹ĭ
äºĭä¸į è°Ĳ
åıĪè§ģ äºİåĲīç«ĭäºİ
åıªæľī äºĽå°ı
å±±åĥ» è·¯
æ¯ģ éªĤ
ç«Ń å¿ł
åŃĻç¤¼ æĽ°
åŃĻç¤¼ å¼ķ
çīĩ æĹ¶
æĭľè¾ŀ åĲİä¸»
éĻĪçĻ» æĽ°
ä¸ĸä¹ĭ èĻİå°Ĩ
éĿĴå·ŀ æĿ¥
æ··æĪĺ åĪ°
æ··æĪĺ ä¸Ģåľº
åįĪ åĲİ
å¤§å¼Ģ å¯¨éĹ¨
å¤§å¼Ģ åĽĽéĹ¨
çĽĹ é©¬
ç»Ļ èµı
ä¸İæĽ¹æĵį åĨ³æĪĺ
äºĮåįĥ åĨĽ
çļĨæľī é¥¥èī²
åıªåľ¨ çĽ®åīį
æĬ¥åħ¥ æĪĲéĥ½
éķ¿æ²Ļ éĥ¡
åĮ¡ æī¶ç¤¾ç¨·
çĶļæĺ¯ åį±æĢ¥
ç¨į åı¯
ç¨į å®ļ
ç¼º å°ĳ
åħ±è®® èī¯çŃĸ
åĨ· ç¬ĳæĽ°
ä¸įå®¹ ä¸į
ä½¥ æĽ°
è°ħ æĽ°
åı¯å¾Ĺ çŁ£
æ¬¢ å£°
æĹłç¤¼ å¤ªçĶļ
åıªåĲ¬å¾Ĺ åĲİéĿ¢
æ¯ĭ ä¹ĥ
ç¥ľ ç¬ĳæĽ°
æ²® é¹Ħ
åĽĽåįģ ä¸Ģå·ŀ
é»ĺçĦ¶ ä¸įçŃĶ
é»ĺçĦ¶ ä¸įè¯Ń
äºĶåħŃ éĩĮ
äºĶåħŃ åįģéĩĮ
æ°´éķľ åħĪçĶŁ
è®¸å¤ļ æĹ¶
çľĭçľĭ å¤©æĻļ
çľĭçľĭ èĩ³è¿ĳ
ä¹±ç®Ńå°Ħ åĽŀ
æ¶Ĥ éĿ¢
çºµæ¨ª åĽĽæµ·
éĽįå·ŀ åħµ
æ¼« å¤©
æ¼« ç©º
æ¼« æ¼«
åı© éĹ¨
å¤§ä¸Īå¤« æĹ¢
å¤§ä¸Īå¤« å¤Ħä¸ĸ
é©¬èī¯ èĩ³
é©¬èī¯ å¥ıæĽ°
ä»¥åĽ¾ è¿Ľåıĸ
åŃĶæĺİä»¤ éŃıå»¶
è¾½ä¸ľ å¤ªå®Ī
å«ģ èµĦ
åıĤåĨĽ èĴĭçĲ¬
è®¿ ä¹ĭ
è®¿ åŃĶæĺİ
å±ĭ ä¸Ń
å±ĭ ä¸Ĭ
æĭĸ åĩº
æĭĸ ç¿»
æ¬¾ çķĻ
åŃĲæľį çŃīçļĨ
éĤĪ æĽ°
æĸ©é¦ĸ ä¸ĩä½Ļ
èĴ¯ å¼Ĥåº¦
ä¹ħéĹ» åħĪçĶŁ
æ®· é¦Ĺ
æİ¢é©¬ æĬ¥è¯´
æĸŃåħ¶ è·¯
æĸŃåħ¶ ç²®éģĵ
åı±æŃ¦å£« æİ¨åĩº
åĢĺæľī çĶ¨
æīĺåŃ¤ ä¹ĭéĩį
èĴĭéĴ¦ æĽ°
èĴĭéĴ¦ çŃī
çĶ°ä¸° ä¹ĭè¨Ģ
ç´łçŁ¥ åį¿
èĸĽ åĪĻ
èĸĽ ä¹Ķ
èĸĽ ç»¼
èĪŀåĪĢ æĿ¥è¿İ
åįĸ å®ĺ
å·¨ åħ½
åĩ¯ æĽ°
ä»¥åħµ åĩ»ä¹ĭ
ä»¥æīĭ åĬłé¢ĿæĽ°
åħ¬åį¿ çļĨ
åİ»åıĸ è¥¿å·Ŀ
èĭį çĶŁ
å¤©åĳ½ ä¹Ł
å®īæİĴ é¦Ļé¥µ
æ²¡ äºĨ
é»İ æ°ĳ
æ±īæľĿ èĭĹè£Ķ
åĨħå¤ĸ çļĨ
åĳ¨ä»ĵ æĽ°
èĢģäºº çŃĶæĽ°
çł´æĽ¹ ä¹ĭçŃĸ
éļ¾ä»¥ æĬµæķĮ
æĲº å¹²
èĦĳ åĲİ
çº¢æĹĹ æĭĽ
çº¢æĹĹ ä¸ĢæĭĽ
ä»Ļ åºĦ
æĵįèĩª ä¹ĺé©¬
ä¸Ńåıĸ åĩº
ä»¥å®ī ä¼Ĺå¿ĥ
èĩªçĦ¶ éĢĢåİ»
èĩªçĦ¶ æĹłäºĭ
æĺ¯ä½ķ è¨Ģä¹Ł
åįģå¸¸ä¾į åįĸå®ĺ
æ¬²ä¸İ å°ĨåĨĽ
ä¸¤éĺµ åľĨå¤Ħ
æĸĩä¹¦ åĪ°
è¯·åħ¥ çĽ¸è§ģ
æĸ©äºĨ å¤ıä¾¯æ¸Ĭ
è¡¨å¥ı åĲİä¸»
è¡¨å¥ı å¤©åŃĲ
æĶ¾èµ· ä¸ĢæĬĬçģ«
é¸¡ çĬ¬
æķ´é¡¿ èĪ¹åıª
éĶ¦è¢į çİīå¸¦
ä¸įæĢĿ æĬ¥æķĪ
åįı åĲĮ
åįı åĬ©
æĿ¥ä¸İ èľĢåħµ
æĵħ ç¦»
ä¸ºåĲİ éĺŁ
åĩºå¸Ĳ å¤ĸ
ä»¥å¾ħ å¤©æĹ¶
éĺĶ çĭŃ
å¤©èī² åĲĳæĻļ
å®īå¿į å¼ĥä¹ĭ
æŃ»ä¸į æģ¨
èĪĴ åŁİ
æ¶ī éĻ©
åģ¶ è§ģ
çĬ¹è±« æľªå®ļ
æĢ»çĿ£ å¾¡æŀĹåĨĽé©¬
å£®å£« æĽ°
æ¬£çĦ¶ é¢Ĩè¯º
æľ« å°Ĩ
æľ« å¹´
ä¸įé¡» å¼łå¼ĵåıªç®Ń
è®² æŃ¦
è®² è®º
è®² ç¤¼æ¯ķ
ä¹ĥéĹ® åŃĶæĺİæĽ°
è¾° èĩ³
å·²æľī åĩĨå¤ĩ
çī¢ ç¬¼
æĩ¦ ä¹Ł
æĩ¦ å¤«
æīĭèµ· ä¸ĢåĪĢ
æīĭèµ· åīĳèĲ½
ç®ķ å¸ļ
æ´¥ éļĺåı£
åĳĬæĢ¥ æĸĩä¹¦
é¥± é¤Ĳ
æĤī ä»¥
ç¨½ é¦ĸ
çł´æķĮ ä¹ĭçŃĸ
è¾ŀäºĨ éŃıä¸»
æĲľ åħ¶èº«
èĴĭçĲ¬ æĽ°
èĴĭçĲ¬ å¥ıæĽ°
æ¿®éĺ³ åħ´
é¡¿é¦ĸ æĭľè°¢
éĺ´å¹³ æ¡¥å¤´
ç¾Įäºº ä¹ĭå¿ĥ
çıŃå¸ĪåĽŀ è®¸éĥ½
çıŃå¸ĪåĽŀ æ´Ľéĺ³
çıŃå¸ĪåĽŀ è®¸æĺĮ
è°¯åĳ¨ æĽ°
ä¸įçĽ¸ å®¹
ä¸įè§ī å¤§éĨī
åĪĽ ç«ĭåŁºä¸ļ
æĿ¥çĽ¸ è°¢
åİĭ å¢ĥ
éģģ èĥ½
è´± èº¯
å¯Ħ ä¸ĭ
åīįèĩ³ éĽĴåŁİ
çĿģ çľī
å°ıç«¥ æĽ°
è¢ģæ°ı åħĦå¼Ł
åħ´å¸Ī ä¼ĲéŃı
çĭŃ è·¯
èĢģå°Ĩ ä¸¥é¢ľ
èĢģå°Ĩ ä¸ģå¥ī
é²į å¿ł
çª¥ è§ģ
åħ¨å®¶ èī¯è´±
ç¦»åŁİ äºĮåįģéĩĮ
åħĢçªģéª¨ æĽ°
è¿¤éĢ¦ è¿½èµ¶
åĲ« æ³ª
åĲ« ç³Ĭ
å¼Ħ éĻ©
ä¸Ģè¡Į äººé©¬
åĲ¾ä»¥ ä»ģä¹ī
åĲ¾èĭ¥ è¿½ä¹ĭ
åĲ¾åĦ¿ å¥īåħĪ
å¥İ æĽ°
ä¸İåŃĶæĺİ åķĨè®®
è¾ķ éĹ¨å¤ĸ
åıªé¡¾ å¥Ķèµ°
æĮ« åħ¶éĶĲæ°Ķ
å¿½ä¸Ģäºº èĩªå¤ĸèĢĮåħ¥
å·¦å°ĨåĨĽ å¼łå¸ĥ
æŁĲçŃī æĦ¿
æŁĲçŃī æĦ¿å¾Ģ
æ¯ķç«Ł æŃ¤äººæĺ¯è°ģ
é¦ĸå°¾ çĽ¸
åıĹäºĨ åŃĶæĺİ
åıĹäºĨ å¯Ĩè®¡
æµģæĺŁ é©¬åĪ°
æµģæĺŁ éĶ¤
ä¸¤è·¯åħµ æĿĢåĩº
è¡Įä¸įåĪ° ä¸īåįģéĩĮ
æ²¿æ±Ł ä¸Ĭä¸ĭ
åıĽ åĲĽ
ä¸įå®ľ ä¹ħå±ħ
èĢ½ æĽ°
æ±Ĺ è¡«
å½¤ äºĳå¯Ĩå¸ĥ
èĩªåİ» åĩĨå¤ĩ
çĽ¸æĭĴ æľĪä½Ļ
çĽ¸æĭĴ äºĶåįģä½ĻæĹ¥
æĶ¯ æĮģ
åį´è¯´åı¸é©¬æĩ¿ å¼ķåħµ
éļıè¡Į åĨĽå£«
æ¶Į æ³ī
è§Ĥåħ¶ åıĺ
é¡¾è°ĵ ä¼Ĺå®ĺæĽ°
åĸĿä»¤ åĪĢæĸ§æīĭ
åĸĿä»¤ æŃ¦å£«æİ¨åĩºæĸ©ä¹ĭ
æĹ§æĹ¥ ä¹ĭæĥħ
å¥ĭçĦ¶ åĩºæĽ°
åħĭæĹ¥ èµ·åħµ
ç¾ŀæĥŃ èĢĮéĢĢ
æĭĪå¼ĵ åıĸç®Ń
æī®ä½ľ å®¢åķĨ
ä»Ĩ å°Ħ
ä¹ĭåĲį ä¹Ł
å·§ åĮł
ä¼º éļĻ
æŃ¤ä½ķ åħĨä¹Ł
ä¸ºæ±ī å®ģçİĭ
ä½ķæķ¢ å¦ĤæŃ¤
ä½ķåĨµ æĪĳçŃī
æĥ¯ çĨŁ
æĦ¤ æģ¨
åĮħ è£¹
ä»İåĲİ è¿½èµ¶
ä»İåĲİ è¿½æĿ¥
æľªæľī å¦Ĥ
èĪĨ æ¦ĩ
éĿ¢ä¸Ĭ ä¸įå¥½çľĭ
æŁı æ¢ģåı°
çĶ¨çģ« æĶ»ä¹ĭ
åį´è¯´å§ľç»´ åľ¨
æĥĬçĸĳ ä¸įå®ļ
æīĭæıĲ å®Ŀåīĳ
æīĭæıĲ å¤§åĪĢ
æīĭæıĲ åĪ©åĪĥ
è¯·åŃĶæĺİ åķĨè®®
è¯·åŃĶæĺİ è®®äºĭ
æĦıæ¬² ä½ķä¸º
é¾ļ æĻ¯
èĳ£è¢Ń æĽ°
éĩĳé¼ĵ å¤§éľĩ
åĨ²æĿĢ å°ĨæĿ¥
ç¬¬ä¸ī ä¸ª
ç¬¬ä¸ī éĺŁ
è°ģåı¯ æĵĴä¹ĭ
èĭ±åĭĩ å¦Ĥ
èĭ±åĭĩ æĹłæķĮ
æľºä¼ļ ä¹Ł
ç»ĪæĹ¥ é¥®éħĴ
ç»ĪæĹ¥ ä¸įåĢ¦
ç«¯åĿĲ ä¸Ģäºº
ç«¯åĿĲ ä¸įåĬ¨
å°ĺå¤´ èµ·å¤Ħ
åį¸ äºĨ
å¾ª æ²³
å¤§ä¹ī ä¹Ł
å¤§ä¹ī äºİå¤©ä¸ĭ
ä¼¦ çĽ´
è°¥ æĽ°
åĲ¾å¥ī å¤©åŃĲè¯ı
åĲ¾å¥ī ä¸»åħ¬ä¹ĭåĳ½
æŃ£è¯´ è¯ĿéĹ´
æĮ½ çīĮ
æĿĥä¸Ķ ç½¢åħµ
å§ĳ æģķä¹ĭ
æľĽé£İ èĢĮ
æľĽé£İ èĢĮèµ°
æľĽé£İ å½Ĵé¡º
çĶ¨ä½ķ çī©
æĭľäºİ åłĤä¸ĭ
å¹¶ä¸į æıĲèµ·
æĿİä¹Ĳ æĽ°
æ¡Ī ä¸Ĭ
æĲł æŃ»
ä¼Ĺå®ĺçļĨ æķ£
åĪĩé½¿ ä¹ĭæģ¨
åįķç¦ı æĽ°
å¼ķä¸Ģä¸ĩ åħµ
éĹŃéĹ¨ åĿļå®Ī
ä¸įæĺĵ ä¹Ł
å¤§èĥľ èĢĮåĽŀ
é©¬éģµ æĽ°
å°Ĩæ¬² ä½ķå¾Ģ
æŃ¤å¤© åĬ©
æŃ¤éĹ´ æľīä¸Ģäºº
ä¾Ľ å¥ī
ä¹ĥåĶ¤ èµµäºĳ
åŃĶæĺİä¹ĥ çķĻ
æĹ¶å¹´ å·²
æĹ¶å¹´ äºĶåįģ
å½ĵä»¥ ä½ķçŃĸ
ä¹¦ä¸Ń ä¹ĭæĦı
è¿ĽéĢĢ ä¸¤éļ¾
æ±ŁåĮĹ å²¸
æķħæĦı ä½¿
èĲ§ ä½ķ
èĲ§ åħ³
åĲĦæľī å°ģèµı
åĽ½èĢģ æĽ°
éĿŀå¸¸ äººä¹Ł
ç¼ĺ ä½ķ
ç¼ĺ ä½ķä¸į
å¯Ĩè¯ı ä»ĺ
å¨ģé£İ æĬĸæĵŀ
å¨ģéľĩ åħ¶ä¸»
å¨ģéľĩ åįİå¤ı
æ´ŀä¸Ń ä¹ĭäºº
æĮīåīĳ ç«ĭäºİ
æĮīåīĳ åĿĲäºİ
æĶ¾çģ«çĥ§ æ¯ģ
æ¹¿ éĢı
æ²īåĲŁ èī¯ä¹ħ
ä½³ èĬĤ
ä½³ éħ¿
è¯¦ ç»Ĩ
è´« åĥ§
æĿĢå¾Ĺ å°¸æ¨ªéģįéĩİ
ä¸īå°º åīĳ
åįģä¸ĥ ä¸ĩ
å¿ħè´¥ çŁ£
çĦķ æĽ°
æ³¥ æ³ŀ
å¿ĥçĶļ å¿§
å®Īåħ³ èľĢå°Ĩ
çķ¿ æĽ°
è´¼å°Ĩ ä¼ĳ
åºĶè¯º èĢĮåİ»
æįĲ èº¯
æı¡ éĩįæĿĥ
çķĻä¹ĭ ä¸įä½ı
åĪ«æľī åķĨè®®
æī¶èµ· æĽ°
å®ĿåĪĢ ä¸Ģåı£
èĭ¦è°ı ä¸įåĲ¬
çĦīæķ¢ å¦ĤæŃ¤
æľµæĢĿ æĽ°
èĵ ¬
èĵ į
ä¸įéĻį æĽ¹
ä¸Ģæĭ¥ èĢĮè¿Ľ
ä¸Ģè¾Ĩ å°ıè½¦
æ±¤ è¹Ī
èĩªå¼ķåĨĽ æĬķ
ä¸īä¸ª éĶ¦åĽĬ
è·¨ æ±Ł
èį· èĴĻ
é¢ĺ æĽ°
ä»İæŃ¤ è·¯
å²ĳ çĴ§
èī° è¾Ľ
è¶ĭ ä¾į
è¶ĭ æŃ¥
ä¸ľå·Ŀ å¼łé²ģ
åĽĽè½® è½¦ä¸Ĭ
ä¸¤äºº å¾Ĺä¸Ģ
å¾ĢèįĨå·ŀ æĿ¥
å°½å¼ĥ è¡£çĶ²
ä¼ļç¨½ å¤ªå®Ī
çł´èľĢ å¿ħçŁ£
é¼» æģ¯
å±¯ç²® ç§¯èįī
çľŁç¥ŀ ç®Ĺä¹Ł
æ¶§ ä¸Ń
å¸¦åīĳ èĢĮåħ¥
å¸¦åīĳ ä¸Ĭæ®¿
æĭ¨åĽŀé©¬ ä¾¿èµ°
èµıåĬ³ åĨĽå£«
åĥŃ åı·
åĥŃ ç§°å¸Ŀåı·
æĳ© å¤©
æĹ¬æĹ¥ ä¹ĭåĨħ
æķ· ä¹ĭ
ä¸Ģæīĭ æıĲåĪĢ
é©¬åīį å¤±
æĬ¹ æľ±
ä½ķæĹ¥ å¾Ĺ
åı¯å°Ĩ è®¡å°±
å¦Ĩ å¥ģ
å¼ķè´¥åħµ å¥Ķåħ¥
æĪĳä¸İ ä½ł
åįģä¸ī å²ģ
çĦ¶åĪĻ å¥Īä½ķ
éªĦ æ¨ª
éĢĢåħ¥ è°·ä¸Ń
é¢ĨäºĨ ä¹¦
åı¸é©¬æľĽ æĽ°
ä¼ıè·¯ åĨĽäºº
åıĹç¦ħ åı°
æĹĹå¸ľ æķ´é½Ĳ
çĸĳèĻĳ æľªåĨ³
åŃĹåħĥ åĮĸ
éŁ©æµ© æĽ°
è¥Ħå¹³ ä¾¯
æĮģèĬĤ èĩ³
å¥ĩåħµ èĥľä¹ĭ
æĻºåĭĩ ä¹ĭå°Ĩ
å¹¿éĻµ å¤ªå®Ī
æ¬ºåĲĽ ä¹ĭè´¼
çŃĳèµ· åľŁå±±
è¸Įèºĩ æľªåĨ³
ä¹ĭæīĭ æĽ°
ä¹ĭå¦» ä¹Ł
å°ĸ åĪĢ
è¿¸ åĩº
ä¸ĢæĬĬ çģ«èµ·
æĿ¥æĿĢ æĽ¹æĵį
å¸Ĩ å¹Ķ
åĩºåħ¥ å¸¸
ä»¥éĽª æŃ¤æģ¨
åīĬ å¹³
ä»Ĭæ¬² ä½ķå¾Ģ
è¾ĥ è¿ľ
åºµ åĲİ
åľ¨åľ° ä¸Ĭ
æĹłä¹ī ä¹ĭäºº
å¤©æ°Ķ çĤİçĥŃ
é¢Ĺ äººå¤´
åĿ¦ çĦ¶
åĲ´å°Ĩ ä¸ģå¥ī
åĽĽéĹ¨ å¤§å¼Ģ
æŁĶ æ³ī
ç§ĺ ä¹ĭ
åı³å°ĨåĨĽ å¾ĲæĻĥ
é«ĺå¹² çļĨ
éĩįåĬł èµıåĬ³
å¥ıéĹ» å¤©åŃĲ
åıįéĹ´ è®¡
åħ¨æĹł æĥ§èī²
æģ¨æĹł éĹ¨
åĽ°äºİ å½ĿéĻµ
ä¸īåįĥåĨĽ åİ»
çİīå¸¦ ä¸ĢæĿ¡
ä»°éĿ¢ ç¬ĳæĽ°
ä»°éĿ¢ å¤§ç¬ĳ
æ®·åĭ¤ çĽ¸å¾ħ
éĬ® èĪĨ
äºı å¾Ĺ
æľĶ é£İ
ä¸ºèįĨå·ŀ çī§
ä¸ºéķĩ åįĹ
ä¸ºéķĩ è¥¿å°ĨåĨĽ
ä¸ºè¾ħ åĽ½
åĲ¾åıĹ éŃıçİĭ
ä»¥æĭĴ èľĢåħµ
ä»Ĭèĭ¥ä¸į åıĸ
éĺİ å®ĩ
æĿĢå°Ĩ åĩºæĿ¥
åŃĲç¿¼ åĲĮ
çŁ¥ä¹Ł ä¸įçŁ¥
åıªè¯´ æĺ¯
ä¿¯ é¦ĸ
æ²Ī åĲŁèī¯ä¹ħ
æ²Ķ æ°´
æ²Ķ åı£
æīĢè§ģ èĭ¥ä½ķ
åĲĦæī§ åħµåĻ¨
æīĭä¸Ń å®ĿåĪĢ
æ´Ĵ æī«
ä¸įèĥ½çĽ¸ å®¹
ä¸įèĥ½è¡Į åĬ¨
åĬŁå¾· å·įå·į
å®«éĹ¨ åīį
æĿ¨ç§ĭ æĽ°
éĩĳçĸ® èį¯
éĩĳçĸ® è¿¸è£Ĥ
åħīæŃ¦ ä¸Ńåħ´
ä¾Ŀæ¬¡ èĢĮè¡Į
è´¾éĢµ ä¹Ł
æ¼ł æ¼ł
æī¬éŀŃ å¤§éªĤ
æĻĭåħ¬ åı¸é©¬æĺŃ
æĬļæİĮ å¤§ç¬ĳ
é¢ĩæľī éĴ±ç²®
åįļæľĽ åĿ¡
åĩºåħ¶ä¸įæĦı ä¹Ł
ä¹ĭè§ģ ä¹Ł
è¯µ ä¹ĭ
é©´ éª¡
ä¸ĢæĪŁ åĪºäºİé©¬ä¸ĭ
ä¸İä¼Ĺå°Ĩ åķĨè®®
åİ»åĬ« éŃıå¯¨
åİ»åĬ« èľĢå¯¨
å¦Ĥåħ¶ ä¸įèĥľ
åį´å°Ĩ æĪĳ
å®ĪéĹ¨ å°Ĩ
æŀ¶ éļĶ
çŃīä¸ĢçıŃ æĸĩæŃ¦
æīĢä½© åīĳ
èº² éģ¿
æĥĬè®¶ ä¸įå·²
å®ĺåĲı åĨĽæ°ĳ
é«ĺæ²Ľ äºĮäºº
éĴī äºĨ
çł´äºĨ æĽ¹æĵį
ç¼¨ ç»ľ
ç¬¬åĽĽ éĺŁ
å¾ģè¥¿å°ĨåĨĽ éĻĪæ³°
èĲ½äºİ æ°´ä¸Ń
ä¾Ŀå±± ä¸ĭå¯¨
åĬłå®³ äºİ
åĭĴåĽŀé©¬ ä¾¿èµ°
ä¸Īåħ« çĤ¹éĴ¢çŁĽ
åıĤæĭľ æ¯ķ
åıĤæĭľ å·²æ¯ķ
å±Īèº« äºĭ
æħ¨çĦ¶ é¢Ĩè¯º
åį¤åŁİ æīĵ
èī¨èīŁ ä¸Ĭ
èī¨èīŁ æĪĺèĪ°
æľīä¹¦ æĿ¥
çĽĴ ä¸Ĭ
çĶĦ å¤«äºº
è§ģèľĢåħµ éĢĢåİ»
åĩºæŃ¤ ä¸įåĪ©ä¹ĭè¨Ģ
å¦Ĵ å¿Į
ä»¥å®ŀ æĥħ
éĺī å®ĺ
ä¹ĥèģļ è¯¸å°ĨæĽ°
èĩªèµ° çŁ£
æĹłèĥ½ ä¹ĭè¾Ī
æĹłä¸Ģäºº æķ¢
æģ£ æĦı
ä¸īéĿ¢ æĶ»ä¹ĭ
ä¸īé¡¾ ä¹ĭæģ©
åĪĨä½ľ ä¸īå¯¨
ä»İèĥĮåĲİ æĿĢæĿ¥
å»Ĭ ä¸ĭ
èľľ ä¸Ń
èľľ æ°´
èĳ«èĬ¦ è°·
èľĢæ±ī å»¶çĨĻ
å¤ªçĻ½ ä¸´äºİ
çĪª çīĻ
é»Ħæ²³ æ¸¡åı£
ä¸įåı¯èĥľ è®¡
ç¾¡ æºª
åĮĹåľ° çİĭåĪĺ
è½¦ä¸Ń ç«¯åĿĲä¸Ģäºº
çĭĲ åħĶ
ä¸ĢäººåºĶå£° æĽ°
å¼ĥé©¬ æŃ¥è¡Į
æľĪæĺİ æĺŁ
æĬĬä½ı éļĺåı£
è°ģäºº åı¯åİ»
å¯¹çŃĶ å¦Ĥæµģ
æĴĳ èĪ¹
è°ĥæĭ¨ åĨĽé©¬
æĻºè°ĭ ä¹ĭå£«
æ¢ģç»ª æĽ°
åĨĻè¡¨ çĶ³å¥ıæľĿå»·
æİĮæı¡ ä¹ĭä¸Ń
ç»Ĩä½ľæİ¢çŁ¥ æŃ¤äºĭ
æĭĨä¹¦ è§Ĥä¹ĭ
åĨįä¸īåĬĿ è°ı
å¼ĺåĨľ çİĭ
ç¢§çľ¼ ç´«é«¯
æ¬łèº« çŃĶæĽ°
çį łä¸ģ
åĪ® éª¨
ä¸Ģè¾¹ æĺ¯
æĵįå¿ħ éĩįå¾ħ
äºİä¸ľ éĹ¨å¤ĸ
èĢĮå¤į æĺİ
ä½ķå¤ªåĲİ æĽ°
ä»¥çĽ®è§Ĩ çİĦå¾·
äºĮçĻ¾ å¹´
äºĮçĻ¾ åħ«
ä¸»æ¯į ä¸İå°ıä¸»äºº
å½ĵå¤´ ä¸Ģåĳĺå¤§å°Ĩ
åıĪä½ķ çĸĳ
å¿ĥå¦Ĥ éĵģçŁ³
ä¿º åĵ¥åĵ¥
éĤ¢ éģĵèį£
å¿½åĵ¨é©¬ é£ŀæĬ¥
ä¸¤æŀĿ åĨĽ
éĢĢæķĮ ä¹ĭçŃĸ
è´¥æ®ĭ åħµ
å¸Ŀä¸İ çİĭ
å¹¶é©¬ èĢĮè¡Į
åįĵéĹ® èĤĥæĽ°
æĶ¶äºĨ ç¤¼çī©
éĥŃå¸¸ ä¹ĭåŃĲ
å¯Ĩå®¤ éĹ®ä¹ĭ
æ°ĶåĬĽ ä¸įåĬł
é¸© æĿĢ
æĦŁåħ¶ å¾·
éĵģç¬¼ å±±
ç´§è¦ģ å¤Ħ
è¿ģå»¶ æĹ¥æľĪ
åħĸå·ŀåĪºåı² éĤĵèī¾
æľªæķ¢è½» è¿Ľ
æ¼«å±± å¡ŀéĩİ
ä¹ĮæĪĪåĽ½ ä¸»
æĨ ©
æĨ ĶæĤ
åĨĽå·² éĢĢ
å¤§æĤŁ æĽ°
ä¸Ģçīĩ å£°
çİ© å¥½
æľīå¤ļå°ĳ äººé©¬
ç»Ĭ åĢĴ
äºİåīį æĽ°
ä¸Ńä¹¦ éĥİ
æĬ¬ å¤´
ä»¥è¡¨ åħ¶å¿ł
æĭ´ åľ¨
æĿĢæĿ¡ å¤§è·¯
å½ĵçĶ¨ä½ķ è®¡
åıªé¡» å¦ĤæŃ¤å¦ĤæŃ¤
èĭ¥èĤ¯ æĶ¾
æ¯¡ è½¦
æ³¼ æ°´
é¢ł è¦Ĩ
ä¿Ħ å»¶
åĪĨå®¾ä¸» åĿĲå®ļ
åĽĽæĹ¶ äº«ç¥Ń
æŁĳ åŃĲ
äºĮäººåıĹè®¡ å¼ķåħµèĢĮåİ»
æķĻä½ł çľĭ
æĭľåıĹ åį°ç»¶
åįĥç§ĭ ä»°
æĶ»åħ¶ åīį
æĶ»åħ¶ æĹłå¤ĩ
æĶ¾ä¸ĭ åĲĬæ¡¥
éĩĳçĽĶ éĩĳçĶ²
å½¼åħµ ç²®å°½
ç¼¢ æŃ»
æ°Ķæķ° å·²å°½
ä¼łåĽ½ çİīçİº
åĪ«ä½ľ åķĨè®®
èĻİè´² ä¸Ńéĥİå°Ĩ
è®¾ä¸Ģ è°ĭ
åĭĩåĬĽ è¿ĩäºº
åĢĴç«ĸ èĻİé¡»
çªģåĽ´ èĢĮèµ°
çªģåĽ´ èĢĮåĩº
ä»Ĺä¹ī è®¨è´¼
éģįè§Ĥ åĲĦèĲ¥
ä¸Ģå½ªäººé©¬ æĿ¥åĪ°
å©´ åĦ¿
é¢ĦåħĪ åĩĨå¤ĩ
çŃĳåĿĽ äºİ
æİ·æĿ¯ äºİåľ°
æİ·æĿ¯ ä¸ºåı·
åĲĲè¡Ģ æķ°
è´«éģĵ ä¹ĥ
æĩĬæĤĶ ä¸įå·²
å¼¥ å¤©
åĬ£ å¼Ł
ä½ķæĻı çŃī
å½» éĩĮåĲī
ä»¥åĬ© ä¸Ģç¬ĳ
ä»Ĭæŀľ åºĶ
ä¸İåħ¬ åĲĮ
ä¸İå¤ıä¾¯éľ¸ åķĨè®®æĽ°
åŁİåįĹ éĹ¨å¤ĸ
èĩªæıĲ ä¸ĢåĨĽ
èĩªä»¥ä¸º å¾Ĺå¿Ĺ
ä¸īæĿ¡ å¦Ļè®¡
è¯´åĩº çĶļ
æŃ£èī² èĢĮè¨ĢæĽ°
ä¿ŀ æ°ı
ä¿ŀ æ¶ī
èľĤ æĭ¥èĢĮæĿ¥
åįĹå±± ä¹ĭä¸Ń
åį³ä½į ä»¥æĿ¥
æīĢå½Ĵ ä¹İ
å°ıè§ĳ æĪĳ
ä¸įåı¯ä»¥ å¥īå®ĹåºĻ
çĽ´æĿĢåĪ° å¤©æĺİ
èģĶ ç»ľ
åıįæ¬² å®³æĪĳ
æ®ģ äºİçİĭäºĭ
çĮ®äºĨ åŁİæ±ł
åı·åĵŃ ä¹ĭå£°
èĻİè±¹ è±ºçĭ¼
ä¸įå¦Ĥä¸Ķ åĽŀ
æ®¿ä¸Ń æł¡å°īå°¹å¤§çĽ®
æĢĢäºĮå¿ĥ èĢ¶
åīįéĿ¢ä¸ĢåĨĽ æĳĨå¼Ģ
çº¢è¢į éĺŁä¸Ń
å³¨ åµĭ
éļĲå±ħ äºİæŃ¤
ç°ª ç¼¨
ä¸¹éĺ³ å¤ªå®Ī
çĮĽçĦ¶ çľģæĤŁ
ç¦ħä½į äºİ
æĭ©åĲī æĹ¥
åĪĽä¸ļ ä¹ĭ
è®Ńç»ĥ äººé©¬
å¸¦æĿ¥æ´ŀä¸» æĽ°
éĪ ĩ
ä¸¢ ä¸ĭ
ä¸ĢåĪĩ å®Įå¤ĩ
ä¸ĢèĩĤ ä¹ĭåĬĽ
ä¸Ģå°ĳå¹´ å°Ĩ
æľīäººæĬ¥çŁ¥ çİĦå¾·
æĵįèĩªé¢Ĩ ä¸ŃåĨĽ
ä¸ĭæµģ å¤´
ä¸Ńè¯¸èĳĽäº® ä¹ĭè®¡ä¹Ł
ä¸ºè´¨ å½ĵ
èĢĮåºŁ åĽ½å®¶å¤§äºĭ
åĲ¾äºĭ æµİçŁ£
åĲ¾å²Ĥ æĥ§
å¯ĵ å±ħ
ä»¥å½ĵ éŃıåħµ
ä»¥æĪĲ é¼İè¶³ä¹ĭåĬ¿
å±ł çĮª
æĭ· éĹ®
æĹłçĸĳ çŁ£
é£ĺçĦ¶ æľī
äºĭåĬ¿ èĩ³æŃ¤
æ¬²èĩª æĪĺ
èĤ¥ èĥĸ
åĲĦä¾Ŀ éĺŁä¼į
å£°å¦Ĥ å·¨éĽ·
è¢«äºĳ ä¸ĢæŀªåĪºèĲ½é©¬ä¸ĭ
é¢ĨæŃ¤ ä»»
å¼ķåħµåįģä¸ĩ æĶ»
åĪĢç®Ń ä¸įèĥ½
éľĸ éĽ¨
æļĳ æ°Ķ
æĦ¿åħĪçĶŁ æķĻæĪĳ
å¥ıåĩĨ å¤©åŃĲ
èĢģåıŁ æĽ°
å°±å¸Ń éĹ´
å¦Ĥä½ķçŀĴ å¾ĹæĪĳ
çªĹ å¤ĸ
èįīåºĲ ä¹ĭä¸Ń
å¯¹ä¼Ĺ æĽ°
å»ºå®ģ å¤ªå®Ī
éĿĴéĩŃ åīĳ
èĭ¥ä¸įæĹ© åĽ¾
æĬ«çĶ² ä¸Ĭé©¬
çŀĳçĽ® çŁ£
èĭ¦åĳĬ æĸ¹åħį
æºħ ä¹ĭ
åĩ¤åĩ° æĿ¥ä»ª
å¦ĦæĿĢ ä¸Ģäºº
ç¾İé«¯ åħ¬
åľĨçĿģ çİ¯çľ¼
äº¬åħĨ å°¹
éĽįå·ŀåĪºåı² è¯¸èĳĽç»ª
çļĤè¡£ è·£è¶³
ãĢĳ ãĢĲ
âĢ¦ âĢ¦
ä¹ĭçĶļ ä¹Ł
ä¸įéģĩ ç©ºåĽŀ
æīŃ è½¬
ä¸ºå®³ ä¸įæµħ
åĲ¾æľīä¸Ģ è¨Ģ
åı¯çŁ¥ çŁ£
ä»¥éģ¿ åħ¶éĶĭ
åħ¶å®ľ ä¹Ł
åħ¶å®ľ ä»İ
ä¹ĥä¹ī éĺ³
åŃĶæĺİç«¯åĿĲäºİ ä¸Ĭ
æĹłæĤ£ çŁ£
åĸĤ åħ»
éŃĦ æķ£
æĹ¶éŃı æĻ¯
èĻı å°ĨåĨĽ
èľĢéģĵ å´İå²ĸ
åĽĽåĨ¢ å¯¨
ä¸ĩå®ī æºª
æ°´æ·¹ ä¸ĥåĨĽ
åĲĦæ´ŀ éħĭéķ¿
è¯·äºĮå«Ĥ ä¸Ĭè½¦
åĽ½äºº é¥®ä¹ĭ
å¸Ŀå®¤ ä¹ĭèĥĦ
è´¼èĩ£ èĳ£åįĵ
èº«è¢« æķ°æŀª
ä¼ıåĩł èĢĮåį§
æĪĲäºĨ å¤§åĬŁ
åĪĢåī² å¼Ģ
åķ¸ èģļå±±æŀĹ
è¿ŀçıł çĤ®åĵį
åĿĲå®Ī äºİæŃ¤
å°ģä¾¯ ä¹ĭä½į
æ²³åįĹ å°¹
é¥®äºĨ æķ°æĿ¯
èĤ¯éĻį åĲ¦
åħ±æĶ» æĽ¹æĵį
ç³Ĭ æ¶Ĥ
è¢ŃæĪĳ åĲİ
çĦ¶åĲİåı¯ åĽ¾
æĮºä¸Īåħ« èĽĩçŁĽ
æĴĩ äºĨ
çģŃæĹı ä¹ĭç¥¸
æĬĺä¼¤ å¤§åįĬ
æµİåĮĹ çĽ¸é²įä¿¡
æīĺçĸ¾ ä¸įåĩº
æľīä½ķéļ¾ åĵī
æĬµæĮ¡ ä¸įä½ı
åĿļå®Īåĭ¿ æĪĺ
ä¸įè¶³èĻĳ ä¹Ł
å®£è°ķ æĽ°
å¤ªå°īçİĭ ç¥¥
ä½¯è¾ĵ è¯Īè´¥
å¯Ŀé£Ł ä¸įå®ī
éķ¿æ²Ļå¤ªå®Ī éŁ©çİĦ
æĮŁä½ı æŀª
æĮŁå¤©åŃĲ ä»¥ä»¤è¯¸ä¾¯
é¥¶ä½ł æĢ§åĳ½
æĮ«åĬ¨ éĶĲæ°Ķ
è¡ĢæµģæĪĲ æ²³
è¡ĢæµģæĪĲ æ¸ł
æĹłè¨Ģåı¯ çŃĶ
æĹłè¨Ģåı¯ å¯¹
åĸıåĸıè¿ŀå£° èĢĮéĢĢ
ä¸įå¤± å°ģä¾¯ä¹ĭä½į
å¤§èĢ³ åĦ¿
å¤§è®¾ çŃµå®´
ä¸ĢçŁĽ åĪºä¸Ń
è®¹ è¨Ģ
æŃ¤æķ° äººçļĨ
åĩºåĪ° éĺµåīį
éĻķ è¥¿
ä»¥æħ¢ åĨĽå¿ĥ
ä¹ĥèĩ³ äºİæŃ¤
å¦ĤåĲĮ çĻ½æĹ¥
åħ¥å±± éĩĩ
æĿĢè¿ĩ éĺµæĿ¥
äºĭæĹł å¤§å°ı
æĹ¶å»ºå®īäºĮåįģ ä¸īå¹´
åį´åĨį çĲĨä¼ļ
çİĭèİ½ ç¯¡éĢĨ
åĲ´æľī éķ¿æ±Łä¹ĭéĻ©
éĿ¢ä¸įæĶ¹ èī²
æŁ¥ æ¸İ
ä¸ĩæĪ· ä¾¯
çĸ¥ çĻ
éĿŀæ±ĿçŃī ä¹ĭç½ª
ä¸ŀçĽ¸éĴ§ æĹ¨
éľľ éĽª
åĬ¿å¿ħ åį±çŁ£
èįĨå·ŀå·²è¢« åĲķèĴĻ
è¿ŀç»ľ ä¸įç»Ŀ
åĬĽç©· åĬ¿åŃ¤
ç¤¼è´¤ ä¸ĭå£«
å¤©ä¸ĭå¥ĩæīį ä¹Ł
èĻİåį« åĨĽ
æļĹæĬķ æĺİ
è´¤èĩ£ æĭ©ä¸»èĢĮäºĭ
åľŁå´© çĵ¦è§£
çĵ® åŁİè¾¹
å¼łéĥĥå®Ī éķ¿å®ī
ç»Ĩè¿° ä¸Ģéģį
æİ¨ä¸ĭ æĸ©ä¹ĭ
å¢© åı°
ä¸Ģå£°æ¢ĨåŃĲ åĵį
åİļèµı ä¹ĭ
æ»¡åŁİ çĻ¾å§ĵ
çĭ¬èĩª ä¸Ģäºº
åĩºé©¬äºİ éĹ¨æĹĹä¸ĭ
éķĩåĽ½å¯º ä¸Ń
æķ´çĤ¹ åĨĽé©¬
æ³ªæµģ æ»¡éĿ¢
ç¯± èĲ½
æ±łä¸Ń çī©
éĺģä¸ĭ çİĦåŃĻ
å¾ĢæĿ¥é©° éªĭ
çĮĽçľģ æĽ°
æ¯ĴèĽĩ æģ¶èĿİ
å°ĺåŁĥ èµ·å¤Ħ
æīĭæī§éķ¿ ç«¿
é¦ĸå°¾ä¸įèĥ½ æķĳåºĶ
æĢĴæ°ĶåĨ² æ¿Ģ
éªłéªĳ å¤§å°ĨåĨĽ
èĲ§æĢĢ ä¾¯
é³ŀ çĶ²
ä¹ĭå¤§æĤ£ ä¹Ł
åīĬåİ» åħµæĿĥ
çµ ®
ä»Ģ çī©
ä¹ĭéģĹ æĦı
ä¸įåħĭ èĢĮè¿ĺ
å°Ĩä½ķçŃĸ ä»¥
æľīæĿĢ çĪ¶ä¹ĭä»ĩ
æŃ¤æĺĵ äºĭèĢ³
åĩºé¬¼ æ²¡
åĲ¾åĨį æĶ¾æ±ĿåĽŀåİ»
ä¾¥ å¹¸
è´© å±¦
ä»¥æĶ¶ æ°ĳå¿ĥ
åīĲ ä¹ĭ
æĭļ å°Ĩä¸ĢæŃ»
çİĦå¾·æĭ±æīĭ è°¢æĽ°
ä¹ĥæĽ¹æ´ª ä¹Ł
ä¹ĥä¸Ńå±±éĿĸ çİĭä¹ĭåĲİ
çĽ¸æĬ± èĢĮåĵŃ
åīįéģ® åĲİæĭ¥
çŁ¥å½¼ çŁ¥å·±
çŁ¥éģĩ ä¹ĭæģ©
åįģä¼¤ åħ«ä¹Ŀ
æĪĺåĽ½ æĹ¶
å®īéĤ¦ å®ļåĽ½
æŃ»çĶŁ æľīåĳ½
ä¿ĺ éķ¿
åĪĨå·¦åı³ èĢĮåĩº
æ²ĥ éĩİåįĥéĩĮ
æĢ¥éĢĢåĨĽ æĹ¶
çī¡ ä¸¹
å¤ĩå®īæķ¢ å½ĵæŃ¤
æīĢä¹ĺä¹ĭ é©¬
äºĶèĻİ å¤§å°Ĩ
å¤ªæŀģ æ®¿
è¥¿æĽ¹æİ¾ éĤµæĤĮ
æ·ĭ æ¼ĵ
é«Ģ èĤī
åĲĮèĥ ŀ
åı£åĲĲ é²ľè¡Ģ
ä¼ļçĮİäºİ æ±Łå¤ı
å¤ĸæĹł æķĳåħµ
æĬķè¢ģæľ¯ åİ»äºĨ
éļıæľº åºĶåıĺ
é¥¯ è¡Į
è¿ŀåı« ä¸īå£°
èĴĤ éĴŁ
åĿĲéķĩ ä¸ŃåİŁ
ä¹±æ£Ĵ æīĵåĩº
å¼Ģå±± å¤§æĸ§
ä¹ħè¿ľ ä¹ĭè®¡
ä¹ħåĲİå¿ħ åıį
ç©¹ èĭį
ç¼İ åĮ¹
ç¼Ł ç´ł
é¡»è¯¯äºĨ æĪĳ
å¼ĥåħ³ èĢĮèµ°
åĨ²è¦ģ ä¹ĭå¤Ħ
æ¸¡äºĨ æ³¸æ°´
èĲ½åĩ¤ åĿ¡
åĢĴæĴŀ ä¸ĭé©¬
æī¶åį± ä¸»
åĭĴçĶ² ç»¦
åĻ¨å®ĩ è½©æĺĤ
çİīæ³ī å±±
äºİé©¬é¡¹ ä¹ĭä¸ĭ
åħįéģŃ å¤§ç¥¸
èĬ³æŀĹ åĽŃä¸Ń
é¡¿å¼Ģ èĮħå¡ŀ
å®½æ´ª å¤§åº¦
é»ĳæ²¹æŁľ è½¦
èĦļåŃĶåĪĨå¢¨ äºĮå¯¸
ç¡«é»Ħ çĦ°ç¡Ŀ
è½¦ä¸Ĭç«¯åĿĲ åŃĶæĺİ
åĹŁåĳĢ ä¸įå·²
éĿĴé¾ĻåģĥæľĪ åĪĢ
çĿģåľĨ çİ¯çľ¼
åĮĹæµ·å¤ªå®Ī åŃĶèŀį
æŀĹæľ¨èĮĤçĽĽ ä¹ĭå¤Ħ
ç½¡æĺŁ åľ¨è¥¿æĸ¹
åħ¶å¤§å¦Ĥ æĸĹ
éĶĢéĩĳ ä¼ŀçĽĸ
ç§ĥé¾Ļ æ´ŀ
åįĸä¸»æ±Ĥ èį£
ä¸įèĤ ĸ
ä¸įä¿Ŀ çŁ£
ä¸įåģļ åĩĨå¤ĩ
äººä¸įåıĬ çĶ²
å¤§åİ ¦
ä¸Ģå¸Ń è¯Ŀ
ä¸Ģæ£Ĵ é¼ĵåĵį
é©¬ä¸įåıĬ éŀį
è®¥è® ½
ä¸ĭåĽŀ åĪĨè§£
ä¸ĭå®ļ å¯¨æłħ
ä¸ºä»Ĭ ä¹ĭè®¡
åĲ¾æľīä½ķéĿ¢çĽ® ä¸İæ±Ŀ
ä¸İèĻİæ·» ç¿¼
ä¹ĥåŃĻä¹¾ ä¹Ł
ä¹ĥèľĢä¸Ń åĲįå°Ĩ
èĩªå¾Ĳå·ŀ å¤±æķ£
äºĮç½ª ä¿±ç½ļ
åľ¨åĪ« å¸Ĳ
åħ¥èĨı èĤĵ
æĹłåı¯ä»¥ æĬ¥
çŁ¥ç¤¼ ä¹ī
åĸŁçĦ¶ åı¹æĽ°
æŃ£æĥĬçĸĳ éĹ´
æŃ£ä¸ºæŃ¤ ä¹Ł
éķ¿ä¹Ĳ å®«
ä¸ľåĨ² è¥¿çªģ
äºĶåĩ¤ æ¥¼
æľĽç¥ģå±± è¿Ľåıĳ
æĸĩæĪ¿ åĽĽå®Ŀ
æ°´ä¸įåı¯ é¥®
çĶ¨éĿĴ å¸ĥ
åĲĦéĢĥ æĢ§åĳ½
åĲĦéľ¸ ä¸Ģæĸ¹
åį´è¯´æ¯ĭä¸ĺä¿Ń åľ¨
å°½çĺ ģ
ä½Ļä¼ĹçļĨ éĻį
é»Ħåı£ åŃºåŃĲ
å¤ľä½ľä¸Ģ æ¢¦
å·¦è´¤ çİĭ
ä¸įåı¯ä¸ĢæĹ¥ æĹłåĲĽ
å¤ļè´Ł åĭ¤åĬ³
é«ĺè´µ ä¹¡åħ¬
èĢ³èģ ĭ
è¿ŀå°Ħ ä¸īç®Ń
æ°ĳæ®· åĽ½å¯Į
éĩĳæŀĿ çİīåı¶
çĿ£ä¸ĢåĨĽ åĩº
æīĵéĤĵè´¤ å¯¨
å®ŀä¸ºæ±ī è´¼
èĤ¯å®¹çº³ åĲ¦
è®¾éĨ ®
éģĩæ°´åıł æ¡¥
å»ºå§ĭ æ®¿
æĭ¨è½¬ é©¬å¤´
éĿĴèĿ ĩ
éĿĴçĲĲ éĹ¨å¤ĸ
éĢĥå¸Ń èĢĮåİ»
å¿ĻçīĻ éķ¿
åĨĽä¸Ńéĥİ å°Ĩ
åį§åºĬ ä¸įèµ·
æŀģå¤©éĻħ åľ°
é¹¦é¹ ī
æĬ«åĿļæī§ éĶĲ
åŁĭéĶħ éĢłé¥Ń
ç«ĭäºİçĻ½æĹĹ ä¸ĭ
æ³ªå¦ĤéĽ¨ ä¸ĭ
åī²é¡»å¼ĥ è¢į
æĭ¦æĮ¡ ä¸įä½ı
è¯ļæĥ¶ è¯ļæģĲ
çĸıä¸įéĹ´ äº²
åįłä¸Ģè¯ ¾
åħµä¸įåİĮ è¯Ī
æıĴéĿĴé¾Ļ çīĻæĹĹ
åĢļå®ļæĬ¤ å¿ĥ
è¿ĽéĢĢä¸¤éļ¾ ä¹ĭéĻħ
æ±¤è¹Ī çģ«
å¤ªçĻ½ä¸´äºİ éĽĴåŁİ
åĮĹåľ°çİĭåĪĺ è°Į
æĨĶæĤ ´
¥ ä¹ĭ
¥ åĨĽ
¦ èĥ
¦ åĨħ
¦ æİĮ
¨ æ¸¸
© è¡£
ª æĺŃ
ª é£Ł
ª æ´¥
¬ åĬ³
® åĴ
® åĨķ
¯ å¼ĵ
¯ çĲĬ
¯ å³¨
° å¢¨
° éĻ©éĺ»
± ç¿Ķ
² è¾¹
² çı
² èĵį
³ åĳĬ
´ æĹĹ
´ åİŁ
´ çŁ³
µ è¿ĳ
µ è´¡
· è¾±
¸ ä¹ĭåľ°
¸ é¦Ļ
¹ éħĴ
¹ ç½ķ
¹ åħµéĿ©
¼ ä¼ĺ
¼ èļģ
½ å§ľ
½ æĥĳ
è ĺ
Ġ åıĸ
Ġ æ±ī
Ġ æķĳ
Ġ æĸ©
Ġ å®´
Ġ éŃıä¸»
Ġ åºŁ
Ġ æĽ¹ä¸ķ
Ġ åĪĺçİĦå¾·
Ġ ä¸ģå¥ī
Ġ èĶ¡å¤«äºº
Ġ æŃ¦ä¹¡ä¾¯
Ġ ä¸īæ±Łåı£
Ġ éĤĵå£«è½½
Ģ è¶Ĭ
Ĥ çī
Ĥ åĦĴ
ĥ é©¬
ĥ ä»¥
Ħ æ¸ħ
ħ é³
Ĩ åĵ
ĩ ä¸Ģ
Ī æµİ
Ī å°¾
ī è·
ĭ çĽ®
İ å¼ĵ
ı æĽ°
ı ä¸ĭ
ı å¿½
Ĵ å¤ļ
Ĵ å¤´
Ĵ æĢı
Ķ ä¹ĭ
Ķ ä¸º
Ķ è²ħ
ĸ å±¦
ĺ éĹ®
ĺ èĽ
Ļ æķ°
ļ äºº
Ľ ä¸Ģ
Ł èĽ
Ł éĻ¤
ł ä¾¯
ï¼Į âĢĻ
ä¸ ¸ä¹ĭåľ°
äº ¨
äº ¹
äº Ī
äº µè¿ĳ
ä¹ Ļæķ°
å¤ Ł
å¤ ¥åĨĽ
åı ®åĴ
ï¼ļâĢľ ãĢĬ
ä¹ĭ æĿ¥
ä¹ĭ åı¯
ä¹ĭ ä¸İ
ä¹ĭ æĬ¥
ä¹ĭ æ¬²
ä¹ĭ æŃ»
ä¹ĭ éĹ¨
ä¹ĭ æķĻ
ä¹ĭ èĲ¥
ä¹ĭ åıĳ
ä¹ĭ å°ģ
ä¹ĭ åıį
ä¹ĭ æľ¬
ä¹ĭ çĸĳ
ä¹ĭ å·¦åı³
ä¹ĭ æĢĿ
ä¹ĭ éĽĦ
ä¹ĭ å®ŀ
ä¹ĭ å®¹
ä¹ĭ åĬ©
ä¹ĭ ç¥ŀ
ä¹ĭ çº¦
ä¹ĭ æĸĻ
ä¹ĭ èµĲ
ä¹ĭ å²¸
ä¹ĭ åħ·
ä¹ĭ æ²»
ä¹ĭ ä¹¡
ä¹ĭ ç§ĭ
ä¹ĭ éĺ»
ä¹ĭ å°¸
ä¹ĭ åĤį
ä¹ĭ çĶ±
ä¹ĭ åºĻ
ä¹ĭ é¬¼
ä¹ĭ ç¦Ħ
ä¹ĭ èĻļå®ŀ
ä¹ĭ æļ´
ä¹ĭ èµĦ
ä¹ĭ åı¯ä¹Ł
ä¹ĭ éĶĲæ°Ķ
ä¹ĭ å¿Į
ä¹ĭ éŃĤ
ä¹ĭ å°Ĩèĩ³
ä¹ĭ è¯¡è®¡
ä¹ĭ èĢ»
ä¹ĭ åĽļ
ä¹ĭ ä¾¿äºĨ
ä¹ĭ ç±»
ä¹ĭ è°Ĭ
ä¹ĭ å§¿
ä¹ĭ åıĺåĮĸ
ä¹ĭ æ¦Ĥ
ä¹ĭ æĢģ
ä¹ĭ ä¿Ŀéļľ
ä¹ĭ è±¡ä¹Ł
å° ¼
æĿ ³
åĨ ¥
åĨ ¶
æľ ¦èĥ
ä¸į æľī
ä¸į ä»¤
ä¸į åħĪ
ä¸į ä¸»
ä¸į æĬ¥
ä¸į é£ŀ
ä¸į æĢ¥
ä¸į åĲį
ä¸į æķĻ
ä¸į æĶ»
ä¸į ä¼ļ
ä¸į éĩį
ä¸į æİ¥
ä¸į å¥ı
ä¸į åıį
ä¸į æľĿ
ä¸į é½Ĳ
ä¸į èī¯
ä¸į åĽ´
ä¸į å°ĳ
ä¸į æīĵ
ä¸į å®ŀ
ä¸į æ·±
ä¸į å¾ģ
ä¸į åħ¨
ä¸į æķ£
ä¸į äº¡
ä¸į å¿§
ä¸į éĢĬ
ä¸į æŀľ
ä¸į ä»¤äºº
ä¸į æĭĽ
ä¸į æķ¬
ä¸į ç©º
ä¸į æĥŁ
ä¸į åĩĨ
ä¸į è¯Ľ
ä¸į æįī
ä¸į çĬ¯
ä¸į æĬ«
ä¸į åŃĿ
ä¸į åºŁ
ä¸į é¸£
ä¸į å¿µ
ä¸į çĸ¾
ä¸į ç©¿
ä¸į éĨī
ä¸į çĪ±
ä¸į ä¹ı
ä¸į æ³Ħ
ä¸į ä¸İæĪĳ
ä¸į åĿł
ä¸į æĿĤ
ä¸į è®°
ä¸į éĨĴ
ä¸į æĤŁ
ä¸į ç¼º
ä¸į åĨ³ä¸ĢæŃ»æĪĺ
ä¸į æĤ²
ä¸į é¥±
ä¸į æģ¤
ä¸į å¤ªå¹³
ä¸į æŁĵ
ä¸į é¢ĺ
ä¸į éĤª
ä¸į å¤įæĿ¥
ä¸į çĹĬ
ä¸į æĹ¬æĹ¥
ä¸į äºĮæĹ¥
ä¸į å¤±ä¿¡
ä¸į è¾¨
ä¸į è¯¬
ä¸į åĩı
ä¸į æıĲèµ·
ä¸į ä¿Ł
ä¸į ç©¶
ä¸į è°Ļ
ä¸į ä½ĳ
ä¸į æĢķæŃ»
ä¸į è´¹åĬĽ
ä¸į ä¸¤ç«ĭ
[...]
