{"<s>":0,"<pad>":1,"</s>":2,"<unk>":3,"<mask>":4,"!":5,"\"":6,"#":7,"$":8,"%":9,"&":10,"'":11,"(":12,")":13,"*":14,"+":15,",":16,"-":17,".":18,"/":19,"0":20,"1":21,"2":22,"3":23,"4":24,"5":25,"6":26,"7":27,"8":28,"9":29,":":30,";":31,"<":32,"=":33,">":34,"?":35,"@":36,"A":37,"B":38,"C":39,"D":40,"E":41,"F":42,"G":43,"H":44,"I":45,"J":46,"K":47,"L":48,"M":49,"N":50,"O":51,"P":52,"Q":53,"R":54,"S":55,"T":56,"U":57,"V":58,"W":59,"X":60,"Y":61,"Z":62,"[":63,"\\":64,"]":65,"^":66,"_":67,"`":68,"a":69,"b":70,"c":71,"d":72,"e":73,"f":74,"g":75,"h":76,"i":77,"j":78,"k":79,"l":80,"m":81,"n":82,"o":83,"p":84,"q":85,"r":86,"s":87,"t":88,"u":89,"v":90,"w":91,"x":92,"y":93,"z":94,"{":95,"|":96,"}":97,"~":98,"¡":99,"¢":100,"£":101,"¤":102,"¥":103,"¦":104,"§":105,"¨":106,"©":107,"ª":108,"«":109,"¬":110,"®":111,"¯":112,"°":113,"±":114,"²":115,"³":116,"´":117,"µ":118,"¶":119,"·":120,"¸":121,"¹":122,"º":123,"»":124,"¼":125,"½":126,"¾":127,"¿":128,"À":129,"Á":130,"Â":131,"Ã":132,"Ä":133,"Å":134,"Æ":135,"Ç":136,"È":137,"É":138,"Ê":139,"Ë":140,"Ì":141,"Í":142,"Î":143,"Ï":144,"Ð":145,"Ñ":146,"Ò":147,"Ó":148,"Ô":149,"Õ":150,"Ö":151,"×":152,"Ø":153,"Ù":154,"Ú":155,"Û":156,"Ü":157,"Ý":158,"Þ":159,"ß":160,"à":161,"á":162,"â":163,"ã":164,"ä":165,"å":166,"æ":167,"ç":168,"è":169,"é":170,"ê":171,"ë":172,"ì":173,"í":174,"î":175,"ï":176,"ð":177,"ñ":178,"ò":179,"ó":180,"ô":181,"õ":182,"ö":183,"÷":184,"ø":185,"ù":186,"ú":187,"û":188,"ü":189,"ý":190,"þ":191,"ÿ":192,"Ā":193,"ā":194,"Ă":195,"ă":196,"Ą":197,"ą":198,"Ć":199,"ć":200,"Ĉ":201,"ĉ":202,"Ċ":203,"ċ":204,"Č":205,"č":206,"Ď":207,"ď":208,"Đ":209,"đ":210,"Ē":211,"ē":212,"Ĕ":213,"ĕ":214,"Ė":215,"ė":216,"Ę":217,"ę":218,"Ě":219,"ě":220,"Ĝ":221,"ĝ":222,"Ğ":223,"ğ":224,"Ġ":225,"ġ":226,"Ģ":227,"ģ":228,"Ĥ":229,"ĥ":230,"Ħ":231,"ħ":232,"Ĩ":233,"ĩ":234,"Ī":235,"ī":236,"Ĭ":237,"ĭ":238,"Į":239,"į":240,"İ":241,"ı":242,"Ĳ":243,"ĳ":244,"Ĵ":245,"ĵ":246,"Ķ":247,"ķ":248,"ĸ":249,"Ĺ":250,"ĺ":251,"Ļ":252,"ļ":253,"Ľ":254,"ľ":255,"Ŀ":256,"ŀ":257,"Ł":258,"ł":259,"Ń":260,"ï¼":261,"ï¼Į":262,"ãĢ":263,"ä¸":264,"ãĢĤ":265,"âĢ":266,"äº":267,"åħ":268,"ä¹":269,"å¤":270,"æĽ":271,"åı":272,"åĲ":273,"ï¼ļ":274,"âĢľ":275,"âĢĿ":276,"ä»":277,"ï¼ļâĢľ":278,"æĽ°":279,"ä¹ĭ":280,"å°":281,"æĿ":282,"åĨ":283,"æľ":284,"ä¸į":285,"åį":286,"å¾":287,"å®":288,"ä½":289,"æĹ":290,"æŃ":291,"ãĢĢ":292,"åĪ":293,"åŃ":294,"å¼":295,"æĺ":296,"äºº":297,"ãĢĤâĢĿ":298,"åĨĽ":299,"è¯":300,"èĢ":301,"åħµ":302,"åĽ":303,"å¿":304,"é©":305,"æķ":306,"èĩ":307,"å¤§":308,"è¿":309,"ä¸Ģ":310,"è§":311,"é©¬":312,"å°Ĩ":313,"èµ":314,"å·":315,"æĪ":316,"ä¼":317,"çİ":318,"æĿ¥":319,"åĩ":320,"æĵ":321,"éĹ":322,"æ±":323,"å¸":324,"ãĢģ":325,"è®":326,"æľī":327,"çĽ":328,"æĸ":329,"æī":330,"æĵį":331,"æŃ¤":332,"åİ":333,"ç»":334,"éģ":335,"ä¸ĭ":336,"äºİ":337,"ï¼Ł":338,"åľ":339,"ä¸Ń":340,"ï¼Ľ":341,"æĬ":342,"ä¸º":343,"çŁ":344,"çĶ":345,"è§ģ":346,"ï¼ģ":347,"èĢĮ":348,"è°":349,"åĬ":350,"éĢ":351,"ä½ķ":352,"å¹":353,"å½":354,"åĩº":355,"åĲ¾":356,"éĻ":357,"æĢ":358,"éĥ":359,"ä¾":360,"åı¯":361,"è´":362,"ä¹Ł":363,"å¯":364,"å¾·":365,"å¦":366,"åĳ":367,"åĲİ":368,"ä»¥":369,"æĺİ":370,"å¥":371,"ï¼ŁâĢĿ":372,"æĽ¹":373,"åħ¬":374,"ä¸Ĭ":375,"åī":376,"è¡":377,"å±":378,"çļ":379,"åŁ":380,"ä»Ĭ":381,"çİĦ":382,"ä¸İ":383,"éĺ":384,"å¼ł":385,"æĭ":386,"åİ»":387,"åħ¶":388,"çŃ":389,"çİĦå¾·":390,"æ¬":391,"æĹ¥":392,"åŁİ":393,"èĥ":394,"ä»¤":395,"åŃĶ":396,"ä¹ĥ":397,"ï¼ģâĢĿ":398,"è¾":399,"èĭ":400,"èĩª":401,"åº":402,"å£":403,"äºĮ":404,"åĽŀ":405,"åŃĶæĺİ":406,"éĿ":407,"å¼ķ":408,"¨Ģ":409,"è¨Ģ":410,"å¦Ĥ":411,"åľ¨":412,"æĥ":413,"æĺ¯":414,"åħ¥":415,"çĽ¸":416,"å¾Ĺ":417,"æ°":418,"è¢":419,"éĩ":420,"æĹł":421,"æĿĢ":422,"æĶ":423,"æģ":424,"æİ":425,"åħĪ":426,"ä¸ī":427,"äºĨ":428,"ä¸»":429,"è¯´":430,"æĪĳ":431,"åīį":432,"åħ³":433,"èĩ³":434,"é£":435,"è·":436,"åŃĲ":437,"åĪ°":438,"çŁ¥":439,"å¤©":440,"åįģ":441,"çļĨ":442,"äºĭ":443,"æĦ":444,"åĸ":445,"éŃ":446,"éķ":447,"å¿ħ":448,"æ±Ŀ":449,"æĹ¶":450,"å½ĵ":451,"çĻ":452,"éŃı":453,"èį":454,"åıĪ":455,"åĪĺ":456,"å·²":457,"åıª":458,"èĭ¥":459,"çĦ":460,"å±±":461,"æĬ¥":462,"ä¼Ĺ":463,"äºĳ":464,"æ¬²":465,"åį´":466,"æ¯":467,"æŃ£":468,"æĪĺ":469,"ä½¿":470,"è·¯":471,"å¯¨":472,"éķ¿":473,"èĻ":474,"ç«":475,"çİĭ":476,"ç¥":477,"çľ":478,"æ³":479,"å·ŀ":480,"åŃĻ":481,"å®ī":482,"éģĤ":483,"çº":484,"å¿ĥ":485,"éĹ®":486,"é¢":487,"åıĸ":488,"éļ":489,"èµ·":490,"æŃ»":491,"çĦ¶":492,"éĽ":493,"èĢħ":494,"è¡Į":495,"åĿ":496,"å®Ī":497,"åĲ´":498,"ä¿":499,"åĮ":500,"å°ĨåĨĽ":501,"æĽ¹æĵį":502,"è®¡":503,"è½":504,"çŁ£":505,"æĮ":506,"æŀ":507,"éª":508,"çŃī":509,"ä¾¿":510,"çģ":511,"åĪĨ":512,"åĳ½":513,"ä¹¦":514,"å£«":515,"ä»İ":516,"éĤ":517,"å»":518,"é¡":519,"æľª":520,"è¯¸":521,"å²":522,"æĻ":523,"èľ":524,"èĪ":525,"èī":526,"å¸ĥ":527,"èĤ":528,"è¶":529,"èĳ":530,"çĿ":531,"çĳ":532,"èľĢ":533,"ç¬":534,"æ²":535,"è¥":536,"ä¸ľ":537,"æĿĥ":538,"ä¾¯":539,"é£ŀ":540,"æĢ¥":541,"è¿Ľ":542,"éĿ¢":543,"åįĹ":544,"åĵ":545,"éĹ»":546,"èµ°":547,"èĥ½":548,"åĽĽ":549,"æķ°":550,"èĩ£":551,"çĻ¾":552,"çī":553,"æ¸":554,"å§":555,"åį³":556,"å¿½":557,"é»":558,"ä¸¤":559,"éĥ½":560,"å¾Ģ":561,"æ±Ł":562,"å¤ĩ":563,"æīĢ":564,"äºĶ":565,"æŁ":566,"å¹³":567,"éĢĢ":568,"æľĽ":569,"éĹ¨":570,"æµ":571,"ä¸ĩ":572,"æ±ī":573,"åľ°":574,"æķħ":575,"å¤ª":576,"åĢ":577,"ç²":578,"ç§":579,"æĸ¹":580,"çĶŁ":581,"çķ":582,"å¤Ħ":583,"æĸĩ":584,"æ°´":585,"åĭ":586,"éĻį":587,"èĲ":588,"çĶ¨":589,"å°ı":590,"æĩ":591,"åı¸":592,"åĲĦ":593,"çĪ":594,"åį´è¯´":595,"è¥¿":596,"å£°":597,"å°½":598,"æķ¢":599,"èº":600,"ä½Ļ":601,"é»Ħ":602,"æĥĬ":603,"æīĭ":604,"ç¦":605,"è®®":606,"å¤ľ":607,"è´¥":608,"äº¦":609,"æ·":610,"åĲķ":611,"çĸ":612,"åĲ¬":613,"æĩ¿":614,"è¯·":615,"è¢«":616,"åĽ½":617,"ç½":618,"ä¸Ķ":619,"ä½ı":620,"å¸Ŀ":621,"è´¼":622,"åĸľ":623,"ç®":624,"é¢Ĩ":625,"åı¸é©¬":626,"è®¸":627,"æĢĴ":628,"å·¦":629,"é«":630,"å¿ł":631,"éĶ":632,"ä¸įåı¯":633,"çĳľ":634,"ä¸ŀ":635,"æ´":636,"äºĮäºº":637,"å¤«":638,"åĲį":639,"å¾ħ":640,"å¾Ĳ":641,"è¢ģ":642,"å®ĺ":643,"é¦":644,"ç»´":645,"éĿŀ":646,"æķĻ":647,"æħ":648,"åĨħ":649,"éħ":650,"ä¸ŀçĽ¸":651,"éģĵ":652,"èº«":653,"ç«ĭ":654,"å¤ļ":655,"çľĭ":656,"åĲĮ":657,"ä¼ı":658,"åºĶ":659,"æķĳ":660,"æĦı":661,"æŃ¦":662,"éĺ³":663,"æĪĲ":664,"åĳ¨":665,"å¤ı":666,"åħ³åħ¬":667,"æŁĲ":668,"ç»į":669,"çŃĸ":670,"æķĮ":671,"æĭľ":672,"å®ļ":673,"çģ«":674,"è¿ĩ":675,"åĲĪ":676,"åįĥ":677,"åı³":678,"å¹´":679,"æĸ©":680,"éĺµ":681,"éĩĮ":682,"çł":683,"ç¾":684,"å®¶":685,"èįĨ":686,"èµ¶":687,"èİ":688,"å¸Ī":689,"å¼ķåħµ":690,"åı£":691,"ç¬ĳ":692,"ä½ľ":693,"æĶ»":694,"åĪĢ":695,"å¹¶":696,"é«ĺ":697,"ä¼ļ":698,"åĽł":699,"éŁ":700,"çĲ":701,"å»¶":702,"æ¬¡":703,"ç²®":704,"å¤´":705,"è¿İ":706,"äº²":707,"éľ":708,"åĮĹ":709,"ç¤":710,"åĤ":711,"å¤ĸ":712,"è¿½":713,"èµµ":714,"äºĳéķ¿":715,"éĹ´":716,"åĲĽ":717,"èĪ¹":718,"è°ĭ":719,"æļ":720,"è¡¨":721,"èĥľ":722,"ä¹İ":723,"åĬ¿":724,"éĻĪ":725,"æĬķ":726,"åĶ":727,"è¦":728,"æĿİ":729,"æ¯ķ":730,"çĶļ":731,"è½¦":732,"èįĨå·ŀ":733,"æį":734,"å½Ĵ":735,"çĮ":736,"æ¡":737,"è°ĵ":738,"éĩį":739,"æģĲ":740,"åĳĬ":741,"èĢ³":742,"æĦ¿":743,"æĹ©":744,"éģ£":745,"èĲ¥":746,"å¼Ł":747,"åıĳ":748,"è§Ĩ":749,"æĶ¾":750,"æİ¥":751,"éļı":752,"æı":753,"èĻ½":754,"ä»ĸ":755,"åķ":756,"åıĬ":757,"èĤĥ":758,"çĪ¶":759,"èĬ":760,"çĽ´":761,"èľĢåħµ":762,"é¦ĸ":763,"é¥":764,"åıĹ":765,"å¤±":766,"ä¸įèĥ½":767,"åħ´":768,"å¤ıä¾¯":769,"åŃĶæĺİæĽ°":770,"å¦ĤæŃ¤":771,"åĨį":772,"çİĦå¾·æĽ°":773,"åĪĻ":774,"è¿ŀ":775,"æĤ":776,"ç¿":777,"ä¹ĺ":778,"å¤§åĸľ":779,"èĴ":780,"åħĦ":781,"æĹĹ":782,"å°ļ":783,"å¤į":784,"ç¨":785,"åİŁ":786,"éªĳ":787,"é½":788,"æĺŃ":789,"åĬŁ":790,"è¶³":791,"é¾":792,"çĹ":793,"å¥ı":794,"åķĨ":795,"ä¼ĳ":796,"åĲķå¸ĥ":797,"å¼łé£ŀ":798,"è¾¹":799,"åĿĲ":800,"å¸Ĳ":801,"çĭ":802,"éĥ¡":803,"éħĴ":804,"éĴ":805,"èĢģ":806,"å¥ī":807,"æĽ´":808,"åĬĽ":809,"èĳĽ":810,"çł´":811,"æł":812,"èģ":813,"ä¹ī":814,"å°±":815,"å¥Ķ":816,"ä¹±":817,"ç´":818,"å°ģ":819,"å¼Ģ":820,"ç®Ń":821,"ä¹ħ":822,"è¯¸èĳĽ":823,"çĬ":824,"åıį":825,"æľ¬":826,"è¦ģ":827,"åįĵ":828,"è¶ħ":829,"åĶ¤":830,"åķĨè®®":831,"åŃŁ":832,"é¼":833,"çĸĳ":834,"ç¤¼":835,"é¾Ļ":836,"æ®":837,"èĳ£":838,"å¤§æĢĴ":839,"å¦Ĥä½ķ":840,"å¤©ä¸ĭ":841,"è§£":842,"ä¸»åħ¬":843,"å²Ĥ":844,"æĹ¢":845,"çĥ":846,"å®«":847,"æĿ¨":848,"æ°ĳ":849,"ç»Ł":850,"éĥ¨":851,"æĶ¶":852,"é²":853,"æľĿ":854,"åīĳ":855,"åĬ¨":856,"åĽ¾":857,"å§ĵ":858,"ä¸Ģäºº":859,"æĵįæĽ°":860,"éĩĳ":861,"éŃıå»¶":862,"åŃĻæĿĥ":863,"çķĻ":864,"åĨĽé©¬":865,"èİ·":866,"æĵĴ":867,"é½Ĳ":868,"é£İ":869,"å±¯":870,"å¤§æĥĬ":871,"åŃĹ":872,"çª":873,"çľŁ":874,"èī¾":875,"çĿ£":876,"åĨĽå£«":877,"èµµäºĳ":878,"å½¼":879,"æīį":880,"éĥŃ":881,"å§ľ":882,"èĥĮ":883,"äº¤":884,"å·¦åı³":885,"åł":886,"æ¶":887,"è¿ĳ":888,"éļ¾":889,"ç©":890,"ç¼":891,"éŁ©":892,"éŃıåħµ":893,"ä»ģ":894,"èĢ¶":895,"æŀª":896,"è§Ĥ":897,"åĪĺå¤ĩ":898,"åı«":899,"éĢģ":900,"çļĩ":901,"éĤĵ":902,"äº®":903,"åģ":904,"æ³ķ":905,"ç¬ĳæĽ°":906,"å¾Ħ":907,"çĤ":908,"å·Ŀ":909,"åı¸é©¬æĩ¿":910,"è¿ľ":911,"é¡»":912,"å¼ĥ":913,"çĿĢ":914,"åĴ":915,"å¸¦":916,"éĵ":917,"èī¯":918,"å¤«äºº":919,"ä½Ĩ":920,"æľĪ":921,"åĽ´":922,"åĵŃ":923,"æ¨":924,"å§ľç»´":925,"èħ":926,"åĦ":927,"è¿ĺ":928,"å¯Ĩ":929,"æ¬¡æĹ¥":930,"çı":931,"è¾ŀ":932,"èįī":933,"ç½ª":934,"ä½ł":935,"æ°Ķ":936,"éĶĭ":937,"åħ«":938,"å°Ħ":939,"çĮ®":940,"ä¸ª":941,"åİ»äºĨ":942,"éĹ®æĽ°":943,"ä¿¡":944,"æıĲ":945,"çĻ½":946,"æ²³":947,"åı¹":948,"é²ģ":949,"å·®":950,"å°ĳ":951,"ä¼ł":952,"æĬĬ":953,"æĢĿ":954,"åįĬ":955,"å¥½":956,"é¥®":957,"ä¸ľåĲ´":958,"äºİæĺ¯":959,"åĿļ":960,"è¢ģç»į":961,"é¼ĵ":962,"å¨":963,"è¯ı":964,"åı·":965,"éĥĥ":966,"éĤ£":967,"æµģ":968,"å¸¸":969,"æīĵ":970,"åįģä½Ļ":971,"æİ¢":972,"åĭ¿":973,"ä¸įçŁ¥":974,"è½»":975,"è§Ĩä¹ĭ":976,"éĽĦ":977,"å®ŀ":978,"ä»ĬæĹ¥":979,"åºŀ":980,"è¯¸å°Ĩ":981,"èĤ¯":982,"æ»":983,"æĲ":984,"è±":985,"åħ±":986,"åĨ²":987,"æľį":988,"å®³":989,"åĳ¨çĳľ":990,"ä¸įæķ¢":991,"æ¢":992,"èĢĮåİ»":993,"ä¼Ĺå°Ĩ":994,"ç¬¬":995,"è°¢":996,"èĽ":997,"å®ľ":998,"æ±Ĥ":999,"çĴ":1000,"æ·±":1001,"å¼ķåĨĽ":1002,"åĪ«":1003,"çºµ":1004,"çĹħ":1005,"Ľä¸ĭ":1006,"ä»»":1007,"è¾½":1008,"å®¹":1009,"åĨ³":1010,"ä¹Ĳ":1011,"èĢĮèµ°":1012,"èĻİ":1013,"äººé©¬":1014,"è°·":1015,"åĲĳ":1016,"åĸĬ":1017,"æļĹ":1018,"åĬ©":1019,"çŃĶ":1020,"åħģ":1021,"ä¹ĭäºĭ":1022,"è¯Ĺ":1023,"è®¾":1024,"éĻĽä¸ĭ":1025,"æŃ¢":1026,"å¥Ī":1027,"ä¸¾":1028,"ä¸ĸ":1029,"è¡£":1030,"æ±īä¸Ń":1031,"ä¸ĥ":1032,"èĦ":1033,"åıĶ":1034,"å®ģ":1035,"åŃ¤":1036,"è´¤":1037,"å¤º":1038,"ä»ĺ":1039,"é©¬è¶ħ":1040,"éĥ½çĿ£":1041,"èĻļ":1042,"ä¿Ŀ":1043,"ç¥ŀ":1044,"æ¥":1045,"çĶ²":1046,"è°ģ":1047,"å¾ģ":1048,"æĺŁ":1049,"æĸŃ":1050,"åľŁ":1051,"å±ħ":1052,"èĴĻ":1053,"å¹¸":1054,"è¾¾":1055,"æĮĩ":1056,"æī¿":1057,"åı¬":1058,"åı²":1059,"åħĥ":1060,"ç¨ĭ":1061,"å¯¹":1062,"åĲİä¸»":1063,"æģ©":1064,"é£Ł":1065,"å¤©åŃĲ":1066,"å¨ģ":1067,"ä¾į":1068,"æ¸¡":1069,"åħ¨":1070,"åıªè§ģ":1071,"æ¯į":1072,"éªĤ":1073,"æķ£":1074,"æģ¨":1075,"èĮ":1076,"éľĩ":1077,"ç¿¼":1078,"èĶ":1079,"é¸":1080,"ä¸ĢåĨĽ":1081,"çĽ®":1082,"é¡¾":1083,"ç§°":1084,"éĻĨ":1085,"æħĮ":1086,"åį¿":1087,"èī²":1088,"èĲ½":1089,"éĻµ":1090,"è°ı":1091,"æĻĥ":1092,"èģļ":1093,"ä¸Ĭé©¬":1094,"åĭĩ":1095,"æĽ¾":1096,"æľīä¸Ģ":1097,"çī¹":1098,"é©¾":1099,"éģĩ":1100,"éĢŁ":1101,"å²±":1102,"é»Ħå¿ł":1103,"çĵ":1104,"è£":1105,"åĩ»":1106,"æĸ°":1107,"æ°ı":1108,"çº¦":1109,"æľķ":1110,"åĪº":1111,"æĺĶ":1112,"åºľ":1113,"å»º":1114,"çŁ³":1115,"ä¸ķ":1116,"åħŃ":1117,"çĴĭ":1118,"å¼łéĥĥ":1119,"ç³":1120,"äº¡":1121,"ä¼Ĳ":1122,"èĥĮåĲİ":1123,"ä¸įå¾Ĺ":1124,"å¿§":1125,"æĸĻ":1126,"æ¸Ĭ":1127,"ä¸´":1128,"å¤§åı«":1129,"æĭ¨":1130,"åŁİä¸Ń":1131,"åĸĿ":1132,"è¤":1133,"ä¹ĭè¨Ģ":1134,"åį±":1135,"éĢĬ":1136,"å¹²":1137,"å¥³":1138,"èĢĮæĿ¥":1139,"èĽ®":1140,"åı±":1141,"æľ¯":1142,"å¼ĵ":1143,"æŃ¤äºº":1144,"ç»Ĩ":1145,"éĿĴ":1146,"åħĪä¸»":1147,"ç²¾":1148,"èµĲ":1149,"éĢĥ":1150,"ç¥ĸ":1151,"æŀľ":1152,"å¤ªå®Ī":1153,"æ¡¥":1154,"èµı":1155,"å¯»":1156,"èĭ±":1157,"ä½¿äºº":1158,"åĴĮ":1159,"è¯Ī":1160,"ç»ĵ":1161,"çļĦ":1162,"èĶ¡":1163,"å¤§åĨĽ":1164,"ç»Ŀ":1165,"ç¦»":1166,"åĲ¦":1167,"æŃ¥":1168,"çĽĸ":1169,"éĺŁ":1170,"æİ¨":1171,"çī©":1172,"ä¸ĢéĿ¢":1173,"çĶĺ":1174,"ä½ķä¸į":1175,"å¿½æĬ¥":1176,"åħī":1177,"è¥Ħ":1178,"çıŃ":1179,"ä¸¥":1180,"ä¹Ŀ":1181,"åĲİäºº":1182,"è¢Ń":1183,"çĻ»":1184,"åĢĴ":1185,"æľīè¯Ĺ":1186,"ä¾Ŀ":1187,"åħĪçĶŁ":1188,"é¡º":1189,"æ·®":1190,"åłĤ":1191,"å¢":1192,"åĸĦ":1193,"æľ¨":1194,"å®´":1195,"åĬł":1196,"ä½ķæķħ":1197,"ä¿±":1198,"ä¸įå¦Ĥ":1199,"è´Ł":1200,"çīĽ":1201,"ä»ĩ":1202,"æĿ¾":1203,"çĽĽ":1204,"æĥ§":1205,"æģ¯":1206,"çĦ¶åĲİ":1207,"æĹ§":1208,"è§Ĵ":1209,"ä»¤äºº":1210,"èĭŀ":1211,"åħĪéĶĭ":1212,"åĮ¹":1213,"çĲĨ":1214,"åŃŁèİ·":1215,"åįİ":1216,"æ³°":1217,"çªģ":1218,"åĺ":1219,"æī§":1220,"æĥĩ":1221,"æħĪ":1222,"éĤĵèī¾":1223,"åĬ³":1224,"æĭĴ":1225,"æĥħ":1226,"ç½¢":1227,"åħ¸":1228,"ä¹ĭè®¡":1229,"é¢ľ":1230,"è¯¸èĳĽäº®":1231,"ç¦ģ":1232,"ä½į":1233,"å¥ıæĽ°":1234,"ŀį":1235,"èµ´":1236,"æ´ª":1237,"åı¹æĽ°":1238,"éĢł":1239,"è¤ļ":1240,"ä¸Ģå£°":1241,"ä¸ĭé©¬":1242,"åĬ«":1243,"æĭĽ":1244,"äºĮåįģ":1245,"æ±ĿçŃī":1246,"æĮº":1247,"å²¸":1248,"æķ¬":1249,"åĬĿ":1250,"åĩºåŁİ":1251,"å¦»":1252,"çĿ¿":1253,"åİŁæĿ¥":1254,"é©±":1255,"ä¹ĭäºº":1256,"å¼Ĥ":1257,"åİ¿":1258,"ä¿®":1259,"èµ¶æĿ¥":1260,"å®¤":1261,"ä¼¤":1262,"åİļ":1263,"åĦ¿":1264,"æ»¡":1265,"åĻ":1266,"å®Ĺ":1267,"å¿Ļ":1268,"å¼łè¾½":1269,"éĽį":1270,"ç¾¤":1271,"éľ¸":1272,"åĲİäººæľīè¯Ĺ":1273,"å¤§å°Ĩ":1274,"æĬ¤":1275,"æĽ¹ä»ģ":1276,"åħ¥åŁİ":1277,"æĮģ":1278,"çģµ":1279,"æ±Łä¸ľ":1280,"å¥Īä½ķ":1281,"æĴ":1282,"äºŃ":1283,"åĪ©":1284,"èĩ´":1285,"äºĮå°Ĩ":1286,"çĳ¾":1287,"ä»ª":1288,"åĨĽä¸Ń":1289,"ä¸ļ":1290,"åľ¨æŃ¤":1291,"æŃ£æĺ¯":1292,"å¾Ĳå·ŀ":1293,"èİ«":1294,"åıĺ":1295,"ä¹ĭåħµ":1296,"åĪĿ":1297,"è¯Ń":1298,"é¢Ĩåħµ":1299,"æĪĲéĥ½":1300,"ģå±±":1301,"å°ī":1302,"æľ±":1303,"çģŃ":1304,"å¾ĲæĻĥ":1305,"å¤§äºĭ":1306,"è®¨":1307,"æĸĹ":1308,"åĮĸ":1309,"å¿½çĦ¶":1310,"ä¹ĭåĲİ":1311,"ä»¥ä¸º":1312,"å¯¨ä¸Ń":1313,"æĻļ":1314,"åĤķ":1315,"æ®¿":1316,"åĸĬå£°":1317,"åŀ":1318,"ä¸įåĩº":1319,"å¾¡":1320,"è¿Ļ":1321,"éĢļ":1322,"æĢĢ":1323,"éĥİ":1324,"éĩİ":1325,"åĥ":1326,"å¤§è´¥":1327,"æĽ¹åħµ":1328,"åĢĺ":1329,"ç©º":1330,"ä¸įè§ģ":1331,"æ±ľ":1332,"èĢĮåĩº":1333,"éĻ©":1334,"æľªçŁ¥":1335,"åĽłæŃ¤":1336,"ä¹¾":1337,"æĬĺ":1338,"åħ¶è¨Ģ":1339,"ä¼Ĺå®ĺ":1340,"ç¥ģå±±":1341,"çĻ¾å§ĵ":1342,"æĸ©ä¹ĭ":1343,"é²ģèĤĥ":1344,"æĳ":1345,"éº":1346,"æľº":1347,"åįĴ":1348,"äººæĬ¥":1349,"ç»Ī":1350,"åħ·":1351,"åį§":1352,"åĽ°":1353,"æī¶":1354,"æĢ§":1355,"åĢĻ":1356,"åĭĴ":1357,"æĭĶ":1358,"ä»İä¹ĭ":1359,"å«":1360,"äºī":1361,"æĿ¥è§ģ":1362,"æĥŁ":1363,"æŀģ":1364,"æ¨Ĭ":1365,"åºŀå¾·":1366,"åĲī":1367,"åĩĨ":1368,"çĭ¬":1369,"æĿĢä¹ĭ":1370,"èµ·åħµ":1371,"çĻ¾ä½Ļ":1372,"æİ¥åºĶ":1373,"æ½":1374,"é©¬å²±":1375,"è®«":1376,"åĪĺè¡¨":1377,"çºµé©¬":1378,"å¼º":1379,"æĺ¥":1380,"ä¸ĭå¯¨":1381,"æĥ³":1382,"æµİ":1383,"ä¸ģ":1384,"æīĺ":1385,"å½ª":1386,"éĻ¤":1387,"è¡Ģ":1388,"æİ©":1389,"å¿ĥä¸Ń":1390,"è¿Ľåħµ":1391,"æĪª":1392,"è¢į":1393,"å¿ħæľī":1394,"åĵį":1395,"åĤħ":1396,"èĳ£åįĵ":1397,"ç³ľ":1398,"ä¸Ī":1399,"ä¸Ģé½Ĳ":1400,"æľīä½ķ":1401,"æ¯Ķ":1402,"ç¥Ń":1403,"æ´Ľ":1404,"èĴĭ":1405,"è¯Ĩ":1406,"ä¸ĭæĸĩ":1407,"èĢĮè¡Į":1408,"å¹¼":1409,"è´¾":1410,"åĪĨä»ĺ":1411,"è®¸è¤ļ":1412,"æ´ŀ":1413,"çĬ¹":1414,"æ¨ª":1415,"è¯Ľ":1416,"æŀĹ":1417,"ä¹ĭæĽ°":1418,"å¿Ĺ":1419,"éĢĨ":1420,"æ¯ı":1421,"ç²®èįī":1422,"æįī":1423,"èĤĥæĽ°":1424,"ä¸§":1425,"å®Ŀ":1426,"åĩºé©¬":1427,"åŁİä¸Ĭ":1428,"åĪĨè§£":1429,"è®¸éĥ½":1430,"åĻ¨":1431,"é¹":1432,"è°ĥ":1433,"ä¸īåįĥ":1434,"åįģä¸ĩ":1435,"ä¼ĹçļĨ":1436,"ç¥¸":1437,"åĵ¨":1438,"åĵī":1439,"çĥ§":1440,"çĤ¹":1441,"èª":1442,"èµį":1443,"åĳ¼":1444,"æĭ¥":1445,"éķĩ":1446,"æ³£":1447,"åŃĻçŃĸ":1448,"è¿½èµ¶":1449,"çļĩåıĶ":1450,"èĦ±":1451,"æ¼":1452,"åĨĢ":1453,"å¥ĭ":1454,"åıªå¾Ĺ":1455,"åĪĨåħµ":1456,"æ²»":1457,"çłį":1458,"å¤ıä¾¯æĥĩ":1459,"å¤§æĢĴæĽ°":1460,"èħ¹":1461,"å´":1462,"éĨ":1463,"åĪĩ":1464,"çİī":1465,"æĸĩæŃ¦":1466,"ä¸ĭæĸĩåĪĨè§£":1467,"ä¹ĭåľ°":1468,"æĪŁ":1469,"å¸Ń":1470,"çĶ°":1471,"åĽŀæĬ¥":1472,"æĦŁ":1473,"èĮĥ":1474,"ä»Ĺ":1475,"æĺĮ":1476,"äºİé©¬":1477,"åº¶":1478,"è½¬":1479,"äºĶåįĥ":1480,"ç¼ļ":1481,"åı¤":1482,"ä»ĵ":1483,"æķ´":1484,"äºİåľ°":1485,"éĽ¨":1486,"æĻ®":1487,"æµ·":1488,"éļıåĲİ":1489,"æ´Ľéĺ³":1490,"åħį":1491,"è®º":1492,"æĬµ":1493,"æĿĢæĿ¥":1494,"éĵģ":1495,"è¿Ł":1496,"ä¼¯":1497,"åı¯ä»¥":1498,"éĺ²":1499,"èįĢ":1500,"å°½çļĨ":1501,"ä¸Ķè¯´":1502,"çŃĶæĽ°":1503,"ä¹ĭæĦı":1504,"éģį":1505,"éģĹ":1506,"çºª":1507,"éª¤":1508,"çķ¥":1509,"çĳľæĽ°":1510,"æį®":1511,"åĳĬæĽ°":1512,"èŀį":1513,"å¾Ĵ":1514,"èĭ¥ä½ķ":1515,"åĲ¬å¾Ĺ":1516,"æ¡ĵ":1517,"åħĦå¼Ł":1518,"çĬ¯":1519,"èªĵ":1520,"èĹ":1521,"åįĩ":1522,"åĪĹ":1523,"å¥¸":1524,"åħ³åħ´":1525,"éĴŁ":1526,"çĨ":1527,"äººä¹Ł":1528,"çİ°":1529,"è°Ń":1530,"èĭ¥ä¸į":1531,"ç²¾åħµ":1532,"ä¸ĢæĹ¥":1533,"åĩł":1534,"çĽĬ":1535,"æĬ«":1536,"åīįéĿ¢":1537,"çĹĽ":1538,"æĺŁå¤ľ":1539,"æ¿":1540,"ç±":1541,"çŀ":1542,"åĩī":1543,"åįģéĩĮ":1544,"éĹ®ä¹ĭ":1545,"çĳģ":1546,"äºĶçĻ¾":1547,"ç´ł":1548,"æĮºæŀª":1549,"è²":1550,"åŃĿ":1551,"éķ¿å®ī":1552,"åŃĻä¹¾":1553,"æł¡":1554,"ä¸įèĤ¯":1555,"åĳĺ":1556,"å¥ĩ":1557,"çĽ¸è§ģ":1558,"èĻĳ":1559,"çİĭå¹³":1560,"å»·":1561,"èĤī":1562,"æĺĵ":1563,"è¯¯":1564,"è¿Ĳ":1565,"åŁĭ":1566,"èĭ¦":1567,"åħ¥è§ģ":1568,"åŃĲé¾Ļ":1569,"çº³":1570,"æĻº":1571,"è¥¿å·Ŀ":1572,"èħ¾":1573,"çĵĴ":1574,"èĸ":1575,"èµ¤":1576,"çº¢":1577,"ç«ĭäºİ":1578,"åĩĨå¤ĩ":1579,"å³":1580,"æº":1581,"åĲı":1582,"å°Ŀ":1583,"æĿ¡":1584,"æ³ª":1585,"äº²èĩª":1586,"èĬ³":1587,"è±«":1588,"è°ıæĽ°":1589,"è§Ī":1590,"æĽ¹çľŁ":1591,"çº§":1592,"æĿĥæĽ°":1593,"çķª":1594,"ç¢":1595,"éŀ":1596,"åĨĽå¸Ī":1597,"æŃ¤äºĭ":1598,"ç»£":1599,"æĪĳçŃī":1600,"éŃıä¸»":1601,"åĲ´åħµ":1602,"æĮī":1603,"è¢ģæľ¯":1604,"èĬĤ":1605,"æĤ£":1606,"æ£":1607,"ä¹ĭä¸Ń":1608,"ä¸įåıĬ":1609,"æĪĸ":1610,"æĽ¹æ´ª":1611,"å¼łç¿¼":1612,"è¾ħ":1613,"åºŁ":1614,"è¨ĢæĽ°":1615,"ä¸īäºº":1616,"åĪĺçĴĭ":1617,"çĪ½":1618,"åı¸é©¬æĺŃ":1619,"ä»²":1620,"åħ¶äºº":1621,"åŁİä¸ĭ":1622,"å¼ķä¸ĢåĨĽ":1623,"æĶ¸":1624,"ç«Ł":1625,"éĶ¦":1626,"å¤ıä¾¯æ¸Ĭ":1627,"èĭ±éĽĦ":1628,"çĶĺå®ģ":1629,"ä¹¡":1630,"åıĮ":1631,"ä»°":1632,"æŃĩ":1633,"å¤§çİĭ":1634,"æĿ¥æĹ¥":1635,"ä¸īåĨĽ":1636,"ä¼ĹåĨĽ":1637,"é¡¿":1638,"å²ģ":1639,"å¿½è§ģ":1640,"ç§ĭ":1641,"ä¸Ķçľĭ":1642,"ç®¡":1643,"åĤ¬":1644,"åŃŁè¾¾":1645,"èĽ®åħµ":1646,"èµŀ":1647,"çİĩ":1648,"éģ¿":1649,"èĪį":1650,"å°ıè·¯":1651,"ä¼ıåħµ":1652,"éŁ¦":1653,"ä¸Ģå½ª":1654,"æĸ½":1655,"çļĵ":1656,"æĮĤ":1657,"ä¸¤è·¯":1658,"åĲķèĴĻ":1659,"ä¹ĺåĬ¿":1660,"å¸Ĳä¸ĭ":1661,"æľĿå»·":1662,"å·®äºº":1663,"é¸£":1664,"éĻĨéĢĬ":1665,"è¸":1666,"ä¸ĵ":1667,"åı°":1668,"äºİç¦ģ":1669,"å¯¿":1670,"å¦¾":1671,"éļĲ":1672,"é¦ĸçº§":1673,"æ¢ģ":1674,"å¡":1675,"å¤¹":1676,"åĨĻ":1677,"æĺı":1678,"è¯©":1679,"å¿į":1680,"æĿ¥è¿İ":1681,"çĶ»":1682,"æĹłä¸į":1683,"å½ĵåħĪ":1684,"è¶Ĭ":1685,"ä¸¤åĨĽ":1686,"æĩ¿æĽ°":1687,"è¥Ħéĺ³":1688,"èĿ":1689,"ä¹ŀ":1690,"ä¹ĭå¿ĥ":1691,"è¯Ŀ":1692,"å¹¿":1693,"åĲ¾ä»Ĭ":1694,"æĽ¹ä¸ķ":1695,"æŃ»æĪĺ":1696,"èĪŁ":1697,"æĿİåĤķ":1698,"æ¤":1699,"ä¸įä½ı":1700,"æī¬":1701,"ä½ķäºº":1702,"åħ¬åŃĻ":1703,"æ¬º":1704,"æĬ¥çŁ¥":1705,"ç¥İ":1706,"æŀĿ":1707,"ç¦ı":1708,"çĤ®":1709,"åŁĭä¼ı":1710,"âĢĶ":1711,"åıĤ":1712,"ä¹ĭéĹ´":1713,"æĺİåħ¬":1714,"è¾±":1715,"æĺ¯å¤ľ":1716,"ä¸īè·¯":1717,"ç«¥":1718,"éª¨":1719,"èĳ¬":1720,"æ²Ľ":1721,"æķ°åįģ":1722,"èĬĿ":1723,"ä¼łä»¤":1724,"åĿļå®Ī":1725,"æĲ¦":1726,"å©":1727,"ä¹ĭæĹ¶":1728,"åįķ":1729,"æŃĨ":1730,"å¤§å°ĨåĨĽ":1731,"åĳĪ":1732,"éĺ´":1733,"å¼łèĭŀ":1734,"åº¦":1735,"åĽŀè§ģ":1736,"åĢŁ":1737,"æļĤ":1738,"æĬķéĻį":1739,"åħ»":1740,"åį«":1741,"åį°":1742,"åİ®":1743,"å¦Ļ":1744,"åī²":1745,"éĺ»":1746,"æĿĢåĩº":1747,"å¿ħçĦ¶":1748,"æĻĭ":1749,"å¸ĥæĽ°":1750,"åĽĽéĿ¢":1751,"æ±ŁåįĹ":1752,"ç¾Į":1753,"éģ£ä½¿":1754,"å¤§éľĩ":1755,"å°Ĩå£«":1756,"æŃ¤æĹ¶":1757,"éģ¥":1758,"åĩºæĪĺ":1759,"è´µ":1760,"æİĮ":1761,"çľ¼":1762,"éĽ·":1763,"å»ĸ":1764,"æľĽè§ģ":1765,"å¤ªåĲİ":1766,"ç§¦":1767,"å¹¶æĹł":1768,"åºŀç»Ł":1769,"ç¯":1770,"ä¸įä»İ":1771,"å®¢":1772,"å·¾":1773,"è°¦":1774,"è´¹":1775,"å®īæķ¢":1776,"ä¼ıäºİ":1777,"ç¿»":1778,"åĦĴ":1779,"äºİé©¬ä¸ĭ":1780,"éŀŃ":1781,"åĹ":1782,"æľŁ":1783,"åĩ¤":1784,"ä¸ºåħĪéĶĭ":1785,"çĶ³":1786,"åĩºè¿İ":1787,"æĢ¨":1788,"å¦Ĥä¹ĭ":1789,"æĢĴæĽ°":1790,"æ¶Ī":1791,"æ¥¼":1792,"ä¸°":1793,"æľĹ":1794,"å¼©":1795,"è®©":1796,"è·ĥ":1797,"å¿ĥèħ¹":1798,"é¢Ħ":1799,"æĻ¯":1800,"éĥŃæ·®":1801,"æ¨ĬåŁİ":1802,"ä¸Ķçľĭä¸ĭæĸĩåĪĨè§£":1803,"æ¦":1804,"å¿µ":1805,"ä¸ŃåİŁ":1806,"è´£":1807,"æŃ»äºİ":1808,"å¸Ĳä¸Ń":1809,"å±¯åħµ":1810,"åĺī":1811,"å»ĸåĮĸ":1812,"ç°":1813,"å°¸":1814,"ä½ĵ":1815,"ä¼¼":1816,"ç»ı":1817,"æĬļ":1818,"æĽ¹åĨĽ":1819,"è¾Ĥ":1820,"æľªåı¯":1821,"æ±īå®¤":1822,"æĿİåħ¸":1823,"è¿ŀå¤ľ":1824,"ç´¯":1825,"ç®Ńå°Ħ":1826,"çī¹æĿ¥":1827,"å«Ĥ":1828,"å¤§éªĤ":1829,"ä¸ŃåĨĽ":1830,"éĢ¢":1831,"éĺ¿":1832,"æĭ¦":1833,"èĥĨ":1834,"åīįæĿ¥":1835,"éĽĨ":1836,"æŃ¦å£«":1837,"çĲ¦":1838,"åĤį":1839,"èĥľè´Ł":1840,"æľ¬éĥ¨":1841,"åĩ»ä¹ĭ":1842,"åŃ¦":1843,"è¯ļ":1844,"ä¸Ģéĺµ":1845,"çĶ±":1846,"å½§":1847,"åī¯":1848,"å¼łé²ģ":1849,"æĭį":1850,"å¼ķä¸Ģ":1851,"åŃĲæķ¬":1852,"ä½¿åĲĽ":1853,"åĲ´ä¾¯":1854,"éħį":1855,"éģ£äºº":1856,"åħ´åħµ":1857,"å°º":1858,"æĹı":1859,"å¤§åĸĿ":1860,"è§ģäºĨ":1861,"è¡¡":1862,"åħ³å¹³":1863,"ä½¿èĢħ":1864,"éģĤä»¤":1865,"éļĺ":1866,"çĸ¾":1867,"é¢Ĩåĳ½":1868,"å¥Ķèµ°":1869,"ç´¢":1870,"ç©¿":1871,"ç»Ĩä½ľ":1872,"å¢ĥ":1873,"åĨĢå·ŀ":1874,"éĨī":1875,"æ¤į":1876,"å¤§åĵŃ":1877,"ä¸Ģå°Ĩ":1878,"èĢĮæŃ»":1879,"æĿĢåħ¥":1880,"æİĪ":1881,"ä¼Ĺäºº":1882,"ç«º":1883,"æĮ¥":1884,"éĹ»ä¹ĭ":1885,"è¥¿åĩī":1886,"ç½®":1887,"æĭľè°¢":1888,"å¤§æĥĬæĽ°":1889,"äº¤éĶĭ":1890,"¶Ŀ":1891,"ç¶Ŀ":1892,"åħ¼":1893,"å°Ĭ":1894,"å¾®":1895,"æķĪ":1896,"å·±":1897,"æ±ł":1898,"åľ£":1899,"æĢ»":1900,"æĭĨ":1901,"èĩªæľī":1902,"åĽŀé©¬":1903,"éĹ®åħ¶":1904,"ä»İåħ¶è¨Ģ":1905,"åĽ½å®¶":1906,"è¦Ĩ":1907,"æĸ§":1908,"è´º":1909,"å£®":1910,"åħĪå¸Ŀ":1911,"å½ĵæĹ¥":1912,"å±±ä¸Ĭ":1913,"ä¸įåı¯è½»":1914,"éĴ¦":1915,"ä¸Ģå½ªåĨĽ":1916,"èĿī":1917,"å¼±":1918,"æĿ¥åĪ°":1919,"æŃ¤è¨Ģ":1920,"èĢĮåħ¥":1921,"èĢĮéĢĢ":1922,"è¾Ī":1923,"æĶ¹":1924,"æİĴ":1925,"çĦī":1926,"æ³½":1927,"äºĶä¸ĩ":1928,"å¤ªåı²":1929,"çĪ±":1930,"çĪµ":1931,"éĶĲ":1932,"è®¾å®´":1933,"ç¨ĭæĻ®":1934,"å¦Ĥä¹ĭå¥Īä½ķ":1935,"åµ":1936,"ä¹Į":1937,"æĹĮ":1938,"èĢĮåĽŀ":1939,"ä½ķä»¥":1940,"ä½ķå¤Ħ":1941,"åĲ¾å·²":1942,"åŁİéĹ¨":1943,"æģ¶":1944,"åīįè¿Ľ":1945,"æ¸ħ":1946,"è®¸æĺĮ":1947,"çĪ¶åŃĲ":1948,"éŁ©éģĤ":1949,"é¥®éħĴ":1950,"æ¢¦":1951,"æĲ¦æĪĺ":1952,"ä¹ĭä¼Ĺ":1953,"éģµ":1954,"ä¸ºé¦ĸ":1955,"èĢĮè¿Ľ":1956,"åŁİå¤ĸ":1957,"æģª":1958,"æĪĺä¸į":1959,"æ³ī":1960,"éĽª":1961,"æ²Ļ":1962,"ä¸¤ä¸ª":1963,"ç§ģ":1964,"ç¤¼æ¯ķ":1965,"å²Ĥåı¯":1966,"æħĮå¿Ļ":1967,"åİ®æĿĢ":1968,"¹ĩ":1969,"åħħ":1970,"ä»£":1971,"ä¸įè¶³":1972,"å®¡":1973,"æĹ¨":1974,"æĪĪ":1975,"éĻ¶":1976,"å¯ĩ":1977,"å¦Ħ":1978,"æĭ¾":1979,"èĥ¡":1980,"å£ģ":1981,"åĪĺçİĦå¾·":1982,"ä¸ľåįĹ":1983,"æķ°çĻ¾":1984,"ç§»":1985,"è°ĭå£«":1986,"æłĳ":1987,"å¤§åı«æĽ°":1988,"æĢ§åĳ½":1989,"ä¸ĳ":1990,"å®£":1991,"å®ł":1992,"è§ī":1993,"éĢī":1994,"å¯¸":1995,"å¼łæĺŃ":1996,"è¨Ģæľª":1997,"é»ĦçĽĸ":1998,"åħ³åħ¬æĽ°":1999,"èģĮ":2000,"ç´§":2001,"éĥŃæ±ľ":2002,"éĵľ":2003,"åĲĳåīį":2004,"æ¥Ļ":2005,"æĴŀ":2006,"æİ©æĿĢ":2007,"ä¸¹":2008,"æĺ¨":2009,"æľīå¤±":2010,"æīİ":2011,"ä¾Ħ":2012,"éĺģ":2013,"è¨Ģè®«":2014,"çĽ¸å¾ħ":2015,"å·²å®ļ":2016,"åĿ¡":2017,"è½½":2018,"è¿Ľåıĳ":2019,"æ¸Ń":2020,"æ±Łå¤ı":2021,"æŁ´":2022,"çķĮ":2023,"æĺĶæĹ¥":2024,"èĹı":2025,"å¤¹æĶ»":2026,"ä¹ĭçŃĸ":2027,"å¿ĺ":2028,"å¤§åħµ":2029,"éģŃ":2030,"ä¸ºåīį":2031,"çŃĳ":2032,"æĥľ":2033,"èį¯":2034,"èĪŀ":2035,"æ¸Ĳ":2036,"åį³æĹ¥":2037,"å¾ĢæĿ¥":2038,"åĲĦèĩª":2039,"åĲ¬çŁ¥":2040,"çģ«èµ·":2041,"çģ«åħī":2042,"çĮĽ":2043,"çĭ±":2044,"æ±īä¸Ńçİĭ":2045,"ç¾¤èĩ£":2046,"å³»":2047,"é¬":2048,"åıĻ":2049,"å·¡":2050,"æŃ¤ä¹ĥ":2051,"è°¡":2052,"éĥĳ":2053,"å¼łä»»":2054,"éĩı":2055,"æĿĢåĪ°":2056,"æĦļ":2057,"åĵĢ":2058,"éĹ»è¨Ģ":2059,"äºĶåįģ":2060,"å¾ĲçĽĽ":2061,"é¦Ĩ":2062,"æĹ©æľī":2063,"éĥ¨å°Ĩ":2064,"éŁ©å½ĵ":2065,"èĶ¡çĳģ":2066,"âĢĻ":2067,"åŃĺ":2068,"äººä¹ĭ":2069,"å¤§ç¬ĳæĽ°":2070,"æĬ±":2071,"ä½ķå¦Ĥ":2072,"éĺ¶":2073,"éŃıçİĭ":2074,"åįĹéĥ¡":2075,"æ¸©":2076,"åĳ¨æ³°":2077,"ç¾İ":2078,"æĶ¾çģ«":2079,"åĨįä¸ī":2080,"ä¸¥é¢ľ":2081,"å¶":2082,"æª":2083,"åĨµ":2084,"æĹ¦":2085,"åĽº":2086,"éĻĩ":2087,"åº§":2088,"åĵ¥":2089,"æĶ»æīĵ":2090,"çĥĪ":2091,"æĸ°éĩİ":2092,"éĴŁä¼ļ":2093,"ĤèĿī":2094,"åħļ":2095,"ä¹ĭä¸Ĭ":2096,"ä¹ĭå£«":2097,"åħµåĪ°":2098,"åĲ¾ä¸İ":2099,"åĽŀé¡¾":2100,"éĿĻ":2101,"åħ¥å¸Ĳ":2102,"æ°¸":2103,"èĩ³æŃ¤":2104,"æ±Ŀåı¯":2105,"æĬ¥è¯´":2106,"èľĢä¸Ń":2107,"æķ°åĲĪ":2108,"ç¦ħ":2109,"è´¥èµ°":2110,"ç®Ĺ":2111,"é¦Ļ":2112,"ç¤¾":2113,"çĽ´åıĸ":2114,"æŀľçĦ¶":2115,"èİ«éĿŀ":2116,"åĭĴé©¬":2117,"è²ĤèĿī":2118,"å¤ªåı²æħĪ":2119,"ãĢĬ":2120,"ãĢĭ":2121,"æĿľ":2122,"å®½":2123,"åħµæĿ¥":2124,"å¤§å¯¨":2125,"åĩĮ":2126,"æĸľ":2127,"åİī":2128,"åĩºæĽ°":2129,"åħ¬çĳ¾":2130,"åŁº":2131,"å·²æ¯ķ":2132,"ç«¯":2133,"æĤĶ":2134,"æ®ĭ":2135,"åĺ±":2136,"åĳĪä¸Ĭ":2137,"å¶·":2138,"åħĭ":2139,"ä¹ı":2140,"ä¹ĭåŃĲ":2141,"ä¸įåĲ¬":2142,"åĽŃ":2143,"ç»§":2144,"éĢ¼":2145,"ä¹ĥæĺ¯":2146,"åºĦ":2147,"äºĮåįģä½Ļ":2148,"æĶ¿":2149,"åĪĺå°ģ":2150,"æĬ¥ä»ĩ":2151,"åı¸é©¬å¸Ī":2152,"å¤§åĸľæĽ°":2153,"æĶ¶æĭ¾":2154,"åĽ¾ä¹ĭ":2155,"çļĩå¸Ŀ":2156,"çĤİ":2157,"æ¶Īæģ¯":2158,"åµ©":2159,"åĪ¶":2160,"äººçļĨ":2161,"å¤§åįĬ":2162,"å·´":2163,"äºİæŃ¤":2164,"åĬ¡":2165,"åı¯éĢŁ":2166,"åºĻ":2167,"åĿĽ":2168,"æĸĩä¸ĳ":2169,"æħ¢":2170,"è¿İæķĮ":2171,"è°ģæķ¢":2172,"è´¾è¯©":2173,"æĭįé©¬":2174,"æĹĮæĹĹ":2175,"æ¹":2176,"âĢĺ":2177,"ä¸įè¿ĩ":2178,"ä¸įæĽ¾":2179,"è¿Ŀ":2180,"çİ¯":2181,"çİº":2182,"ä¾§":2183,"æĿĢäºĨ":2184,"ä¸īåįģ":2185,"æĦĪ":2186,"å¿ħä¸º":2187,"å®īèĥ½":2188,"é£ŀæĬ¥":2189,"è¿ĽæĽ°":2190,"çĻ¾å®ĺ":2191,"çīĻ":2192,"æīĭä¸ĭ":2193,"ç¾½":2194,"éĻĪå®«":2195,"ç¼ĵ":2196,"æ³ķæŃ£":2197,"æĭ¨é©¬":2198,"ä¸ģå¥ī":2199,"è±«å·ŀ":2200,"ç¹ĩ":2201,"ä¹ĭå¤Ħ":2202,"ä¸įå¿ħ":2203,"æĺ±":2204,"è¯»":2205,"è¯ķ":2206,"çĽĳ":2207,"å¦ĩ":2208,"åĲİåĨĽ":2209,"åĲİéĿ¢":2210,"éĺľ":2211,"åħ¶ä½Ļ":2212,"åĽŀåĪ°":2213,"åĽŀå¯¨":2214,"èįĲ":2215,"æ³Ħ":2216,"å®ĪæĬĬ":2217,"è¯¸ä¾¯":2218,"é»Ħç¥ĸ":2219,"äºĳéķ¿æĽ°":2220,"åĿĲäºİ":2221,"æĿ¨ä»ª":2222,"äº¤æĪĺ":2223,"åĪºåı²":2224,"ç³ľç«º":2225,"é¬¼":2226,"çħ":2227,"å°Ķ":2228,"æľĢ":2229,"ä¸įè®¸":2230,"è¯±":2231,"èĩĤ":2232,"ä¸ĢçĻ¾":2233,"ä¸Ģä¸ª":2234,"é©¬èħ¾":2235,"çĽŁ":2236,"èĢĮä¸į":2237,"åĲ¾çŃī":2238,"æĭ¿":2239,"ä¸īä¸ĩ":2240,"æ±ĿäºĮäºº":2241,"èĻŀ":2242,"é¢ĩ":2243,"ä¾¿èµ°":2244,"éĹ»çŁ¥":2245,"æ´»":2246,"è¢ģå°ļ":2247,"è¿İæİ¥":2248,"èĬ±":2249,"æĶ¶åĨĽ":2250,"åģĩ":2251,"æ²³åĮĹ":2252,"åĸĬå£°å¤§éľĩ":2253,"èįĢå½§":2254,"çĨŁ":2255,"çĽĬå·ŀ":2256,"æł¡å°ī":2257,"å¡ŀ":2258,"èĨ":2259,"ä¹ł":2260,"åĲĬ":2261,"åĲŀ":2262,"æĺ¾":2263,"è¿ģ":2264,"æĪ®":2265,"éĹŃ":2266,"éĢĤ":2267,"å¼łå¶·":2268,"è¾Ľ":2269,"åĮ»":2270,"éĢĢåħµ":2271,"æĸ¹åı¯":2272,"åĽ½å¤ª":2273,"ç¾Ĭ":2274,"èµ¶åĪ°":2275,"è¿½ä¹ĭ":2276,"çĭĤ":2277,"å±¯äºİ":2278,"åģľ":2279,"åı±æĽ°":2280,"åĲİäººæľīè¯Ĺèµŀ":2281,"åŀĤ":2282,"æĭĶåīĳ":2283,"âĢĿãĢĤ":2284,"è¯ŀ":2285,"é©°":2286,"å¤§å°ı":2287,"å¤§ä¹±":2288,"å¤§åĳ¼":2289,"ä¸ĢåĪĢ":2290,"æĿ¥éĻį":2291,"éĻ·":2292,"è¡Ĺ":2293,"å±ŀ":2294,"äºĮæĽ´":2295,"æĹłæķ°":2296,"åīįåİ»":2297,"å½ĵå¤ľ":2298,"èį£":2299,"çº·":2300,"è®¡è®®":2301,"é»ĳ":2302,"æ··":2303,"è½¦ä»Ĺ":2304,"ç¨·":2305,"çĬ¶":2306,"èĳ£æī¿":2307,"ç³»":2308,"éª¤é©¬":2309,"åİīå£°":2310,"è¯º":2311,"åĩ¶":2312,"ç»Ń":2313,"åľĨ":2314,"è°ķ":2315,"å½¢":2316,"åħ¶äºĭ":2317,"èĩªå¼ķ":2318,"åľ¨åĲİ":2319,"çĽ¸åĬ©":2320,"ä¸īæĹ¥":2321,"åĪ°æŃ¤":2322,"çŁ¥ä¹ĭ":2323,"æŃ£æ¬²":2324,"æŃ£éģĩ":2325,"ç«¹":2326,"ç«ł":2327,"åŃĻåĿļ":2328,"åıĸèįĨå·ŀ":2329,"é£ŀé©¬":2330,"æķ°æĹ¥":2331,"çī§":2332,"çĶ¨åħµ":2333,"å¿łä¹ī":2334,"æħ°":2335,"æŁĲæĦ¿":2336,"èĲ¥ä¸Ń":2337,"è§Ĥä¹ĭ":2338,"çıŃå¸Ī":2339,"ç¤¾ç¨·":2340,"æŃĮ":2341,"èĩ¾":2342,"åĩ¡":2343,"æĬ¼":2344,"è°¨":2345,"ä½ķè¶³":2346,"åĲ¾æ¬²":2347,"ä¸İæĪĳ":2348,"åŁİæ±ł":2349,"çļĨæĺ¯":2350,"èį¡":2351,"æĻĵ":2352,"åĽĽäºº":2353,"ä¸¤è¾¹":2354,"ç§¯":2355,"å°ıæ²Ľ":2356,"çĸı":2357,"æĶ»ä¹ĭ":2358,"ç¤º":2359,"æı´":2360,"çĽ´èĩ³":2361,"å¤ıä¾¯éľ¸":2362,"å¦ĤæŃ¤å¦ĤæŃ¤":2363,"ä¹ħçŁ£":2364,"åģı":2365,"é¡»èĩ¾":2366,"æ±Ĥæķĳ":2367,"åĪĨä»ĺæĽ°":2368,"æĬµæķĮ":2369,"çŀĴ":2370,"åħĸ":2371,"ä¹ĭä¸ĭ":2372,"æĺĤ":2373,"åĩŃ":2374,"çŁĽ":2375,"ä»Ĭå¤ľ":2376,"èĩªæŃ¤":2377,"æĹłäºº":2378,"ç«ĸ":2379,"çģ¯":2380,"å§ĭ":2381,"åį´è¯´æĽ¹æĵį":2382,"ç¦Ħ":2383,"çĲ®":2384,"å²Ĥä¸į":2385,"çªĥ":2386,"æıĲåħµ":2387,"ä¹Ĳè¿Ľ":2388,"æ¯ıæĹ¥":2389,"åĨł":2390,"ä¸įå·²":2391,"å®¾":2392,"å¿«":2393,"éĹ²":2394,"éĹ¿":2395,"æľīäºº":2396,"æŃ¤å¤Ħ":2397,"ç»¶":2398,"çŁ¢":2399,"åĲ¾å½ĵ":2400,"è·Ł":2401,"çĦļ":2402,"æ¯Ĵ":2403,"æ¯Ľ":2404,"çľģ":2405,"å²Ń":2406,"åĽĽä¸ĭ":2407,"éĹ¨å¤ĸ":2408,"æĸ¹æ¬²":2409,"éĴ±":2410,"åĽ´ä½ı":2411,"è±¡":2412,"ä¸Īå¤«":2413,"æ¯ĶåıĬ":2414,"èĸĦ":2415,"ç¯¡":2416,"æĽ²":2417,"ä»į":2418,"å°¹":2419,"å°¾":2420,"ä½Ĺ":2421,"é©¬å¿ł":2422,"æĪ´":2423,"æĵįä»¤":2424,"æŃ¤è®¡":2425,"ä¾µ":2426,"å¯Į":2427,"æĽ¹ä¼ĳ":2428,"ä»Ĭèĭ¥":2429,"æİ·":2430,"ä¸īåįģä½Ļ":2431,"åīįåĨĽ":2432,"åıĪåĶ¤":2433,"å®īå¾Ĺ":2434,"éĽĴ":2435,"è½®":2436,"çĻ¾ä¸ĩ":2437,"ä¸¤ä¸ĭ":2438,"åį´è¯´åŃĶæĺİ":2439,"é»Ħå·¾":2440,"éĺµåīį":2441,"æłħ":2442,"æĶ¶åħµ":2443,"å¾ĦåĪ°":2444,"æİ¨åĩº":2445,"åĬ«å¯¨":2446,"æ½ĺ":2447,"å¥ĭåĬĽ":2448,"ç±į":2449,"çĤ®åĵį":2450,"æªĦ":2451,"éŀį":2452,"èĢĢ":2453,"åĽĬ":2454,"æĪ·":2455,"ä¸ºå¤§":2456,"èĢĮèµ·":2457,"ä½ķå¿ħ":2458,"åĲ¾èĩª":2459,"æĢľ":2460,"åħ³æŁĲ":2461,"æĹ¶åĪĨ":2462,"å±±è°·":2463,"éģĤåĳ½":2464,"æŃ»èĢħ":2465,"æ²ī":2466,"å¤ªåĤħ":2467,"åĢ¾":2468,"çĶŁæĵĴ":2469,"è´¥åĨĽ":2470,"èįĨè¥Ħ":2471,"å°ļä¹¦":2472,"ç©·":2473,"åı·ä»¤":2474,"çĵĺ":2475,"è£ħ":2476,"é¢ľèī¯":2477,"è®¨è´¼":2478,"åĥļ":2479,"åī¯å°Ĩ":2480,"çĩ":2481,"éĦ":2482,"ä¸ĺ":2483,"äº¬":2484,"ä¸įæĥ³":2485,"åħµèĩ³":2486,"èµĸ":2487,"å¸ħ":2488,"éĻĦ":2489,"å¯Ĵ":2490,"æĽ¹çĿ¿":2491,"å±Ī":2492,"æ¬£":2493,"äºĮåŃĲ":2494,"åħ¥åĲİ":2495,"åīįåĲİ":2496,"åıªæĺ¯":2497,"æŃ£è¡Į":2498,"åĲ´ä¸»":2499,"åı¸å¾Ĵ":2500,"ç¦Ģ":2501,"æ·Ŀ":2502,"ç®Ģ":2503,"æŃ¦ä¾¯":2504,"åĲĪæ·Ŀ":2505,"æĹ©æĻļ":2506,"åķĨè®®æĽ°":2507,"çĥ¦":2508,"çĥŁ":2509,"èĽĩ":2510,"èĦļ":2511,"éªĤæĽ°":2512,"æĳĨ":2513,"éº¦":2514,"å´Ķ":2515,"æºª":2516,"å¤ķ":2517,"ä¹ĭæīĢ":2518,"ä¹ĭåĬ¿":2519,"æĿŁ":2520,"åįł":2521,"å®Į":2522,"è¯ī":2523,"å¤§ç¬ĳ":2524,"é©¬ä¸Ĭ":2525,"æĿ¥æķĳ":2526,"å¸Ĥ":2527,"ä¸ĭä»¤":2528,"äºİè·¯":2529,"åľº":2530,"ä¸ºä¸Ĭ":2531,"éĥĿ":2532,"åİ»è·¯":2533,"èĩªåĽŀ":2534,"åº·":2535,"åħ¥å®«":2536,"æģ°":2537,"å¿ħä¸į":2538,"æŃ£åľ¨":2539,"èµ·èº«":2540,"ä¿Ń":2541,"ç¬Ķ":2542,"çĸ®":2543,"å¾Ĳåº¶":2544,"ç»´æĽ°":2545,"çľĭæĹ¶":2546,"æĪĲåĬŁ":2547,"åįĥä½Ļ":2548,"éĩįèµı":2549,"èĲ¥å¯¨":2550,"é½¿":2551,"éĤĵèĬĿ":2552,"åĦģ":2553,"èĻļå®ŀ":2554,"åħ¸éŁ¦":2555,"åħ¬åŃĻçĵĴ":2556,"å®¡éħį":2557,"åħ°":2558,"å°ĺ":2559,"å®ĭ":2560,"åħµä¸į":2561,"é©¬è°¡":2562,"æĪ¿":2563,"æĪı":2564,"ä¼ĺ":2565,"æŃ¤åİ»":2566,"æŃ¤æĺ¯":2567,"ä¸ºåı·":2568,"è§ģä¹ĭ":2569,"æĢİ":2570,"æĽ¹åħ¬":2571,"åħ¬åŃĲ":2572,"çŃµ":2573,"åºĬ":2574,"åŃĶæĺİç¬ĳæĽ°":2575,"äºĨä¸Ģ":2576,"æĻĶ":2577,"çīµ":2578,"åĢ¼":2579,"æĸ¹æīį":2580,"ç»įæĽ°":2581,"åĪĢæĸ§":2582,"è¿½æĿĢ":2583,"æļ´":2584,"æį¢":2585,"å¤ıä¾¯æ¥Ļ":2586,"æĤ¬":2587,"ç¿Ķ":2588,"è¶³ä¸ĭ":2589,"è°¢æĽ°":2590,"åĮ¹å¤«":2591,"åħ·è¨Ģ":2592,"éģ¥æľĽ":2593,"è¡ĹäºŃ":2594,"åħĸå·ŀ":2595,"æĿ¯":2596,"ä¸įèĥľ":2597,"åħµè´¥":2598,"å¤§è·¯":2599,"å¤§èµ·":2600,"è¿·":2601,"è´¨":2602,"å¯Ł":2603,"åħ¬æĽ°":2604,"åŃĶèŀį":2605,"åºĨ":2606,"æİª":2607,"æİĺ":2608,"åĿł":2609,"é£ŀæĽ°":2610,"èĲĮ":2611,"éľ²":2612,"å¦Ĥä½ķä¸į":2613,"æĿ¨å¥ī":2614,"éĥ¨ä¸ĭ":2615,"çıł":2616,"æŃ¢æľī":2617,"æĪªä½ı":2618,"ç±³":2619,"âĢĶâĢĶ":2620,"åĩĮç»Ł":2621,"å¤§åĳ¼æĽ°":2622,"åħ®":2623,"ï¼ļâĢĺ":2624,"é©¿":2625,"ç»ķ":2626,"çŁŃ":2627,"è§ģçİĦå¾·":2628,"è°Ī":2629,"åĲ¾ä¸»":2630,"å¯¡":2631,"èĩªæĿ¥":2632,"å¾Ĺèĥľ":2633,"å¤©æ°´":2634,"åĪĺçĲ¦":2635,"éķ¿åŃĲ":2636,"éļĶ":2637,"é¡·":2638,"èĪħ":2639,"ç«ĭé©¬":2640,"éĩįåĽ´":2641,"ä»ĸäºº":2642,"æĹĹåı·":2643,"èĢģå¤«":2644,"èģĺ":2645,"æ®µ":2646,"å¾Ħåıĸ":2647,"éĵ¶":2648,"çıª":2649,"é¼ĵè§Ĵ":2650,"è¯¸å°ĨæĽ°":2651,"ä¼Ĺå°ĨæĽ°":2652,"ç¨ĭæĺ±":2653,"å¼ĵå¼©":2654,"çĻ¾ä½Ļäºº":2655,"éĽĴåŁİ":2656,"åħĨ":2657,"ä¹ĭæīį":2658,"æĿĤ":2659,"å®¿":2660,"ä½Ĳ":2661,"å¼ĺ":2662,"å¤§å¤«":2663,"èµĦ":2664,"èµļ":2665,"ä¼Ĭ":2666,"ç»ª":2667,"éĢĶ":2668,"æĽ¹çĪ½":2669,"èĩªçĽ¸":2670,"æĥ¶":2671,"æĺ¯ä¹Ł":2672,"æİ£":2673,"åĪ°æĿ¥":2674,"å·²è¢«":2675,"å®īæ°ĳ":2676,"éĽ¶":2677,"è¡Įä¸į":2678,"æľªåıĬ":2679,"æľªå°Ŀ":2680,"æķ°ä¸ĩ":2681,"å¤ªå¸Ī":2682,"å¤ªå°ī":2683,"åį´è¯´çİĦå¾·":2684,"å®ĺåĥļ":2685,"ç¾ŀ":2686,"é«ĺé¡º":2687,"æĵĴä¹ĭ":2688,"åı«æĽ°":2689,"å¤«äººæĽ°":2690,"æıĲåĪĢ":2691,"å¤ºäºĨ":2692,"æ¸¡æ±Ł":2693,"éº¾":2694,"åį§é¾Ļ":2695,"éļĺåı£":2696,"éĹ®åħ¶æķħ":2697,"éĻ¶è°¦":2698,"®éĺ³":2699,"ä¹Ķ":2700,"æĿ°":2701,"ä¸įçĶ¨":2702,"ä¸įç»Ŀ":2703,"å®ĩ":2704,"å¤§èĩ£":2705,"ä¸ĢæĹ¶":2706,"éĹª":2707,"å¸Ľ":2708,"ç»ĥ":2709,"ä¸Ńéĥİ":2710,"æĬĹ":2711,"ä¸ºäºº":2712,"å½Ŀ":2713,"åĲ¾æĸĻ":2714,"å±ı":2715,"ä¸İçİĦå¾·":2716,"æĭ©":2717,"åħ¶åŃĲ":2718,"è¾Ĩ":2719,"åĽŀåİ»":2720,"æĥĳ":2721,"ä¸īåĲĪ":2722,"åħ³ä¸Ĭ":2723,"åįģäºĮ":2724,"æ±ĿåįĹ":2725,"èĭ¥å¾Ĺ":2726,"æĪĺèĪ¹":2727,"å¯¨æłħ":2728,"é¡¹":2729,"åįĹå®ī":2730,"æ±Łè¾¹":2731,"å¹³çĶŁ":2732,"çķı":2733,"å¾ħä¹ĭ":2734,"æĶ»åŁİ":2735,"è¿İä¹ĭ":2736,"æįŁ":2737,"èĻ½æľī":2738,"çĪ¶äº²":2739,"ä¹ĺèĻļ":2740,"åłª":2741,"çĮ®å¸Ŀ":2742,"å¸¸ä¾į":2743,"å¹¸å¾Ĺ":2744,"ç¿¼å¾·":2745,"åįİæŃĨ":2746,"åĲİäººæľīè¯Ĺåı¹æĽ°":2747,"ç³ľèĬ³":2748,"é¹¿":2749,"å´©":2750,"ç¿»èº«":2751,"è¨Ģæľªæ¯ķ":2752,"ä¸ºåīįéĥ¨":2753,"ĲåĸĬ":2754,"ä¹ĭåĨħ":2755,"ä¹ĭæ³ķ":2756,"åĨĴ":2757,"ä¸įåĪĨ":2758,"ä¸įå¿į":2759,"ä¸Ģå¤Ħ":2760,"å°ĨæĿ¥":2761,"å·¢":2762,"æľīæŃ¤":2763,"æĬĦ":2764,"çĶ«":2765,"åĩºå¸Ī":2766,"åĲ¾ä¹ĥ":2767,"æĢª":2768,"æĢķ":2769,"åı¯ä¹Ł":2770,"åĳĲåĸĬ":2771,"ä¸Ĭè¡¨":2772,"å¼łç»£":2773,"ä»¤åĨĽå£«":2774,"éĿĸ":2775,"æĺ¯æĹ¥":2776,"æİł":2777,"ä¸īæĽ´":2778,"å¤©æĺİ":2779,"ç¥¥":2780,"æ³¸":2781,"éĤĢ":2782,"æ²¿":2783,"åĽĽæķ£":2784,"åį³æĹ¶":2785,"æµ©":2786,"æµ®":2787,"å·¦è¾¹":2788,"é«¦":2789,"é«¯":2790,"èµ¶ä¸Ĭ":2791,"åĲĽä¾¯":2792,"æģĲæľī":2793,"å§ĵåĲį":2794,"æ¶ķ":2795,"éĤ£éĩĮ":2796,"åĨ²çªģ":2797,"é©±åħµ":2798,"åĵ¨é©¬":2799,"å¯¿æĺ¥":2800,"æĭ¦ä½ı":2801,"çĩķ":2802,"åĪĢæĸ§æīĭ":2803,"±¼":2804,"é±¼":2805,"åħĶ":2806,"ä¹ĭåĬĽ":2807,"ä¸įèĭ¥":2808,"ä¸įçĦ¶":2809,"åįļ":2810,"åįľ":2811,"ä½¯":2812,"ä½İ":2813,"ä¸Ģæŀª":2814,"æĿ¥æĬ¥":2815,"çĽĶ":2816,"èĢĮè¨ĢæĽ°":2817,"åĲ¾å¼Ł":2818,"æĺİæĹ¥":2819,"å±¡":2820,"åħ¶è®¡":2821,"çİĦå¾·ä¸İ":2822,"èĭı":2823,"åħ³äºĳéķ¿":2824,"è·ª":2825,"éķľ":2826,"æ³ł":2827,"ä¾¿åı¯":2828,"ä»İäºº":2829,"åĽĽæĸ¹":2830,"éĢĢåĨĽ":2831,"éĹ¨æĹĹ":2832,"æ°´åĨĽ":2833,"è´¥åħµ":2834,"çľĭæ¯ķ":2835,"åºĶå£°":2836,"éĺ³å¹³":2837,"éĺµä¸Ń":2838,"æĺŃæĽ°":2839,"éĴ§":2840,"æ¶ª":2841,"åģļ":2842,"èī¯ä¹ħ":2843,"æİ¢çŁ¥":2844,"æĲŃ":2845,"è´¤å¼Ł":2846,"èĲ½é©¬":2847,"è£Ĥ":2848,"å»ºå®ī":2849,"æĿ¾æĽ°":2850,"ä¹ĭè®¡ä¹Ł":2851,"ä¿®ä¹¦":2852,"åĥ»":2853,"æĳĩ":2854,"çŀ»":2855,"ä»²è¾¾":2856,"è·ĥé©¬":2857,"éĶĲæ°Ķ":2858,"æĸľè°·":2859,"ĺçĦ¶":2860,"ä¹ĭåĬŁ":2861,"ä¹ĭç½ª":2862,"ä¹ĭæģ©":2863,"ä¹ĭçī©":2864,"åĪļ":2865,"ä¼į":2866,"åİĨ":2867,"éģ®":2868,"è°¯":2869,"åĲ¾ä¹ĭ":2870,"åĲ¾æľī":2871,"äºĮå«Ĥ":2872,"è¨Ģè¯Ń":2873,"æģ¢":2874,"çŁ¥åħ¶":2875,"å¿ħæĿ¥":2876,"éŃıåĨĽ":2877,"èįĴ":2878,"ä½¿åĳ½":2879,"çİĭåħģ":2880,"éģĤä¸İ":2881,"åĿĳ":2882,"ä¾¿æĺ¯":2883,"éĤº":2884,"è¯¸åĨĽ":2885,"çĿ¡":2886,"æ¸¸":2887,"åį³ä»¤":2888,"åĢį":2889,"åĲĦå¤Ħ":2890,"éĻĪä»ĵ":2891,"èĻ½çĦ¶":2892,"å¼ĢéĹ¨":2893,"çĬ¬":2894,"çªľ":2895,"çļĩåĲİ":2896,"åĨ²å¤©":2897,"è¯Īè´¥":2898,"åĵ¨æİ¢":2899,"éĻĩè¥¿":2900,"æ³¸æ°´":2901,"æ³łèĭŀ":2902,"ç¡":2903,"åĲŁ":2904,"ä¸įåľ¨":2905,"åĨĽæ°ĳ":2906,"å¿Į":2907,"è§ĳ":2908,"é©¬åĮ¹":2909,"è®°":2910,"æī¯":2911,"ä½ķä¹Ł":2912,"å½°":2913,"å¾ĹèĦ±":2914,"è¢ĸ":2915,"æĿĢå¥Ķ":2916,"æģĥ":2917,"åįģäºĶ":2918,"éŃĤ":2919,"å½ĵä¸ĭ":2920,"åĲ´çıŃ":2921,"ä¾¿æķĻ":2922,"å£«åįĴ":2923,"æ²¹":2924,"åįĹéĺ³":2925,"åĽĽå°Ĩ":2926,"éĢĢåİ»":2927,"è¥¿åĮĹ":2928,"ä¸ĶåĲ¬":2929,"å¸ĿæĽ°":2930,"åĳ¨éĥİ":2931,"éĺµåĬ¿":2932,"éŁ³":2933,"èĪ¹ä¸Ĭ":2934,"è¡¨æĽ°":2935,"æİ¥åħ¥":2936,"é¥Ń":2937,"åıĹè®¡":2938,"å¼łé£ŀæĽ°":2939,"èĢģå°ı":2940,"æł¹":2941,"è¯¸èĳĽçĳ¾":2942,"é¼ł":2943,"åłĨ":2944,"å¯Ĩä¹¦":2945,"éĤ£æĹ¶":2946,"è±ª":2947,"æ¥ļ":2948,"æĸŃåĲİ":2949,"çºªçģµ":2950,"è²Į":2951,"éĺ¶ä¸ĭ":2952,"éĴ±ç²®":2953,"åıĭ":2954,"ä¸įæĪĺ":2955,"ä¸įæľį":2956,"åĨĽå¿ĥ":2957,"åĨĽåĻ¨":2958,"è¯¡":2959,"æĵĤ":2960,"æĵįè´¼":2961,"æĬ¢":2962,"è§ģåŃĶæĺİ":2963,"åı¯æĵĴ":2964,"åī¿":2965,"æĭĪ":2966,"ä¹ĥè°ĵ":2967,"èĩªé¢Ĩ":2968,"åħ¥åĨħ":2969,"ä¸īåįģéĩĮ":2970,"åĪĺçļĩåıĶ":2971,"å±±åĿ¡":2972,"æ¯Ĺ":2973,"éķ¿åı²":2974,"æ³¢":2975,"å®īèĤ¯":2976,"åıĸäºĨ":2977,"éĤ³":2978,"èľĢå°Ĩ":2979,"æīĭæī§":2980,"éĶģ":2981,"èĪ¹åıª":2982,"éĻĪçķĻ":2983,"éĻĪæ³°":2984,"æĿİåĦĴ":2985,"è½¦ä¸Ĭ":2986,"æıĴ":2987,"çĭ¼":2988,"åīĳéĺģ":2989,"èī¯çŃĸ":2990,"æµģé©¬":2991,"è±¹":2992,"åľŁäºº":2993,"åħĥå¹´":2994,"åºľä¸Ń":2995,"å¯»æĢĿ":2996,"æ·®åįĹ":2997,"æľ¨çīĽ":2998,"åĲİäººæľīè¯ĹæĽ°":2999,"æĴ¤":3000,"çķ¥æĽ°":3001,"çĨĻ":3002,"æĿ¡è·¯":3003,"ç¾Įåħµ":3004,"è´¹ç¥İ":3005,"åĹ£":3006,"ç°ĩ":3007,"é¦Ĩé©¿":3008,"æ½ĺçĴĭ":3009,"å½ĿéĻµ":3010,"æ§":3011,"ä¸įå®ī":3012,"ä¸įåĪ©":3013,"ä¸įè¯Ĩ":3014,"å®ħ":3015,"è¯į":3016,"å¿¿":3017,"å¤§è¿Ľ":3018,"æĵįå¤§åĸľ":3019,"ä¸ĭéĤ³":3020,"ä¸Ńè®¡":3021,"èĢĮå·²":3022,"ä½ķè¿Ľ":3023,"éĻ¢":3024,"è´¢":3025,"å¦¹":3026,"èĥĦ":3027,"å¼ķæľ¬éĥ¨":3028,"åħĪè¡Į":3029,"åįģæķ°":3030,"å½ĵä¹ĭ":3031,"ä¼Ĺè§Ĩä¹ĭ":3032,"åĿŀ":3033,"å®ĪåŁİ":3034,"æľªæķ¢":3035,"å¹³åİŁ":3036,"æµħ":3037,"å¤ªåŃĲ":3038,"åįĥéĩĮ":3039,"å¹¶åĬĽ":3040,"èµµåŃĲé¾Ļ":3041,"æİ¥çĿĢ":3042,"åĨįæĭľ":3043,"åħĦéķ¿":3044,"ä¼ĳçŁ£":3045,"ä¼ĳèµ°":3046,"æľ¬å¯¨":3047,"æĲ¬":3048,"ä¾įä¸Ń":3049,"æľīä¸Ģè®¡":3050,"ä¼ĲåĲ´":3051,"åį±çŁ£":3052,"éĢłåıį":3053,"ä¸Ģå£°çĤ®åĵį":3054,"æĬĺäºĨ":3055,"æ¼ı":3056,"éĨĴ":3057,"å¤§åĸĿæĽ°":3058,"ç®ĢéĽį":3059,"ä¸ĶåĲ¬ä¸ĭæĸĩåĪĨè§£":3060,"äºĽ":3061,"åĨ¬":3062,"åį¢":3063,"åį·":3064,"å®ª":3065,"åĨĽåīį":3066,"åħµé©¬":3067,"åħµæ³ķ":3068,"å¤§åĬŁ":3069,"ä¸ĢåĲĮ":3070,"å°Ĩèĩ³":3071,"éĹ·":3072,"çĽĺ":3073,"æŃ¤å¿ħ":3074,"ç»µ":3075,"çĶ·":3076,"å¹½":3077,"éĻħ":3078,"å¯Ŀ":3079,"ä»¥æĿ¥":3080,"ä»¥éĺ²":3081,"çİĦå¾·å¤§åĸľ":3082,"èĥ¤":3083,"èĥ¸":3084,"èĩªå·±":3085,"éĩĬ":3086,"è·³":3087,"çŁ¥æĺ¯":3088,"éŃıå°Ĩ":3089,"åıĪä»¤":3090,"å·²åĪ°":3091,"å·²æŃ»":3092,"ä¼Ĺè°ĭå£«":3093,"äºĳæĽ°":3094,"æŃ£åĲĪ":3095,"çİĭæľĹ":3096,"åıĸä¹ĭ":3097,"éĽ¾":3098,"è¡Įèĩ³":3099,"åĲ´æĩ¿":3100,"æĮĳ":3101,"å£«ä»ģ":3102,"ä»İäºĭ":3103,"èĪ¬":3104,"èĪĮ":3105,"ç¬¦":3106,"æĢ¥ä»¤":3107,"åĽĽæµ·":3108,"å§Ķ":3109,"åį³åĳ½":3110,"æīĢè¨Ģ":3111,"æīĢæĿĢ":3112,"åĢļ":3113,"ç§į":3114,"è¥¿èľĢ":3115,"è¯·çİĦå¾·":3116,"é¢ĨåĨĽ":3117,"åı³è¾¹":3118,"çĲ°":3119,"æį·":3120,"çĮİ":3121,"æ¡ĳ":3122,"è¿ŀæĹ¥":3123,"æĤ¦":3124,"æĽ´åħ¼":3125,"åĬ¨éĿĻ":3126,"éĥŃåĺī":3127,"è¿ĳèĩ£":3128,"çĻ½æĹĹ":3129,"å¤ºè·¯":3130,"æ½ľ":3131,"æĬ«æĮĤ":3132,"äºĶçĻ¾åĨĽ":3133,"è¸ı":3134,"åį°ç»¶":3135,"åĹŁ":3136,"çħ§":3137,"æİ¨åĩºæĸ©ä¹ĭ":3138,"æľ¨çīĽæµģé©¬":3139,"è¹":3140,"ä¹ĭéģĵ":3141,"åĨ¯":3142,"ä¸įä¸ĭ":3143,"å¼ı":3144,"ä¸Ģä¸ĩ":3145,"ä¸ĢæľĪ":3146,"ä¸ĢæŀĿ":3147,"è®¤":3148,"èĢĮéĢĥ":3149,"åĲ¾ä¸į":3150,"æĢı":3151,"ä»¥èĩ´":3152,"åħ¬çŃī":3153,"ä¸İåĲ¾":3154,"åħ¶ä¸į":3155,"åħ¶æķ°":3156,"åŁİåĨħ":3157,"åº¸":3158,"å¼ķä¸īåįĥ":3159,"åħ¥æľĿ":3160,"æģŃ":3161,"ä¸īçĻ¾":3162,"ä¸»ä¸Ĭ":3163,"åīįäºĭ":3164,"å¤©åľ°":3165,"çļĨè¢«":3166,"äºĭä¸į":3167,"åıĪè§ģ":3168,"åıªæľī":3169,"å±±åĲİ":3170,"å±±åĥ»":3171,"æ¯ģ":3172,"ç«Ń":3173,"åŃĻç¤¼":3174,"éļĨ":3175,"çīĩ":3176,"ç§Ģ":3177,"å°ıåĦ¿":3178,"é»Ħæĺı":3179,"æĥĬæĽ°":3180,"çĸ²":3181,"è®¸æĶ¸":3182,"è¢ģè°Ń":3183,"åĨħåºĶ":3184,"éħ£":3185,"å¤ļæľī":3186,"æĭľè¾ŀ":3187,"å®ļåĨĽ":3188,"è¿ĩåİ»":3189,"çĲ¬":3190,"éĻĪçĻ»":3191,"å½Ĵè·¯":3192,"æ¡ĥ":3193,"èģª":3194,"é½Ĳåĩº":3195,"åŃĹåŃĲ":3196,"åģ·":3197,"éĵł":3198,"ä½Ĩè§ģ":3199,"å°ĳé¡·":3200,"æİ¢åĲ¬":3201,"åħģæĽ°":3202,"ä¸ĸä¹ĭ":3203,"åıĶçĪ¶":3204,"ä¼ĲéŃı":3205,"éĿĴå·ŀ":3206,"è¯ĪéĻį":3207,"åĮ¹é©¬":3208,"å¦»åŃĲ":3209,"åŀĴ":3210,"è´¾åħħ":3211,"è¿Ĳç²®":3212,"ç¢İ":3213,"æ¹ĸ":3214,"æ··æĪĺ":3215,"çĺ":3216,"ä¹ĭåīį":3217,"ä¹ĭåĳ½":3218,"åįĪ":3219,"æĹ±":3220,"æĺ¼":3221,"èĢ¿":3222,"å¤§å¼Ģ":3223,"çĽĹ":3224,"ç»Ļ":3225,"è§ģæĵį":3226,"éĢĲ":3227,"ä½ķåľ¨":3228,"åĩºç¥ģå±±":3229,"å¦ĥ":3230,"ä»Ĭåı¯":3231,"ä»ĬåıĪ":3232,"ä¸İæĽ¹æĵį":3233,"å£ķ":3234,"äºĮåįĥ":3235,"æĥŃ":3236,"çļĨæľī":3237,"åĪĺçĴ":3238,"åıªåľ¨":3239,"æĬ¥åħ¥":3240,"éķ¿æ²Ļ":3241,"åŃĻç¶Ŀ":3242,"åĮ¡":3243,"çŃīåĢĻ":3244,"æķ°éĩĮ":3245,"å¿½éĹ»":3246,"æ±īæ°´":3247,"çĶŁæŃ»":3248,"è¥¿éĹ¨":3249,"æ·»":3250,"åĽ½ä¹ĭ":3251,"åĸľæĽ°":3252,"å¤ļå°ĳ":3253,"æĭľä¼ı":3254,"çĲ¼":3255,"æļ¹":3256,"æĿİä¸¥":3257,"çĶļæĺ¯":3258,"å½ĴéĻį":3259,"æĤŁ":3260,"ä¹ĺé©¬":3261,"ç¨į":3262,"é¼İ":3263,"ç»ŁæĽ°":3264,"ç¼º":3265,"æ»ļ":3266,"åħ±è®®":3267,"åĨ³ä¸Ģ":3268,"åĬ©æĪĺ":3269,"åį±æĢ¥":3270,"æ»¡å®ł":3271,"äºŃä¾¯":3272,"æĹ¦å¤ķ":3273,"ä¸Ńéĥİå°Ĩ":3274,"ä¹ĭæĥħ":3275,"åĨ·":3276,"ä¸įä¿¡":3277,"ä¸įå®¹":3278,"ä½¥":3279,"ä½©":3280,"ä¸Ģéªĳ":3281,"è§¦":3282,"æĿ¥ä½¿":3283,"æī«":3284,"ç»°":3285,"è°ħ":3286,"åĲ¾åĨĽ":3287,"åĲ¾äº¦":3288,"åĲ¾æĦı":3289,"åı¯å¾Ĺ":3290,"å¼łæĿ¾":3291,"åħ¶å¿ĥ":3292,"æ¬¢":3293,"åºĲ":3294,"æĺ¯è°ģ":3295,"å¾ĹäºĨ":3296,"æĹłè·¯":3297,"æĹłè°ĭ":3298,"æĹłç¤¼":3299,"æģĭ":3300,"æģķ":3301,"æ±Ŀä½ķ":3302,"åıĪæľī":3303,"åıªåĲ¬å¾Ĺ":3304,"åį´è¢«":3305,"æ¯ĭ":3306,"ç¥ľ":3307,"æľªè¿Ł":3308,"æ²®":3309,"éĿ¢çĽ®":3310,"åĽĽåįģ":3311,"é»ĺçĦ¶":3312,"ä¸¤å®¶":3313,"äºĶåħŃ":3314,"æ°´éķľ":3315,"çĸĨ":3316,"è®¸å¤ļ":3317,"åĲįæĽ°":3318,"å¤ļè¨Ģ":3319,"çľĭçľĭ":3320,"é«ĺå®ļ":3321,"ä¼ļåĲĪ":3322,"æĦ¿å¾Ģ":3323,"å¥ĶåĽŀ":3324,"ä¹±ç®Ńå°Ħ":3325,"åįĵæĽ°":3326,"åŃŁå¾·":3327,"å®«æĽ°":3328,"æ¶Ĥ":3329,"åĴ¨":3330,"çºµæ¨ª":3331,"æŃ¥åĨĽ":3332,"éĽįå·ŀ":3333,"éĽįéĹ¿":3334,"æ¼«":3335,"äºĶåįĥåħµ":3336,"èµ¤åħĶ":3337,"é¸£éĩĳ":3338,"æķ°åįģéªĳ":3339,"æĻ¯åįĩ":3340,"æ¦»":3341,"ç°¿":3342,"åĵ¥åĵ¥":3343,"åĲİäººæľīè¯ĹèµŀæĽ°":3344,"åħ¥åĲİåłĤ":3345,"éĺ³å¹³åħ³":3346,"ãĢĤâĢĻ":3347,"åı©":3348,"åĲĲ":3349,"ä¸įå¹¸":3350,"æĹ·":3351,"å¤§ä¸Īå¤«":3352,"ä¸Ģè·¯":3353,"ä¸ĢåįĬ":3354,"ä¸Ģåĳĺ":3355,"é©¬èī¯":3356,"ä¸ĭå±±":3357,"äºİåĲī":3358,"ä¸Ńæľī":3359,"ä¸ºä½¿":3360,"èĢĮåĵŃ":3361,"ä»¥æŃ¤":3362,"ä»¥åĽ¾":3363,"çļĤ":3364,"äºĮä¸ĩ":3365,"äºĮè´¼":3366,"åŃĶæĺİä»¤":3367,"å¼ķæķ°":3368,"èĩ³ä»Ĭ":3369,"è·µ":3370,"å¤©æĸĩ":3371,"åıĪæĽ°":3372,"å±±è·¯":3373,"æ¬²æĿĢ":3374,"æŃ£ä¸Ń":3375,"æŃ£ä¸İ":3376,"æŃ£è¨Ģ":3377,"çľī":3378,"å®īèĲ¥":3379,"ä¸ľéĹ¨":3380,"å¹³æĽ°":3381,"æĸ¹ä»Ĭ":3382,"æ°´éĻĨ":3383,"è¥¿åįĹ":3384,"é»Ħçļĵ":3385,"éĶĻ":3386,"å¾ħæĪĳ":3387,"å¤ļè°ĭ":3388,"æķĳåºĶ":3389,"çŃĸæĽ°":3390,"åĬ¿å¤§":3391,"éªĳå°ĨåĨĽ":3392,"éĴº":3393,"åıįè´¼":3394,"æľ¬åĪĿ":3395,"åĶ¤åħ¥":3396,"è¾½ä¸ľ":3397,"è°·åı£":3398,"ä¸¾çģ«":3399,"æī¿æĽ°":3400,"ä¸įå¾Ĺå·²":3401,"å®ĹæĹı":3402,"å«ģ":3403,"æ³£æĽ°":3404,"èįĢæĶ¸":3405,"çİ°åľ¨":3406,"ä»°å¤©":3407,"åıĤåĨĽ":3408,"éĺ¿æĸĹ":3409,"ä¸ºé¦ĸå¤§å°Ĩ":3410,"æĢ§åĳ½å¦Ĥä½ķ":3411,"è¯¡è®¡":3412,"¡é¡»":3413,"ä¸įä¸º":3414,"ä¸įæīį":3415,"å®°":3416,"åĪ»":3417,"åĪĳ":3418,"åŃ£":3419,"å¼¦":3420,"åĨĽä»¤":3421,"ä¸ĢåĲĪ":3422,"ä¸Ģç®Ńå°Ħ":3423,"æĿ¥åıĸ":3424,"æĿ¥æĶ»":3425,"è®¿":3426,"ä¸ĭèĪ¹":3427,"éĢı":3428,"ä½ķä¸º":3429,"åĲ¾åħĦ":3430,"å¦ĸ":3431,"ä¸Ĭå°Ĩ":3432,"å±ĭ":3433,"å±ķ":3434,"æĭĸ":3435,"åħ¶ç¼ļ":3436,"çŃı":3437,"æ¬¾":3438,"åĽŀåĨĽ":3439,"åĽŀèº«":3440,"åľ¨å¤ĸ":3441,"åħ¥å·Ŀ":3442,"åħ³éļĺ":3443,"åŃĲæľį":3444,"èį¼":3445,"åĪĺå²±":3446,"åĪĺè±«å·ŀ":3447,"åĪĺç¹ĩ":3448,"åıªæģĲ":3449,"å±±ä¸Ń":3450,"ä»İèĢħ":3451,"éĤĪ":3452,"æľªåĨ³":3453,"èĳĹ":3454,"åįĹå¾ģ":3455,"éĥ½å°ī":3456,"æīĢä»¥":3457,"è®®äºĭ":3458,"åĲ¬ä»¤":3459,"æķĳäºĨ":3460,"å¤ıåı£":3461,"è¿ĩæĿ¥":3462,"æĸ©é¦ĸ":3463,"æį§":3464,"æĶ¾å¿ĥ":3465,"å¤±èī²":3466,"èĴ¯":3467,"å¸Ĳåīį":3468,"ä¹ħéĹ»":3469,"æ®·":3470,"å®«ä¸Ń":3471,"éĥŃåĽ¾":3472,"ä½ĨæģĲ":3473,"é¼ĵå£°":3474,"æİ¢é©¬":3475,"è¾½æĽ°":3476,"è¡£çĶ²":3477,"æĸŃåħ¶":3478,"åı±æŃ¦å£«":3479,"éĿĴé¾Ļ":3480,"äºĮåįģéĩĮ":3481,"åĢĺæľī":3482,"æŀģå¤ļ":3483,"æīĺåŃ¤":3484,"èĴĭéĴ¦":3485,"é¹¤":3486,"çİīçİº":3487,"çĶ°ä¸°":3488,"æ¿¡é¡»":3489,"ç´łçŁ¥":3490,"èĸĽ":3491,"éĽ·éĵľ":3492,"å¼ķä¸Ģåįĥ":3493,"èĪŀåĪĢ":3494,"æĳĨå¼Ģ":3495,"èģªæĺİ":3496,"åĪĺçĴĿ":3497,"æĽ¿":3498,"åĲ¹":3499,"ä¹ĭä¸»":3500,"ä¹ĭä»ĩ":3501,"åįĸ":3502,"ä¸Ģå°ģ":3503,"èµ¦":3504,"èµł":3505,"å·¨":3506,"åĩ¯":3507,"æĵįåħµ":3508,"éĻĲ":3509,"æĢ¯":3510,"æĢł":3511,"ä»¥åħµ":3512,"ä»¥æīĭ":3513,"åħ¬ä¹ĭ":3514,"åħ¬åį¿":3515,"ä»Ĭçķª":3516,"ä¸İæ±Ŀ":3517,"åİ»åıĸ":3518,"åħ¶æĦı":3519,"ä¹ĥä»¤":3520,"èĭį":3521,"äºĮå¤«äºº":3522,"å¦ĤéĽ¨":3523,"åľ¨æīĭ":3524,"æĿĢèĩ³":3525,"ä¸īå¹´":3526,"è¯´ä¹ĭ":3527,"æĪĳåĨĽ":3528,"æĪĳä¹Ł":3529,"å¤©åĳ½":3530,"åıĪæĿ¥":3531,"åĪĺçĲ®":3532,"åĪĺæĻĶ":3533,"èĭ¥éĿŀ":3534,"å¯¨åīį":3535,"èĻĶ":3536,"çİĭå¿ł":3537,"ç¥Ģ":3538,"åŃĻå¤«äºº":3539,"å®īæİĴ":3540,"åĮº":3541,"æĮŁ":3542,"æ²¡":3543,"é£ŀå¥Ķ":3544,"èĩ£çŃī":3545,"é»İ":3546,"æ±ŁéĻµ":3547,"äºĶè·¯":3548,"æ±īæľĿ":3549,"åĽ½èĪħ":3550,"åĨħå¤ĸ":3551,"èº«éķ¿":3552,"ç«ĭåĬŁ":3553,"çľĭäºĨ":3554,"åºĶæĽ°":3555,"åĳ¨ä»ĵ":3556,"ä½ľä¹¦":3557,"åĲĽèĩ£":3558,"è½¦é©¾":3559,"æĹ©éĻį":3560,"èĬ¦":3561,"å¤±äºĨ":3562,"ç¨ł":3563,"åĿĲå®ļ":3564,"èĢģäºº":3565,"çł´æĽ¹":3566,"èĳ£èį¼":3567,"äº¤é©¬":3568,"å·¦åı³æĽ°":3569,"åłķ":3570,"éļ¾ä»¥":3571,"ä½Ĩæľī":3572,"åĵŃæĭľ":3573,"åħ«åįģ":3574,"åįĬè·¯":3575,"åĭ¿å¿§":3576,"æĲº":3577,"æ·±åħ¥":3578,"èĦĳ":3579,"èĮħ":3580,"åįİéĽĦ":3581,"å¼Ĥå¿ĥ":3582,"æ¿Ģ":3583,"çº¢æĹĹ":3584,"åŁºä¸ļ":3585,"æ´»æįī":3586,"éĥĿæĺŃ":3587,"æµ®æ¡¥":3588,"ä¸ĢæŀªåĪº":3589,"æĵĤé¼ĵ":3590,"å®ļåĨĽå±±":3591,"èĳ£èį¼éĤ£":3592,"ä»Ļ":3593,"ä¹ĭèĩ£":3594,"æĿĳ":3595,"æĹ¬":3596,"èĢ»":3597,"å¤§ä¼ļ":3598,"ä¸Ģåįĥ":3599,"æĪĴ":3600,"çĽı":3601,"æī®":3602,"æĵįè§ģ":3603,"æĵįèĩª":3604,"æĵįç¬ĳæĽ°":3605,"ä¸Ńåıĸ":3606,"èĢĮåĿĲ":3607,"å¹¡":3608,"åĲ¾éĹ»":3609,"åĲİæĤ£":3610,"ä»¥å®ī":3611,"ä¸Ĭå±±":3612,"ä¸Ĭä¹¦":3613,"å¼łæµİ":3614,"åİ»è®«":3615,"è¾Ķ":3616,"èĩªçĦ¶":3617,"åºŃ":3618,"åľ¨åīį":3619,"æĺ¯ä½ķ":3620,"çĽ¸äº¤":3621,"çĽ¸åºľ":3622,"ä¸īæ±Ł":3623,"åįģå¸¸ä¾į":3624,"æĦģ":3625,"çĦ¦":3626,"æ¬²ä¸İ":3627,"éģĤå¼ķ":3628,"èµ·å¤Ħ":3629,"èµ·ç¨ĭ":3630,"éĽĢ":3631,"åĿĤ":3632,"é¡¶":3633,"è¯¸è·¯":3634,"æ²Ł":3635,"ä¸¤é©¬":3636,"ä¸¤éĺµ":3637,"æŁ³":3638,"æĸĩä¹¦":3639,"åĭ¤":3640,"åĭĭ":3641,"åĲĦå¼ķ":3642,"è¯·åħ¥":3643,"ä¸įåı¯ä¸į":3644,"å®ĺæ¸¡":3645,"èº«ä¸Ĭ":3646,"å¤ļæĹ¶":3647,"å¤ļå®ĺ":3648,"æĪĲéĺµåĬ¿":3649,"æĸ©äºĨ":3650,"æ¬¡åŃĲ":3651,"å¤´ä¸Ĭ":3652,"è¡¨å¥ı":3653,"å½Ĵå¯¨":3654,"æĶ¾èµ·":3655,"éļıåį³":3656,"éħĴé£Ł":3657,"èĢģæ¯į":3658,"ç´«":3659,"å½¼åĨĽ":3660,"å¾Ħå¥Ķ":3661,"å¼ĥäºĨ":3662,"å°ĳå¹´":3663,"å®³æĪĳ":3664,"æŃ¢ä¹ĭæĽ°":3665,"è¡£æľį":3666,"åħĥçĽ´":3667,"åĲİä¸»æĽ°":3668,"èĮĤ":3669,"é¸¡":3670,"çĵ¦":3671,"åı±éĢĢ":3672,"åħĪä¸»æĽ°":3673,"æŃ¥è¡Į":3674,"æĭĴæķĮ":3675,"åŀĵ":3676,"äººæĬ¥çŁ¥":3677,"æķ´é¡¿":3678,"çĹĽåĵŃ":3679,"éĶ¦è¢į":3680,"å©¿":3681,"å¤§éªĤæĽ°":3682,"å¤§åĸĿä¸Ģå£°":3683,"ä¸įåı¯è½»æķĮ":3684,"æĪĺä¸įæķ°åĲĪ":3685,"è¾Ľæ¯Ĺ":3686,"å±±è°·ä¸Ń":3687,"åĨ³ä¸ĢæŃ»æĪĺ":3688,"äº«":3689,"åħĢ":3690,"åĲĥ":3691,"åĨľ":3692,"ä¸įè¿ľ":3693,"ä¸įæĢĿ":3694,"åįı":3695,"å®¦":3696,"åĨĽæ³ķ":3697,"åĽļ":3698,"å¤§æ±ī":3699,"è¿¤":3700,"æĿ¥ä¸İ":3701,"åĩĽ":3702,"æĵħ":3703,"ä¸ºä½ķ":3704,"ä¸ºåĲİ":3705,"ä¸ºæĪĳ":3706,"åĩºå¸Ĳ":3707,"éĥ¿":3708,"åı¯çł´":3709,"åı¯æĥľ":3710,"è´¡":3711,"ä»¥å¾ħ":3712,"çļ®":3713,"ä»Ĭå·²":3714,"éĺĶ":3715,"èĩªå¼ķåħµ":3716,"å¦Ĥæľī":3717,"æĥł":3718,"æĹłä¸Ģ":3719,"æĹłæīĢ":3720,"æĹłçĽĬ":3721,"åħĪåıĸ":3722,"ä¸»ç°¿":3723,"é£ĺ":3724,"å¤©èī²":3725,"å¿ħå°Ĩ":3726,"å½ĵæĹ¶":3727,"åıªéģĵ":3728,"å±±ä¸ľ":3729,"éķ¿åĿĤ":3730,"çİĭåıĮ":3731,"ç¥Ŀ":3732,"å®īå¿į":3733,"æŃ»ä¸į":3734,"åĿĩ":3735,"æŀŃ":3736,"ä¾¿åĽŀ":3737,"ä¾¿æ¬²":3738,"è¯¸åħ¬":3739,"èĪĴ":3740,"èīº":3741,"èµ°èĦ±":3742,"æŁ©":3743,"å¹³æĺİ":3744,"åľ°çĲĨ":3745,"æĸĩèģĺ":3746,"éĻįèĢħ":3747,"éĻįè¯ı":3748,"çĶ¨ä¹ĭ":3749,"é»ĦæĿĥ":3750,"è´¼åħµ":3751,"è¢ģçĨĻ":3752,"æķĻæĪĳ":3753,"æķĳä¹ĭ":3754,"é«ĺè§ģ":3755,"ç²®é£Ł":3756,"åıĳåħµ":3757,"çĽ´åħ¥":3758,"æĤ²":3759,"æĤĮ":3760,"åĬ¨åħµ":3761,"æ¶ī":3762,"è¿ĳéĹ»":3763,"åģ¶":3764,"å¾ĦæĬķ":3765,"è¿ľæĿ¥":3766,"åĴ¬":3767,"è¾ŀåİ»":3768,"æıĲéĺ²":3769,"é¥®å®´":3770,"åįģä½ĻéĩĮ":3771,"è¯¸å°ĨçļĨ":3772,"æ¢°":3773,"æĮĩæĽ°":3774,"é¸¯":3775,"è£¹":3776,"è¤Ĵ":3777,"æľ±åĦģ":3778,"åĤħå£«ä»ģ":3779,"çĬ¹è±«":3780,"ä¼¯çº¦":3781,"ç«¥åŃĲ":3782,"æĢ»çĿ£":3783,"å£®å£«":3784,"çĭĤé£İ":3785,"çŁ¢çŁ³":3786,"æ¬£çĦ¶":3787,"éĤºéĥ¡":3788,"åŀĵå¿ĥ":3789,"ç£":3790,"ä¹°":3791,"å¤®":3792,"ä¹ĭè°ĭ":3793,"ä¹ĭæ°ĳ":3794,"ä¹ĭè¾Ī":3795,"åĨĪ":3796,"æľ«":3797,"ä¸įé¡»":3798,"å®Ľ":3799,"åĪİ":3800,"ä¸Ģå¸¦":3801,"è®²":3802,"æĵįåĨĽ":3803,"æŃ¤åŁİ":3804,"ç»©":3805,"ä¸ĭæīĭ":3806,"åĩºå¯¨":3807,"åĩºéĺµ":3808,"åı¯ä¸º":3809,"åı¯ä½¿":3810,"ä»¥æĬ¥":3811,"éĺļ":3812,"å¼łåįĹ":3813,"åİ»æķĳ":3814,"æĹ¥æľĪ":3815,"ä¹ĥä¸İ":3816,"ä¹ĥéĹ®":3817,"è¾©":3818,"è¾°":3819,"è¾ĵ":3820,"äºĮå¼Ł":3821,"åĽŀå¤´":3822,"è¨Ģä¹ĭ":3823,"çĽ¸è¿İ":3824,"å¾Ĺä¸Ģ":3825,"æĿĢä¸Ģéĺµ":3826,"æĪĳä»Ĭ":3827,"çŁ¥åĲ¾":3828,"æĦ§":3829,"å¿ħé¡»":3830,"å½ĵæŃ¤":3831,"éŃıå¯¨":3832,"å·²æľī":3833,"éķ¿æ±Ł":3834,"é¢į":3835,"æŃ»çŁ£":3836,"éĽħ":3837,"å®Īä¹ĭ":3838,"åĪĨæĭ¨":3839,"ä¹¦ä¿¡":3840,"éĤķ":3841,"æľªå®ļ":3842,"æĻĮ":3843,"èĳŃ":3844,"èľĢå¯¨":3845,"åįĹéĹ¨":3846,"åįĹéĥĳ":3847,"åĽĽæĽ´":3848,"æķ°äºº":3849,"çī¢":3850,"æµĭ":3851,"æĩ¦":3852,"å°½èµ·":3853,"æīĭèµ·":3854,"ç½Ĺ":3855,"ç®ķ":3856,"æ´¥":3857,"æħ¨":3858,"åĨħæľī":3859,"éģĵèį£":3860,"åºĶåħģ":3861,"é«ĺç¥ĸ":3862,"äº²å¾Ģ":3863,"è¿½è¢Ń":3864,"åĶĲ":3865,"çĶļæĢ¥":3866,"åĳĬæĢ¥":3867,"æĶ¾å£°":3868,"é¥±":3869,"é¥¶":3870,"å¤ıä¾¯å°ļ":3871,"æĤī":3872,"ç¨½":3873,"çł´æķĮ":3874,"æł·":3875,"åŃŁä¼ĺ":3876,"å²Ĥæľī":3877,"çķĻä¸ĭ":3878,"é½Ĳé¸£":3879,"èħ°":3880,"è¾ŀäºĨ":3881,"æµģæ¶ķ":3882,"æĲľ":3883,"åı¬åħ¥":3884,"å¯¹åľĨ":3885,"ç»ĵè¿ŀ":3886,"æĭĴä¹ĭ":3887,"å²¸ä¸Ĭ":3888,"åĪ©å®³":3889,"å¾¡æŀĹ":3890,"åĭĴåħµ":3891,"èĴĭçĲ¬":3892,"åĻ¨æ¢°":3893,"æ¿®éĺ³":3894,"é¡¿é¦ĸ":3895,"åĿļå®Īä¸įåĩº":3896,"å©¢":3897,"éĺ´å¹³":3898,"ç¾Įäºº":3899,"æ¥¼ä¸Ĭ":3900,"æ¦ľ":3901,"æ³½æĽ°":3902,"åĲĬæ¡¥":3903,"çıŃå¸ĪåĽŀ":3904,"æĬµæķĮä¸įä½ı":3905,"æİªæīĭ":3906,"è°¯åĳ¨":3907,"è±ªæĿ°":3908,"èµ¤åħĶé©¬":3909,"ĴçĽ¸":3910,"åħ½":3911,"åĲ¯":3912,"ä¹ĭå£°":3913,"ä¸įçĽ¸":3914,"ä¸įè®¡":3915,"ä¸įåıĹ":3916,"ä¸įä¹ħ":3917,"ä¸įçŃĶ":3918,"ä¸įæŃ¢":3919,"ä¸įè§ī":3920,"å®ĵ":3921,"åĪĽ":3922,"å¤§æĪĺ":3923,"æĿ¥çĽ¸":3924,"æĿ¥æĪĺ":3925,"æĵįä¹ĥ":3926,"æŃ¤åľ°":3927,"æŃ¤äºĮäºº":3928,"æŃ¤éĿŀ":3929,"åİĭ":3930,"éģģ":3931,"è§ģæĽ¹æĵį":3932,"èĢĮéĻį":3933,"éĢ¦":3934,"å½Ń":3935,"åĲ¾éĿŀ":3936,"è´±":3937,"å¯¼":3938,"å¯Ħ":3939,"å¼łå®Ŀ":3940,"æĭ½":3941,"èĭĹ":3942,"èĩªæĢĿ":3943,"èĩªå¹¼":3944,"èĩªåĪİ":3945,"åľ¨åŀĵå¿ĥ":3946,"æĹłäºĭ":3947,"ä¸»äºº":3948,"åīįèĩ³":3949,"çļĨåľ¨":3950,"æ±Ŀä¹ĥ":3951,"åıĪè¢«":3952,"åıªå®ľ":3953,"åŃĻæ¡ĵ":3954,"å®īå®ļ":3955,"å®Īå¾¡":3956,"éªģ":3957,"ä¾¿ä»¤":3958,"éĤ®":3959,"æľªå¾Ĺ":3960,"çĿģ":3961,"éĿ¢åīį":3962,"éĹ¨åĲı":3963,"ç²ī":3964,"æĸĩå®ĺ":3965,"å°ıç«¥":3966,"è¥¿å°ĨåĨĽ":3967,"èº¯":3968,"é»ĦéĹ¨":3969,"æ·³":3970,"åĲķèĮĥ":3971,"è¢ģæ°ı":3972,"æĶ»åĩ»":3973,"è¿½èĩ³":3974,"çĶļåİļ":3975,"è§Ĩåħ¶äºº":3976,"åħ´å¸Ī":3977,"çĭŃ":3978,"èĢģå°Ĩ":3979,"è¯¸èĳĽè¯ŀ":3980,"é²į":3981,"çª¥":3982,"ä»ģä¹ī":3983,"éĤĵè´¤":3984,"åįĬæĻĮ":3985,"é¼ĵåĵį":3986,"åįģä½Ļäºº":3987,"ä¿ĿæĬ¤":3988,"æ¥·":3989,"å±ħæ°ĳ":3990,"åħ¨å®¶":3991,"åı±å·¦åı³":3992,"ç¦»åŁİ":3993,"çªģåĩº":3994,"çªģéª¨":3995,"æĭĶå¯¨":3996,"æ¨Ĭç¨ł":3997,"äºİåľ°æĽ°":3998,"å¿ĥèħ¹äºº":3999,"æľªåı¯è½»":4000,"æķ°çĻ¾äºº":4001,"é¦ĨèĪį":4002,"å¦ĩäºº":4003,"çº·çº·":4004,"å¯Įè´µ":4005,"åįĥä½Ļäºº":4006,"ç«ĭé©¬äºİ":4007,"ä¼Ĭç±į":4008,"ä¸įåĪĨèĥľè´Ł":4009,"éĻĪçķĻçİĭ":4010,"ç»µç«¹":4011,"ä¸Ģåĳĺå¤§å°Ĩ":4012,"åħĢçªģéª¨":4013,"è¿¤éĢ¦":4014,"èĳŃèĲĮ":4015,"æİªæīĭä¸įåıĬ":4016,"ä¸įè®¡åħ¶æķ°":4017,"äºĴçĽ¸":4018,"åĲ«":4019,"âĢĿï¼Į":4020,"ä¹ĭçĬ¶":4021,"ä¸įå®ļ":4022,"ä¸įåĬ¨":4023,"æĹĭ":4024,"åĪĥ":4025,"å¼Ħ":4026,"åĨĽåħµ":4027,"åĨĽåĪ°":4028,"å¤§ä½ľ":4029,"ä¸Ģè¡Į":4030,"å°Ĩä»¤":4031,"å°Ĩè¿ĳ":4032,"æīĩ":4033,"æĵįæķĻ":4034,"æŃ¤è´¼":4035,"åİħ":4036,"äºİå¸Ĥ":4037,"ä¸ºä¹ĭ":4038,"ä¸ºåĨħåºĶ":4039,"åĬŀ":4040,"åĩºæŃ¤è¨Ģ":4041,"åĲ¾ä»¥":4042,"åĲ¾èĭ¥":4043,"åĲ¾åĦ¿":4044,"åĲ¾èĩªæľī":4045,"å¯º":4046,"å¥İ":4047,"ä¸Ĭåº¸":4048,"è¡°":4049,"ä¸İåŃĶæĺİ":4050,"åħ¶ä¸»":4051,"è¾Ħ":4052,"è¾ķ":4053,"è¾Ł":4054,"èĩªä¸İ":4055,"éĩĩ":4056,"æģĻ":4057,"åīįèĢħ":4058,"åīįéĥ¨":4059,"åįģæĹ¥":4060,"å½ĵå¹´":4061,"åıĪæĹł":4062,"åıªé¡¾":4063,"åıªä¸ĢåĲĪ":4064,"å·ŀéĥ¡":4065,"å®īæŃĩ":4066,"èµ·è¡Į":4067,"è¡Įä¹ĭ":4068,"å®Īä½ı":4069,"åĲ´çİĭ":4070,"è®¡çŃĸ":4071,"æĮ¡":4072,"æĮ«":4073,"ä¾¿è¡Į":4074,"éĤĳ":4075,"èľĢäºº":4076,"èľĢä¸»":4077,"ä¾¯æĪĲ":4078,"åĽĽè·¯":4079,"å¿½ä¸Ģäºº":4080,"æµª":4081,"æ°´ä¸Ń":4082,"åĭĥ":4083,"å·¦æľī":4084,"å·¦å°ĨåĨĽ":4085,"å¿łèĩ£":4086,"æħİ":4087,"åĲĮåİ»":4088,"åĲĮå¾Ģ":4089,"æŃ¦èīº":4090,"æŁĲçŃī":4091,"åĲĪåħµ":4092,"åı³æľī":4093,"é«ĺè§Ī":4094,"é«ĺç¿Ķ":4095,"åĮĹæµ·":4096,"èĥľä¹Ł":4097,"éĻĪæŃ¦":4098,"åĶĩ":4099,"æ¯ķç«Ł":4100,"è°ĵçİĦå¾·æĽ°":4101,"é¦ĸå°¾":4102,"åıĹäºĨ":4103,"éħĴèĩ³":4104,"å¥īè¯ı":4105,"è¦ģåİ»":4106,"éĩĳçıł":4107,"é½Ĳåıĳ":4108,"æµģæĺŁ":4109,"åħĥå¸ħ":4110,"éľĩåľ°":4111,"å¢ĵ":4112,"ç½¢åħµ":4113,"éĢłé¥Ń":4114,"æĭĽå®ī":4115,"åİ¿ä»¤":4116,"åİļæģ©":4117,"æĬ¤éĢģ":4118,"æľ±çĦ¶":4119,"çĻ¾ä½Ļéªĳ":4120,"æ½¼":4121,"éĢĨè´¼":4122,"å®Ŀåīĳ":4123,"çİ°ä¸º":4124,"èµ¤å£ģ":4125,"æºĥ":4126,"ä¸¤è·¯åħµ":4127,"æŁ´æ¡ĳ":4128,"æĹ©æľīç»Ĩä½ľ":4129,"æĤĶä¹ĭ":4130,"æ³Ħæ¼ı":4131,"æŁĲæĦ¿å¾Ģ":4132,"è¡Įä¸įåĪ°":4133,"æ²¿æ±Ł":4134,"é»İéĺ³":4135,"ä¸¤éĺµå¯¹åľĨ":4136,"äºķ":4137,"åı¥":4138,"åı¶":4139,"åıĽ":4140,"ä¹ĭéĻ©":4141,"æĿĸ":4142,"ä¸įå®ľ":4143,"åįŀ":4144,"èĢ½":4145,"åħµåĻ¨":4146,"å¤§ä¹¦":4147,"è¿¹":4148,"ä¸Ģä¸Ģ":4149,"ä¸ĢéĺŁ":4150,"å·¥":4151,"æ±Ĺ":4152,"æľīåĬŁ":4153,"ç»¢":4154,"éĢµ":4155,"å½¤":4156,"åĩºèĲ¥":4157,"å¦¨":4158,"åħ¬ä¹ĥ":4159,"å±¥":4160,"æĭĤ":4161,"èĩªåİ»":4162,"äºĮå¤Ħ":4163,"è¨Ģç½¢":4164,"åħ¥å¯¨":4165,"çĽ¸éļı":4166,"çĽ¸æĭĴ":4167,"æĹłè®¡":4168,"æĿĢæķ£":4169,"æĶ¯":4170,"æģ¤":4171,"æģ¼":4172,"åħĪåİ»":4173,"åħĪåĪ°":4174,"ä¸īéĥ¡":4175,"åĸ§":4176,"åĸı":4177,"æ±ĿæĹ¢":4178,"éŃıåĽ½":4179,"åıªçķĻ":4180,"èĭ¥æľī":4181,"èĭ¥å¦ĤæŃ¤":4182,"çĦ°":4183,"åį´æķĻ":4184,"éķ¿åı¹":4185,"éģĤä¸į":4186,"åıĸèĥľ":4187,"éĽı":4188,"èĢħä¹Ł":4189,"ä¿Ĭ":4190,"éªĩ":4191,"éĤ½":4192,"è¯¸éĥ¡":4193,"èĤĿ":4194,"éĿ¢å¦Ĥ":4195,"èĩ£ä¹ĭ":4196,"çĻ¾éĩĮ":4197,"çīĮ":4198,"ä¸ĩä½Ļ":4199,"å°ıå°Ĩ":4200,"å°ıèĪŁ":4201,"åį´è¯´åı¸é©¬æĩ¿":4202,"ç½ļ":4203,"è´¼ä¼Ĺ":4204,"æķĳåĩº":4205,"å¹´å¹¼":4206,"ç¾ķ":4207,"éŁ¶":4208,"ç²®éģĵ":4209,"è¿½åħµ":4210,"è¿½æĿ¥":4211,"éĻĪå¼ı":4212,"è°ĵæĽ°":4213,"éļıè¡Į":4214,"æĽ´ä¸į":4215,"è¯¸èĳĽæģª":4216,"çĸĳæĥĳ":4217,"é²Ĥ":4218,"éĩĳå¸Ľ":4219,"åŃĹåħ¬":4220,"çĿ£éĤ®":4221,"æ¶Į":4222,"éŁ©æļ¹":4223,"è§Ĥåħ¶":4224,"éĤĵå¿ł":4225,"å¾Ħå¾Ģ":4226,"å¼ĥåŁİ":4227,"çĻ½é©¬":4228,"é¼ĵåĻ":4229,"ç¬¬ä¸ĢçĻ¾":4230,"å¯¹æĽ°":4231,"æ¸¡æ²³":4232,"çĽ®ä»Ĭ":4233,"é¡¾è°ĵ":4234,"è£´":4235,"åĸĿä»¤":4236,"å¢Ļ":4237,"æĹ§æĹ¥":4238,"ä¼Ĺå®ĺæĽ°":4239,"æ¨ªåĪĢ":4240,"æĭ¥åĩº":4241,"å¥ĭçĦ¶":4242,"è½¬è¿ĩ":4243,"å¥¸è®¡":4244,"å¥¸éĽĦ":4245,"è§Īæ¯ķ":4246,"æ£º":4247,"æĸ½ç¤¼":4248,"èĳ¬ä¹ĭ":4249,"åĽĽéĿ¢åĽ´":4250,"æĬļæħ°":4251,"ç½®éħĴ":4252,"çĪ±ä¹ĭ":4253,"ä¹Įå·¢":4254,"æĪĺä¸įä¸īåĲĪ":4255,"åĲ¾ä¸İæ±Ŀ":4256,"åħĭæĹ¥":4257,"äºĮåįģä½ĻéĩĮ":4258,"å²Ĥä¸įéĹ»":4259,"ä¸¤ä¸ĭå¤¹æĶ»":4260,"ä¸ºå¤§éĥ½çĿ£":4261,"ç¾ŀæĥŃ":4262,"æĭĪå¼ĵ":4263,"è·µè¸ı":4264,"æŃ£è¨ĢéĹ´":4265,"æī®ä½ľ":4266,"éĺļæ³½":4267,"æĶ¾å£°å¤§åĵŃ":4268,"èĳŃèĲĮåħ³":4269,"åĭĥçĦ¶":4270,"é¼ĵåĻª":4271,"İéĩį":4272,"ä»Ĩ":4273,"ä¹ĭæķħ":4274,"ä¹ĭåĲį":4275,"ä¹ĭéĩį":4276,"ä¹ĭå¼Ł":4277,"ä¹ĭåĭĩ":4278,"ä¹ĭéĻħ":4279,"ä¸įä¸İ":4280,"åįĳ":4281,"åŃļ":4282,"å¼ĳ":4283,"äººæ°ĳ":4284,"åĨĽæĿ¥":4285,"å¤§éĺŁ":4286,"ä¸Ģè¿ŀ":4287,"ä¸ĢçıŃ":4288,"å·§":4289,"ä¼º":4290,"æĿ¥äºº":4291,"æĸ¤":4292,"æĵįéĹ®":4293,"æŃ¤ä½ķ":4294,"ä¸ĭåħ³":4295,"ä¸ºå°Ĩ":4296,"ä¸ºæ±ī":4297,"èĢĮåĲİ":4298,"è°Ĵ":4299,"éĢŀ":4300,"ä½ķæĹ¶":4301,"ä½ķå¾Ģ":4302,"ä½ķçĶ¨":4303,"ä½ķæķ¢":4304,"ä½ķåĨµ":4305,"åĩºéĥŃ":4306,"åı¯æĢľ":4307,"ä¹Łä¸į":4308,"ä»¥éŀŃ":4309,"å¥Ĥ":4310,"æĽ¹ä¸ŀçĽ¸":4311,"ä¸Ĭä¸ĭ":4312,"ä¸ĬéĤ½":4313,"ä¸İä¹ĭ":4314,"å¼łè§Ĵ":4315,"å¼łè®©":4316,"å¼łæ¸©":4317,"è¾İéĩį":4318,"åºĵ":4319,"äºĮåħ¬":4320,"åľ¨åŁİä¸Ń":4321,"æĥ¯":4322,"åħ¥åŁİä¸Ń":4323,"å¾ĹæŃ¤":4324,"æĿĢæŃ»":4325,"ä¸īåĪĨ":4326,"æĦ¤":4327,"å½ĵéĺ³":4328,"åıªå¾ħ":4329,"ä¼ĹåķĨè®®":4330,"æ¬²å¾ħ":4331,"çİĭç»ı":4332,"ç¥¢":4333,"éģĤå°Ĩ":4334,"éģĤåĶ¤":4335,"çº¯":4336,"çº¶":4337,"éĹ®ç½ª":4338,"çĦ¶åħ¶è¨Ģ":4339,"è¡ĮåĨĽ":4340,"åĮħ":4341,"ä¹¦çķ¥æĽ°":4342,"ä»İåĲİ":4343,"ä»İå°ıè·¯":4344,"æľªæľī":4345,"èĪĨ":4346,"éĿ¢ä¸Ĭ":4347,"æķ°åįĥ":4348,"éĥ½æĺ¯":4349,"æŁı":4350,"ç§ī":4351,"æ°´å¯¨":4352,"åĭī":4353,"éĻįå°Ĩ":4354,"çĶ¨çģ«":4355,"åį´è¯´å§ľç»´":4356,"èº¬":4357,"æĥĬçĸĳ":4358,"æīĭæıĲ":4359,"è¯·åŃĶæĺİ":4360,"å¾Ĳå¾Ĳ":4361,"æħķ":4362,"åĲĮå¿ĥ":4363,"åĲĮè°ĭ":4364,"æĦıæ¬²":4365,"çĲĬ":4366,"éľį":4367,"éĩįçĶ¨":4368,"çĽ´åĪ°":4369,"åıĹåĳ½":4370,"å°ļæľī":4371,"ç¨³":4372,"é¾ļ":4373,"çł´ä¹ĭ":4374,"çĬĴ":4375,"èĳ£è¢Ń":4376,"æĿ¨éĺľ":4377,"éĩĳé¼ĵ":4378,"å±¯æīİ":4379,"è¿ĳåīį":4380,"çļĩçĶ«":4381,"åģĥ":4382,"çĮ®è®¡":4383,"åı·ä¸º":4384,"åĨ²åĩº":4385,"åĨ²æĿĢ":4386,"ç¬¬äºĮ":4387,"ç¬¬ä¸ī":4388,"åĨ³æĪĺ":4389,"è°·ä¸Ń":4390,"è¯ĹæĽ°":4391,"è°ģåı¯":4392,"å¹¸çĶļ":4393,"åį¿çŃī":4394,"ä¸ķæĽ°":4395,"ä¹ĭè¨Ģæĺ¯ä¹Ł":4396,"éĢĬæĽ°":4397,"èĭ±åĭĩ":4398,"æĬ¤åį«":4399,"æľºä¼ļ":4400,"ç»ĪæĹ¥":4401,"è¯Ľä¹ĭ":4402,"åĪĨåħµä¸¤è·¯":4403,"ä»Ĺåīĳ":4404,"éģįéĩİ":4405,"æ¿¬":4406,"çİĩåħµ":4407,"ä¸ĵæĿĥ":4408,"å¡«":4409,"çĶ»æĪŁ":4410,"åħ¬åŃĻæ¸Ĭ":4411,"éª¨èĤī":4412,"åĩ¤éĽı":4413,"éĢ¢çºª":4414,"èĥľè´Łå¦Ĥä½ķ":4415,"ç«¯åĿĲ":4416,"çĻ¾ä¸ĩä¹ĭä¼Ĺ":4417,"å°ĺå¤´":4418,"åĨ¯ä¹ł":4419,"è®¤å¾Ĺ":4420,"æ¯ĭä¸ĺ":4421,"æ·³äºİ":4422,"èŃ":4423,"ä¹ĭæľī":4424,"ä¹ĭå¾Ĵ":4425,"æľµ":4426,"ä¸įæĺİ":4427,"åį¸":4428,"å¾ª":4429,"äººå¿ĥ":4430,"äººçī©":4431,"åħµå°ĳ":4432,"æķķ":4433,"å¤§æ±Ł":4434,"å¤§ä¹ī":4435,"å°Ĩæł¡":4436,"ä¼¦":4437,"åĩĢ":4438,"æĵįå¤§æĢĴ":4439,"æŃ¤æĿ¥":4440,"äºİå¤ĸ":4441,"ä¸ŃéĹ´":4442,"è°¥":4443,"å¹ķ":4444,"åĲ¾å¥ī":4445,"åı¯åħĪ":4446,"æĽ¹è´¼":4447,"æĽ¹æ°ı":4448,"ä»ĬæĽ¹æĵį":4449,"ä»ĬéĹ»":4450,"éĺĻ":4451,"æĭħ":4452,"åħ¶åĲİ":4453,"çİĦå¾·åľ¨":4454,"çİĦå¾·éĹ®":4455,"çĽ¸éģĩ":4456,"èĩ³æĻļ":4457,"è·Į":4458,"åįģåĪĨ":4459,"äºĭå·²":4460,"æĹ¶åĢ¼":4461,"éŃıç»Ń":4462,"åıĪæģĲ":4463,"å·²çŁ¥":4464,"æŃ£è¯´":4465,"ä½¿æĪĳ":4466,"å¯¨åĨħ":4467,"éķ¿é©±":4468,"çº²":4469,"çº¸":4470,"éĽķ":4471,"åĲ´åħ°":4472,"å°ĨåĨĽåı¯":4473,"æĮ½":4474,"çŃīå¤Ħ":4475,"ä¹¦ä¸İ":4476,"éĤ¦":4477,"æĿĥä¸Ķ":4478,"æĢ¥åĽŀ":4479,"æĢ¥æķĳ":4480,"æĢ¥éļ¾":4481,"å§ĳ":4482,"å¾Ģè§ģ":4483,"æľĽä¹ĭ":4484,"æľĽé£İ":4485,"å¤ªå¹³":4486,"æĸ¹åĽŀ":4487,"çĶ¨ä½ķ":4488,"å°ıåįĴ":4489,"åĲĦåĲĦ":4490,"è¯·ç½ª":4491,"è®¸ä¹ĭ":4492,"æĢĴæ°Ķ":4493,"å·¦åĨ²":4494,"ä¸įåı¯å½ĵ":4495,"æķĻåĨĽå£«":4496,"éģĵè·¯":4497,"ç«ĭæĸ©":4498,"ä¼ıåľ°":4499,"åºĶä¹ĭ":4500,"æķĮäºº":4501,"æĭľæĽ°":4502,"æĭľäºİ":4503,"æĭľè§ģ":4504,"è¿ĩäºĨ":4505,"åı³çªģ":4506,"å¹¶ä¸į":4507,"é«ĺåŀĴ":4508,"åĮĹéĹ¨":4509,"åĮĹåİŁ":4510,"æĿİä¹Ĳ":4511,"æ¡Ī":4512,"èĢģè´¼":4513,"ä¸»åħ¬åı¯":4514,"å²Ĥèĥ½":4515,"çĥĤ":4516,"èİ·æĽ°":4517,"è§Ĥçľĭ":4518,"çĻ½èĻİ":4519,"æĢĿä¹ĭ":4520,"å¸¸æľī":4521,"å¸¸å±±":4522,"æĲł":4523,"ç¬¬ä¸Ģ":4524,"åĸĬèµ·":4525,"ä¸ĸåŃĲ":4526,"çĽ®è§Ĩ":4527,"èģļæĸĩæŃ¦":4528,"æĸ°åŁİ":4529,"ä¼ĲèľĢ":4530,"å¤§åı«ä¸Ģå£°":4531,"åĸĿæĽ°":4532,"èĽ®çİĭ":4533,"èĶ¡åĴĮ":4534,"è§Ĵä¸Ĭ":4535,"æ³°å±±":4536,"æħĪæĽ°":4537,"äºĮåįģä¸ĩ":4538,"æ»¡éĿ¢":4539,"è¿ĻéĩĮ":4540,"ä¼Ĺå®ĺçļĨ":4541,"æľīä½ķéĿ¢çĽ®":4542,"è°ĥéģ£":4543,"éķĩå®Ī":4544,"èĦ±èº«":4545,"åĪĩé½¿":4546,"èĹ¤":4547,"æĬ«åıĳ":4548,"éĶ¦åĽĬ":4549,"ç¥İæĽ°":4550,"æķ°åįģäºº":4551,"åįķç¦ı":4552,"å±¯åħµäºİ":4553,"å°¸é¦ĸ":4554,"è¾ĤæĽ°":4555,"å¼ķä¸Ģä¸ĩ":4556,"æĮ¥åĪĢ":4557,"è®¾å®´çĽ¸å¾ħ":4558,"å¼łæĺŃæĽ°":4559,"è´¾è¯©æĽ°":4560,"ç¾½æīĩ":4561,"éĹŃéĹ¨":4562,"åģľå½ĵ":4563,"å¯Łä¹ĭ":4564,"æ¡ĥåĽŃ":4565,"æ²®æİĪ":4566,"ä¸¤é©¬çĽ¸äº¤":4567,"å®¦å®ĺ":4568,"ç¥¢è¡¡":4569,"æ¯ĭä¸ĺä¿Ń":4570,"å·¦åĨ²åı³çªģ":4571,"Ĥéĺ³":4572,"ħçĲĬ":4573,"ä»¶":4574,"ä¹ĭå¾·":4575,"ä¹ĭæĹ¥":4576,"ä¹ĭä¹¦":4577,"ä¹ĭè¥¿":4578,"ä¹ĭç¤¼":4579,"ä¹ĭå¿Ĺ":4580,"ä¹ĭç¥¸":4581,"ä¸įä»¥":4582,"ä¸įæĪĲ":4583,"ä¸įä»ģ":4584,"ä¸įæĺĵ":4585,"åĨĽäºº":4586,"èĩ§":4587,"å¤§èĥľ":4588,"ä¸ĢåĲį":4589,"ä¸Ģéģĵ":4590,"ä¸ĢæĹ¦":4591,"é©¬åĨĽ":4592,"é©¬éģµ":4593,"å°Ĩæ¬²":4594,"æĿ¥æĬķ":4595,"æŃ¤å¤©":4596,"æŃ¤éĹ´":4597,"ç»¿":4598,"ä¸ĭæĿ¥":4599,"äºİäºº":4600,"äºİå¤©ä¸ĭ":4601,"ä¸Ńå¤®":4602,"ï¼ĽâĢľ":4603,"ä¸ºä¸»":4604,"ä¸ºåĲĽ":4605,"è°Ĺ":4606,"åĲ¾è§ģ":4607,"åĲ¾æķħ":4608,"ä¾Ľ":4609,"åı¯ä¹ĺ":4610,"è´ª":4611,"æĽ¹èĬ³":4612,"åħ¬è¨Ģ":4613,"åħ¬å®ī":4614,"ä¸ĬåŁİ":4615,"åī©":4616,"éĺĨ":4617,"å¼łèĻİ":4618,"æĭĺ":4619,"ä¹ĥåĶ¤":4620,"èĩªæĺ¯":4621,"èĩªåıĸ":4622,"åĽŀä¹¦":4623,"åĽŀèįĨå·ŀ":4624,"åĽŀèĲ¥":4625,"åŃĶæĺİä¹ĥ":4626,"åľ¨é©¬ä¸Ĭ":4627,"çĽ¸æķĳ":4628,"çĽ¸æĮģ":4629,"æĹłåı¯":4630,"æĹłå¿§":4631,"æĹłæģĻ":4632,"è¯´ç½¢":4633,"æĪĳåħµ":4634,"åŃĲä¸¹":4635,"åĪ°å½¼":4636,"åĪ°ä¹ĭå¤Ħ":4637,"æĹ¶å¹´":4638,"å½ĵä»¥":4639,"éŃıäºº":4640,"åĪĺè¾Ł":4641,"å·²äº¡":4642,"åıªåı¯":4643,"æ¯«":4644,"æĪĺåĪ°":4645,"çİĭä¸Ĭ":4646,"æŀī":4647,"éªł":4648,"ä¹¦ä¸Ń":4649,"æľªå¿ħ":4650,"è¿ĽéĢĢ":4651,"åĽĽå¹´":4652,"æķ°å·¡":4653,"å¿½åĲ¬å¾Ĺ":4654,"ä¸¤å·Ŀ":4655,"æ±ŁåĮĹ":4656,"æŁĵ":4657,"æķħæĦı":4658,"çĶŁçģµ":4659,"èĲ§":4660,"å°ıè½¦":4661,"åĲĦæľī":4662,"ä½Ļä¼Ĺ":4663,"è®®æĽ°":4664,"åĲ¬ç½¢":4665,"åĽ½èĢģ":4666,"å¿łæĽ°":4667,"å¾ħåħ¶":4668,"å¾Ĳæ¯į":4669,"é¦¥":4670,"éĿŀä¹Ł":4671,"éĿŀå¸¸":4672,"éħĮ":4673,"å¤ļçĸĳ":4674,"æŃ¦æĺĮ":4675,"åĳ¨åĽ´":4676,"å¼ķåħµèĢĮåİ»":4677,"çĲħçĲĬ":4678,"æ¡Ĥéĺ³":4679,"æĹ©æĹ©":4680,"æİ¥æĪĺ":4681,"çĪ¶æ¯į":4682,"ç¿Ĭ":4683,"ä¼ĳå¾Ĺ":4684,"éĴ¢":4685,"æľ¬æ¬²":4686,"è¶ħæĽ°":4687,"å±¯ä½ı":4688,"åłĳ":4689,"ç¼ĺ":4690,"éĢģä¸İ":4691,"å¯Ĩè¯ı":4692,"åħ«æľĪ":4693,"å°Ħä¸Ń":4694,"çĻ½å¸Ŀ":4695,"åįĬéħ£":4696,"é¥®é£Ł":4697,"åĭ¿å¾Ĺ":4698,"æ·±æ²Ł":4699,"åĪ«æĹł":4700,"åĪ«é©¾":4701,"ä¹Ĳç¶Ŀ":4702,"å¨ģé£İ":4703,"å¨ģéľĩ":4704,"èĮ¶":4705,"é¡¾éĽį":4706,"èģļéĽĨ":4707,"ä¼Ĳä¹ĭ":4708,"ä¸´è¡Į":4709,"ç»ĵä¸º":4710,"æİ¨è¾ŀ":4711,"å¢ŀ":4712,"åĬ³åĨĽ":4713,"åĬ«æİł":4714,"çĿ¿æĽ°":4715,"åıĺèī²":4716,"è®¨ä¹ĭ":4717,"ç©ºèĻļ":4718,"éº´":4719,"åĵįå¤Ħ":4720,"èĴĭå¹²":4721,"æ´ŀä¸Ń":4722,"æ´ŀä¸»":4723,"ä¸īåįĥåħµ":4724,"èµįä¹¦":4725,"åĪĩåĭ¿":4726,"åħįæŃ»":4727,"åįĩå¸Ĳ":4728,"ç¢§":4729,"éŃıä¸»æĽ¹çĿ¿":4730,"æĮīåīĳ":4731,"æĮīåħµä¸į":4732,"æĺ¯å¤ľäºĮæĽ´":4733,"å¦Ļè®¡":4734,"ç¯ĩ":4735,"å¦ĦåĬ¨":4736,"æ¸Ńæ°´":4737,"çģ«åħīåĨ²å¤©":4738,"çĭ±ä¸Ń":4739,"éĥĳæĸĩ":4740,"æĶ¾çģ«çĥ§":4741,"æĿľé¢Ħ":4742,"æ¹¿":4743,"æĭ¨é©¬ä¾¿èµ°":4744,"èįĢå½§æĽ°":4745,"çĦļé¦Ļ":4746,"ç¯¡éĢĨ":4747,"æ²īåĲŁ":4748,"æŃ£è¡ĮéĹ´":4749,"åĲ´ä¸»åŃĻ":4750,"å´Ķè°ħ":4751,"å®ĭå®ª":4752,"é¼ĵè§Ĵé½Ĳé¸£":4753,"å¼ĵå¼©æīĭ":4754,"ç¡ķ":4755,"æĬ«æĮĤä¸Ĭé©¬":4756,"æ·±æ²Łé«ĺåŀĴ":4757,"èķ":4758,"ĭéķ¿":4759,"ä¹Ī":4760,"ä¹ĭå°Ĩ":4761,"ä¹ĭè´¼":4762,"ä¹ĭå¸Ī":4763,"ä¸įåĪ°":4764,"ä¸įèµ·":4765,"ä¸įä¹ī":4766,"ä¸įè¯Ń":4767,"ä¸įä¸ĢæĹ¥":4768,"åį¦":4769,"ä½³":4770,"è¯¦":4771,"åħµåĩº":4772,"åħµæĿĥ":4773,"é©»":4774,"å¤§èĪ¹":4775,"ä¸ĢåºĶ":4776,"ä¸ĢæĿ¡":4777,"ä¸Ģåľº":4778,"å¸ľ":4779,"æĸĽ":4780,"ç»³":4781,"ç»Ľ":4782,"äºİå±±":4783,"äºİå¸Ĳä¸ĭ":4784,"ä¸ºä¸Ģ":4785,"ä¸ºåĲį":4786,"ä¸ºåī¯å°Ĩ":4787,"è§ģåħ³åħ¬":4788,"èĢĮä¸ĭ":4789,"èĢĮæĹł":4790,"èĢĮå½Ĵ":4791,"ä½ķæĥ§":4792,"å½¦":4793,"å½±":4794,"åĩºåħµ":4795,"åĩºåħ³":4796,"åĲ¾æīĢ":4797,"åĲ¾è§Ĥ":4798,"éĥ¦":4799,"è´«":4800,"è´ŀ":4801,"ä»¥ç»Ŀ":4802,"åħ¬è¦Ĩ":4803,"ä¸Ĭæµģ":4804,"ä»Ĭæĵį":4805,"åħ¶å¦»":4806,"çŃ¹":4807,"çİĦå¾·ä¹ĥ":4808,"èĩªå¾Ģ":4809,"èĩªä¹±":4810,"åĽŀè®¸éĥ½":4811,"åŃĶæĺİåľ¨":4812,"å¼ķå¤§åĨĽ":4813,"åľ¨åŁİä¸Ĭ":4814,"åħ¥å¯ĩ":4815,"çĽ¸ä¼ļ":4816,"æĿĢå¾Ĺ":4817,"ä¸īå°º":4818,"å¤©æķ°":4819,"åįģåĲĪ":4820,"åįģä¸ĥ":4821,"å¿ħæĹł":4822,"å¿ħå½ĵ":4823,"å¿ħè´¥":4824,"æĹ¶æľī":4825,"åĪĺæ°ı":4826,"çĦķ":4827,"å±±ä¸ĭ":4828,"æĬ¥åĽ½":4829,"æ¬²æĸ©":4830,"æŃ£èµ°":4831,"çİĭå¿ħ":4832,"ç¥ļ":4833,"æ³¥":4834,"å¿ĥçĶļ":4835,"èĢħæĸ©":4836,"å®Īåħ³":4837,"è®¡èĢĮè¡Į":4838,"æĮ¯":4839,"çŃīçļĨ":4840,"ä¾¿äºĨ":4841,"éĤ°":4842,"æĻı":4843,"èĪľ":4844,"ç¬¼":4845,"ä¸ľåĮĹ":4846,"æĢ¥éĢĢ":4847,"åįĹå¾Ĳ":4848,"åĽĽåŃĲ":4849,"æ¸´":4850,"å¤ĩè¨Ģ":4851,"äºĶæĽ´":4852,"éĹ¨ä¸ĭ":4853,"æķħçī¹":4854,"çķ¿":4855,"æĸĩè¿ľ":4856,"æĸĩéĴ¦":4857,"åĲĦäºº":4858,"å°½åĬĽ":4859,"æīĭè¶³":4860,"ç¦¹":4861,"åĲķæĹ·":4862,"ä¸Ķä¼ĳ":4863,"è´¼å°Ĩ":4864,"é¢Ĩè¯º":4865,"æ´®":4866,"éħ¬":4867,"åĲĮå®Ĺ":4868,"åºĶè¯º":4869,"çģ«æĬĬ":4870,"å®¶å±ŀ":4871,"èµ¶åİ»":4872,"ä½ľä¸Ģ":4873,"ä¼ļæĽ°":4874,"æĿİèĤĥ":4875,"è½¦èĥĦ":4876,"è½¦éªĳå°ĨåĨĽ":4877,"æįĲ":4878,"æı¡":4879,"èĻ½ä¸įæīį":4880,"çĽ´æĬµ":4881,"æĹĹå¹¡":4882,"å°ļæľª":4883,"å¤įåĽŀ":4884,"èĢģå°ĨåĨĽ":4885,"æłĪ":4886,"å¥Ķåħ¥":4887,"ä¹ħå±ħ":4888,"çĸĳåħµ":4889,"æĹ¢æľī":4890,"æĿ¨æĿ¾":4891,"æ°ĳå¿ĥ":4892,"ç»Łå¤§åĨĽ":4893,"çķĻä¹ĭ":4894,"è¿ĳä¾į":4895,"éŁ©çİĦ":4896,"å¾ĦæĿ¥":4897,"åįĬå¤ľ":4898,"é¥®ä¹ĭ":4899,"åįģä½ĻåĲĪ":4900,"è½»éªĳ":4901,"æ¢¯":4902,"åĪ«æľī":4903,"è®¾æľĿ":4904,"éĻĽä¸ĭåı¯":4905,"é¸Ł":4906,"ç§°è°¢":4907,"éĻĨåı£":4908,"æ¡¥ä¸Ĭ":4909,"ç»ĵä¹ī":4910,"éĺŁä¼į":4911,"åłĤä¸Ĭ":4912,"éĢłæ¬¡":4913,"ä¿®æĽ°":4914,"å®Ĺäº²":4915,"èĩ´ä¹¦":4916,"çĳ¾æĽ°":4917,"éĻ©è¦ģ":4918,"éĻ©å³»":4919,"æľºå¯Ĩ":4920,"åħ·è¯´":4921,"æī¶èµ·":4922,"åĲīå¹³":4923,"åĤħä½¥":4924,"å®ĿåĪĢ":4925,"æ¼Ķ":4926,"åĪĩä¸įåı¯":4927,"æĸĩæŃ¦å®ĺåĥļ":4928,"æĻ®åĩĢ":4929,"éĴŁç¹ĩ":4930,"èĭ¦è°ı":4931,"å¼łç¿¼å¾·":4932,"ç®¡è¾Ĥ":4933,"æĮĤåŃĿ":4934,"è¯©æĽ°":4935,"èĳ¬äºİ":4936,"åħ»çĹħ":4937,"ç§¦æľĹ":4938,"åºŀç»ŁæĽ°":4939,"çĶ³å¥ı":4940,"çĦīæķ¢":4941,"ä¸ľåįĹé£İ":4942,"æłĳæľ¨":4943,"éĵľéĽĢ":4944,"æ¸Ĳæ¸Ĳ":4945,"èĨĿ":4946,"åİīå£°æĽ°":4947,"æªĦæĸĩ":4948,"èĩªçĽ¸è·µè¸ı":4949,"éĹ¨æĹĹä¸ĭ":4950,"è¿ĳèĩ£å¥ıæĽ°":4951,"é¢įå·Ŀ":4952,"è¾ķéĹ¨":4953,"æ½¼åħ³":4954,"çº¶å·¾":4955,"æľµæĢĿ":4956,"æĮīåħµä¸įåĬ¨":4957,"èĵ":4958,"é³":4959,"åı¦":4960,"ä¹ĭå¤ĸ":4961,"ä¹ĭé¦ĸ":4962,"ä¹ĭæĤ£":4963,"ä¸įä¸Ĭ":4964,"ä¸įæĺ¯":4965,"ä¸įæĿĢ":4966,"ä¸įåıĸ":4967,"ä¸įéĻį":4968,"èĢķ":4969,"ä¸Ģè¨Ģ":4970,"ä¸Ģé¼ĵ":4971,"ä¸Ģæĭ¥":4972,"ä¸Ģè¾Ĩ":4973,"ä¼Ł":4974,"æĿ¥çľĭ":4975,"æ±¤":4976,"è®¶":4977,"è®Ń":4978,"æľīæīĢ":4979,"æī°":4980,"æŃ¤åŃĲ":4981,"ä¸ºå°ĨåĨĽ":4982,"ä¸ºä¸¤":4983,"çŁ«":4984,"èĢĮèĩ³":4985,"èĢĮç«ĭ":4986,"éĢ¸":4987,"ä½ķèĥ½":4988,"ä½ķæĦı":4989,"åĲ¾ä»¤":4990,"è´¬":4991,"ä»¥è¨Ģ":4992,"æĽ¹æ¤į":4993,"åħ¬åı¯":4994,"ä¸Ĭå²¸":4995,"ä»ĬæĻļ":4996,"ä¸İæĵį":4997,"ä¸İå°ĨåĨĽ":4998,"ä¸İäºĳéķ¿":4999,"å¼łåħģ":5000,"æĭ±":5001,"åħ¶åĬ¿":5002,"æ¬ł":5003,"åŁİè¾¹":5004,"èĭŁ":5005,"èĩªéĢĢ":5006,"èĩªå¼ķåĨĽ":5007,"äºĮå°ĨåĨĽ":5008,"åĽŀèĩ³":5009,"åĽŀå®¶":5010,"åŃĶæĺİèĩª":5011,"å¼ķä¼Ĺ":5012,"å¼ķæķ°åįģéªĳ":5013,"åľ¨å¯¨ä¸Ń":5014,"æĹłåıĬ":5015,"æĿĢäºº":5016,"æĿĢéĢĢ":5017,"ä¸īä¸ª":5018,"ä¸īæĹı":5019,"åīįéĺŁ":5020,"åħ³ä¸Ń":5021,"è·¨":5022,"äºĭä¹ĭ":5023,"äºĭæĢ¥":5024,"èį·":5025,"åıĪéĹ®":5026,"åĪĺä½¿åĲĽ":5027,"åĪĺç¦ħ":5028,"å·²åĨ³":5029,"å±±éĻ©":5030,"æ¬²ä»¥":5031,"åį´æĺ¯":5032,"æŃ£è®®":5033,"æŃ£æľĪ":5034,"å®īæľī":5035,"å®īåľ¨":5036,"å¿ĥçĸĳ":5037,"é¢ĺ":5038,"åıĸåĩº":5039,"èĢħä¸º":5040,"å®Īå°Ĩ":5041,"åĲ´äºº":5042,"ä¾¿å°Ĩ":5043,"ä¾¿åİ»":5044,"åĪĨå¸ĥ":5045,"å£«åħĥ":5046,"ä»İæŃ¤":5047,"éĤª":5048,"å»ī":5049,"é¡Ĺ":5050,"å²ĳ":5051,"èī°":5052,"èĤ¡":5053,"è¶ĭ":5054,"ä¸ľå·Ŀ":5055,"åĽĽè½®":5056,"å¿½æľī":5057,"ä¸¤äºº":5058,"å¾ĢèįĨå·ŀ":5059,"æ±Łåı£":5060,"æīĢå¾Ĺ":5061,"æīĢèİ·":5062,"å¹³åľ°":5063,"æķħäºº":5064,"æķħæĿ¥":5065,"çķĶ":5066,"åĲĦå¸¦":5067,"å°½å¼ĥ":5068,"èºĩ":5069,"åĲķèĻĶ":5070,"åĲ¬åĢĻ":5071,"å·¦æħĪ":5072,"æ´®éĺ³":5073,"åĲįä¸º":5074,"è¢ģåĨĽ":5075,"ä¼ıåĲİ":5076,"æĦıèĭ¥ä½ķ":5077,"åĳ¨é²Ĥ":5078,"çģ«éĢŁ":5079,"æĸ©äºİé©¬ä¸ĭ":5080,"å¼ķåħµæĿ¥":5081,"ä¼ļäºİ":5082,"ä¼ļç¨½":5083,"ç²®è½¦":5084,"å¤ĸäºº":5085,"èĪ¹ä¸Ń":5086,"æļ®":5087,"éĻĪçıª":5088,"çĶļåĸľ":5089,"æĦ¿éĹ»":5090,"æĦ¿éĻĽä¸ĭ":5091,"æĹ©è¢«":5092,"æĶ¾ç®Ń":5093,"é¥¥":5094,"å¤įæĿ¥":5095,"çĹĬ":5096,"çĭĹ":5097,"å¥īåħĪ":5098,"çł´èľĢ":5099,"å¼Ģå¤Ħ":5100,"é¼»":5101,"ç¤¼çī©":5102,"æĿ¨ä»»":5103,"èİ·åħ¨":5104,"å±¯ç²®":5105,"å±¯çĶ°":5106,"çľŁæĽ°":5107,"çľŁç¥ŀ":5108,"èµµäºĳæĽ°":5109,"å½¼å¿ħ":5110,"èĥĮåıį":5111,"äº¤åī²":5112,"æ¶§":5113,"éŃıåħµå¤§è´¥":5114,"å·Ŀåħµ":5115,"åĴ½":5116,"å¸¦åīĳ":5117,"å¯Ĩè®¡":5118,"åħ«å°º":5119,"å°Ħä¹ĭ":5120,"æıĲå¤ĩ":5121,"æ²³åĨħ":5122,"å·®çŁ£":5123,"éĤ£é©¬":5124,"æ»¨":5125,"ä¼Ĺå°ĨçļĨ":5126,"è°¢æģ©":5127,"åĲĳå¯¼":5128,"ä¿Ŀå®Ī":5129,"çĶ²åħµ":5130,"åľŁå±±":5131,"æĮĩæĮ¥":5132,"å¨ģå°ĨåĨĽ":5133,"èĶ½":5134,"è£¨":5135,"å»ºåħ´":5136,"æĭ¨åĽŀé©¬":5137,"èµıåĬ³":5138,"èĶ¡ä¸Ń":5139,"èĶ¡å¤«äºº":5140,"ä¸ĢéĿ¢å·®äºº":5141,"å¢¨":5142,"çīĽéĩĳ":5143,"ä¸Ģå£°åĸĬèµ·":5144,"åĥŃ":5145,"æĳ©":5146,"æī¶æ±īå®¤":5147,"è¡Ģæµģ":5148,"è½¬åĩº":5149,"éĵģéªĳ":5150,"æ£ĭ":5151,"è¾ħä½Ĳ":5152,"è¸Į":5153,"è¶ĬåĲī":5154,"æī¬å·ŀ":5155,"å©ļ":5156,"æ¦ĩ":5157,"æĺ¨æĹ¥":5158,"æĭ¿ä½ı":5159,"åĲŀå¹¶":5160,"æĪ´éĻµ":5161,"æŃ£è¡Įä¹ĭéĹ´":5162,"å®Įå¤ĩ":5163,"ç¨ĭæĺ±æĽ°":5164,"éĽ¶éĻµ":5165,"éº¾ä¸ĭ":5166,"ç¿»èº«èĲ½é©¬":5167,"æĲŃç®Ń":5168,"åı¯æĵĴçŁ£":5169,"å¿¿æĢĴ":5170,"åį¢æ¤į":5171,"æĺ¼å¤ľ":5172,"åŃ£çİī":5173,"æĹ¬æĹ¥":5174,"è¯¸è·¯åĨĽé©¬":5175,"å®ĽåŁİ":5176,"ç®ķè°·":5177,"ä¸Ľ":5178,"äº¥":5179,"å¤¸":5180,"ä¹ĭå¤§":5181,"ä¹ĭä¹ī":5182,"ä¸įæķ°åĲĪ":5183,"å®µ":5184,"åħµå¤ļ":5185,"å¿»":5186,"æķ·":5187,"å¤§åĲį":5188,"ä¸Ģå·ŀ":5189,"ä¸Ģæīĭ":5190,"ä¸Ģå¤ľ":5191,"ä¸Ģç°ĩ":5192,"ä¸ĢèĪ¬":5193,"é©¬åīį":5194,"é©¬åĪ°":5195,"æĵįæĢ¥":5196,"æĵįå¤§æĥĬ":5197,"æĵįè§Ĩä¹ĭ":5198,"äºİå¸Ĳä¸Ń":5199,"ä¸ŃåĽ½":5200,"æĬ¹":5201,"æĬĽ":5202,"ä¸ºçİĭ":5203,"ä¸ºåĽ½":5204,"ä¸ºå¸Ŀ":5205,"è§ģä¸Ģ":5206,"è°Į":5207,"ä½ķæĹ¥":5208,"åĩºæĿ¥":5209,"åı¯å°Ĩ":5210,"å¦Ĩ":5211,"åĲİæľī":5212,"ä»¥å¤ĩ":5213,"å¥¢":5214,"ä»ĬåĲİ":5215,"ä»Ĭå°ĨåĨĽ":5216,"ä»Ĭä¸»åħ¬":5217,"åİ»è§ģ":5218,"åİ»åħ¶ç¼ļ":5219,"çİĦå¾·è§ģ":5220,"æĹ¥ä¹ħ":5221,"è¾ĩ":5222,"åĽŀåħµ":5223,"åĽŀæĪĲéĥ½":5224,"å¼ķè´¥åħµ":5225,"åľ¨å·¦":5226,"åľ¨åı³":5227,"åľ¨èįĨå·ŀ":5228,"åľ¨ä½ķå¤Ħ":5229,"æĹłçĶ¨":5230,"æĹłç²®":5231,"æĹłç½ª":5232,"åħĪåĽŀ":5233,"ä¸īåŃĲ":5234,"ä¸īåįģä¸ĩ":5235,"ä¸»å°Ĩ":5236,"æĪĳä¸İ":5237,"åħ³åīį":5238,"åħ³å°ĨåĨĽ":5239,"åŃĲçĳľ":5240,"åįģä¸ī":5241,"åįģäºĶä¸ĩ":5242,"æĦķ":5243,"æ±Ŀä¸º":5244,"æ±Ŀèĭ¥":5245,"åıĪå°Ĩ":5246,"åıĪæ¬²":5247,"åĪĺæĻ¯åįĩ":5248,"å·²å°½":5249,"å·²å¤±":5250,"åıªçŃī":5251,"åıªæİ¨":5252,"å±±å·Ŀ":5253,"å±±èĥĮåĲİ":5254,"æ¬²æĸ©ä¹ĭ":5255,"æ¯ħ":5256,"æŃ£å½ĵ":5257,"æŃ£è¿İ":5258,"æŃ£è¦ģ":5259,"å¯¨å¤ĸ":5260,"çİĭåŁº":5261,"ç¥Ī":5262,"åŃĻå³»":5263,"å®īåı¯":5264,"éģĤåĲĮ":5265,"é¢Ŀ":5266,"åıĸè¥¿å·Ŀ":5267,"çĦ¶åĪĻ":5268,"ä¿ĥ":5269,"ä¿Ĺ":5270,"éªĦ":5271,"çŃīéĹ²":5272,"ä¾¿è¯·":5273,"çģĮ":5274,"ä¹¦æĽ°":5275,"éĤ¹":5276,"è¯¸äºº":5277,"çĳŀ":5278,"æ²ĵ":5279,"ä¾¯åĪĺ":5280,"é£ŀèº«":5281,"æĢ¥æŃ¢ä¹ĭæĽ°":5282,"è¿Ľåıĸ":5283,"åįĹæĸ¹":5284,"åįĹå²¸":5285,"åį³å½ĵ":5286,"å¿½åıĪ":5287,"å¾ĢæĬķ":5288,"æīĢè°ĵ":5289,"æīĢæĵĴ":5290,"æīĢåĪ°ä¹ĭå¤Ħ":5291,"äºĶåįģéĩĮ":5292,"éĢĢåħ¥":5293,"æľĽè¥¿":5294,"æµĳ":5295,"éĻįåħµ":5296,"å°ıèĪ¹":5297,"å£°åĬ¿":5298,"å°½è¢«":5299,"äº¦ä¸į":5300,"åĲķç¿Ķ":5301,"ä½ıé©¬":5302,"é¢ĨäºĨ":5303,"åı¸é©¬æľĽ":5304,"æķĻä»ĸ":5305,"éħĭéķ¿":5306,"ä¼ıè·¯":5307,"æŃ¦å°Ĩ":5308,"æŁĲå½ĵ":5309,"éĺµæ³ķ":5310,"å®¶å°ı":5311,"åı£ä¸Ń":5312,"å¹¶è¿Ľ":5313,"å¹¶ä¸įè§ģ":5314,"éŁ¬":5315,"çĲ´":5316,"ç²®å°½":5317,"åĤ²":5318,"èµµèĮĥ":5319,"è°ĭåıį":5320,"åĶ¾":5321,"çĮª":5322,"æĶ¾åĽŀ":5323,"åıĹç¦ħ":5324,"åĨįä½ľ":5325,"æĹĹå¸ľ":5326,"è¶³åı¯":5327,"å¸Ĳä¸Ĭ":5328,"éĥ¡å¤ªå®Ī":5329,"èĢģå¹¼":5330,"å¥īåŃĿ":5331,"æĽ´æľī":5332,"å°±ä»¤":5333,"ç®Ńçĸ®":5334,"çĸĳèĻĳ":5335,"å²ĤèĤ¯":5336,"çĥĽ":5337,"æĿ¨ä¿®":5338,"æĿ¨å½ª":5339,"é²ľ":5340,"åĽ¾ä¹Ł":5341,"åĽ¾æľ¬":5342,"åŃĹåħĥ":5343,"èī¾æĽ°":5344,"è¿ĳæĹ¥":5345,"éŁ©æµ©":5346,"éŁ©èĥ¤":5347,"å¼ĥä¹ĭ":5348,"åĴ¸":5349,"èī¯è°ĭ":5350,"èī¯åĽ¾":5351,"åħ«è·¯":5352,"åħ«ä¹Ŀ":5353,"çĮ®ä¸İ":5354,"å¥½è¨Ģ":5355,"ç¬¬ä¸ĥ":5356,"ç¬¬åħŃ":5357,"æļĹåĸľ":5358,"çŃĶç¤¼":5359,"è´¤å£«":5360,"å¹¸åĭ¿":5361,"ä¾įéĥİ":5362,"æ¸¡åı£":5363,"æ¯įäº²":5364,"è£ģ":5365,"æĸ°è´¥":5366,"ä¸´ç»Ī":5367,"èĽ®æĸ¹":5368,"å¼ĵç®Ń":5369,"éĢĥåĳ½":5370,"ç¥ĸå®Ĺ":5371,"æŀľæľī":5372,"è¥Ħå¹³":5373,"åĢĴäºİåľ°":5374,"ä¾Ŀè¨Ģ":5375,"åĸĦè¨Ģ":5376,"çīĽé©¬":5377,"æĥĩæĽ°":5378,"èµ´è®¸éĥ½":5379,"æĮģèĬĤ":5380,"æľ±æ¡ĵ":5381,"æ®¿ä¸ĭ":5382,"å¾¡é©¾":5383,"èĢĮåĩºæĽ°":5384,"æľªçŁ¥èĥľè´Łå¦Ĥä½ķ":5385,"æĥŁæľī":5386,"æŀģåħ¶":5387,"çĻ¾ä½ĻéĩĮ":5388,"ä¸ģåİŁ":5389,"è¯ĽæĪ®":5390,"é¹°":5391,"èµįè¯ı":5392,"æ¼³":5393,"åº¶æĽ°":5394,"éļıåĲİèµ¶æĿ¥":5395,"æĬµå½ĵ":5396,"éª¤èµ·":5397,"å¥ĩåħµ":5398,"æĻºåĭĩ":5399,"æ£¹":5400,"æ£Ĵ":5401,"å¹¿éĻµ":5402,"æ¬ºåĲĽ":5403,"è¾±éªĤ":5404,"æĻĭä¸»":5405,"ä¸°æĽ°":5406,"ä¼¼æŃ¤":5407,"æ±īå®¤å®Ĺäº²":5408,"èĥ¡éģµ":5409,"æ¸ŃåįĹ":5410,"çŃĳèµ·":5411,"å·¡åĵ¨":5412,"åĺ±æĽ°":5413,"ä¹ĭåŃĲä¹Ł":5414,"ä½ĹæĽ°":5415,"æŃ»èĢħæĹłæķ°":5416,"äº¬å¸Ī":5417,"è¯īè¯´":5418,"æĪªä½ıåİ»è·¯":5419,"éĹªåĩº":5420,"çĬ¬é©¬":5421,"è´¢çī©":5422,"å¤ºè·¯èĢĮèµ°":5423,"æĢıæĢı":5424,"ç«ŃåĬĽ":5425,"æ¬¾å¾ħ":5426,"éĿĴé¾ĻåĪĢ":5427,"å¼ķä¸ĢåįĥåĨĽ":5428,"åĲĪåħµä¸Ģå¤Ħ":5429,"åĸ§å¤©":5430,"å¸¸å±±èµµåŃĲé¾Ļ":5431,"éĺĨä¸Ń":5432,"è¸Įèºĩ":5433,"èļ":5434,"éĬ":5435,"éı":5436,"ĸåŁİ":5437,"ä¹ĭæ°´":5438,"ä¹ĭæīĭ":5439,"ä¹ĭåĬ³":5440,"ä¹ĭå¦»":5441,"ä¹ĭåħĨ":5442,"å°ĸ":5443,"ä¸įåİ»":5444,"ä¸įå¹³":5445,"ä¸įéĢļ":5446,"ä¸įåłª":5447,"å¾½":5448,"åĨĽå¤§è´¥":5449,"å¤§åĪĢ":5450,"å¤§éĽ¨":5451,"å¤§æĸ§":5452,"è¿°":5453,"è¿¸":5454,"ä¸ĢåĽŀ":5455,"ä¸ĢæĪĺ":5456,"ä¸Ģåı£":5457,"ä¸ĢæĬĬ":5458,"è§ħ":5459,"é©¬ä¹ı":5460,"èµĭ":5461,"ä¼ª":5462,"æĿ¥æĿĢ":5463,"æĿ¥èĢħ":5464,"å¸Ĩ":5465,"æľīåıĺ":5466,"æĸŁ":5467,"åİ¥":5468,"ç»ĳ":5469,"äºİåĨħ":5470,"ä¸Ńè·¯":5471,"ä¸Ńç®Ń":5472,"ä¸ºå¿µ":5473,"èĢĮäº¡":5474,"è°£":5475,"åĬŃ":5476,"éĢĴ":5477,"åĩºåħ¥":5478,"åĩºå¾ģ":5479,"åĩºçıŃ":5480,"åĲ¾åħµ":5481,"åı¯æĸ½":5482,"ä»¥éĽª":5483,"æĽ¹è±¹":5484,"åħ¬è·¯":5485,"åħ¬æĹ¢":5486,"ä¸Ĭæ®¿":5487,"åīĬ":5488,"è¡¥":5489,"è¡Ļ":5490,"çļĸåŁİ":5491,"ä»Ĭæ¬²":5492,"ä»Ĭå¹¸":5493,"ä¸İæĪĺ":5494,"ä¸İåŃĻä¹¾":5495,"å¼łçº":5496,"å¼łæĿ¨":5497,"åİ»å¤Ħ":5498,"åħ¶æ¯į":5499,"æĹ¥å¤ľ":5500,"åŁİéĥŃ":5501,"è¾ĥ":5502,"èĩªçŁ¥":5503,"èĩªåı¤":5504,"åºµ":5505,"äºĮæĹ¥":5506,"åĽŀæĿ¥":5507,"åĽŀæĹ¶":5508,"åĽŀéĺµ":5509,"åŃĶæĺİæķĻ":5510,"å¼ķè·¯":5511,"åľ¨åľ°":5512,"æĺ¯åĲ¾":5513,"æĺ¯ä»¥":5514,"æ°ħ":5515,"æĹłå¤ĩ":5516,"æĹłä¹ī":5517,"æİ³":5518,"æİİ":5519,"æĪĳå½ĵ":5520,"åīįå¾Ģ":5521,"çŁ¥æĪĳ":5522,"å¤©æ°Ķ":5523,"åįģåĽĽ":5524,"åĸĥ":5525,"å¿ħå¾Ĺ":5526,"å¿ħçĶŁ":5527,"æ±Ŀä¸į":5528,"å½ĵä¸ĸ":5529,"åĪĺè´¤":5530,"èĭ¥ä»¥":5531,"èĭ¥èĥ½":5532,"å¯¨éĹ¨":5533,"èĻĲ":5534,"çİĭçĵĺ":5535,"çľ·":5536,"éģĤæĽ°":5537,"éĹ®æĹ¶":5538,"é¢Ī":5539,"é¢Ĺ":5540,"éļĻ":5541,"çĦ¶ä¹ĭ":5542,"éĽĮ":5543,"èĢħä¹İ":5544,"åĿ¦":5545,"åĿŁ":5546,"åĲ´å°Ĩ":5547,"åĮĨ":5548,"è®¡äºİ":5549,"ä¾¿åĶ¤":5550,"çģ¶":5551,"åĪĨå¤´":5552,"å¸ĥéĺµ":5553,"æĿĥå¤§åĸľ":5554,"æĢ¥åĶ¤":5555,"åįĹèĽ®":5556,"åĽĽéĹ¨":5557,"èĩ£æĦ¿":5558,"çĻ¾äºº":5559,"åį³å·®":5560,"åį³åı¬":5561,"æŁ±":5562,"æŁĶ":5563,"å¹³æĹ¥":5564,"éĢĢèµ°":5565,"æľĽåĮĹ":5566,"å¤ªçĶļ":5567,"ç§ĺ":5568,"æĸĩé¸¯":5569,"åį´è¯´åŃĻæĿĥ":5570,"ç¦³":5571,"å¤ľè§Ĥ":5572,"äº¦æľī":5573,"æ·¹":5574,"åĲ¬ä¹ĭ":5575,"è¢«æĵĴ":5576,"ä¸Ķå¾ħ":5577,"æ´¾":5578,"åĲįå°Ĩ":5579,"å¾Ĳè´¨":5580,"ä¸ŀçĽ¸ä½ķæķħ":5581,"èº«æŃ»":5582,"åĳ¨åĸĦ":5583,"è¿ĩäºº":5584,"åı³å°ĨåĨĽ":5585,"é«ĺå¹²":5586,"ä¼ļåĸĥ":5587,"è¿İæĪĺ":5588,"åĮĹæĸ¹":5589,"éĻĪåºĶ":5590,"éĻĪéľĩ":5591,"çĶļåĸĦ":5592,"è½¦åīį":5593,"éĩįåľ°":5594,"éĩįåĬł":5595,"èĲ¥åĨħ":5596,"åıĳä¹¦":5597,"å¤±ä¿¡":5598,"æĹĹä¸Ĭ":5599,"å¥ıéĹ»":5600,"å¥īåĳ½":5601,"æĽ´å¾ħ":5602,"æĽ´è¡£":5603,"ä¹±åĨĽ":5604,"ä¹±è¨Ģ":5605,"åıįéĹ´":5606,"æĹ¢å·²":5607,"å®«å®¤":5608,"æĿ¨æĢĢ":5609,"æĿ¨æĺĤ":5610,"é½Ĳå£°":5611,"å½¼èĭ¥":5612,"ç©´":5613,"ç©Ĩ":5614,"è§ĤæľĽ":5615,"åı«éĹ¨":5616,"å¾Ħåĩº":5617,"èįīåłĤ":5618,"æĬĬçĽı":5619,"è¢ģç»įå¤Ħ":5620,"å¨ĺ":5621,"éĥĥæĽ°":5622,"éĤ£äºº":5623,"åįģä½Ļä¸ĩ":5624,"å®ŀä¸º":5625,"çĹħåį±":5626,"å®¹æŁĲ":5627,"æļĹæļĹ":5628,"è°ģæĥ³":5629,"æ¸¡æ°´":5630,"åħ¨æĹł":5631,"æģ¨æĹł":5632,"éĻĨç»Ń":5633,"çº¦ä¼ļ":5634,"åºľä¸ĭ":5635,"å»ºä¸ļ":5636,"å¹²æĽ°":5637,"å¹²æŁ´":5638,"éĢĥçªľ":5639,"æŀľè§ģ":5640,"è¯Īç§°":5641,"çļĦäºº":5642,"ä¹Ŀéĥ¡":5643,"çĻ»é«ĺ":5644,"åįİä½Ĺ":5645,"åĺ¶":5646,"å¦»å°ı":5647,"ä¼¤æĦŁ":5648,"æĬ¤åĨĽ":5649,"çģµæŁ©":5650,"åĪĿæĽ´":5651,"æľ±è¤Ĵ":5652,"ä¸įåĩºæĪĺ":5653,"å¤§è´¥èĢĮèµ°":5654,"æĳĦ":5655,"åĽ°äºİ":5656,"åĽ°ä¹ı":5657,"éĻ¤ä¹ĭ":5658,"æİ©éĿ¢":5659,"ä¸īåįĥåĨĽ":5660,"çĤ¹èµ·":5661,"çİīå¸¦":5662,"ä¼¯è¨Ģ":5663,"éª¤èĩ³":5664,"èŀįæĽ°":5665,"ä»°éĿ¢":5666,"åĤ¬åĨĽ":5667,"åĤ¬åħµ":5668,"éļĲéļĲ":5669,"åıĤè°ĭ":5670,"èĬĿæĽ°":5671,"ä¼łä»¤æĽ°":5672,"çĶ³æĬ¥":5673,"çĶ³èĢ½":5674,"é¢Ħå¤ĩ":5675,"è´£ä¹ĭæĽ°":5676,"å«Ĥå«Ĥ":5677,"éĺ¿ä¼ļåĸĥ":5678,"æĭ¦è·¯":5679,"åħĪå¸ĿæīĺåŃ¤":5680,"ä¸įåı¯è½»è¿Ľ":5681,"æķ°çĻ¾éªĳ":5682,"è¨Ģæľªå·²":5683,"çķĮåı£":5684,"æªĢ":5685,"æ°¸å®ī":5686,"å·´è¥¿":5687,"åĬ¡è¦ģ":5688,"ç¼ĵç¼ĵ":5689,"åĮ»æ²»":5690,"èĩªå¼ķå¤§åĨĽ":5691,"æ±Ĥæķĳäºİ":5692,"å®īå¾Ĺä¸į":5693,"è£ħè½½":5694,"éĻĦèĢ³":5695,"éĥĿèĲĮ":5696,"åºĬä¸Ĭ":5697,"åºĨè´º":5698,"ä¹ĶåĽ½èĢģ":5699,"æĭ¦ä½ıåİ»è·¯":5700,"ä½İå¤´":5701,"æ¶ªåŁİ":5702,"ç°ĩæĭ¥":5703,"æĲ¬è¿Ĳ":5704,"æŃ£åĲĪåĲ¾æĦı":5705,"èĢ¿çºª":5706,"æģĭæĪĺ":5707,"æ°´éķľæĽ°":5708,"ä¹±ç®Ńå°Ħä¸ĭ":5709,"é¸£éĩĳæĶ¶åĨĽ":5710,"å¼ķæķ°éªĳ":5711,"èįĢæĶ¸æĽ°":5712,"æ®·åĭ¤":5713,"é¹¤æ°ħ":5714,"æŁ³åŁİ":5715,"éĥ¿åĿŀ":5716,"å¾¡æŀĹåĨĽ":5717,"éħĴèĩ³åįĬéħ£":5718,"æĭĪå¼ĵæĲŃç®Ń":5719,"åĭīå¼º":5720,"çĶ¨çģ«æĶ»":5721,"çļĩçĶ«åµ©":5722,"åį¸çĶ²":5723,"èĹ¤çĶ²":5724,"èĩ§éľ¸":5725,"çĻ½å¸ĿåŁİ":5726,"æłĪéģĵ":5727,"æĦķçĦ¶":5728,"æ²ĵä¸Ń":5729,"éĬ®":5730,"éıĸ":5731,"å¼łçº®":5732,"£è¶³":5733,"ªåĬĽ":5734,"ºåŃĲ":5735,"äºı":5736,"åıŁ":5737,"ä»ķ":5738,"ä¹ĭä¸º":5739,"ä¹ĭçĲĨ":5740,"ä¹ĭè¯Ń":5741,"ä¹ĭèģĮ":5742,"åĨ¢":5743,"æľĶ":5744,"ä¸įæĿ¥":5745,"ä¸įä¾¿":5746,"ä¸įæĦı":5747,"ä¸įä¹Ĳ":5748,"ä¸įé¡¾":5749,"ä¸įç¥¥":5750,"ä¸įæĤ¦":5751,"åį¤":5752,"æĹģ":5753,"æĹħ":5754,"åŃºåŃĲ":5755,"äººäºº":5756,"äººè¨Ģ":5757,"äººåĽ°":5758,"åħµåİ»":5759,"åħµä¹¦":5760,"å¤§æĹĹ":5761,"å¤§è´¤":5762,"å¤§å®´":5763,"è¿«":5764,"ä¸Ģåıª":5765,"ä¸Ģè®¡":5766,"ä¸Ģç®Ń":5767,"é©¬æŃ¥":5768,"é©¬æŃ¥åĨĽ":5769,"å°Ĩä¹¦":5770,"å°Ĩé¦ĸçº§":5771,"èµ¢":5772,"æĪļ":5773,"ä¼´":5774,"çİł":5775,"æĿ¥è¿½":5776,"åĩ¿":5777,"æĸ¯":5778,"æĵįæ¬²":5779,"æŃ¤é©¬":5780,"æŃ¤ä¹¦":5781,"ä¸ĭäºĨ":5782,"ä¸ºèįĨå·ŀ":5783,"ä¸ºéĩį":5784,"ä¸ºå¤§å°Ĩ":5785,"ä¸ºéķĩ":5786,"ä¸ºèªĵ":5787,"ä¸ºè¾ħ":5788,"ä¸ºå¤§å°ĨåĨĽ":5789,"è§ģåŃĻæĿĥ":5790,"èĢĮåĪ«":5791,"åĬªåĬĽ":5792,"ä½ķåĩºæŃ¤è¨Ģ":5793,"å½¹":5794,"åĩºåħ¶ä¸į":5795,"åĲ¾è¨Ģ":5796,"åĲ¾åį´":5797,"åĲ¾äºĮäºº":5798,"åĲ¾åıĹ":5799,"åı¯ä»¤":5800,"åĲİäºĭ":5801,"ä»¥æĭĴ":5802,"æĺİçĻ½":5803,"ä¸ĬèĪ¹":5804,"ä¸Ĭè½¦":5805,"ä»Ĭæľī":5806,"ä»Ĭèĭ¥ä¸į":5807,"ä¸İåħ³":5808,"éĺİ":5809,"å¼łéĤ°":5810,"åħ¶çĪ¶":5811,"åħ¶ç½ª":5812,"ä¹ĥå¼ķ":5813,"ä¹ĥåĳ½":5814,"ä¹ĥåı¬":5815,"èĭĩ":5816,"èĩªåĩº":5817,"èĩªå®Ī":5818,"èĩªç§°":5819,"åŃĶæĺİå¤§åĸľ":5820,"å¼ķçĿĢ":5821,"å¼ķä¼Ĺå°Ĩ":5822,"å¼ķäºĶçĻ¾åĨĽ":5823,"å¼ķäºĶåįĥåħµ":5824,"åľ¨å®¶":5825,"åħ¥åºľ":5826,"æĹłè¨Ģ":5827,"æĹłéģĵ":5828,"æĿĢå°Ĩ":5829,"æĿĢæĪĳ":5830,"åħĪå°Ĩ":5831,"åħĪä»¤":5832,"åħĪå¾Ģ":5833,"æĪĳåıª":5834,"åīįæĹ¥":5835,"åħ³ä¸ĭ":5836,"è·£è¶³":5837,"åŃĲåŃĻ":5838,"åŃĲç¿¼":5839,"çŁ¥ä¹Ł":5840,"å¤©æĹ¶":5841,"åįģåħŃ":5842,"å¿ħæĺ¯":5843,"å¿ħæŃ»":5844,"å¿ħæĸ©":5845,"å·²å¾Ĺ":5846,"åıªè¯´":5847,"åıªçľĭ":5848,"ä¼Ĺè¯¸ä¾¯":5849,"æĪĺé©¬":5850,"å¯¨æĿ¥":5851,"å¯¨åĲİ":5852,"éķ¿åı¹æĽ°":5853,"ç«¿":5854,"çİĭå®¤":5855,"çİĭæ¿¬":5856,"ç¥·":5857,"åŃĻçļĵ":5858,"éĹ®ä½ķäºº":5859,"æŃ»ä¹ĭåĲİ":5860,"è¡ĮåĪ°":5861,"å®Īå¯¨":5862,"ä¿¯":5863,"åĮ¿":5864,"åĮł":5865,"å°ĨåĨĽèĭ¥":5866,"æŀ¯":5867,"ä¾¿æľī":5868,"ä¾¿å½ĵ":5869,"åĪĨä¸º":5870,"åĪĨä¸¤è·¯":5871,"è¯¸åĲĽ":5872,"èĤĭ":5873,"è¶ģ":5874,"æ²Ī":5875,"æ²Ķ":5876,"è¥Ł":5877,"ä¸ľå°ĨåĨĽ":5878,"æĢ¥ä¸Ĭé©¬":5879,"æ¸İ":5880,"æ¸ł":5881,"åį³éģ£":5882,"å¿½èµ·":5883,"å¿½åĲ¬":5884,"æ±Łä¸Ń":5885,"æ±Łå±±":5886,"æīĢè§ģ":5887,"äºĶéĩĮ":5888,"éĢĢèľĢåħµ":5889,"éĢĢå·¦åı³":5890,"æĸ¹å§ĭ":5891,"çĶŁå¾Ĺ":5892,"æĸĩéķ¿":5893,"æĸĩçİĭ":5894,"çĶ¨è®¡":5895,"å°ıå¿ĥ":5896,"åĲĦæī§":5897,"åį´è¯´åĳ¨çĳľ":5898,"æķ¢ä¸į":5899,"èºģ":5900,"é»ĦæĹĹ":5901,"æĥĬæħĮ":5902,"æīĭä¸Ń":5903,"äº¦æĺ¯":5904,"ä¸Ķèµ°":5905,"é¢Ĩä¸ĢåĨĽ":5906,"åı¸é©¬çĤİ":5907,"å·¦æīĭ":5908,"éĶ¤":5909,"æ´Ĵ":5910,"å¾Ĳæ°ı":5911,"å®ĺåĨĽ":5912,"èº«æĬ«":5913,"ä¼ıå®Į":5914,"ç»įåĨĽ":5915,"æķĮæ¥¼ä¸Ĭ":5916,"å®ļçŁ£":5917,"å¹´æĺ¥":5918,"èµ¶èĩ³":5919,"ä½ľåħĪéĶĭ":5920,"åĽłè§ģ":5921,"çĲª":5922,"ç²®è¶³":5923,"ç²®ç±³":5924,"äº²å¾ģ":5925,"æĿİèĴĻ":5926,"éĩįä»»":5927,"åĳĬçŁ¥":5928,"æıª":5929,"èĻ½æĺ¯":5930,"èĬĴ":5931,"ä¸įèĥ½çĽ¸":5932,"ä¸įèĥ½è¡Į":5933,"ä¹ĺåħ¶":5934,"ä¹ĺéĹ´":5935,"åĬŁå¾·":5936,"åĿĲèĢĮ":5937,"è¯¸èĳĽä¸ŀçĽ¸":5938,"å²Ĥä¸įçŁ¥":5939,"çĥŃ":5940,"å®«éĹ¨":5941,"æĿ¨ç§ĭ":5942,"éĩĳçĸ®":5943,"æĵĴä½ı":5944,"å§ľåıĻ":5945,"äº¤åİļ":5946,"éŁ©ç¦ı":5947,"å¾Ħåħ¥":5948,"è¿ľè¿ľ":5949,"èī¯æĽ°":5950,"è¾ŀåĪ«":5951,"æµģè¡Ģ":5952,"ç¬¬ä¹Ŀ":5953,"çĹħéĩį":5954,"çŃĶè¯Ŀ":5955,"ä¸¾äºĭ":5956,"è¡£å¸¦":5957,"ä¸ĥåĨĽ":5958,"è´¤ä¾Ħ":5959,"å¤ºå¾Ĺ":5960,"å±ħä¸Ń":5961,"å¯¹æķĮ":5962,"æĻĥæĽ°":5963,"çº¦å®ļ":5964,"åĪºæĸľ":5965,"åħŃéĥ¡":5966,"çĴĭæĽ°":5967,"å¿§èĻĳ":5968,"å¹²æĪĪ":5969,"ç»Ĩè¨Ģ":5970,"èµĲä¹ĭ":5971,"éĢĥéļ¾":5972,"å¯»è·¯":5973,"ç»ĵå¥½":5974,"çĽĸæĽ°":5975,"åħīæŃ¦":5976,"ä¾Ŀæ¬¡":5977,"ä¸Ģå£°é¼ĵåĵį":5978,"åĲİäººæľīè¯Ĺåı¹":5979,"è¿Ļä¸ª":5980,"åĽ°åľ¨åŀĵå¿ĥ":5981,"äºīå¥Ī":5982,"åĲīåĩ¶":5983,"åĤħå½¤":5984,"æľīä½ķé«ĺè§ģ":5985,"è´¾éĢµ":5986,"æ¼ł":5987,"å¸Ńæķ£":5988,"äºİé©¬ä¸Ĭ":5989,"æµ·åĨħ":5990,"çĨĬ":5991,"äºĶçĻ¾äºº":5992,"ç´łæľī":5993,"å¥ĩæīį":5994,"ç¢į":5995,"æĪĳçŃīçļĨ":5996,"æĶ¸æĽ°":5997,"ä»°è§Ĥ":5998,"éģ¿ä¹ĭ":5999,"åĨĻä¹¦":6000,"æī¬éŀŃ":6001,"ä¼łä»¤æķĻ":6002,"éĺ´äºĳ":6003,"åį«çĵĺ":6004,"æĻĭåħ¬":6005,"æĬļæİĮ":6006,"è¡¡æĽ°":6007,"å¤§åĵŃæĽ°":6008,"åľ£äºº":6009,"æĭĨå°ģ":6010,"æĶ¹åħĥ":6011,"ä½ķä»¥çŁ¥ä¹ĭ":6012,"çĮĽå°Ĩ":6013,"åıĻç¤¼æ¯ķ":6014,"æĦļæĦı":6015,"æ¸©ä¾¯":6016,"åĽºå®Ī":6017,"çİºç»¶":6018,"çĽĳåĨĽ":6019,"æĭ¿ä¸ĭ":6020,"ä¸īä¸ĩåĨĽ":6021,"é¢ĩæľī":6022,"èĨº":6023,"åĲĬä¸§":6024,"ç¾Ĭç¥ľ":6025,"åģıå°ĨåĨĽ":6026,"è·Łéļı":6027,"éŀįé©¬":6028,"ä¸ºä¸ĬçŃĸ":6029,"é¼ĵè§Ĵåĸ§å¤©":6030,"éĹªè¿ĩ":6031,"åĽĽæķ£å¥Ķèµ°":6032,"åįļæľĽ":6033,"å»ºå®īäºĮåįģ":6034,"é¼łçªľ":6035,"åī¿éĻ¤":6036,"çĶ·å¥³":6037,"å¹½å·ŀ":6038,"è¹Ħ":6039,"ç»°æŀª":6040,"æ¦»åīį":6041,"ä¸¾çģ«ä¸ºåı·":6042,"ä¸Ģç®Ńå°Ħä¸Ń":6043,"é¼ĵå£°å¤§éľĩ":6044,"çŁ¢çŁ³å¦ĤéĽ¨":6045,"é¾ļéĥ½":6046,"æĭ±æīĭ":6047,"åĽĽè½®è½¦":6048,"æİİè§Ĵ":6049,"åĩºåħ¶ä¸įæĦı":6050,"¤æŃ£":6051,"¨èī":6052,"¸é©¬":6053,"è¹ĩ":6054,"éī":6055,"ĩäºŃ":6056,"ï¼ĮâĢĿ":6057,"åıī":6058,"ä¹ĭè§ģ":6059,"ä¹ĭåĪĨ":6060,"ä¹ĭéĿ¢":6061,"ä¹ĭåįĹ":6062,"ä¹ĭæľĽ":6063,"ä¹ĭå¤´":6064,"ä¹ĭäº¤":6065,"æĿĲ":6066,"åĨĮ":6067,"ä¸įéĢĢ":6068,"ä¸įå¤į":6069,"æĹĦ":6070,"åĨĽå°Ĩ":6071,"è¯£":6072,"è¯µ":6073,"åħµéĢĢ":6074,"å¿ĸ":6075,"é©´":6076,"é©¸é©¬":6077,"å¤§èĩ³":6078,"å¤§ä¸ļ":6079,"ä¸Ģæĸ¹":6080,"ä¸Ģå®¶":6081,"ä¸ĢæĪŁ":6082,"å·į":6083,"æĿ¥æŃ¤":6084,"æĿ¥è¯´":6085,"æĿ¥èµ¶":6086,"æĿ¥æİ¥åºĶ":6087,"æĵįåį³":6088,"æĵįéĹ®æĽ°":6089,"æŃ¤çļĨ":6090,"ç»ľ":6091,"éģı":6092,"ä¸ĭçĭ±":6093,"äºİæĵį":6094,"äºİåĲİ":6095,"äºİæĪĳ":6096,"ï¼ŁâĢĻ":6097,"ä¸ºå¤©ä¸ĭ":6098,"ä¸ºåĽ½å®¶":6099,"è§ģåħ¶":6100,"è§ģéŃıåħµ":6101,"ä½ķäºĭ":6102,"ä½ķè°ĵ":6103,"ä½ķæľŁ":6104,"å½ķ":6105,"éĥ¤æŃ£":6106,"ä¾ĭ":6107,"åı¯æĢ¥":6108,"è´¯":6109,"ä»¥æķĳ":6110,"ä»¥ç¤º":6111,"æĽ¹åµ©":6112,"æĽ¹å½°":6113,"åħ¬ä½ķ":6114,"ä¸Ĭåħ³":6115,"åīĸ":6116,"ä»Ĭå½ĵ":6117,"ä¸İåħ³åħ¬":6118,"ä¸İä»ĸ":6119,"ä¸İåĲķå¸ĥ":6120,"ä¸İåĪĺå¤ĩ":6121,"ä¸İä¼Ĺå°Ĩ":6122,"åİ»åĬ«":6123,"åħ¶ä¸Ń":6124,"åħ¶è¯´":6125,"åħ¶åľ°":6126,"æĹ¥è¡Į":6127,"ä»¤åħµ":6128,"ä»¤åħ¶":6129,"ä¹ĥæĽ°":6130,"ä¹ĥåŃĶæĺİ":6131,"ä¹ĥå¯Ĩ":6132,"èĩªåĪ°":6133,"äºĮå¿ĥ":6134,"äºĮè¢ģ":6135,"åĽŀçŃĶ":6136,"åŃĶæĺİäº¦":6137,"åŃĶæĺİåı¹æĽ°":6138,"å¦Ĥåħ¶":6139,"åľ¨æĹ¥":6140,"åľ¨å½¼":6141,"åľ¨å¸Ĳä¸Ń":6142,"æĺ¯æĪĳ":6143,"å¾Ĺå¿Ĺ":6144,"è¢ĭ":6145,"æĹłæķĮ":6146,"æĹłè¯Ń":6147,"æĿĢè´¥":6148,"æĶĢ":6149,"æģį":6150,"æİ¾":6151,"åħĪæķĻ":6152,"åħĪæĸ©":6153,"åħĪä½¿äºº":6154,"ä¸īåħ¬":6155,"ä¸īå¯¨":6156,"ä¸īå¤Ħ":6157,"ä¸īåĽ½":6158,"ä¸īå¯¸":6159,"æĪĳèĭ¥":6160,"åīįè¡Į":6161,"åŃĲå¸ĥ":6162,"åĪ°å¤Ħ":6163,"å¤©æĻļ":6164,"å¤©è±¡":6165,"åįģäºº":6166,"åįģåħ«":6167,"åĸī":6168,"å¿ħèĥľ":6169,"æ±Ŀåĭ¿":6170,"æ±Ŀå®īæķ¢":6171,"å½ĵä»Ĭ":6172,"åıĪæĺ¯":6173,"åıĪéĹ»":6174,"åıĪéĹ®æĽ°":6175,"åĪĺçĦī":6176,"åıªæķĻ":6177,"åıªåĽł":6178,"å±±åīį":6179,"å±±éĺ³":6180,"å±±é¡¶":6181,"æĬ¥æĽ°":6182,"æĬ¥æĿ¥":6183,"äºĳæ¢¯":6184,"æ¬²ä»¤":6185,"æ¬²åıĸ":6186,"æ¬²æĬķ":6187,"åį´å°Ĩ":6188,"åį´æĿ¥":6189,"åį´ä»¤":6190,"æŃ£åĢ¼":6191,"æĪĺå¿ĥ":6192,"æĪĺä¸Ķèµ°":6193,"ä½¿èĩ³":6194,"çİĭåŃĲæľį":6195,"å®īèº«":6196,"çºĤ":6197,"å®ĪéĹ¨":6198,"åĮ£":6199,"æŀ¶":6200,"çŃīä¸ĢçıŃ":6201,"ä¾¿éĹ®":6202,"ä¾¿åĳ½":6203,"åĪĨåĨĽ":6204,"æľªæĽ¾":6205,"èī¨èī":6206,"èĤ©":6207,"è¶±":6208,"ç¬ĥ":6209,"æĢ¥æ¬²":6210,"æĢ¥æĢ¥":6211,"æĢ¥åı¬":6212,"æĢ¥åĪĩ":6213,"åĽĽéĥ¡":6214,"æķ°æ¬¡":6215,"ä¸¤å¤´":6216,"æīĢçĶŁ":6217,"æīĢå®³":6218,"æīĢä½©":6219,"äºĶä¸Ī":6220,"éĢĢå®Ī":6221,"æµĬ":6222,"æķħäºĭ":6223,"æ°´åħ³":6224,"æ°´æĪĺ":6225,"æĩĪ":6226,"åĲĦå®Ī":6227,"åĲĦå¼ķåħµ":6228,"åĲĦèĲ¥":6229,"åĲĦå¼ķä¸ĢåĨĽ":6230,"åį´è¯´å¼łé£ŀ":6231,"åį´è¯´éĤĵèī¾":6232,"å°½å¿ł":6233,"èº²":6234,"ä½ĻçļĨ":6235,"é»Ħåħ¬è¦Ĩ":6236,"æĥĬè®¶":6237,"äº¦è¢«":6238,"æ·«":6239,"åĲķåĩ¯":6240,"åĲ¬ä¿¡":6241,"åĽ½è´¼":6242,"ä¸ĶéĢĢ":6243,"ä¸Ķå®ľ":6244,"ä¸ĶæĪĺä¸Ķèµ°":6245,"é¢Ĩå¤§åĨĽ":6246,"è®¸éĿĸ":6247,"éĶ¡":6248,"å®ĺåĲı":6249,"çľĭæĪĳ":6250,"åĲĮä¹¡":6251,"åĲĮçĶŁæŃ»":6252,"æķĳåħµ":6253,"æŁĲæľīä¸Ģè®¡":6254,"æķĮåĨĽ":6255,"æĭľæľį":6256,"å®ļä¹Ł":6257,"çģ«æĿ¥":6258,"è¿ĩä¹Ł":6259,"æĸ©äºİå¸Ĥ":6260,"æĶ»åıĸ":6261,"åĪĢèĲ½":6262,"å¹¶çļĨ":6263,"å¹¶å·ŀ":6264,"é«ĺå£°":6265,"é«ĺæ²Ľ":6266,"å»¶æĽ°":6267,"åĮĹå²¸":6268,"å¤ĸåĲĪ":6269,"è°ĭå®³":6270,"åĶ¯":6271,"çĶļçĪ±ä¹ĭ":6272,"èįĨå·ŀä¹ĭåħµ":6273,"å½Ĵäºİ":6274,"å½Ĵé¡º":6275,"çĮĩäºŃ":6276,"æ¡¶":6277,"æģĲå¤±":6278,"æĹ©åĪ°":6279,"æĶ¾åĩº":6280,"æĶ¾äºĨ":6281,"é¥¿":6282,"åıĹä¹ĭ":6283,"å¤±æĥĬ":6284,"è¿ŀå£°":6285,"è¿ŀå¿Ļ":6286,"å°ļåľ¨":6287,"è¶³çŁ£":6288,"éĴī":6289,"çł´äºĨ":6290,"æłĹ":6291,"ä¹īåħµ":6292,"å¥ĶåĪ°":6293,"å¼ĢåŁİéĹ¨":6294,"è¦ģè·¯":6295,"åŃŁèµ·":6296,"å²Ĥå¾Ĺ":6297,"æĿ¨éĻµ":6298,"æĶ¶å·Ŀ":6299,"ä¸ĢäººåĩºæĽ°":6300,"å±¯åĨĽ":6301,"çªĿ":6302,"çľŁå¿ĥ":6303,"æ¶¿":6304,"ç¼¨":6305,"åģ¥":6306,"å·Ŀä¸Ń":6307,"å·Ŀåı£":6308,"è¿ľè¿ĳ":6309,"è¿ľå¾ģ":6310,"å¸¦æĿ¥":6311,"å§ľç»´æĽ°":6312,"åı¹æģ¯":6313,"ä¼łæĹ¨":6314,"å¨¶":6315,"æīĵè¯Ŀ":6316,"æİ¢ä¹ĭ":6317,"åĭ¿çĸĳ":6318,"åħ±é¥®":6319,"ç¬¬åĽĽ":6320,"è®¾è®¡":6321,"è®¾ç¥Ń":6322,"çĶ²å£«":6323,"è°ģçŁ¥":6324,"å¾ģè¿Ľ":6325,"å¾ģè¥¿å°ĨåĨĽ":6326,"èĴĻæĽ°":6327,"ä¾įå©¢":6328,"éľĩå¤©":6329,"ä¸ĢåĨĽåıĸ":6330,"èĲ½äºİ":6331,"èģļä¼Ĺå°Ĩ":6332,"æĽ¾ä¸İ":6333,"éģĩå®³":6334,"åĩ»é¼ĵ":6335,"æĸ°äº¡":6336,"å¿§éĹ·":6337,"æĸĻæķĮ":6338,"ç²¾ç¥ŀ":6339,"ç²¾å£®":6340,"èµıèµĲ":6341,"å¯»è§ħ":6342,"èĶ¡éĤķ":6343,"æİ¨è½¦":6344,"ä¸¥æ°ı":6345,"è¢ŃäºĨ":6346,"çĻ»æĽ°":6347,"ä¾Ŀå±±":6348,"åĬłå®³":6349,"åĬłéŀŃ":6350,"åįİå®¹":6351,"æĭĴä½ı":6352,"æĮºèº«":6353,"èİ«æķ¢":6354,"åĸĬå£°éľĩåľ°":6355,"æĢĢçĸĳ":6356,"åĥ§":6357,"åĥı":6358,"æĬĺåħµ":6359,"é²ģèĤĥæĽ°":6360,"éº»":6361,"åĭĴåĽŀé©¬":6362,"æīĺçĹħ":6363,"ä¸Īåħ«":6364,"åĪĨä»ĺå¦ĤæŃ¤å¦ĤæŃ¤":6365,"æŀĹæľ¨":6366,"ä¸§èĥĨ":6367,"è°ĥçĶ¨":6368,"çĤ¹å¤´":6369,"æ³£æĭľ":6370,"åĪĨåħµä¸īè·¯":6371,"åĽŀæĬ¥æĽ°":6372,"åı¤äºº":6373,"è®ºä¹ĭ":6374,"éĺ²ä¹ĭ":6375,"ä¸Ķè¯´æĽ¹æĵį":6376,"åĪĹä¾¯":6377,"ç±»":6378,"æĮºæŀªçºµé©¬":6379,"æĮºæŀªæĿ¥è¿İ":6380,"åŃĻä¹¾æĽ°":6381,"è¯¯äºĨ":6382,"å³ª":6383,"è§Īè¡¨":6384,"ç¢Į":6385,"ä¹¡ä¾¯":6386,"æŃĩæģ¯":6387,"ç®¡äº¥":6388,"åĤ¬çĿ£":6389,"ä¹ĺåĬ¿æİ©æĿĢ":6390,"å·®äººå¾Ģ":6391,"è¸ª":6392,"è¸ŀ":6393,"éļĲèĢħ":6394,"æĺıç»Ŀ":6395,"æ¬ºæĪĳ":6396,"åıĤæĭľ":6397,"å¦Ļç®Ĺ":6398,"éĺ»å½ĵ":6399,"åĦĴæĽ°":6400,"çĶ³ä»ª":6401,"æĭĨå¼Ģ":6402,"æĴŀåĩº":6403,"æĴŀçĿĢ":6404,"æĺ¨å¤ľ":6405,"æīİä½ı":6406,"ç¾¤èĩ£æĽ°":6407,"éĩıæŃ¤":6408,"æĬ±å¤´":6409,"åº§ä¸Ĭ":6410,"åŀĤæ³ª":6411,"é©°ä¹¦":6412,"ä¸ĢåĪĢçłį":6413,"æŃĮæĽ°":6414,"æ¯Ľçİł":6415,"éĦĤ":6416,"éĦĻ":6417,"å±Īèº«":6418,"çĥ¦æģ¼":6419,"æģ°æīį":6420,"æ®µçıª":6421,"ä¼Ĭå°¹":6422,"èĻ½çĦ¶å¦ĤæŃ¤":6423,"åı¯æĵĴä¹Ł":6424,"æ§½":6425,"åįģæķ°éªĳ":6426,"å¤§å¼ĢåŁİéĹ¨":6427,"æ°´éĻĨå¹¶è¿Ľ":6428,"èĴ¯è¶Ĭ":6429,"æĢłæħ¢":6430,"èº«éķ¿åħ«å°º":6431,"èĬ¦èĭĩ":6432,"èĮħåºĲ":6433,"çĦ¦è§¦":6434,"æĶ¾èµ·çģ«æĿ¥":6435,"éĽħä¸¹":6436,"æħ¨çĦ¶":6437,"éªģå°Ĩ":6438,"æµģæĺŁé©¬":6439,"æĭĤè¢ĸ":6440,"æĹłè®¡åı¯æĸ½":6441,"æ·³äºİçĲ¼":6442,"èŃ¦":6443,"éªłéªĳå°ĨåĨĽ":6444,"èĢħä¸ºçīĽ":6445,"èī°éļ¾":6446,"å¿»çĦ¶":6447,"éĽĮéĽĦ":6448,"éıĸåħµ":6449,"åį¤åŁİ":6450,"äººåĽ°é©¬ä¹ı":6451,"æİİè§Ĵä¹ĭåĬ¿":6452,"éī´":6453,"èī¨èīŁ":6454,"«èĬ¦":6455,"Ġè¯¸èĳĽäº®":6456,"Ħéģĵ":6457,"ĸæĵ":6458,"ï¼Ī":6459,"ï¼ī":6460,"å¤·":6461,"ä»ĭ":6462,"ä¹ĭä»¥":6463,"ä¹ĭæ°Ķ":6464,"ä¹ĭä»»":6465,"ä¹ĭæģ¨":6466,"ä¹ĭæľº":6467,"å°§":6468,"æĿł":6469,"ä¸įåĽŀ":6470,"ä¸įçĿ":6471,"ä¸įæĥ§":6472,"ä¸įæľŁ":6473,"ä½ŀ":6474,"åĨĽç²®":6475,"è¯Ħ":6476,"åħµå·²":6477,"åħµä¸´":6478,"æķŀ":6479,"å¤§çĸĳ":6480,"å¤§æĿĢä¸Ģéĺµ":6481,"è¿Ī":6482,"ä¸Ģé©¬":6483,"ä¸ĢæŃ»":6484,"ä¸Ģèº«":6485,"ä¸ĢåŃĹ":6486,"ä¸Ģä¸¾":6487,"ä¸ĢåĮ¹":6488,"ä¸ĢæĭĽ":6489,"å°ĨæĺŁ":6490,"å°Ĩäº¡":6491,"æĪİ":6492,"ä¼¸":6493,"ä¼ŀ":6494,"æĿ¥æĦı":6495,"å¸»":6496,"å¸½":6497,"å¸ĺ":6498,"æľīåĳ½":6499,"æľīä¹¦":6500,"æľīè¯¯":6501,"çĽĪ":6502,"çĽĴ":6503,"æĵįå¯¨":6504,"æŃ¤çŃī":6505,"æŃ¤æľºä¼ļ":6506,"ä¸ĭæĪĺ":6507,"ä¸ĭè¯ı":6508,"ä¸ĭæ±ŁåįĹ":6509,"ä¸ĭæ¥¼":6510,"äºİä¸ŀçĽ¸":6511,"ä¸Ńå±±":6512,"æĬĸæĵ":6513,"ä¸ºåĨĽå¸Ī":6514,"çĶĦ":6515,"è§ģèľĢåħµ":6516,"èĢĮæľī":6517,"ä½ķå¾Ĺ":6518,"ä½ķçŃĸ":6519,"åĩºæŃ¤":6520,"åĩºéĻį":6521,"åĩºæ¦ľ":6522,"åĲ¾åħĪ":6523,"åĲ¾çŁ¥":6524,"åĲ¾å¿ĥ":6525,"åĲ¾è®¡":6526,"å¦Ĵ":6527,"åĲİéĺŁ":6528,"åĲİå¿ħä¸º":6529,"ä»¥éħĴ":6530,"ä»¥å®ŀ":6531,"æĽ¹é«¦":6532,"åħ¬æĺİ":6533,"è¡Ķ":6534,"ä»Ĭè§ģ":6535,"ä»ĬæĹ¢":6536,"éĺī":6537,"å¼łäºĮäºº":6538,"å¼łèĭ±":6539,"å¼łæ¢ģ":6540,"å¼łèĳĹ":6541,"åİ»çŁ£":6542,"åħ¶å®¶":6543,"çİĦå¾·ä¸º":6544,"çİĦå¾·å¤§æĥĬ":6545,"ä¹ĥèģļ":6546,"è¾¨":6547,"èĩªèµ°":6548,"åŃĶæĺİè§ģ":6549,"å¦Ĥé£ŀ":6550,"åľ¨ç¥ģå±±":6551,"åľ¨æĹ¦å¤ķ":6552,"æĥ¹":6553,"æĺ¯ä¸ª":6554,"åħ¥åĳĬ":6555,"åħ¥æĪĲéĥ½":6556,"çĽ¸æĬķ":6557,"å¾Ĺä¹¦":6558,"æĹłå¿ĥ":6559,"æĹłèĥ½":6560,"æĹłåĲį":6561,"æĹłä¸Ģäºº":6562,"æĿĢåĲ¾":6563,"æģ£":6564,"ä¸īå°Ĩ":6565,"ä¸īéĿ¢":6566,"ä¸īé¡¾":6567,"æĪĳæľī":6568,"æĪĳåİ»":6569,"èĩ³äºİ":6570,"èĩ³çŁ£":6571,"åĪ°äºĨ":6572,"åįģæľĪ":6573,"çļĨåĩº":6574,"çļĨæĹł":6575,"çļĨéĢĢ":6576,"çļĨæŃ»äºİ":6577,"æ±Ŀå½ĵ":6578,"æ±ĿçĪ¶":6579,"å½ĵæľī":6580,"å½ĵä½ı":6581,"éŃıèĲ¥":6582,"åıĪåĪ°":6583,"åıĪèµ·":6584,"åıĪéģ£":6585,"å·²å°Ĩ":6586,"å·²èĩ³":6587,"åıªæľĽ":6588,"åıªåĲ¬":6589,"åıªè¦ģ":6590,"æĬ¥æķĪ":6591,"æĬ¥æį·":6592,"æ¬²ä½¿":6593,"æ¬²å®³":6594,"æŃ£åķĨè®®":6595,"éķ¿æŀª":6596,"çİĭçĶ«":6597,"éģĤå°ģ":6598,"éģĤä¸Ĭé©¬":6599,"çº¿":6600,"éĹ®å®ī":6601,"æŃ»æĹł":6602,"éĽģ":6603,"åĿı":6604,"å®ĪæĬ¤":6605,"åĲ´åĨĽ":6606,"åĲ´éĥ¡":6607,"è®¡å°±":6608,"æŀķ":6609,"éªĮ":6610,"ä¾¿éĢĢ":6611,"åĪĨä½ľ":6612,"åĪĨä¸īè·¯":6613,"ä¹¦çĶŁ":6614,"å£«é©¬":6615,"ä»İèĥĮåĲİ":6616,"å»Ĭ":6617,"æľªè§ģ":6618,"æľªå®¡":6619,"å²©":6620,"èľľ":6621,"å¸ĥä¹ĥ":6622,"èĳ«èĬ¦":6623,"èľĢæ±ī":6624,"æ²Ĳ":6625,"ä¸ľè¥¿":6626,"èµ°äºĨ":6627,"åĽĽæľĪ":6628,"åĽĽåįģä½Ļ":6629,"æķ°åįģä¸ĩ":6630,"æ¸ļ":6631,"åį³çļĩå¸Ŀ":6632,"åį³ä¿®ä¹¦":6633,"ä¸¤å°Ĩ":6634,"ä¸¤çķª":6635,"äºĶäºº":6636,"æľĽåįĹ":6637,"ä¸ĩäºº":6638,"ä¸ĩå¤«":6639,"åľ°éĿ¢":6640,"åľ°éģĵ":6641,"å¤ªçĻ½":6642,"åĢ¦":6643,"æĸ¹å¾Ĺ":6644,"æ°´è·¯":6645,"æ°´åĬ¿":6646,"çĶ¨å¥½è¨Ģ":6647,"å°ıäºº":6648,"åĲĦå¯¨":6649,"çĪª":6650,"å°½è¡Į":6651,"ä½Ļäºº":6652,"é»Ħæ²³":6653,"è´¥äºİ":6654,"äº¦ä¸įèĥ½":6655,"çĸ¼":6656,"åĲ¬æ¯ķ":6657,"ç½ķ":6658,"ä¸įåı¯èĥľ":6659,"æ´Ĺ":6660,"å¾ħåĲ¾":6661,"å®ĺåĳĺ":6662,"éģĵåı£":6663,"ç«ĭä¹ĭ":6664,"åĲĮè¡Į":6665,"ä¼ıé¾Ļ":6666,"åºĶå¤©":6667,"æķĳæı´":6668,"åĳ¨åħ¬":6669,"æŁĲä¹ĥ":6670,"çŃĸé©¬":6671,"æķĮæīĭ":6672,"è¿ĩæ¡¥":6673,"å¹´çŁ£":6674,"æĸ©å°Ĩ":6675,"éĺµä¸Ĭ":6676,"ç¾¡":6677,"å®¶äºº":6678,"èİ½":6679,"å¸ĪçºĤ":6680,"é«ĺéĺľ":6681,"åĽłéĹ®":6682,"åĮĹåĨĽ":6683,"åĮĹåľ°":6684,"å¤ĸåºĶ":6685,"åĲĽåŃĲ":6686,"èĪ¹çŃı":6687,"è°ĭèĩ£":6688,"èĥľä¹ĭ":6689,"æĿİä¸°":6690,"è½¦ä¸Ń":6691,"èįĨå·ŀæĿ¥":6692,"è°ĵè¯¸å°ĨæĽ°":6693,"æĦ¿ä»İ":6694,"æĶ¾æ±Ŀ":6695,"éļıåĨĽ":6696,"ä»ĸæĹ¥":6697,"çĽ´åĨ²":6698,"åıĹåħ¶":6699,"ä¸įèĥ½çĶ¨":6700,"åĨįè¨Ģ":6701,"åĨįå¾Ģ":6702,"è¿ŀå¹´":6703,"ç¿ģ":6704,"åĿĲä¸ĭé©¬":6705,"çĭĲ":6706,"çĭĦéģĵ":6707,"çł´æĽ¹æĵį":6708,"æłĸ":6709,"å¥Ķèĩ³":6710,"å¥ĶéĢĥ":6711,"å°ģä¸º":6712,"å¼Ģè·¯":6713,"æ®Ĭ":6714,"è§£ä¹ĭ":6715,"å²Ĥæķ¢":6716,"æĹ¢æŃ»":6717,"æľĿæĶ¿":6718,"ä¸ĢäººåºĶå£°":6719,"ä¸Ģäººä¸Ģéªĳ":6720,"åŃĹæĸĩ":6721,"åŃĹä»²":6722,"ç¼ī":6723,"éĢģèĩ³":6724,"çĤŃ":6725,"å¼ĥé©¬":6726,"éĵº":6727,"æľĪæĺİ":6728,"åĵŃæĽ°":6729,"å°ĦæŃ»":6730,"çĮ®ä¸Ĭ":6731,"é²ģåŃĲæķ¬":6732,"å°ĳæŃĩ":6733,"æĬĬä½ı":6734,"éĤ£å°Ĩ":6735,"åĳ¨çĳľæĽ°":6736,"å®ľéĢŁ":6737,"æ·±çŁ¥":6738,"æ·±ä¿¡":6739,"èĻİå°Ĩ":6740,"åĲĳèĢħ":6741,"æļĹæĢĿ":6742,"åħģè¯º":6743,"è®¾å¸Ń":6744,"ä¸¾åĵĢ":6745,"ä¸ĸæīĢ":6746,"ä¸ĥæľĪ":6747,"ä¸ĥæĺŁ":6748,"èĻļå¼ł":6749,"è°ģäºº":6750,"å¾ģä¼Ĳ":6751,"å±ħäºİ":6752,"å¹¸ä¹Ł":6753,"è¾¾æĽ°":6754,"å¯¹çŃĶ":6755,"ä¾įç«ĭ":6756,"ä¾įå¦¾":6757,"éĢŁè¡Į":6758,"å²±æĽ°":6759,"çº¦æľī":6760,"æľķæĦı":6761,"åĪºæŃ»":6762,"å¼łéĥĥæĽ°":6763,"ä¸įå¾Ĺä¸į":6764,"ä¸´éĺµ":6765,"ç»Ĩè¯´":6766,"èµĲæķĻ":6767,"éĢĥçĶŁ":6768,"å¤ªå®Īçİĭ":6769,"èµıä¸īåĨĽ":6770,"è¯Īä¹Ł":6771,"èĶ¡æ°ı":6772,"çĶĺå¤«äºº":6773,"ä½ķä¸įæĹ©éĻį":6774,"ä¹ĿåĽŀ":6775,"çĻ»åŁİ":6776,"ä¾ĿæĹ§":6777,"æĹ§èĩ£":6778,"ä»¤äººåĵ¨æİ¢":6779,"çĲĨä¼ļ":6780,"æĥħæĦ¿":6781,"èµ´ä¼ļ":6782,"èµ´å®´":6783,"èµ´æ´Ľéĺ³":6784,"æĭĽåĨĽ":6785,"åĩºåŁİå¤ĸ":6786,"ä¹ĭäººä¹Ł":6787,"å®Ĺåħļ":6788,"å®ĹåºĻ":6789,"éľ¸ä¸ļ":6790,"åħ¥åŁİåİ»":6791,"æĴĳ":6792,"æľ±å¼Ĥ":6793,"æľ±çģµ":6794,"åĸĬå£°å¤§èµ·":6795,"ä¸įè§ģäºĨ":6796,"æ±ľæĽ°":6797,"ä¹¾æĽ°":6798,"æľºè°ĭ":6799,"åį§çĹħ":6800,"æĪªæĸŃ":6801,"ç³ľå¤«äºº":6802,"ç¥Ńç¥Ģ":6803,"èĴĭèĪĴ":6804,"æįīä½ı":6805,"è°ĥæĭ¨":6806,"çĤ¹åĨĽ":6807,"çłįæŃ»":6808,"èĮĥæĽ°":6809,"ä¼¯ç¬¦":6810,"éª¤éĽ¨":6811,"æį®å®Ī":6812,"æ¡ĵèĮĥ":6813,"åħĦå¼ŁäºĮäºº":6814,"èªĵåĲĮçĶŁæŃ»":6815,"åĪĹäºİ":6816,"çĳģæĽ°":6817,"æĮºæŀªåĩºé©¬":6818,"æĮºæŀªè·ĥé©¬":6819,"åŃĿçĽ´":6820,"åĳĺå°Ĩ":6821,"æĻºè°ĭ":6822,"çº¢å¿ĥ":6823,"ç¢ĳ":6824,"åºŁç«ĭ":6825,"æ¢ģç»ª":6826,"åĨĻè¡¨":6827,"åħ¬åŃĻåº·":6828,"ä¸īè·¯åħµ":6829,"æļĤæŃĩ":6830,"æİĮæı¡":6831,"åĤįå²¸":6832,"æľ¬éĥ¨åħµ":6833,"ç»Ĩä½ľæİ¢çŁ¥":6834,"æĭĨä¹¦":6835,"ä¸įè¶³ä¸º":6836,"èĥ¡çıŃ":6837,"ç´§å®Ī":6838,"æŁ´èįī":6839,"å¾ĢæĿ¥åĨ²çªģ":6840,"è°¡æĽ°":6841,"äºĶåįģåĲĪ":6842,"æĹ©æľīäººæĬ¥çŁ¥":6843,"åĨįä¸īåĬĿ":6844,"ãĢĭï¼Į":6845,"å·´ä¸ĺ":6846,"æĭįé©¬èĪŀåĪĢ":6847,"æĦĪåĬł":6848,"é£ŀæĬ¥æĽ¹æĵį":6849,"è¯»ä¹¦":6850,"è¯±æķĮ":6851,"èĻŀç¿»":6852,"è¿ģéĥ½":6853,"éĢĤæĿ¥":6854,"åĽ½å¤ªæĽ°":6855,"ä½ķè¶³ä¸º":6856,"ä½ķè¶³éģĵ":6857,"æĺĤçĦ¶":6858,"çģ¯çģ«":6859,"åĢ¾å¿ĥ":6860,"æģ°å¥½":6861,"äºĨä¸ĢæĥĬ":6862,"å¼ĺåĨľ":6863,"æĥ¶æģĲ":6864,"ä¸ºåīįéĥ¨åħĪéĶĭ":6865,"æ¶ªåħ³":6866,"æģ¢å¤į":6867,"é¼łè¾Ī":6868,"é¦Ĩé©¿ä¸Ń":6869,"ä¼Ĺè°ĭå£«åķĨè®®":6870,"æĮĳæĪĺ":6871,"åĹŁåı¹":6872,"ä¹ĭéģĵä¹Ł":6873,"ä»¥èĩ´å¦ĤæŃ¤":6874,"å±±åĥ»å°ıè·¯":6875,"çĸ²åĽ°":6876,"çĺ´":6877,"æĹ±è·¯":6878,"å£ķè¾¹":6879,"é¼İè¶³":6880,"æ¬¢åĸľ":6881,"çľĭçľĭèµ¶ä¸Ĭ":6882,"åĶ¤åħ¥éĹ®ä¹ĭ":6883,"åĨĽä»¤çĬ¶":6884,"åĢĺæľīçĸı":6885,"æķ´é¡¿åĨĽé©¬":6886,"åĩĽåĩĽ":6887,"æŃ»ä¸įè¾ŀ":6888,"åĴ¬çīĻ":6889,"ç«¥åŃĲæĽ°":6890,"çĭĤé£İå¤§ä½ľ":6891,"ç£¨":6892,"æĩ¦å¼±":6893,"æīĭèµ·åĪĢèĲ½":6894,"æºĥæķ£":6895,"åĭĥçĦ¶å¤§æĢĴ":6896,"ä¼ºåĢĻ":6897,"ä»¥éŀŃæĮĩ":6898,"å°ĺå¤´å¤§èµ·":6899,"éķ¿é©±å¤§è¿Ľ":6900,"ç¢§çľ¼":6901,"æŃ£èµ°ä¹ĭéĹ´":6902,"éĵľéĽĢåı°":6903,"æ¬łèº«":6904,"æŃ£è®®éĹ´":6905,"åĴ½åĸī":6906,"åĲĳå¯¼å®ĺ":6907,"çĬ¬é©¬ä¹ĭåĬ³":6908,"åĩºçıŃå¥ıæĽ°":6909,"æĹĹä¸Ĭå¤§ä¹¦":6910,"æĽ´å¾ħä½ķæĹ¶":6911,"æªĢæºª":6912,"æĭĨå°ģè§Ĩä¹ĭ":6913,"æĬ±å¤´é¼łçªľ":6914,"éĦĤçĦķ":6915,"æĬĸæĵŀ":6916,"çį":6917,"ç¨Ģ":6918,"İå²":6919,"åıł":6920,"ä»¬":6921,"ä¹ĭåĨĽ":6922,"ä¹ĭæĢ¥":6923,"ä¹ĭåĽ´":6924,"ä¹ĭåį±":6925,"ä¹ĭä¸ļ":6926,"æľ½":6927,"æľĭ":6928,"ä¸įè¨Ģ":6929,"ä¸įè¯´":6930,"ä¸įåĲĮ":6931,"ä¸įåºĶ":6932,"ä¸įèµ¶":6933,"ä¸įçĸĳ":6934,"ä¸įå¼ĥ":6935,"ä¸įåĨ³":6936,"ä¸įä¸īåĲĪ":6937,"åįµ":6938,"å®Ļ":6939,"æĹº":6940,"æŃ¹":6941,"åĪ®":6942,"äººèĭ¥":6943,"äººçŃī":6944,"è¯¬":6945,"è¯²":6946,"è¯ģ":6947,"åħµäºİ":6948,"åħµå±¯":6949,"åħµç²¾":6950,"åħµå¾®":6951,"åħµäºĶä¸ĩ":6952,"æķ¦":6953,"èĩŃ":6954,"å¤§ä»»":6955,"å¤§éĥ½çĿ£":6956,"å¤§æģ©":6957,"å¤§ç¥¸":6958,"å¤§å¦Ļ":6959,"å¤§éĨī":6960,"ä¸Ģå¹´":6961,"ä¸Ģè¾¹":6962,"ä¸Ģè·ĥ":6963,"å°ĨåıĬ":6964,"èµĤ":6965,"å·«":6966,"åĩı":6967,"æ±¡":6968,"æľīè¨Ģ":6969,"æľīä½Ļ":6970,"æĵįå¿ħ":6971,"æĵįåĳ½":6972,"æĵįå¤§æĢĴæĽ°":6973,"æŃ¤å¥³":6974,"åİĦ":6975,"ç»¦":6976,"éģ½":6977,"ä¸ĭä¹¦":6978,"ä¸ĭè½¦":6979,"äºİä¸ľ":6980,"åľĥ":6981,"ä¸ºåĲĪ":6982,"ä¸ºå·¦åı³":6983,"ä¸ºéĥ½çĿ£":6984,"ä¸ºåıĭ":6985,"è§ģå¼łé£ŀ":6986,"èĢĮäºĭ":6987,"èĢĮè¿ĩ":6988,"èĢĮå¤į":6989,"èĢĮéĹ®æĽ°":6990,"è°Ĳ":6991,"åĬ²":6992,"ä½ķæĿ¥":6993,"ä½ķè®¡":6994,"ä½ķå¤ªåĲİ":6995,"åĩºä¸Ģ":6996,"åĲ¾å°Ĩ":6997,"åĲ¾ä¸º":6998,"åĲ¾æŃ£æ¬²":6999,"åı¯çĶ¨":7000,"åı¯å°±":7001,"è´®":7002,"è´²":7003,"è´¿":7004,"å¯Ĳ":7005,"åĲİæĿ¥":7006,"åĲİå¿ħ":7007,"ä»¥æŃ£":7008,"ä»¥éħĴé£Ł":7009,"ä»¥çĽ®è§Ĩ":7010,"æĺİè¯ı":7011,"å¥ł":7012,"ä¸ĬæĿ¥":7013,"ä¸Ĭæĸ¹":7014,"ä»Ĭä½ķ":7015,"ä»Ĭå¾Ĺ":7016,"ä»Ĭè¢«":7017,"ä»Ĭä¸ŀçĽ¸":7018,"ä»ĬèĻ½":7019,"ä»ĬèľĢåħµ":7020,"ä»Ĭè§Ĥ":7021,"ä»ĬåĪĺå¤ĩ":7022,"ä¸İè´¼":7023,"ä¸İæŁĲ":7024,"ä¸İå¼Ł":7025,"å¼łåį«":7026,"å¼łéĤĪ":7027,"åħ¶åĲį":7028,"çİĦå¾·ä»İä¹ĭ":7029,"çİĦå¾·éĹ»è¨Ģ":7030,"ä»¤å·¦åı³":7031,"ä¹ĥå¤§":7032,"ä¹ĥä¸Ģ":7033,"ä¹ĥä»¥":7034,"è¾ĳ":7035,"èĩªç«ĭ":7036,"èĩªå¼ķä¸ĢåĨĽ":7037,"èĩªæģĥ":7038,"äºĮèĢħ":7039,"äºĮçĻ¾":7040,"åĽŀæ±Łä¸ľ":7041,"åĽŀæľ¬å¯¨":7042,"åŃĶæĺİå¤§ç¬ĳæĽ°":7043,"éĿł":7044,"åľ¨å±±ä¸Ĭ":7045,"æĥļ":7046,"åħ¥åĲ´":7047,"åħ¥éĺµ":7048,"çĽ¸åĽ½":7049,"çĽ¸åĪ«":7050,"çĽ¸ä¼¼":7051,"çĽ¸éĢ¼":7052,"æĹłä¸»":7053,"æĿĢæ±Ŀ":7054,"æĿĢæ°Ķ":7055,"æģ¸":7056,"åħĪä½¿":7057,"åħĪåıĳ":7058,"ä¸īæ¬¡":7059,"ä¸īéĺŁ":7060,"ä¸»å¼ł":7061,"ä¸»æ¯į":7062,"è¯´å®¢":7063,"æĪĳèĩª":7064,"æĪĳäºĮäºº":7065,"åīįæľī":7066,"åīįè¨Ģ":7067,"åīįåĪ°":7068,"åħ³ç´¢":7069,"èĩ³æŃ»":7070,"é£Ĳ":7071,"åĪ°å¯¨":7072,"çŁ¥æŃ¤äºĭ":7073,"å¤©æĦı":7074,"åįģåĢį":7075,"çļĨè¨Ģ":7076,"å¿ħçŁ£":7077,"å¿ħèĥ½":7078,"å¿ħè¢«":7079,"å¿ħä¸įèĤ¯":7080,"æ±Ŀè¨Ģ":7081,"æ±Ŀä¸»":7082,"æ±Ŀæķ¢":7083,"å½ĵå¤´":7084,"éŃıåħ¬":7085,"åıĪä½ķ":7086,"åıĪå¾Ĺ":7087,"åıĪå·®":7088,"åĪĺåŃ£çİī":7089,"åıªåī©":7090,"èĭ¥æŃ¤":7091,"èĭ¥çŁ¥":7092,"å±±å¤´":7093,"ä¼Ĺå¿ĥ":7094,"æ¬²æĿĢä¹ĭ":7095,"åį´æīį":7096,"æŃ£å¥½":7097,"æŃ£æħĮ":7098,"ä½¿å¾Ģ":7099,"çİĭåĪĺ":7100,"çİĭæĸ¹":7101,"åŃĻå°ĨåĨĽ":7102,"åŃĻä»²":7103,"åŃĻéŁ¶":7104,"éģĤè¯·":7105,"éģĤæĭľ":7106,"éģĤä¸įåĲ¬":7107,"å¿ĥå¦Ĥ":7108,"å¿ĥæĥĬ":7109,"éĹ®åŃĶæĺİ":7110,"åıĸè·¯":7111,"åĲ´æĬ¼":7112,"ä¿º":7113,"å°ĨåĨĽé©¬":7114,"éªĨ":7115,"éªı":7116,"ä¾¿æĿ¥":7117,"åĳ½å°Ĩ":7118,"ä¹¦æ¯ķ":7119,"ä»İåħ¶è®¡":7120,"éĤ¢":7121,"éĤµ":7122,"æľªèĥ½":7123,"æľªä¿¡":7124,"æĻ¨":7125,"æĻ´":7126,"å¸ĥæĪĲéĺµåĬ¿":7127,"çĿĽ":7128,"åįĹå°ĨåĨĽ":7129,"éĹ»æĬ¥":7130,"èĥ½è¨Ģ":7131,"èĥ½çĶ¨åħµ":7132,"åĽĽèµ·":7133,"æ¸Ķ":7134,"åį³ä»¥":7135,"åį³ä¾¿":7136,"åį³åĶ¤":7137,"å¿½åĵ¨é©¬":7138,"ä¸¤è¡Į":7139,"ä¸¤æŀĿ":7140,"æ±Łå²¸":7141,"äºĶæĹ¥":7142,"äºĶåĪĨ":7143,"äºĶå¹´":7144,"äºĶæľĪ":7145,"äºĶåįģä½Ļ":7146,"éĢĢä¹ĭ":7147,"éĢĢåĲİ":7148,"éĢĢæķĮ":7149,"æľĽä¹ŀ":7150,"æµ´":7151,"ä¸ĩéĩĮ":7152,"æ±īçĽ¸":7153,"æ±īå¸Ŀ":7154,"æ±īå¯¿":7155,"æķħä»¤":7156,"å¤ªå¸¸":7157,"ç²²":7158,"ç§£":7159,"æĸ¹çŁ¥":7160,"éĻįæĽ¹":7161,"éĻįéŃı":7162,"å°ıæł¡":7163,"æĩĬ":7164,"çĪ¬":7165,"åį´è¯´åħĪä¸»":7166,"è¥¿åŁİ":7167,"è¥¿å±±":7168,"ä½Ļåħļ":7169,"é»Ħéĩĳ":7170,"é»Ħå¥İ":7171,"æĥĬæĥ§":7172,"æĥĬè§ī":7173,"æĥĬéªĩ":7174,"ç¦½":7175,"è´¥åĽŀ":7176,"è´¥æ®ĭ":7177,"äº¦å¼ķåħµ":7178,"åĲ¬äºĨ":7179,"æĩ¿å¥ıæĽ°":7180,"è¢«å®³":7181,"ç½Ķ":7182,"ä½ıäºĨ":7183,"å¸ĿåĲİ":7184,"å¸Ŀä¸İ":7185,"å¸Ŀçİĭ":7186,"æĢĴçĽ®":7187,"å·¦åĨĽ":7188,"éĶ£":7189,"ä¸įåı¯å¤±":7190,"åĲįå£«":7191,"è¢ģåħ¬è·¯":7192,"èº«ç©¿":7193,"åĲĮèĩ³":7194,"åĲĮçĽŁ":7195,"ä¼ıåľ¨":7196,"ä¼ıéģĵ":7197,"ä¼ıçļĩåĲİ":7198,"æķĳèµ·":7199,"æŃ¦åŁİ":7200,"åĳ¨åħ¬çĳ¾":7201,"åı³åĨĽ":7202,"å¹´èĢģ":7203,"å®¶ä¸Ń":7204,"å®¶çľ·":7205,"ä½ľè´º":7206,"åĪĢæīĭ":7207,"å¹¶é©¬":7208,"çĲ³":7209,"å¤´æĪ´":7210,"éľİ":7211,"è°ĭæĿĢ":7212,"æļĩ":7213,"åĬ¿åŃ¤":7214,"åĬ¿ç©·":7215,"éĻĪç¾¤":7216,"æĿİèĥľ":7217,"æĿİæŃĨ":7218,"çĮĸ":7219,"è°ĵä¹ĭæĽ°":7220,"éĩįå¾ħ":7221,"åĳĬä¹ĭ":7222,"åĳĬåħį":7223,"æĹ©å·²":7224,"æĶ¾åħ¥":7225,"æİ¥è¿ŀ":7226,"ä»ĸæĦı":7227,"åķĸ":7228,"åıĬèĩ³":7229,"çĪ¶åħĦ":7230,"åĨįæĿ¥":7231,"è¿ŀäºº":7232,"è¿ŀçİ¯":7233,"æĤł":7234,"ä¹ĺä¹ĭ":7235,"å°ļå®¹":7236,"åĬŁåĲį":7237,"å¥ıçŁ¥":7238,"éĴĵ":7239,"è¯¸èĳĽç»ª":7240,"è¯¸èĳĽçŀ»":7241,"åıįè¦Ĩ":7242,"æľ¬æĹł":7243,"æľ¬éĺµ":7244,"åįĵéĹ®":7245,"æ®Ĩ":7246,"å¦Ĥä½ķå¾Ĺ":7247,"å¦Ĥä½ķèĤ¯":7248,"æĿ¨æŁı":7249,"æĶ¶äºĨ":7250,"æĶ¶èģļ":7251,"åĽ¾çŁ£":7252,"éĩĳåŁİ":7253,"éĩĳéĵ¶":7254,"çķĻäºİ":7255,"æĵĴäºĨ":7256,"åŃĹå¾·":7257,"éĥŃå¸¸":7258,"æ¶£":7259,"çļĩåŃĲ":7260,"åı¸é©¬æĩ¿æĽ°":7261,"è¿ľæ¶ī":7262,"å¼ĥçĶ²":7263,"åĴİ":7264,"åĵŃå£°":7265,"æ¨µ":7266,"èħĲ":7267,"èħĳ":7268,"å¯ĨæĬ¥":7269,"å¯Ĩè°ĵ":7270,"å¯Ĩå®¤":7271,"è¾ŀåĩº":7272,"æ°ĶåĬĽ":7273,"åħ«ä¸ĩ":7274,"åħ«éĺµ":7275,"çĮ®äºİ":7276,"æıĲèµ·":7277,"æıĲåīĳ":7278,"çĻ½è¢į":7279,"æ²³ä¸ľ":7280,"æ²³è¾¹":7281,"å¥½æĦı":7282,"åĿļæĽ°":7283,"åĿļæī§":7284,"è¯ıåĳ½":7285,"æµģè¨Ģ":7286,"æİ¢å¾Ĺ":7287,"å®ŀæ¬²":7288,"æ¢ħ":7289,"ç¬¬äºĮåįģ":7290,"ç¬¬äºĶåįģ":7291,"ç¬¬ä¸īåįģ":7292,"æ±Ĥä¹ĭ":7293,"åĪ«æĿ¥":7294,"ä¹Ĳåĺī":7295,"èĻİè¸ŀ":7296,"åĬ©ä¹ĭ":7297,"ä¸¾åĪĢ":7298,"ä¸¾åĬ¨":7299,"ä¸ĸéĹ´":7300,"åŃ¤æĦı":7301,"å¤ºåħ¶":7302,"ä¿Ŀé©¾":7303,"ç¥ŀä»Ļ":7304,"å¾ģè¥¿":7305,"åľŁåŁİ":7306,"åı¬ä¹ĭ":7307,"ä¾įèĩ£":7308,"æ¸¡è¿ĩ":7309,"èĮ«":7310,"é¸©":7311,"é¸¿":7312,"åħŃå¹´":7313,"å¥³å©¿":7314,"åı±ä¹ĭæĽ°":7315,"å¼ĵå¼¦":7316,"æŃ¤äººä¹ĥ":7317,"èµĲçĪµ":7318,"ç»ĵèĲ¥":7319,"çĶĺéľ²":7320,"ä½ķä¸įæĹ©":7321,"çıŃéĥ¨":7322,"ä¹Ŀæ³ī":7323,"çĻ»åĿĽ":7324,"ä¾Ŀä»¤":7325,"ä¾Ŀè®¡èĢĮè¡Į":7326,"ä½ķæķħå¦ĤæŃ¤":7327,"ä¿±åĲĦ":7328,"çīĽè¾ħ":7329,"åŃŁèİ·æĽ°":7330,"æī§è¿·":7331,"æĭĽéĻį":7332,"äºĮåįģåıª":7333,"æĮºçŁĽ":7334,"åĬĿæĽ°":7335,"æĮģä¹¦":7336,"çģµå¸Ŀ":7337,"çģŃåħ¶":7338,"ç»Īæĺ¯":7339,"åĭĴä½ıé©¬":7340,"å«Į":7341,"äºīåħĪ":7342,"éĻ¤å®³":7343,"è°ĥåħµ":7344,"åĨĢåŁİ":7345,"å¥ĭåĭĩ":7346,"å´İå²":7347,"æĦŁåħ¶":7348,"äºĶåįĥåĨĽ":7349,"åı¤åŁİ":7350,"éļıåĲİæİ©æĿĢ":7351,"éĵģè½¦":7352,"éĵģç¬¼":7353,"éĵģæ¡¶":7354,"ä¼¯å¥¢":7355,"éģĹåĳ½":7356,"éģĹä¹¦":7357,"åħĦå¼Łä¸īäºº":7358,"åĪĹæŁ³åŁİ":7359,"å¥¸ç»Ĩ":7360,"çĹĽæģ¨":7361,"åįģéĩĮä¸ĭå¯¨":7362,"çº³éĻį":7363,"çĵĴæĽ°":7364,"èĸª":7365,"æĮīåĨĽæ³ķ":7366,"èĬĤéĴº":7367,"æ£Ģ":7368,"åıĮæīĭ":7369,"å¿½è§ģä¸Ģäºº":7370,"çİĩä¼Ĺ":7371,"éŁ¦æĻĥ":7372,"ä¸¤è·¯åĨĽ":7373,"ä¸ĵåĢĻ":7374,"æŃĨæĽ°":7375,"æļĤéĢĢ":7376,"è´µäºº":7377,"ç®Ńå°Ħä¹ĭ":7378,"çĶ±æĺ¯":7379,"å¼ķä¸ĢæŀĿ":7380,"ä½¿èĢħæĽ°":7381,"çĸ¾çĹħ":7382,"è¥¿åĩīåħµ":7383,"éĹ®åħ¶å§ĵåĲį":7384,"ä¸įåı¯è½»åĬ¨":7385,"ä¹ĮæŀĹ":7386,"ä¹ĮæĪĪ":7387,"æ¢¦ä¸Ń":7388,"ç´§æĢ¥":7389,"ç´§è¦ģ":7390,"çĭ±åįĴ":7391,"çĭ±åĲı":7392,"ç¾¤èĩ£çļĨ":7393,"å®½å¿ĥ":7394,"ç«¯åĿĲäºİ":7395,"åĳĪä¸Ĭä¹¦ä¿¡":7396,"åĽŃä¸Ń":7397,"çİ¯çľ¼":7398,"ç¾½ç¿¼":7399,"éĻĪå®«æĽ°":7400,"æ³ķæŃ£æĽ°":7401,"è¿ģå»¶":7402,"å¤§å°ıå®ĺåĥļ":7403,"è®¡è®®æĽ°":7404,"ç§¯èįī":7405,"å®¾ä¸»":7406,"çľģæĤŁ":7407,"æŃ¤è®¡å¤§å¦Ļ":7408,"ä¾µçĬ¯":7409,"ä¸īåįģä½Ļäºº":7410,"ä¸īåįģä½ĻéĩĮ":7411,"è½®åĪĢ":7412,"éº¦åŁİ":7413,"æģ°å¾ħ":7414,"åħĸå·ŀåĪºåı²":7415,"æİ£åīĳ":7416,"å±ıå±±":7417,"é¹¿è§Ĵ":7418,"åħ³äºĳéķ¿ä¹Ł":7419,"åĢįéģĵ":7420,"è¯Īè´¥èĢĮèµ°":7421,"æī¯ä½ı":7422,"æ§Ĭ":7423,"å¼ķæľ¬éĥ¨åĨĽ":7424,"æľªæķ¢è½»":7425,"éĥŃåĺīæĽ°":7426,"éļĨä¸Ń":7427,"é»ĦæĺıæĹ¶åĪĨ":7428,"åįĪæĹ¶":7429,"æ¼«å±±":7430,"ä»¥æīĭæĮĩ":7431,"èĦĳæ¶Ĥ":7432,"åĲĥäºĨä¸ĢæĥĬ":7433,"å¤©èī²å·²":7434,"ç¥Ŀèŀį":7435,"çĬ¹è±«æľªåĨ³":7436,"å½Ńç¾ķ":7437,"åĶĩé½¿":7438,"èĤĿèĦĳæ¶Ĥ":7439,"å¼ĥåŁİèĢĮèµ°":7440,"ç¬¬ä¸ĢçĻ¾ä¸Ģ":7441,"åĽĽéĿ¢åĽ´å®ļ":7442,"å¼ĳåĲĽ":7443,"åĩºéĥŃè¿İæİ¥":7444,"å½ĵéĺ³éķ¿åĿĤ":7445,"æŃ£è¯´éĹ´":7446,"èĽ®çİĭåŃŁèİ·":7447,"æ¡ĥåĽŃç»ĵä¹ī":7448,"ç»ĵä¸ºåħĦå¼Ł":7449,"åĲ´ä¸»åŃĻäº®":7450,"ä½ķæĥ§åĵī":7451,"æ´®æ°´":7452,"æľµæĢĿå¤§çİĭ":7453,"ä¸ºä¸¤æ®µ":7454,"ä»¥è¨ĢæĮĳ":7455,"éŁ¬çķ¥":7456,"å¾¡é©¾äº²å¾ģ":7457,"ä¹±åĨĽä¹ĭä¸Ń":7458,"åĪºæĸľéĩĮ":7459,"æģįæĥļ":7460,"äºĶä¸ĪåİŁ":7461,"æŃ£åķĨè®®éĹ´":7462,"åį³çļĩå¸Ŀä½į":7463,"ä½ķè¶³éģĵåĵī":7464,"ä¸Ĭæĸ¹è°·":7465,"åĲ´æĬ¼çĭ±":7466,"å´İå²ĸ":7467,"ä¹ĮæĪĪåĽ½":7468,"æĨ":7469,"ĠĠ":7470,"Ķç»Ĩ":7471,"ä¸½":7472,"ãĢĤï¼ī":7473,"å¤¤":7474,"ä»Ķç»Ĩ":7475,"ä¹ĭè·¯":7476,"ä¹ĭè®º":7477,"ä¹ĭä¾Ħ":7478,"ä¹ĭä¾§":7479,"ä¹ĭåŁºä¸ļ":7480,"æĿ¿":7481,"æĿĨ":7482,"ä¸įæĹ¶":7483,"ä¸įæ¬²":7484,"ä¸įéĹ®":7485,"ä¸įæŃ»":7486,"ä¸įè¡Į":7487,"ä¸įçŃī":7488,"ä¸įæķĮ":7489,"ä¸įå°±":7490,"ä¸įå¥½":7491,"ä¸įç§°":7492,"ä¸įåĴĮ":7493,"ä¸įå¿ĺ":7494,"ä¸įå½ĵä¹ĭ":7495,"ä¸įæµħ":7496,"ä¸įæµĭ":7497,"äººæĿ¥":7498,"äººèĢ¶":7499,"åĨĽçļĨ":7500,"åĨĽå·²":7501,"èĢĲ":7502,"åħµå®¶":7503,"åħµç¬¦":7504,"é©¹":7505,"æķĿ":7506,"å¤§æĿĥ":7507,"å¤§çĽ®":7508,"å¤§éĽ¾":7509,"å¤§æĤŁ":7510,"å¤§èµ¦":7511,"ä¸Ģè§ģ":7512,"ä¸ĢèĢħ":7513,"ä¸ĢæľĿ":7514,"ä¸Ģéģį":7515,"ä¸Ģçīĩ":7516,"é©¬å»¶":7517,"å°Ĩå®ī":7518,"å°Ĩä¸ĭæĿ¥":7519,"çİ©":7520,"æĿ¥èĩ³":7521,"æĿ¥åĬ«":7522,"æľīå¤ļå°ĳ":7523,"æľīä¸ĩå¤«":7524,"çĽĨ":7525,"æī£":7526,"æĵįä»¥":7527,"æĵįä¸İ":7528,"æĵįå¼ķ":7529,"æĵįåľ¨":7530,"æĵįæĢĴ":7531,"æĵįæĢĴæĽ°":7532,"æŃ¤äºĮ":7533,"æŃ¤å¿ĥ":7534,"æŃ¤éĺµ":7535,"æŃ¤ä¿¡":7536,"ç»Ĭ":7537,"äºİä¸Ń":7538,"äºİåīį":7539,"äºİåĲ´":7540,"äºİåŁİå¤ĸ":7541,"äºİä¸Ńåıĸ":7542,"ä¸Ńä¹ĭ":7543,"ä¸Ńä¹¦":7544,"æĬ¬":7545,"ä¸ºæŃ¤":7546,"ä¸ºæīĢ":7547,"ä¸ºä¸ŀçĽ¸":7548,"çĶ¥":7549,"è§ģæĺ¯":7550,"è§ģå¸Ŀ":7551,"èĢĮä¸Ĭ":7552,"èĢĮè¿İ":7553,"è°Ħ":7554,"è°Ĭ":7555,"éĢĿ":7556,"ä½ķå¿§":7557,"å½©":7558,"åĲ¾å¿ħ":7559,"åĲ¾æĦ¿":7560,"åĲ¾ä»ĬæĹ¥":7561,"åĲ¾èªĵ":7562,"éĥģ":7563,"éĥĬ":7564,"ä¾®":7565,"åı¯ä¹İ":7566,"åı¯ä¿Ŀ":7567,"å¦«":7568,"åĳµ":7569,"ä»¥åĲİ":7570,"ä»¥æŃ»":7571,"ä»¥è¡¨":7572,"ä»¥ä¿Ŀ":7573,"ä»¥åĪ©å®³":7574,"ä»¥éĢ¸":7575,"æĺİä¸»":7576,"å¥´":7577,"å¥ĳ":7578,"æĽ¹èĲ¥":7579,"åħ¬ä»Ĭ":7580,"ä¸Ĭäºº":7581,"ä¸Ĭå¤©":7582,"å±Ĥ":7583,"ä»Ĭå¥ī":7584,"ä»Ĭå¤©ä¸ĭ":7585,"ä¸İå§ľç»´":7586,"å¼łæĽ°":7587,"å¼łæĤĮ":7588,"å¼łé¡Ĺ":7589,"æĭ´":7590,"åİ»ä¹Ł":7591,"åİ»åĲİ":7592,"åİ»æĹ¶":7593,"åħ¶æŃ»":7594,"åħ¶æīį":7595,"åħ¶å¿Ĺ":7596,"åŃĶç§Ģ":7597,"ä¹ĥçķĻ":7598,"èĩªå¤ĸ":7599,"èĩªé¢Ĩåħµ":7600,"èĩªç¼ļ":7601,"åºķ":7602,"äºĮå¹´":7603,"äºĮæľĪ":7604,"äºĮå¯¸":7605,"åĽŀåŁİ":7606,"åŃĶæĺİä¸İ":7607,"åŃĶæĺİè§Ĩä¹ĭ":7608,"éĿĵ":7609,"å¼ķäºĮåįĥ":7610,"å¦Ĥåħ¥":7611,"å¦Ĥå±±":7612,"å¦ĤéĽ·":7613,"åľ¨è®¸éĥ½":7614,"åľ¨ä¾§":7615,"æĺ¯ä½ķäºº":7616,"åħ¥æ±īä¸Ń":7617,"çĽ¸åĳĬ":7618,"çĽ¸ç¦»":7619,"çĽ¸åĬĿ":7620,"çĽ¸äºī":7621,"çĽ¸è§ĳ":7622,"å¾Ĺä¹ĭ":7623,"å¾Ĺåĩº":7624,"å¾Ĺä»¤":7625,"æĹłæ°´":7626,"æĹłå¼Ĥ":7627,"æĹłäººä¹ĭ":7628,"æĹłç«¯":7629,"æĹłèĻŀ":7630,"æĿĢè´¼":7631,"æĿĢå®³":7632,"æĿĢæĿ¡":7633,"æİĢ":7634,"åħĪå¼ķ":7635,"åħĪéĢĢ":7636,"åħĪä»¤äºº":7637,"ä¸»æĦı":7638,"è¯´è¯Ŀ":7639,"æĪĳä¸º":7640,"æĪĳä¹ĥ":7641,"æĪĳä¸»":7642,"åīįèµ´":7643,"åħ³åĨħ":7644,"åħ³åı£":7645,"åħ³ç¾½":7646,"èĩ³å¤ľ":7647,"é£ı":7648,"åŃĲæĺİ":7649,"åĪ°å®¶":7650,"çŁ¥éģĵ":7651,"çŁ¥ä¸Ńè®¡":7652,"å¤©ä½¿":7653,"çļĨå°ģ":7654,"åĸĺ":7655,"å¿ħåĩº":7656,"æ±Ŀä»Ĭ":7657,"æ±Ŀæ¬²":7658,"æ±Ŀåį´":7659,"æ±Ŀå¼Ł":7660,"å½ĵçĶ¨ä½ķ":7661,"åıĪäºİ":7662,"åıĪä¸İ":7663,"åıĪåĳ½":7664,"å·²åĽŀ":7665,"åıªä»Ĭ":7666,"åıªé¡»":7667,"åıªæľīä¸Ģ":7668,"èĭ¥è§ģ":7669,"èĭ¥ä½¿":7670,"èĭ¥èĤ¯":7671,"å±±åı£":7672,"å±±å³ª":7673,"æĬ¥ä¸İ":7674,"æ¬²è§ģ":7675,"æ¬²è¡Į":7676,"æ¬²å¾Ģ":7677,"æ¬²ç«ĭ":7678,"æ¬²åħ´åħµ":7679,"åį´åıĪ":7680,"æ¯¡":7681,"æŃ£åįĹ":7682,"æŃ£çĽĽ":7683,"æĪĺæľī":7684,"è·¯ä¸Ĭ":7685,"ç¥ł":7686,"æ³¨":7687,"æ³¼":7688,"æ³Ľ":7689,"å®īèĳ¬":7690,"å®īæĬļ":7691,"éģĤéģ£":7692,"éģĤçķĻ":7693,"éģĤä¸ĭä»¤":7694,"å¿ĥä¸ĭ":7695,"å¿ĥæĢĢ":7696,"é¢Ģ":7697,"é¢ĳ":7698,"é¢ł":7699,"åıĸå·Ŀ":7700,"éļ¶":7701,"æŃ»ç½ª":7702,"çĦ¶ä¹Ł":7703,"èĢħç«ĭæĸ©":7704,"è¡ĮäºĨ":7705,"å®ĪèįĨå·ŀ":7706,"ä¿Ħ":7707,"ä¿Ł":7708,"æĽ¹æĵįä¹Ł":7709,"æĽ¹æĵįæīĢ":7710,"è®¡å°Ĩå®ī":7711,"æĮŀ":7712,"æŀ£":7713,"éªĺ":7714,"ä¾¿åĩº":7715,"ä¾¿ä¸İ":7716,"çģ¾":7717,"åĪĨå®¾ä¸»":7718,"ä¹¦éĻ¢":7719,"å£«æ°ĳ":7720,"ä»İéªĳ":7721,"æľªåĪ°":7722,"æľªæģ¯":7723,"èĤº":7724,"èĤł":7725,"çĿ¹":7726,"çĳ¶":7727,"æĿĥä»İä¹ĭ":7728,"æĢ¥æĿ¥":7729,"æĢ¥å¾ħ":7730,"æĢ¥åĽŀé©¬":7731,"éĿ¢éĿ¢":7732,"èµ°çŁ³":7733,"åĽĽæĹ¶":7734,"åĽĽåįģä¸ĩ":7735,"èĩ£éĹ»":7736,"çĻ¾æĹ¥":7737,"çĻ¾éªĳ":7738,"åį³ä»Ĭ":7739,"å¿½ä¸ĢæĹ¥":7740,"éĥ½åĪ°":7741,"æ±Łæ²¹":7742,"æ±Łæ¹ĸ":7743,"äºĶå°Ĩ":7744,"æŁĦ":7745,"æŁĳ":7746,"å¹³å®ļ":7747,"æľĽä¸ľ":7748,"æľĽä¸ŀçĽ¸":7749,"ä¸ĩæŃ»":7750,"ä¸ĩæ°ĳ":7751,"ä¸ĩåı¤":7752,"ä¸ĩå²ģ":7753,"ä¸ĩæĹłä¸Ģ":7754,"ä¸ĩæŃ»ä¸įè¾ŀ":7755,"æ±īä¸Ĭ":7756,"æ±īè´¼":7757,"æ±īå®¶":7758,"æ±īåįĩ":7759,"åľ°åĬ¿":7760,"æķħä¹Ł":7761,"æķħä¸»":7762,"æĸ¹åĪ°":7763,"æĸ¹éĢĢ":7764,"æĸ¹èĭı":7765,"éĻįæĵį":7766,"å°ıä¸»äºº":7767,"åį´è¯´åħ³åħ¬":7768,"åį´è¯´æĽ¹çľŁ":7769,"æĥĬéĹ®æĽ°":7770,"è®®éĥİ":7771,"è®®è®º":7772,"æ·Ħ":7773,"åĲķåħ¬":7774,"è¯·éĹ®":7775,"è¯·éĻį":7776,"è¯·ä¸»åħ¬":7777,"ä¸Ķåĭ¿":7778,"é¢Ĩä¸īåįĥåħµ":7779,"ä¸įåı¯ä¹ħ":7780,"äºĮäººåıĹè®¡":7781,"å¾ħä»ĸ":7782,"å¾ħåĬ³":7783,"å¾ĲåĽ¾":7784,"è¢ģæľ¬åĪĿ":7785,"æķĻä½ł":7786,"æħ·":7787,"éħ¿":7788,"éģĵä¸Ĭ":7789,"ä¼ıç½ª":7790,"åºĶå¼¦":7791,"åºĶå¤ĸåĲĪ":7792,"æķĳåĨĽ":7793,"æķĳçģ«":7794,"æŃ¦éĥ½":7795,"æĪĲçŁ£":7796,"æĪĲè´¥":7797,"æŁĲéĹ»":7798,"æķĮä¹ĭ":7799,"æĭľåıĹ":7800,"å®ļæĽ°":7801,"çģ«ä¹ĭçī©":7802,"çģ«çĦ°":7803,"è¿ĩæ±Ł":7804,"åįĥç§ĭ":7805,"éĩĮåºĶå¤ĸåĲĪ":7806,"ç¾²":7807,"å®¶åħĦ":7808,"å¸ĪæĽ°":7809,"å¼ķåħµåĩº":7810,"å¼ķåħµèĩ³":7811,"å¼ķåħµåĩºåŁİ":7812,"å¼ķåħµæĿĢåĩº":7813,"åı£ç§°":7814,"æĶ»åħ¶":7815,"å¹¶èµ·":7816,"é«ĺæĺİ":7817,"é«ĺåı«æĽ°":7818,"å¤´åĬŁ":7819,"äº²éļı":7820,"åĮĹå±±":7821,"åĮĹå°ĨåĨĽ":7822,"åĮĹå¾ģ":7823,"èµµç´¯":7824,"èµµæĺĤ":7825,"åĲĽåĳ½":7826,"èĪ¹å·²":7827,"èĪ¹å¤´ä¸Ĭ":7828,"è°ĭçķ¥":7829,"æļĸ":7830,"éĻĪè¯´":7831,"æĿİå¼Ĥ":7832,"æĿİæģ¢":7833,"çĶļå¤ļ":7834,"æįķ":7835,"çĮ¿":7836,"æ¡Į":7837,"éĩįåħµ":7838,"éĩįä¼¤":7839,"æĦ¿åĢŁ":7840,"æĹ©æľĽè§ģ":7841,"åıĳä»ĺ":7842,"æĶ¾ä¸ĭ":7843,"æıĸ":7844,"çĽ´åĩº":7845,"çĽ´è¨Ģ":7846,"çĽ´èµ¶åĪ°":7847,"é¥°":7848,"é¥µ":7849,"åıĹéĻį":7850,"åıĹè¯ı":7851,"ä¸įèĥ½è¨Ģ":7852,"åħ´æĽ°":7853,"åħ´éľ¸":7854,"æĤĦ":7855,"ä¹ĺæĹ¶":7856,"å¤įæľī":7857,"éªĳé©¬":7858,"é½ĳ":7859,"æĺŃçĥĪ":7860,"åĬŁåĬ³":7861,"è¶³å¤ĩ":7862,"è¶³æĻº":7863,"é¾Ħ":7864,"éħĴèī²":7865,"æłı":7866,"èģĬ":7867,"ä¹±åĨĽä¸Ń":7868,"ä¹ħè®¡":7869,"è¯¸èĳĽåŃĶæĺİ":7870,"è¦ģè¡Į":7871,"åĶ¤åĩº":7872,"ç¤¼çĽ¸å¾ħ":7873,"é¾ĻèĪŁ":7874,"é¾Ļåĩ¤":7875,"èĳ£åħģ":7876,"èĳ£å¤ªåĲİ":7877,"èĳ£åİ¥":7878,"æĹ¢èĩ³":7879,"æĹ¢å®ļ":7880,"æĿ¨ç»Ľ":7881,"æľĿä¸Ń":7882,"éĩĳçĶ²":7883,"éĩĳç¥İ":7884,"éĩĳçİ¯":7885,"éĩĳçĽĶ":7886,"éĩĳæĹĭ":7887,"åŃĻæĿĥæĽ°":7888,"å½¼åħµ":7889,"å§ľä¼¯çº¦":7890,"èĥĮä¹ī":7891,"äº¤åħµ":7892,"åł¤":7893,"éļ¾ä¿Ŀ":7894,"ç¼¢":7895,"ç¼Ŀ":7896,"éŁ©å¾·":7897,"éŁ©ä¿¡":7898,"éŁ©é¦¥":7899,"ä»ģå¾·":7900,"æŀªåĪĢ":7901,"éĢģåĩº":7902,"éĢģè¡Į":7903,"éĤĵäºĮäºº":7904,"æ³ķåº¦":7905,"è¿ľåİ»":7906,"é¡»çĶ¨":7907,"å¸¦çĶ²":7908,"æľĪä½Ļ":7909,"æ¨¡":7910,"è¿ĺèįĨå·ŀ":7911,"æ°Ķæķ°":7912,"å°ĳæĹ¶":7913,"ä¼łè¯´":7914,"ä¼łåĽ½":7915,"æĬĬåħ³":7916,"åįĬéĢĶ":7917,"è¢ģç»įæĽ°":7918,"æīĵåĲ¬":7919,"æīĵçł´":7920,"ä¸įçŁ¥ä½ķå¤Ħ":7921,"åºŀå£«åħĥ":7922,"åħ±åĽ¾":7923,"å®³æ°ĳ":7924,"ä¸įæķ¢æŃ£":7925,"ä¸įæķ¢è¿½èµ¶":7926,"å®ľæĹ©":7927,"æ·±æĺİ":7928,"åĪ«ä½ľ":7929,"çºµçĦ¶":7930,"åĨ³éĽĮéĽĦ":7931,"ä¹Ĳæ¯ħ":7932,"èĻİè´²":7933,"åĲĳæĹ¥":7934,"åĬ©æĪĳ":7935,"è®¾ä¸Ģ":7936,"æŃ¢ä¹ĭ":7937,"å®ģæĽ°":7938,"åı²æ¶£":7939,"åħĥç»į":7940,"å¨ģåĲį":7941,"éľĩåĬ¨":7942,"ç§°èĩ£":7943,"éĻĨæĬĹ":7944,"åĭĩåĬĽ":7945,"è£¸":7946,"è£Ķ":7947,"åºľåĲĽ":7948,"èĥĮåĲİä¸Ģäºº":7949,"æĸĻåĲ¾":7950,"ä¸´åį±":7951,"ä¸´æ·Ħ":7952,"åĸĿå·¦åı³":7953,"åĸĿéĩĩ":7954,"å¼ĵé©¬":7955,"ç²¾éĶĲ":7956,"æ¡¥è¾¹":7957,"å¯»è§ģ":7958,"èĶ¡éĺ³":7959,"ç¦»éĹ´":7960,"åħīç¦Ħ":7961,"è¥Ħæ±Ł":7962,"åĢĴç«ĸ":7963,"é¡ºæ°´":7964,"æ·®æĽ°":7965,"å®´ç½¢":7966,"çīĽæ¸ļ":7967,"ä»ĩäºº":7968,"çĽĽå¾·":7969,"æĥ§èī²":7970,"åįİå¤ı":7971,"çªģçģ«":7972,"çªģåĽ´":7973,"æī§ä¸ĭ":7974,"åĬ³èĭ¦":7975,"æ´ªç¦ı":7976,"ä¸Ģå£°åĵį":7977,"ä¸ĭé©¬æĿ¥":7978,"äºĮåįģåĽĽ":7979,"æķ¬æľį":7980,"å¦»æĽ°":7981,"åİ¿ä¸Ń":7982,"éľ¸æĽ°":7983,"æĮģåĪĢ":7984,"æĴŃ":7985,"å¤§äºĭåı¯":7986,"å¿½çĦ¶åĸĬå£°å¤§éľĩ":7987,"åŀ£":7988,"å¾¡åı²":7989,"åĥ®":7990,"ä¸įè§ģä¸Ģäºº":7991,"éĻ©éĺ»":7992,"ç¥ģå±±å¯¨":7993,"åħ·è¡¨":7994,"æĢ§æĢ¥":7995,"äºīéĶĭ":7996,"æĥ³èµ·":7997,"æµİçŁ£":7998,"è¡Ģè·¯":7999,"å¿ĥä¸Ńå¤§åĸľ":8000,"ç¥Ńä¹ĭ":8001,"ç¥Ńæ¯ķ":8002,"ç¥ŃéħĴ":8003,"èĴĭæµİ":8004,"åŁİä¸Ĭä¹±ç®Ńå°Ħä¸ĭ":8005,"èªī":8006,"æ³£åĳĬæĽ°":8007,"å´ĩ":8008,"åĪĩå®ľ":8009,"åĽŀæĬ¥è¯´":8010,"ä»Ĺä¹ī":8011,"äºİé©¬åīį":8012,"äºĶåįĥäºº":8013,"æķ´åħµ":8014,"äºİåľ°ä¸ĭ":8015,"éļıåĲİä¾¿":8016,"è¿Łçĸĳ":8017,"ä¼¯çĪ¶":8018,"éģįè§Ĥ":8019,"æ¡ĵéĺ¶":8020,"èªĵä¸į":8021,"åĪĹæĪĲéĺµåĬ¿":8022,"çİ°ä»Ĭ":8023,"åĩłæĹ¶":8024,"åħ¥è§ģæĽ°":8025,"æºº":8026,"æ³ªä¸ĭ":8027,"éŃıä¸»æĽ¹èĬ³":8028,"åŁİä¸ĭåı«éĹ¨":8029,"åĤ¬ä¿ĥ":8030,"èĪįåĳ½":8031,"ä¸Ģå½ªäººé©¬":8032,"ä¹ĺåĬ¿è¿½æĿĢ":8033,"è¸Ĭ":8034,"åĨĻäºĨ":8035,"æĬ¥çŁ¥æĽ¹æĵį":8036,"ä¸īè·¯åĨĽé©¬":8037,"å©´":8038,"å©Ĩ":8039,"åįķéªĳ":8040,"åįķæĲ¦":8041,"æĻĭçİĭ":8042,"éģ¥è§ģ":8043,"å¦Ĥä¹ĭä½ķ":8044,"å¿ĥèħ¹å°Ĩ":8045,"é¢ĦåħĪ":8046,"çĲ¦æĽ°":8047,"ä½¿èĢħåĽŀæĬ¥":8048,"å¢ĥçķĮ":8049,"æĿĢåħ¥éĩįåĽ´":8050,"åľ£æĹ¨":8051,"è´ºæĽ°":8052,"è®¾å®´æ¬¾å¾ħ":8053,"ä¹Įæ¡ĵ":8054,"åħħæĽ°":8055,"æłĳæŀĹ":8056,"å®£åı¬":8057,"å®łæĽ°":8058,"æ¸Ńæ»¨":8059,"çķĮé¦ĸ":8060,"çŃĳåĿĽ":8061,"çģ«åħīä¸Ń":8062,"åĵĢçĹĽ":8063,"éĻĩä¸Ĭ":8064,"éĻĩåı³":8065,"æ°¸ç»ĵ":8066,"ãĢĭãĢĤ":8067,"æĿľçĲ¼":8068,"äºĮåįģä½Ļäºº":8069,"è¿Ŀä»¤":8070,"å¿ħä¸ºåĲİæĤ£":8071,"çħ®":8072,"çĽŁå¥½":8073,"æĺ¾åľ£":8074,"éĢĢåħµä¹ĭçŃĸ":8075,"æĭĶåīĳåľ¨æīĭ":8076,"å½¢å®¹":8077,"è°¨æħİ":8078,"åģıå°Ĩ":8079,"å¿«èĪ¹":8080,"çĦļçĥ§":8081,"æĽ²éĺ¿":8082,"æİ·æĿ¯":8083,"ä¸īåįģä½ĻåĲĪ":8084,"ä¸ºå¤§åı¸é©¬":8085,"æ²īéĩį":8086,"å°ļä¹¦ä»¤":8087,"æĿŁæīĭ":8088,"æĢİæķ¢":8089,"åħ¬åŃĲåĪĺçĲ¦":8090,"çŃµåīį":8091,"äºĨä¸Ģéģį":8092,"éĵ¶éĵł":8093,"æĿĤåľ¨":8094,"è¡Įä¸įæķ°éĩĮ":8095,"åį§é¾ĻåħĪçĶŁ":8096,"å®ĩå®Ļ":8097,"æĭ©æĹ¥":8098,"æĬĦåľ¨":8099,"ä¸īæĽ´æĹ¶åĪĨ":8100,"éĤ£éĩĮåİ»":8101,"çĩķçİĭ":8102,"åįľä¹ĭ":8103,"èĭıé£ŀ":8104,"ä¹ĭç½ªä¹Ł":8105,"çĿ¡çĿĢ":8106,"ç¡¬":8107,"ä¸Ģä¸ĩäºĶåįĥ":8108,"æĭľä¼ıäºİåľ°":8109,"ä½©åīĳ":8110,"æī«æ¸ħ":8111,"åĴ¨æĽ°":8112,"åĲĲè¡Ģ":8113,"å¼ķæķ°åįĥ":8114,"ä»°å¤©åı¹æĽ°":8115,"å¦ĸäºº":8116,"æĭĸåĪĢ":8117,"åĪĺæĻĶæĽ°":8118,"äº¤é©¬åıªä¸ĢåĲĪ":8119,"åħ«åįģä¸Ģå·ŀ":8120,"èĢ»ç¬ĳ":8121,"ä¸ºåĲİåºĶ":8122,"åĽŀå¤´è§Ĩä¹ĭ":8123,"å½ĵæŃ¤ä»»":8124,"åĪĨæĭ¨å·²å®ļ":8125,"åİĭæĥĬ":8126,"æĭ½èµ·":8127,"èĩªæĢĿæĽ°":8128,"é²įä¿¡":8129,"å¼ĦæĿĥ":8130,"ä¸ºä¹ĭå¥Īä½ķ":8131,"éªĩçĦ¶":8132,"æĽ´ä¸įæīĵè¯Ŀ":8133,"ç¬¬ä¸ĢçĻ¾éĽ¶":8134,"ç½®éħĴçĽ¸å¾ħ":8135,"å¼łè®©çŃī":8136,"éľįå³»":8137,"çĮ®è®¡æĽ°":8138,"è®¤å¾Ĺæĺ¯":8139,"éĹŃéĹ¨ä¸įåĩº":8140,"ç»¿è¢į":8141,"æĹłå¿§çŁ£":8142,"æ¯«æĹł":8143,"æŁĵçĹħ":8144,"åıĺèī²æĽ°":8145,"éº´ä¹ī":8146,"ç»³ç´¢":8147,"è´«éģĵ":8148,"çº¶å·¾ç¾½æīĩ":8149,"ä¸ĽæĿĤ":8150,"åĶ¾æīĭ":8151,"å¸¸å±±èµµåŃĲé¾Ļä¹Ł":8152,"æ°¸å®īå®«":8153,"éĬ®é©¾":8154,"ä¸įèĥ½çĽ¸é¡¾":8155,"è¡£å¸¦è¯ı":8156,"ä»°è§Ĥå¤©æĸĩ":8157,"åľ£äººäºĳ":8158,"æĺıç»Ŀäºİåľ°":8159,"ä¸įçĿ¦":8160,"ä¸ĭæĪĺä¹¦":8161,"åºĶå¤©é¡º":8162,"é«ĺéĺľå¤Ħ":8163,"åĢĺæľīçĸıèĻŀ":8164,"ä¸ºåĲĪåĲİ":8165,"ç§£éĻµ":8166,"æĩĬæĤĶ":8167,"éľİæĹ¶":8168,"åĪ«æĿ¥æĹłæģĻ":8169,"èĤĿèĦĳæ¶Ĥåľ°":8170,"ä¸įå½ĵä¹ĭåĭĩ":8171,"å¤§èµ¦å¤©ä¸ĭ":8172,"æľīä¸ĩå¤«ä¸įå½ĵä¹ĭåĭĩ":8173,"è®¡å°Ĩå®īåĩº":8174,"éĿ¢éĿ¢çĽ¸è§ĳ":8175,"ä¸ĩæĹłä¸Ģå¤±":8176,"è¶³æĻºå¤ļè°ĭ":8177,"¥éĺ³":8178,"±éĺ³":8179,"åª":8180,"åļ":8181,"èı":8182,"èł":8183,"Ĥç¬ĳ":8184,"ä¸Ļ":8185,"äº§":8186,"ä¹ĭåŃĻ":8187,"ä¹ĭåīĳ":8188,"ä¹ĭå¥³":8189,"ä¹ĭèĪĮ":8190,"æľŃ":8191,"ä¸įèĩª":8192,"ä¸įéĹ»":8193,"ä¸įå°½":8194,"ä¸įå¿ł":8195,"ä¸įæĦ¿":8196,"ä¸įæĹ©":8197,"ä¸įåıĳ":8198,"ä¸įè¦ģ":8199,"ä¸įçķĻ":8200,"ä¸įéļ¾":8201,"ä¸įè´Ł":8202,"ä¸įæģ¯":8203,"ä¸įéģ¿":8204,"ä¸įçĶ±":8205,"ä¸įæĶ¹":8206,"ä¸įçľģ":8207,"å¾Ļ":8208,"å¼¥":8209,"äººå¤ļ":8210,"äººæĥħ":8211,"åĨĽäºĭ":8212,"åĨĽæľº":8213,"åĽ¢":8214,"æķı":8215,"å¤§åĸĬ":8216,"å¤§ä¸¾":8217,"å¤§ä½į":8218,"å¤§é©±":8219,"å¤§å¿Ĺ":8220,"ä¸Ģäºĭ":8221,"ä¸ĢåĲĳ":8222,"ä¸Ģå¥³":8223,"ä¸Ģçī©":8224,"ä¸Ģå¯¸":8225,"ä¸Ģåº§":8226,"ä¸Ģç¯ĩ":8227,"é©¬åĺ¶":8228,"å°ĨåĪ°":8229,"å°Ĩåħ³åħ¬":8230,"å°Ĩæ¬¡":8231,"å°Ĩå¤´":8232,"å°Ĩè®¡å°±":8233,"èµĽ":8234,"æĿ¥ä¹Ł":8235,"æĿ¥åĪº":8236,"æľīä¸Ģäºº":8237,"æľīäººæĬ¥":8238,"æľīèĥĨ":8239,"æīĳ":8240,"æĵįä¹ĭ":8241,"æĵįæľī":8242,"æĵįåħĪ":8243,"æĵįåıĪ":8244,"æĵįéĹ»ä¹ĭ":8245,"æŃ¤åĲ¾":8246,"æŃ¤è¡Į":8247,"æŃ¤æĦı":8248,"ç»¼":8249,"ä¸ĭæ°´":8250,"ä¸ĭèĲ½":8251,"ä¸ĭæ®¿":8252,"ä¸ĭæ³ª":8253,"ä¸ĭåĿĽ":8254,"äºİè¥¿":8255,"ä¸Ńå¸¸ä¾į":8256,"ä¸ºåī¯":8257,"ä¸ºå¤ªåŃĲ":8258,"ä¸ºè½¦éªĳå°ĨåĨĽ":8259,"è§ģäºĳéķ¿":8260,"è§ģä¸»åħ¬":8261,"è§ģéŃıå»¶":8262,"èĢĮåıĸ":8263,"èĢĮæľĽ":8264,"èĢĮæĪĲ":8265,"èĢĮæĬķ":8266,"èĢĮè¿ĺ":8267,"èĢĮæķ£":8268,"èĢĮåį§":8269,"è°¬":8270,"è°®":8271,"åĬ£":8272,"åĬĪ":8273,"ä½ķåľ°":8274,"ä½ķå¤ª":8275,"ä½ķæĻı":8276,"å¹Ķ":8277,"å½»":8278,"åĩºéĹ®":8279,"åĩºåºľ":8280,"åĲ¾å¸Ī":8281,"åĲ¾å®ģ":8282,"åĲ¾æģ¨":8283,"åĲ¾ç´łçŁ¥":8284,"åı¯ä¸İ":8285,"åı¯åİ»":8286,"åı¯åıĸ":8287,"åı¯åį³":8288,"åĳ³":8289,"åĳľ":8290,"åĲİæĽ°":8291,"åĲİæĤĶ":8292,"ä»¥ä¸Ĭ":8293,"ä»¥åĬ©":8294,"æĽ¹å®¶":8295,"æĽ¹éģµ":8296,"æĽ¹çŀĴ":8297,"æĽ¹åŃŁå¾·":8298,"åħ¬ä»¥":8299,"åħ¬æĸĩ":8300,"åħ¬ä¸Ķ":8301,"ä¸Ĭæľī":8302,"åīģ":8303,"çļİ":8304,"ä»Ĭå°Ĩ":8305,"ä»Ĭä¸Ķ":8306,"ä»Ĭå½¼":8307,"ä»Ĭæŀľ":8308,"ä»Ĭå¹¸å¾Ĺ":8309,"ä¸İåħ¬":8310,"ä¸İæķĮ":8311,"ä¸İä½ł":8312,"ä¸İå¤ıä¾¯éľ¸":8313,"ä¸İä¼ĹåķĨè®®":8314,"å¼łçº¦":8315,"å¼łéĹ¿":8316,"åİ»å®Ī":8317,"åħ¶ä¼Ĺ":8318,"åħ¶ä¾¿":8319,"åħ¶éĿ¢":8320,"åħ¶æĸĩ":8321,"åħ¶å¼Ł":8322,"åħ¶éĶĭ":8323,"åħ¶å°¸":8324,"åħ¶çķ¥æĽ°":8325,"åŁİåįĹ":8326,"ä»¤å¼Ł":8327,"ä»¤éŃıå»¶":8328,"ä¹ĥå°Ĩ":8329,"ä¹ĥåĩº":8330,"è¾ī":8331,"èĩªèĭ¥":8332,"èĩªè¡Į":8333,"èĩªå®¶":8334,"èĩªæıĲ":8335,"èĩªä»¥ä¸º":8336,"å£¶":8337,"äºĮåŁİ":8338,"äºĮåĲķ":8339,"äºĮä¹Ķ":8340,"åĽŀèµ°":8341,"åĽŀæ´Ľéĺ³":8342,"åŃĶæĺİåĶ¤":8343,"åŃĶæĺİåıĪåĶ¤":8344,"éĿ©":8345,"å¼ķåħ¥":8346,"å¼ķäºĶçĻ¾":8347,"å¼ķè´¥åĨĽ":8348,"å¼ķåįģæķ°éªĳ":8349,"è¨Ģæ¯ķ":8350,"å¦Ĥæĺ¯":8351,"åľ¨è¥¿":8352,"åľ¨åĨħ":8353,"åľ¨æľĿ":8354,"åľ¨å¾Ĳå·ŀ":8355,"æĺ¯æĽ¹æĵį":8356,"æĺ¯å¹´":8357,"åħ¥åİ»":8358,"åħ¥æ´Ľéĺ³":8359,"çĽ¸ä»İ":8360,"çĽ¸çĪ¶":8361,"çĽ¸éĢģ":8362,"çĽ¸å®³":8363,"å¾ĹæĽ¹æĵį":8364,"æĹłæľī":8365,"æĹłåŃ¦":8366,"æĿĢåĽŀ":8367,"æĿĢå¼Ģ":8368,"åħĪåĲĽ":8369,"ä¸īäºĭ":8370,"ä¸īä¸ĸ":8371,"ä¸īæĿ¡":8372,"è¯´åĩº":8373,"è¯´ä¸İ":8374,"è¯´è¯į":8375,"æĪĳåį´":8376,"æĪĳå¿ĥ":8377,"æĪĳäº¦":8378,"æĪĳåĵ¥åĵ¥":8379,"åīįå°ĨåĨĽ":8380,"åīįä¸ĭé©¬":8381,"åħ³å¤ĸ":8382,"åĪ°æĹ¥":8383,"åĪ°æĹ¶":8384,"åĪ°éķ¿å®ī":8385,"åĪ°åºĦ":8386,"å¤©ä¹ĭ":8387,"å¤©éĻį":8388,"å¤©èį¡":8389,"åįģä¸ĢæľĪ":8390,"çļĨæĿ¥":8391,"çļĨä¸º":8392,"çļĨæķ£":8393,"çļĨæĦŁ":8394,"äºĭæķħ":8395,"äºĭèĢ³":8396,"å¿ħåħĪ":8397,"å¿ħä»İ":8398,"å¿ħéģŃ":8399,"æ±Ŀä¹ĭ":8400,"æ±ĿæĿ¥":8401,"æ±ĿåħĦ":8402,"å½ĵå¤į":8403,"éŃıéĺµä¸Ń":8404,"èį¥éĺ³":8405,"åıĪéģĩ":8406,"å·²åİ»":8407,"åıªå¸¦":8408,"èĭ¥æĺ¯":8409,"èĭ¥æĿĢ":8410,"å±±æĿ¥":8411,"å±±æŀĹ":8412,"ä¼Ĺè®®":8413,"æ¬²åİ»":8414,"æŃ£æĽ°":8415,"æŃ£èī²":8416,"æŃ£éĢ¢":8417,"æŃ£å¥Ķèµ°":8418,"æĪĺèĢħ":8419,"æĪĺè¢į":8420,"è·¯éĢ¢":8421,"ç«ŀ":8422,"çİĭéľ¸":8423,"çİĭä¸ļ":8424,"æ³Ĺ":8425,"å·ŀäºĭ":8426,"å®īä¼Ĺ":8427,"éģĤåħ¥":8428,"éģĤéĹ®":8429,"éģĤå¼ķåħµ":8430,"éģĤå¼ķåĨĽ":8431,"éģĤéģ£ä½¿":8432,"å¿ĥä¹Ł":8433,"åıĸåĽŀ":8434,"éļľ":8435,"èµ·æĽ°":8436,"èµ·å¤§åħµ":8437,"æŃ»åĲİ":8438,"èĢħæĽ°":8439,"è¡Įäºĭ":8440,"è¡ĮåĿĲ":8441,"åĿĹ":8442,"åĿĽä¸ĭ":8443,"åĲ´å¤ª":8444,"ä¿ŀ":8445,"å°ĨåĨĽä½ķä¸į":8446,"æĽ¹æĵįæĽ°":8447,"è½¯":8448,"æŀ·":8449,"æŀļ":8450,"éª§":8451,"çŃīçī©":8452,"åĪĨå¢¨":8453,"ä»İä½ķ":8454,"éĤ»":8455,"è¯¸å¤Ħ":8456,"å²ĺ":8457,"èľĤ":8458,"å¸ĥåĳĬ":8459,"ä¸ľéĥ¡":8460,"æĢ¥èģļ":8461,"æĢ¥å¿Ļ":8462,"è¿Ľè¨ĢæĽ°":8463,"éĿ¢éķ¿":8464,"éĿ¢éĹ¨":8465,"éĿ¢åĲĽ":8466,"åįĹå±±":8467,"åĵĤç¬ĳ":8468,"éĹ»çİĦå¾·":8469,"éĹ»å°ĨåĨĽ":8470,"éĹ»æĽ¹æĵį":8471,"æķ°æĿ¯":8472,"èĩ£ä»¥":8473,"åį³å°Ĩ":8474,"åį³æŃ»":8475,"åį³ä½į":8476,"éĥ½è¢«":8477,"æīĢä¸º":8478,"æīĢå½Ĵ":8479,"äºĶèī²":8480,"äºĶåįģä¸ĩ":8481,"äºĶåįģä½ĻéĩĮ":8482,"æŁľ":8483,"éĢĢåĽŀ":8484,"éĢĢæĹ¶":8485,"æľĽæĽ°":8486,"æľĽåĲİ":8487,"éĹ¨é¦ĸ":8488,"ä¸ĩä¸Ģ":8489,"å¤ªä»Ĩ":8490,"ç²Ĺ":8491,"ç²Ł":8492,"æĸ¹å¤©":8493,"çķ´":8494,"åĭŁ":8495,"çĶ¨æŃ¦":8496,"çĶ¨åĪĢ":8497,"å°ıå°ĨåĨĽ":8498,"å°ıè§ĳ":8499,"åı¸ç©º":8500,"åı¸éļ¶":8501,"åĲĦéĹ¨":8502,"åį´è¯´å¼łéĥĥ":8503,"åį´è¯´æĽ¹ä»ģ":8504,"åį´è¯´éĴŁä¼ļ":8505,"è¥¿å¹³":8506,"å£°å¤§éľĩ":8507,"å°½éĻį":8508,"å°½é©±":8509,"å°½è¯Ľ":8510,"é»ĦéĴº":8511,"æĥĬåĬ¨":8512,"æīĭæĽ°":8513,"å¤ľéĹ´":8514,"å¤ľæ¢¦":8515,"äº¦æĹł":8516,"äº¦èĥ½":8517,"çĸĹ":8518,"è¯·å¤©åŃĲ":8519,"è¢«åĽ´":8520,"åĽ½éļ¾":8521,"å¸Ŀä½į":8522,"è´¼åĬ¿":8523,"é¢Ĩè®¡":8524,"é¢Ĩå¾Ĳå·ŀ":8525,"åı¸é©¬æ°ı":8526,"è®¸çĶ°":8527,"ä¸įåı¯ä»¥":8528,"å¾ħäºº":8529,"å¾Ĳèį£":8530,"ç»´ç¬ĳæĽ°":8531,"éĿŀä¸º":8532,"éĿŀçŃīéĹ²":8533,"æķĻåıĸ":8534,"ä¸ŀçĽ¸èĭ¥":8535,"ä¼ıåĪĢæĸ§æīĭ":8536,"ä¼ıæ³¢":8537,"åºĶä»ĺ":8538,"æŃ¦æī¬":8539,"æŃ¦ä¹¡ä¾¯":8540,"æĪĲäºĭ":8541,"åĳ¨éĥ½çĿ£":8542,"æŁĲäº¦":8543,"çģ«çĥ§":8544,"åįĥåı¤":8545,"åı³èĩĤ":8546,"å¹´æĸ¹":8547,"æĸ©åħ³":8548,"æĸ©æ±Ŀ":8549,"çłĸ":8550,"èİ±":8551,"å¼ķåħµè¿½èµ¶":8552,"å¼ķåħµäºĶä¸ĩ":8553,"é«ĺå±±":8554,"ä¼ļéĽĨ":8555,"ç²®å°ĳ":8556,"å¤´çĽĶ":8557,"è¿İåħ¥":8558,"äº²èĩ³":8559,"äº²åĪ°":8560,"åĮĹæĸĹ":8561,"è¿½åĪ°":8562,"èµµé¢ľ":8563,"èĥľè´¥":8564,"åĬ¿å¦Ĥ":8565,"åĬ¿ä¸įåı¯å½ĵ":8566,"éĻĪçĲ³":8567,"æĬķéŃı":8568,"æĬķæĽ¹æĵį":8569,"å½Ĵå®¶":8570,"è°ĵä¼Ĺå®ĺæĽ°":8571,"æģĲåħ¶":8572,"æĦ¿ä»¥":8573,"æĦ¿å°ĨåĨĽ":8574,"éģ£ä¹ĭ":8575,"å¼ŁåħĦ":8576,"åıĳåĸĬ":8577,"åıĳèĲ½":8578,"æĶ¾è¿ĩ":8579,"æĶ¾å½Ĵ":8580,"ä»ĸå¤Ħ":8581,"çĽ´æĿĢåĪ°":8582,"èľĢåħµå¤§è´¥":8583,"åıĹåĽ°":8584,"å¤±æİª":8585,"ä¸įèĥ½æĬ¥":8586,"ä¸įèĥ½å®¹":8587,"ä¸įèĥ½åīįè¿Ľ":8588,"å¤ıä¾¯å¾·":8589,"åĨįæ¬²":8590,"åĨįæĪĺ":8591,"è¿ŀåĴĮ":8592,"æĤļ":8593,"å°ļèĩª":8594,"çĹ´":8595,"å¥ıåĲİä¸»æĽ°":8596,"ä¼ĳæķĻ":8597,"åĿĲä¸ĭ":8598,"åĿĲè§Ĩ":8599,"éĴ©":8600,"èĢģå¼±":8601,"çł´é»Ħå·¾":8602,"æłĩ":8603,"èģĶ":8604,"å°±æŃ¤":8605,"å°±é©¬ä¸Ĭ":8606,"å°ģèµı":8607,"å¼Ģè¨Ģ":8608,"å¼ĢèĪ¹":8609,"ç®Ńå¤´":8610,"è¯¸èĳĽåĿĩ":8611,"åıįæ¬²":8612,"åıįæĥħ":8613,"æľ¬æ´ŀ":8614,"çĸĳæĺ¯":8615,"é¾Ļéª§":8616,"æ®ģ":8617,"æ®ĥ":8618,"æ®Ħ":8619,"å¤©ä¸ĭäºº":8620,"å¤©ä¸ĭèĢħ":8621,"è§£èµ´":8622,"ä¸»åħ¬èĭ¥":8623,"å²ĤçŁ¥":8624,"æĹ¢å¾Ĺ":8625,"çĥ½":8626,"æĿ¨æ¬£":8627,"æ°ĳéĹ´":8628,"ç»Łåħµ":8629,"ç»Łé¢Ĩ":8630,"éĥ¨é¢Ĩ":8631,"éĥ¨åįĴ":8632,"éĥ¨æĽ²":8633,"åĬ¨éĹ®":8634,"åĬ¨æīĭ":8635,"åĽ¾æĽ°":8636,"å§ĵåĪĺ":8637,"éŃıå»¶æĽ°":8638,"æĵĴçŁ£":8639,"çªĦ":8640,"å½¼æŃ¤":8641,"èĥĮä¹ĭ":8642,"éļ¾å®¹":8643,"ç©¶":8644,"éŁ©çĮĽ":8645,"ä»ģæħĪ":8646,"éĢģè¿ĺ":8647,"çļĩå¤©":8648,"éĤĵé£ı":8649,"å¾Ħèĩ³":8650,"å¼ĥå¯¨":8651,"å¼ĥæŀª":8652,"å¸¦ä¼¤":8653,"åĽ´ç»ķ":8654,"å¯Ĩå¥ı":8655,"è¾ŀæĽ°":8656,"ä½łå¦Ĥä½ķ":8657,"çĮ®äºĨ":8658,"æıĲæĪŁ":8659,"æ²³ä¸Ĭ":8660,"ä¼łè°ķ":8661,"åįĬæľĪ":8662,"ä¸ľåĲ´åŃĻæĿĥ":8663,"è¯ıæĽ°":8664,"åı·çģ«":8665,"åı·åĵŃ":8666,"æīĵçĿĢ":8667,"æİ¢è§Ĩ":8668,"åĭ¿ä»¥":8669,"ä¸įçŁ¥åħ¶æķ°":8670,"è½»åĩº":8671,"è½»æķĮ":8672,"éĽĦåħµ":8673,"éĽĦæīį":8674,"éĽĦå£®":8675,"ä»ĬæĹ¥ä¹ĭäºĭ":8676,"æ»ķ":8677,"è±º":8678,"ç¬¬åĽĽåįģ":8679,"ç¬¬åħ«åįģ":8680,"æ·±å¾Ĺ":8681,"æ·±æģ¨":8682,"å®¹èº«":8683,"å®¹æĺĵ":8684,"èĻİè±¹":8685,"èĻİçī¢":8686,"æļĹå¿ĸ":8687,"çŃĶä¹ĭ":8688,"éĻĽä¸ĭä¹Ł":8689,"ä¸¾ä¸Ģäºº":8690,"ä¸ĥäºº":8691,"ä¸ĥçĻ¾éĩĮ":8692,"ä»ĺä¸İ":8693,"ä¿ĿçĿĢ":8694,"ç¥ŀäºº":8695,"å¾ģä¹ĭ":8696,"å¾ģè®¨":8697,"å¯¹éĿ¢":8698,"å¯¹æīĭ":8699,"ä¾įç«ĭäºİ":8700,"æ¸¡æ³¸æ°´":8701,"åħ¨èĥľ":8702,"åħ¨çĲ®":8703,"åıªè§ģä¸Ģäºº":8704,"é¸¦":8705,"çĽ®ä¸ĭ":8706,"ç§°å¸Ŀ":8707,"éĻĨä¼¯è¨Ģ":8708,"æħĮä¹±":8709,"èĲ½åľ°":8710,"èĲ½æ°´":8711,"è°ıè®®":8712,"é©¾å°ıèĪŁ":8713,"çº¦è¡Į":8714,"çŁ³å¤´":8715,"çŁ³äºŃ":8716,"ä¹ĭè¨ĢçĶļåĸĦ":8717,"å¼ĵæīĭ":8718,"æŃ¤äººæĺ¯è°ģ":8719,"æ¡¥å¤´":8720,"ä½¿äººåİ»":8721,"çļĦåį¢":8722,"ç¦»äºĨ":8723,"çĶĺå¤«äººæĽ°":8724,"ä¹ĿæľĪ":8725,"ä¹Ŀå°º":8726,"ä¹ĿéĶ¡":8727,"è¢Ńä¹ĭ":8728,"åĢĴäºİ":8729,"åĢĴæĪĪ":8730,"é¡ºæµģ":8731,"åłĤä¸Ń":8732,"åłĤåłĤ":8733,"æľ¨é¹¿":8734,"ä¿±åľ¨":8735,"ä¸įå¦Ĥä¸Ķ":8736,"çīĽå¤´":8737,"çĦ¶åĲİè¿Ľåħµ":8738,"æĹ§å°Ĩ":8739,"åŃŁèİ·çŃī":8740,"æĭĴå®Ī":8741,"ä¹ĭè®¡çŁ£":8742,"é¢ľèī²":8743,"ç¦ģæĽ°":8744,"æ´ªæĽ°":8745,"æĭĽé£Ĳ":8746,"åİļèĳ¬ä¹ĭ":8747,"å¼łè¾½æĽ°":8748,"éĽįæĽ°":8749,"æĽ¹ä»ģæĽ°":8750,"æĮģæŀª":8751,"åĪ©åĪĥ":8752,"èĩ´ç¥Ń":8753,"è®¨éĢĨ":8754,"åĮĸæĽ°":8755,"æ®¿ä¸Ń":8756,"åĸĬå£°èµ·å¤Ħ":8757,"åŀķ":8758,"å¾¡ä¹ĭ":8759,"è¿Ļåİ®":8760,"æĢĢäºĮå¿ĥ":8761,"ç©ºåĽŀ":8762,"æĬĺå°Ĩ":8763,"æĳ§":8764,"æĿ¥è§ģçİĦå¾·":8765,"æĿ¥è§ģåŃĶæĺİ":8766,"æĿ¥è§ģæĽ¹æĵį":8767,"çĻ¾ä½ĻåĲĪ":8768,"æĺ¥ç§ĭ":8769,"å¿ĥä¸Ńçĸĳæĥĳ":8770,"å¿ĥä¸ŃæļĹåĸľ":8771,"æľīä½ķä¸įåı¯":8772,"èĴĭå¥ĩ":8773,"è®¸è¤ļæĽ°":8774,"çĬ¹æľª":8775,"æŀĹä¸Ń":8776,"éĢĨå¤©":8777,"æįīä¸ĭ":8778,"é¹Ħ":8779,"é¹ı":8780,"çĥ§çĿĢ":8781,"çĤ¹åħµ":8782,"èĮĥçĸĨ":8783,"äºİåľ°ä¸Ĭ":8784,"æį®ä½ı":8785,"çĬ¯å¢ĥ":8786,"å¥¸èĩ£":8787,"åĩłä¹İ":8788,"åīįéĿ¢ä¸ĢåĨĽ":8789,"æĮºæŀªéª¤é©¬":8790,"å¥ĩåĬŁ":8791,"è¯¯ä¸Ń":8792,"è¯¯å¤§äºĭ":8793,"çº³ä¹ĭ":8794,"çº³å£«":8795,"èħ¾æĽ°":8796,"çº¢æĹ¥":8797,"çº¢è¢į":8798,"å³¨":8799,"æ£ĺ":8800,"è¾ħä¹ĭ":8801,"åħ¶äººæĽ°":8802,"ä¼ĹåĨĽçļĨ":8803,"é¡¿è¶³":8804,"å²ģçŁ£":8805,"ç§ĭæ¯«æĹł":8806,"éļĲå±ħ":8807,"å¡Į":8808,"ä¸¤åĨĽæ··æĪĺ":8809,"è¯Ŀä¸ĭ":8810,"è¯ĿéĹ´":8811,"çĤ®çŁ³":8812,"æ²ĽåĽ½":8813,"åĢŁåħµ":8814,"æĻĭåħµ":8815,"éģ¥æĮĩ":8816,"è´µå¦ĥ":8817,"ç§¦å®ĵ":8818,"è´¹è§Ĥ":8819,"è´¹è¯Ĺ":8820,"å®īæķ¢å¦ĤæŃ¤":8821,"è´£éªĤ":8822,"æŃ»äºİä¹±åĨĽä¹ĭä¸Ń":8823,"åĺīæĽ°":8824,"ç°ª":8825,"å°¸æ¨ª":8826,"ç´¯æ¬¡":8827,"èĥĨè£Ĥ":8828,"è¯ļæģĲ":8829,"éħįæĽ°":8830,"å°ºå¯¸":8831,"é¢Ĩåĳ½èĢĮåİ»":8832,"æĮ¥æ³ª":8833,"æĭľè°¢èĢĮåİ»":8834,"æĭĨè§Ĩä¹ĭ":8835,"åĽ½å®¶å¤§äºĭ":8836,"è´ºåĸľ":8837,"ä¸Ģå½ªåĨĽæĿĢåĪ°":8838,"ä¸ºé¦ĸä¸Ģå°Ĩ":8839,"å²Ĥåı¯å¤į":8840,"æħĮå¿Ļä¸ĭé©¬":8841,"ä»£ä¹ĭ":8842,"ç§»äºİ":8843,"ç§»èĲ¥":8844,"éĵľäºº":8845,"æĴŀè§ģ":8846,"ä¸¹éĺ³":8847,"èĪŀåīĳ":8848,"çĮĽçĦ¶":8849,"éĥ¨å°ĨæĽ°":8850,"âĢĻï¼Į":8851,"åŃĺäº¡":8852,"æĶ¾çģ«ä¸ºåı·":8853,"åĽŀé¡¾å·¦åı³æĽ°":8854,"æ°¸æĺĮ":8855,"ç¦ħä½į":8856,"ç®Ĺå®ļ":8857,"æ®ĭå®³":8858,"åĺ±ä»ĺ":8859,"åĳĪä¸Ĭä¹¦":8860,"äºĮåįģä½ĻåĲĪ":8861,"åºĻåłĤ":8862,"åĿĽä¸Ĭ":8863,"æĿĢäºĨä¸Ģéĺµ":8864,"ä¸īåįģåĲĪ":8865,"çīĻå°Ĩ":8866,"çīĻæĹĹ":8867,"æĺ±æĽ°":8868,"ç³ľç«ºæĽ°":8869,"é¬¼ç¥ŀ":8870,"è¯±ä¹ĭ":8871,"çĽŁä¸»":8872,"éĢĤéĹ´":8873,"è¾Ľè¯Ħ":8874,"å¤§å°ıå°Ĩå£«":8875,"ä¸ĢåĪĢæĸ©äºİé©¬ä¸ĭ":8876,"ç«łæŃ¦":8877,"å¿łä¹īä¹ĭå£«":8878,"æħ°åĬ³":8879,"åĩ¡äºĭ":8880,"è°¨å®Ī":8881,"åĩŃé«ĺ":8882,"å®¾å®¢":8883,"å°¹èµı":8884,"ä¾µæĪĳ":8885,"éŀįä¸ĭé©¬":8886,"éĦ±éĺ³":8887,"çĥŁçªģçģ«":8888,"åįłäºĨ":8889,"ä¸ºä¸Ĭå®¾":8890,"å®ĭå¿ł":8891,"å®ĭè°¦":8892,"æĢİçĶŁ":8893,"çīµåĩº":8894,"è¿·å½ĵ":8895,"åºĨç«¥":8896,"åĿłåľ°":8897,"å¾Ĺèĥľä¹ĭåħµ":8898,"å¤©æ°´éĥ¡":8899,"é¡·åĪ»":8900,"éº¾åĨĽ":8901,"åį§é¾ĻåĨĪ":8902,"å±ıé£İ":8903,"æĭ©åĲī":8904,"é¡¹åŁİ":8905,"åĨĴçĥŁçªģçģ«":8906,"ä½İè¨Ģ":8907,"å±¡è´¥":8908,"è·ªäºİ":8909,"éĹ¨æĹĹå¼Ģå¤Ħ":8910,"åºĶå£°èĢĮåĩº":8911,"ä¿®ä¹¦ä¸Ģå°ģ":8912,"çŁ¥åħ¶æĦı":8913,"ä½¿åĳ½èĩ³":8914,"ä¸įåľ¨è¯Ŀä¸ĭ":8915,"åłĨç§¯":8916,"æĬ¢å¤º":8917,"æĭĪçĿĢ":8918,"èĩªé¢Ĩå¤§åĨĽ":8919,"ä¸īåįģéĩĮä¸ĭå¯¨":8920,"åľŁäººæĽ°":8921,"æĴ¤åħµ":8922,"å¼ķæľ¬éĥ¨åħµ":8923,"äºĽå°ı":8924,"åħµæ³ķäºĳ":8925,"çĽĺèĽĩ":8926,"èĥ¸ä¸Ń":8927,"ä¸ĢæŀĿåħµ":8928,"åº¸æīį":8929,"å¼ķä¸īåįĥåĨĽ":8930,"å¼ķä¸īåįĥåħµ":8931,"ä¸īçĻ¾åĨĽ":8932,"æ¡ĥèĬ±":8933,"éĵłçĶ²":8934,"çĺ¤":8935,"çĺ¦":8936,"æĭľä¼ıäºİåľ°æĽ°":8937,"æ»ļéŀįä¸ĭé©¬":8938,"ä¸Ģéªĳé©¬":8939,"åºĲæ±Ł":8940,"çºµæ¨ªå¤©ä¸ĭ":8941,"åı©å¤´":8942,"èĢĮåĵŃæĽ°":8943,"åŃĲæľįæĽ°":8944,"èĸĽåħ°":8945,"ä¸ĢæŀªåĪºæŃ»":8946,"èĮĤçĽĽ":8947,"çĵ¦åı£":8948,"çĵ¦è§£":8949,"åı±éĢĢå·¦åı³":8950,"ä¸įè¿ľçŁ£":8951,"åı¯çł´ä¹Ł":8952,"çļ®èĤī":8953,"æŀŃéĽĦ":8954,"è®²åĴĮ":8955,"é¥±é£Ł":8956,"åĪĽä¸ļ":8957,"æĸĩå®ĺæŃ¦å°Ĩ":8958,"èĢģå°Ĩé»Ħå¿ł":8959,"åİħä¸Ĭ":8960,"æĹ©æľīç»Ĩä½ľæĬ¥çŁ¥":8961,"åįŀåĸľ":8962,"åįŀæ°ı":8963,"æ±Ĺæµģ":8964,"åĸıåĸı":8965,"è§Ĥåħ¶åĬ¨éĿĻ":8966,"ä¸ºæ±īèĩ£":8967,"è·Įè¶³":8968,"çº¸ç¬Ķ":8969,"éĽķå¼ĵ":8970,"ä»¶äºĭ":8971,"ä¾Ľç»Ļ":8972,"èĮ¶ç½¢":8973,"éº´å±±":8974,"èķĥ":8975,"é©»æīİ":8976,"èĩ´ä¹¦äºİ":8977,"èĵĦ":8978,"ä¸Ģè¾ĨåĽĽè½®è½¦":8979,"è®Ńç»ĥ":8980,"èĭŁå®ī":8981,"èİ·åħ¨èĥľ":8982,"è£¨å°Ĩ":8983,"æŃ£è¿İçĿĢ":8984,"éĤ¹éĿĸ":8985,"å¾ĢæĬķä¹ĭ":8986,"æµĳèº«":8987,"èļģ":8988,"ä¹ĭåħĨä¹Ł":8989,"ç©Ĩé¡º":8990,"åħĪå¸ĿæīĺåŃ¤ä¹ĭéĩį":8991,"ç»Ĩè¨Ģåħ¶äºĭ":8992,"æ¶¿éĥ¡":8993,"åģ¥å°Ĩ":8994,"å¸¦æĿ¥æ´ŀä¸»":8995,"æĮºèº«åĩºæĽ°":8996,"ä¼ŀçĽĸ":8997,"çĶĦæ°ı":8998,"åĩºæ¦ľå®īæ°ĳ":8999,"æ²Ĳæµ´":9000,"æĶ¾æ±ĿåĽŀåİ»":9001,"åħµç²¾ç²®è¶³":9002,"è´¿èµĤ":9003,"æ±īå¯¿äºŃä¾¯":9004,"ç½Ķä¸Ĭ":9005,"è¿ŀäººå¸¦":9006,"çģŃåħ¶ä¸īæĹı":9007,"éĵģæ¡¶çĽ¸ä¼¼":9008,"ç¥Ŀèŀįå¤«äºº":9009,"å¤¤å¤ľ":9010,"ä»¥éĢ¸å¾ħåĬ³":9011,"å¦Ĥåħ¥æĹłäººä¹ĭ":9012,"æħ·æħ¨":9013,"æ¨¡æł·":9014,"åºĶå¤©é¡ºäºº":9015,"åı¸éļ¶æł¡å°ī":9016,"æŃ¦æī¬å¨ģ":9017,"æľ¨é¹¿å¤§çİĭ":9018,"ç§ĭæ¯«æĹłçĬ¯":9019,"å¦Ĥåħ¥æĹłäººä¹ĭå¢ĥ":9020,"¸çĦ¶":9021,"éĪ":9022,"ĠåŃĶæĺİ":9023,"Ġåħ³äºĳéķ¿":9024,"ĥè¡Ģ":9025,"ĳçĽ®":9026,"Ĵéĺ³":9027,"Ľè½¦":9028,"ä¸¢":9029,"ãĢĤãĢĬ":9030,"åħľ":9031,"å¤Ń":9032,"æĽ©":9033,"ï¼ļâĢĿ":9034,"ä¹ĭèĩ³":9035,"ä¹ĭå¤ļ":9036,"ä¹ĭçĪ¶":9037,"ä¹ĭå¸¸":9038,"ä¹ĭçĸ¾":9039,"ä¹ĭå¦¹":9040,"ä¹ĭèĥĦ":9041,"åĨ»":9042,"ä¸įåħ¥":9043,"ä¸įèĩ³":9044,"ä¸įå½ĵ":9045,"ä¸įè¿Ľ":9046,"ä¸įè¿ĺ":9047,"ä¸įå®ģ":9048,"ä¸įé£Ł":9049,"ä¸įæĸĻ":9050,"ä¸įé¡º":9051,"ä¸įåĬ³":9052,"ä¸įæķ´":9053,"ä¸įéģµ":9054,"ä¸įæĻĵ":9055,"ä¸įçĥĤ":9056,"æŃĥè¡Ģ":9057,"å¼Ī":9058,"äººåĪ°":9059,"äººèĩ£":9060,"äººå¤´":9061,"åĨĽå®ĺ":9062,"åĨĽåĬ¡":9063,"åĨĽä¸įåĪ©":9064,"è¯¥":9065,"è¯ł":9066,"èĢĴéĺ³":9067,"åħµåĬ¿":9068,"åħµå¼º":9069,"å¤§äºº":9070,"å¤§è®¡":9071,"å¤§åı¸é©¬":9072,"å¤§æķĮ":9073,"å¤§çł´":9074,"å¤§éļ¾":9075,"å¤§æĤ¦":9076,"å¤§èµıä¸īåĨĽ":9077,"è¿Ķ":9078,"ä¸ĢåŁİ":9079,"ä¸ĢåŃĲ":9080,"ä¸Ģé¦ĸ":9081,"ä¸Ģå¤§å°Ĩ":9082,"ä¸ĢåĪĩ":9083,"ä¸ĢèĩĤ":9084,"ä¸Ģå°ĳå¹´":9085,"ä¸ĢéľİæĹ¶":9086,"è§Ħ":9087,"å°Ĩæģ¯":9088,"å°Ĩå¯¡":9089,"èµİ":9090,"æĿ¥äºĨ":9091,"æĿ¥çĮ®":9092,"æĿ¥åĬ©":9093,"æĿ¥è¢Ń":9094,"æĿ¥æĲ¦æĪĺ":9095,"æĿ¥åĬ«å¯¨":9096,"åĩ°":9097,"åĩĿ":9098,"æĵĲ":9099,"éĹ¹":9100,"æ±²":9101,"è®³":9102,"æľīåħµ":9103,"æľīäºĭ":9104,"æľīåĲį":9105,"æľīç¥ŀ":9106,"æľīå¼Ĥ":9107,"æľīäººæĬ¥çŁ¥":9108,"æľīæľºå¯Ĩ":9109,"æĸĮ":9110,"æī¹":9111,"æĵįèĻ½":9112,"æĵįä»İä¹ĭ":9113,"æĵįä»İåħ¶è¨Ģ":9114,"æĵįå¤§åĸľæĽ°":9115,"æĵįèĩªé¢Ĩ":9116,"æŃ¤æ°´":9117,"åİĮ":9118,"ä¸ĭæĭľ":9119,"ä¸ĭæµģ":9120,"äºİåħ¶":9121,"äºİæľĿ":9122,"äºİåłĤä¸Ĭ":9123,"ä¸ŃäºĨ":9124,"ä¸Ńè¯¸èĳĽäº®":9125,"ä¸Ńä¼¤":9126,"ä¸ºé£Ł":9127,"ä¸ºç¥¸":9128,"ä¸ºæľŁ":9129,"ä¸ºè´¨":9130,"ä¸ºåıĤè°ĭ":9131,"ä¸ºåģıå°ĨåĨĽ":9132,"ä¸ºæİİè§Ĵä¹ĭåĬ¿":9133,"è§ģå¸ĥ":9134,"è§ģç½ª":9135,"è§ģåĳ¨çĳľ":9136,"èĢĮæĵį":9137,"èĢĮè§ģ":9138,"èĢĮå¾Ģ":9139,"èĢĮç¬ĳ":9140,"èĢĮåĢĴ":9141,"èĢĮåºŁ":9142,"èĢĮéªĤæĽ°":9143,"è°²":9144,"è°Ļ":9145,"åĬ±":9146,"ä½ķåı¯":9147,"ä½ķè¨Ģ":9148,"ä½ķä»ª":9149,"ä½ķèĻĳ":9150,"ä½ķçĶ±":9151,"ä½ķæĦģ":9152,"åĩºåĨĽ":9153,"åĩºåĨħ":9154,"åĩºæ®¿":9155,"åĲ¾åľ¨":9156,"åĲ¾å¾Ĺ":9157,"åĲ¾äºĭ":9158,"åĲ¾å¯¨":9159,"åĲ¾èĢħ":9160,"åĲ¾åĳ½":9161,"åĲ¾èĻ½":9162,"åĲ¾å²Ĥ":9163,"åĲ¾åħĦå¼Ł":9164,"éĻĤ":9165,"éĻĭ":9166,"æĢĸ":9167,"éĥĹ":9168,"åı¯å¾Ģ":9169,"åı¯è§£":9170,"åı¯ä»¤äºº":9171,"è´´":9172,"å¯°":9173,"å¯ĵ":9174,"åĳĨ":9175,"åĲİåĹ£":9176,"åĲİæ§½":9177,"ä»¥ä¸Ģ":9178,"ä»¥å½ĵ":9179,"ä»¥ä¹¦":9180,"ä»¥èĩ£":9181,"ä»¥æĪĲ":9182,"ä»¥éĩĳå¸Ľ":9183,"æĽ¹å°ĨåĨĽ":9184,"æĽ¹æĢ§":9185,"æĽ¹çº¯":9186,"æĽ¹æİ¾":9187,"åħ¬æľī":9188,"åħ¬äºĭ":9189,"ä¸Ĭçĸı":9190,"åī¥":9191,"è¡į":9192,"å±ł":9193,"ä»Ĭä¸º":9194,"ä»Ĭä¸Ĭ":9195,"ä»ĬåŃĶæĺİ":9196,"ä»Ĭå¹´":9197,"ä»Ĭäºĳéķ¿":9198,"ä»ĬéĻĽä¸ĭ":9199,"ä»Ĭå¤©åŃĲ":9200,"ä»ĬæĽ¹åħµ":9201,"ä¸İèľĢåħµ":9202,"ä¸İåħĦ":9203,"ä¸İåı¸é©¬æĩ¿":9204,"ä¸İè¯¸å°Ĩ":9205,"ä¸İåŃ¤":9206,"ä¸İåºŀå¾·":9207,"å¼łå¸ĥ":9208,"å¼łè¾¾":9209,"å¼łå¼ĵ":9210,"å¼łçĩķ":9211,"å¼łåĭĭ":9212,"å¼łç¼ī":9213,"æĭ·":9214,"åİ»åħ¶":9215,"åİ»ä¸ľåĲ´":9216,"åİ»è¢Ń":9217,"åħ¶ä¹¦":9218,"åħ¶èº«":9219,"åħ¶è°ĭ":9220,"åħ¶ç¥¸":9221,"åħ¶é¦ĸçº§":9222,"çİĦå¾·å¼ķ":9223,"çİĦå¾·æĢ¥":9224,"çİĦå¾·éĹ»":9225,"çİĦå¾·äº¦":9226,"çİĦå¾·æķĻ":9227,"çİĦå¾·å¤§æĥĬæĽ°":9228,"ä»¤åĨĽ":9229,"ä»¤æŁĲ":9230,"åŃĶåĪĨå¢¨":9231,"ä¹ĥèĩª":9232,"ä¹ĥåħĪ":9233,"ä¹ĥæĽ¹æĵį":9234,"ä¹ĥéģ£":9235,"ä¹ĥåħ³åħ´":9236,"ä¹ĥåħ³äºĳéķ¿ä¹Ł":9237,"èĩªå½ĵ":9238,"åºı":9239,"åºĹ":9240,"äºĮåĨĽ":9241,"äºĮä¹Ł":9242,"äºĮä¸»":9243,"äºĮåħĦ":9244,"äºĮéĥ¡":9245,"äºĮä½į":9246,"åĽŀè¨Ģ":9247,"åĽŀåĲ´":9248,"åĽŀéģ¿":9249,"åŃĶæĺİåħĪ":9250,"åŃĶæĺİéĹ®":9251,"å¼ķç²¾åħµ":9252,"å¼ķäºĮä¸ĩ":9253,"å¼ķæķ°åįģäºº":9254,"å¼ķæķ°çĻ¾éªĳ":9255,"å¼ķçģ«ä¹ĭçī©":9256,"è¨Ģä¹Ł":9257,"å¦Ĥå¾Ĺ":9258,"å¦Ĥæµģ":9259,"å¦Ĥç¥ŀ":9260,"åľ¨åĲ¾":9261,"åľ¨èľĢ":9262,"åľ¨æ±Łå¤ı":9263,"åľ¨ä¸Ģå¤Ħ":9264,"æĥ¨":9265,"æĺ¯åħ¶":9266,"åħ¥èľĢ":9267,"åħ¥ä¸ŃåĨĽ":9268,"çĽ¸è¿ŀ":9269,"çĽ¸èģļ":9270,"çĽ¸æ¬º":9271,"çĽ¸è®©":9272,"å¾ĹæĪĳ":9273,"å¾Ĺéĵģæ¡¶çĽ¸ä¼¼":9274,"éĩŃ":9275,"æĹłæķħ":9276,"æĹłåĲĽ":9277,"æĹłçĸĳ":9278,"æĹłæīį":9279,"æĹłä»ĩ":9280,"æĹłæİª":9281,"æĿĢå°½":9282,"æĿĢçīĽ":9283,"åħĪäºİ":9284,"åħĪåĩº":9285,"åħĪè¿Ľ":9286,"ä¸īåĽŀ":9287,"ä¸īèĢħ":9288,"ä¸īäºĶ":9289,"ä¸īç»ĵ":9290,"ä¸īéĢļ":9291,"äºĨçİĦå¾·":9292,"äºĨä¸Ģéĺµ":9293,"è¯´åŃĶæĺİ":9294,"æĪĳä¸į":9295,"æĪĳäºİ":9296,"æĪĳå·²":9297,"æĪĳèĩªæľī":9298,"èĩ³åŃĿ":9299,"èĩ³åŁİä¸ĭ":9300,"èĩ³å¸Ĳä¸ĭ":9301,"èĩ³æ±Łè¾¹":9302,"é£ĺçĦ¶":9303,"åŃĲäºĳ":9304,"åŃĲæĺ¥":9305,"çŁ¥å·±":9306,"å¤©å¨ģ":9307,"çļĨå¾Ĺ":9308,"çļĨèĩ³":9309,"çļĨä¸įèĥ½":9310,"äºĭåĬ¿":9311,"éŃģ":9312,"å¿ħåıĸ":9313,"å¿ħä¸įæķ¢":9314,"æ±Ŀå®¶":9315,"æ±Ŀæľīä½ķ":9316,"æĹ¶å»ºå®ī":9317,"å½ĵä¸İ":9318,"å½ĵéĿ¢":9319,"å½ĵéģĵ":9320,"å½ĵåĪĿ":9321,"å½ĵä¸ĸä¹ĭ":9322,"å½ĵåĨĽä»¤":9323,"åıĪåĩº":9324,"åıĪèĩ³":9325,"åıĪæĬ¥":9326,"åıĪå¤į":9327,"åıĪæľīè¯Ĺ":9328,"åıĪä»¤äºº":9329,"å·²åĩº":9330,"å·²åľ¨":9331,"å·²æĪĲ":9332,"å·²çł´":9333,"å·²æŀģ":9334,"èĭ¥å½¼":9335,"èĭ¥åı¸é©¬æĩ¿":9336,"å±±éĩİ":9337,"æĬ¥ä¹ĭ":9338,"æĬ¥éģĵ":9339,"æĬ¥ä¸§":9340,"ä¼ĹæĸĩæŃ¦":9341,"æ¬²èĩª":9342,"æ¬²è°ĭ":9343,"æ¬²æ±Ĥ":9344,"æ¬²èµ·åħµ":9345,"åį´ä¸į":9346,"æŃ£è§ģ":9347,"æŃ£å¾ħ":9348,"æŃ£åĮĹ":9349,"æĪĺæŃ»":9350,"æĪĺæłĹ":9351,"è·¯æĺŃ":9352,"éķ¿åŁİ":9353,"éķ¿èĢħ":9354,"èĻ¹":9355,"çİĭåĳ½":9356,"çİĭä½į":9357,"çİĭæ¤į":9358,"çİĭæ¥·":9359,"çİĭåĲ«":9360,"æ³Ĭ":9361,"å®īçŁ¥":9362,"å®īå±ħ":9363,"éģĤç«ĭ":9364,"å¿ĥäºĭ":9365,"å¿ĥä¹ħçŁ£":9366,"éĹ®äºİ":9367,"éĹ®äºĨ":9368,"é¢Ĥ":9369,"åıĸå¾Ĺ":9370,"åıĸé½Ĳ":9371,"éļĹ":9372,"èµ·ä¸Ģ":9373,"æŃ»èĢĮå·²":9374,"çĦ¶åħ¶è¯´":9375,"èĢħçļĨ":9376,"èĢħæĹłæķ°":9377,"è¡Įè£ħ":9378,"è¡Įæķ°å·¡":9379,"åĲ´ä½¿":9380,"åĲ´åĽ½å¤ª":9381,"æĽ¹æĵįåľ¨":9382,"è®¡ä¹Ł":9383,"è½©":9384,"è½´":9385,"éªĭ":9386,"çŃīè¾Ī":9387,"ä¾¿å°±":9388,"ä¾¿è¦ģ":9389,"ä¾¿å·®":9390,"çģ¿":9391,"åĪĨæĺİ":9392,"ä¹¦èĩ³":9393,"ä¹¦åĲį":9394,"ä»İå¤´":9395,"é¡Ĵ":9396,"æľªèĤ¯":9397,"è¯¸å®ĺ":9398,"è¯¸èĲ¥":9399,"å¸ĥåĨĽ":9400,"èĤ¥":9401,"èľĢèĲ¥":9402,"æ²¸":9403,"æ²Ĥ":9404,"æĿĥä»İåħ¶è¨Ģ":9405,"é£ŀåĩº":9406,"æĢ¥åıĸ":9407,"æĢ¥åĳ½":9408,"æĢ¥èµ°":9409,"æĢ¥ä»¤äºº":9410,"åįĹå±ıå±±":9411,"åĵģ":9412,"åĵĳ":9413,"èµ°åħ¥":9414,"åĽĽå·ŀ":9415,"åĽĽçĻ¾":9416,"åĽĽä¸ĩ":9417,"åĽĽåįĥ":9418,"åĽĽä¸ª":9419,"åĽĽä¸ĸ":9420,"æķ°éªĳ":9421,"æķ°åįģéĩĮ":9422,"èĩ£æĸĻ":9423,"å§¿":9424,"åį³å¼ķ":9425,"åį³éģ£äºº":9426,"å¿½äººæĬ¥":9427,"å¿½è¿ĳèĩ£å¥ıæĽ°":9428,"å¿½æµģæĺŁé©¬":9429,"ä¸¤æĹ¥":9430,"ä¸¤å¤Ħ":9431,"ä¸¤åĳĺ":9432,"å¾Ģæķĳ":9433,"å¾Ģå¤į":9434,"å¾Ģæ±Łä¸ľ":9435,"å¾Ģæ±Łå¤ı":9436,"å¾Ģæ±ĿåįĹ":9437,"æ±Łä¸Ĭ":9438,"æ±Łæ±ī":9439,"æ±Łæ°´":9440,"æ±Łå·¦":9441,"æ±ŁèĢĮæŃ»":9442,"å¤ĩé©¬":9443,"æīĢé¢Ĩ":9444,"æīĢå®ľ":9445,"äºĶåŃĲ":9446,"äºĶéĺŁ":9447,"æŁ¯":9448,"å¹³èĽ®":9449,"æľĽåīį":9450,"æľĽå°ĨåĨĽ":9451,"æľĽæ±īä¸Ń":9452,"æµĨ":9453,"æµĵ":9454,"æ±īä¸ŀçĽ¸":9455,"æ±īç¦Ħ":9456,"æķħä»¥":9457,"æķħåħĪ":9458,"æķħå°Ķ":9459,"æķħæľīæŃ¤":9460,"å¤ªè¿ĩ":9461,"å¤ªç¥ĸ":9462,"æĸ¹ä¸Ī":9463,"çĶŁçĸĳ":9464,"æĸĩå¸Ŀ":9465,"æĸĩç«ł":9466,"æ°´ä¸į":9467,"æ°´éĿ¢":9468,"æ°´æ·±":9469,"éĻįèľĢ":9470,"éĻįæĹ¨":9471,"çĶ¨ä¸º":9472,"çĶ¨ä¹ĭçī©":9473,"å°ıå¾Ħ":9474,"å°ıè¾Ī":9475,"æĩĴ":9476,"åĲĦä¸º":9477,"åĲĦå®ĺ":9478,"åĲĦä¾Ŀ":9479,"åĲĦå¼ķä¸Ģä¸ĩ":9480,"åį´è¯´èµµäºĳ":9481,"åį´è¯´è¢ģç»į":9482,"åį´è¯´åŃŁèİ·":9483,"å£°å¦Ĥ":9484,"å°½åĩº":9485,"å°½éĢĢ":9486,"æķ¢æľī":9487,"æĥĬå¾Ĺ":9488,"æĥĬéĹ®":9489,"è´¥çŁ£":9490,"äº¦ä¸įåı¯":9491,"è¯·æĽ°":9492,"è¯·å°ĨåĨĽ":9493,"è¯·ä¸ŀçĽ¸":9494,"è¢«æĿĢ":9495,"è¢«äºĳ":9496,"è¢«äºĳéķ¿":9497,"åĽ½æĶ¿":9498,"åĽ½å¯Į":9499,"ç½¡":9500,"ä½ıæīİ":9501,"ç®¸":9502,"é¢ĨæŃ¤":9503,"è®¸ä»¥":9504,"è®¸æ±ľ":9505,"å·¦ä¾§":9506,"å¿łè¨Ģ":9507,"éĶ¥":9508,"çĳľå¤§åĸľ":9509,"äºĮäººåĲĦ":9510,"åĲįä¸į":9511,"å¾ĲåħĥçĽ´":9512,"ç»´å¤§æĥĬ":9513,"æķĻä¹ĭ":9514,"æķĻä¼ĳ":9515,"æķĻåľº":9516,"åĨħä¾į":9517,"éģĵåı·":9518,"éģĵçĲĨ":9519,"éģĵåĤį":9520,"èº«åħĪ":9521,"ç«ĭäºĨ":9522,"å¤ļè®¾":9523,"çľĭä»ĸ":9524,"åĲĮé¢Ĩ":9525,"æķĳä¸»":9526,"æķĳé©¾":9527,"æŃ¦éĻµ":9528,"éĺ³å®ī":9529,"æĪĲæµİ":9530,"æŁĲèĻ½ä¸įæīį":9531,"çŃĸä¹ĥ":9532,"æķĮä¹Ł":9533,"æķĮä½ı":9534,"æĭľä¼ıäºİ":9535,"å®ļè®¡":9536,"çģ«çĤ®":9537,"åįĥéĩĳ":9538,"åı³æīĭ":9539,"éĺµè§Ĵ":9540,"å®¶åĥ®":9541,"èįĨæ£ĺ":9542,"å¼ķåħµåİ»äºĨ":9543,"å¼ķåħµæİ¥åºĶ":9544,"å¼ķåħµåįģä¸ĩ":9545,"å¼ķåħµåīįè¿Ľ":9546,"åı£åĨħ":9547,"ç¬ĳèĩªèĭ¥":9548,"ä½ľéĢŁ":9549,"åĪĢç®Ń":9550,"å¹¶åĲŀ":9551,"é«ĺå£«":9552,"é«ĺåĿĲ":9553,"é«ĺåı«":9554,"ä¼ļæĦı":9555,"äº²ç¬Ķ":9556,"éľĦ":9557,"éľĸ":9558,"åĮĹä¼Ĳ":9559,"åĲĽä¹ĭ":9560,"åĲĽè¨Ģ":9561,"èĪ¹åĪ°":9562,"æļĳ":9563,"è¡¨æĸĩ":9564,"è¡¨ç«ł":9565,"åĬ¿åį±":9566,"éĻĪåħĥ":9567,"éĻĪçŁ«":9568,"æĿİåłª":9569,"çĶļå¯Ĩ":9570,"çĶļå¦Ļ":9571,"è½¦é©¬":9572,"è½¦è¾Ĩ":9573,"å½Ĵåĳ½":9574,"å½Ĵé¦ĨèĪį":9575,"è°ĵä¼Ĺå°ĨæĽ°":9576,"æģĲéĿŀ":9577,"æģĲä¸įèĥ½":9578,"åĳĬè¯´":9579,"æĦ¿åħĪçĶŁ":9580,"éģ£å¤§å°Ĩ":9581,"èĲ¥åīį":9582,"åıĳä¸§":9583,"ä»ĸäºĭ":9584,"åķ¼":9585,"èĬ¥":9586,"çĽ´å¥Ķ":9587,"åıĹæŃ¤":9588,"åıĹæŃ»":9589,"åıĹåĪĳ":9590,"å¤±äºĭ":9591,"å¤±æķ£":9592,"å¤ıä¾¯çİĦ":9593,"åĨįåĽŀ":9594,"åĨįè®®":9595,"è¿ŀå¤©":9596,"è¿ŀç»µ":9597,"ä¹ĺæŃ¤":9598,"ä¹ĺå¤ľ":9599,"ä¹ĺæľº":9600,"å¤įåĩº":9601,"åİŁæĺ¯":9602,"éªĳéĥ½å°ī":9603,"å¥ıå¤©åŃĲ":9604,"å¥ıåĩĨ":9605,"åĲķå¸ĥæĽ°":9606,"å¼łé£ŀå¤§æĢĴ":9607,"å¸ĲåĲİ":9608,"éĥ¡å®Ī":9609,"éħĴéħ£":9610,"éħĴè¡Įæķ°å·¡":9611,"èĢģèĩ£":9612,"èĢģåıŁ":9613,"åĬĽæĪĺ":9614,"çł´è´¼":9615,"æłĭ":9616,"ä¹īéĩĬ":9617,"å°±å¸Ń":9618,"ä¹±åĽ½":9619,"ä¹±çªľ":9620,"å¼ĢäºĨ":9621,"å¼Ģè¯»":9622,"ä¹ħå¿ħä¸º":9623,"åıįæİĮ":9624,"æľ¬å·ŀ":9625,"åįĵåĳ½":9626,"åķĨè®®å·²å®ļ":9627,"çĸĳä¹ĭ":9628,"çĸĳå¿Į":9629,"é¾Ļä½ĵ":9630,"æ®Ĵ":9631,"èĳ£è´¼":9632,"èĳ£äºŃ":9633,"å¦Ĥä½ķçŀĴ":9634,"å¤©ä¸ĭèĭ±éĽĦ":9635,"è§£åĴĮ":9636,"ä¸»åħ¬ä¸Ķ":9637,"ä¸»åħ¬åĭ¿å¿§":9638,"å²ĤéĿŀ":9639,"æĹ¢ä»¥":9640,"æĹ¢å¦ĤæŃ¤":9641,"å®«äºº":9642,"å®«æ®¿":9643,"å§ĵå¼ł":9644,"å§ĵåĲķ":9645,"éĩĳå®Ŀ":9646,"éĩĳåĨł":9647,"éŃıå»¶å¼ķåħµ":9648,"çķĻåħµ":9649,"çķĻåľ¨":9650,"æĵĴæĿ¥":9651,"æĵĴèİ·":9652,"æĵĴåŃŁèİ·":9653,"å¤§æĥĬå¤±èī²":9654,"åŃĹæĹĹ":9655,"åŃĹæł·":9656,"çªĹ":9657,"èµµäºĳä¹Ł":9658,"èĥĮä¸»":9659,"å·¦åı³æİ¨åĩºæĸ©ä¹ĭ":9660,"æ¶Ľ":9661,"ç¼Ħ":9662,"éŁ©å¿ł":9663,"ä»ģæĽ°":9664,"åı«éªĤ":9665,"éĢģåĪ°":9666,"çļĩå¤ªåĲİ":9667,"äº®æĽ°":9668,"çĤī":9669,"åı¸é©¬æĩ¿ä¹Ł":9670,"è¿ľåĩº":9671,"å¼ĥäºİ":9672,"å¼ĥå®ĺ":9673,"ä½Ĩçľĭ":9674,"æľĪèī²":9675,"åĽ´äºĨ":9676,"åĽ´åľ¨åŀĵå¿ĥ":9677,"å§ľç»´åľ¨":9678,"è¿ĺéĥ½":9679,"è¿ĺæ´Ľéĺ³":9680,"å¯Ĩå¸ĥ":9681,"è¾ŀåĽŀ":9682,"è¾ŀå½Ĵ":9683,"èįīåºĲ":9684,"èįīèĬ¥":9685,"ç½ªæģ¶":9686,"ä½łåı¯":9687,"åħ«åĽŀ":9688,"åħ«éĿ¢":9689,"å°Ħä½ı":9690,"å°ĦçĮİ":9691,"ä¿¡ä¹ī":9692,"çĻ½æĹĦ":9693,"æ²³è¥¿":9694,"å°ĳå¸Ŀ":9695,"ä¼łæĬ¥":9696,"æĬĬå®Ī":9697,"å¥½çĶŁ":9698,"å¥½éħĴ":9699,"é¥®èĩ³":9700,"ä¸ľåĲ´éĻĨéĢĬ":9701,"äºİæĺ¯åŃĶæĺİ":9702,"åı·çĤ®":9703,"éĤ£æĿ¡è·¯":9704,"æīĵåıĳ":9705,"å®ŀä¸įçŁ¥":9706,"åĨ²éĺµ":9707,"æľįåħ¶":9708,"æ¢ĵ":9709,"è°¢ç½ª":9710,"çĴľ":9711,"æ·±éĢļ":9712,"æ·±æĦŁ":9713,"å¼ķåĨĽèµ¶æĿ¥":9714,"å¼ķåĨĽåīįè¿Ľ":9715,"çºµä½¿":9716,"ä»»ä»ĸ":9717,"åĨ³çŃĸ":9718,"åĨ³æŃ»æĪĺ":9719,"æļĹä½¿äºº":9720,"ä¹ĭäºĭä¹İ":9721,"è¡£åĨł":9722,"è¡£è¥Ł":9723,"ä¸ĥè·¯":9724,"ä¸ĥå¹´":9725,"åıĶåıĶ":9726,"å¤ºä¹ĭ":9727,"èĻļåĲį":9728,"ä¿Ŀåħ¨":9729,"ç¥ŀæŃ¦":9730,"ç¥ŀå¨ģ":9731,"ç¥ŀæľº":9732,"åľŁåľ°":9733,"åľŁæľ¨":9734,"èĴĻä¸ŀçĽ¸":9735,"æī¿å½¦":9736,"åı¬åĽŀ":9737,"å¯¹ä¼Ĺ":9738,"å¯¹éĺµ":9739,"æģ©å¾·":9740,"åħ¨çĦ¶":9741,"åħ¨è£ħ":9742,"æķ£åħ³":9743,"çĽ®åīį":9744,"ç§°ä¸º":9745,"èģļä¼Ĺ":9746,"æĽ¾éĹ»":9747,"æľīä¸Ģå°Ĩ":9748,"çº¦éĢĢ":9749,"åĪºä¸Ń":9750,"åĪºæĿĢ":9751,"åºľåīį":9752,"å»ºéĺ³":9753,"å»ºåĬŁ":9754,"å»ºå®ģ":9755,"åħŃæľĪ":9756,"åĸĿéĢĢ":9757,"éĿĴåĽĬ":9758,"éĿĴéĩŃ":9759,"èµĲéħĴ":9760,"éĢĥåĽŀ":9761,"æŀľæĺ¯":9762,"ç»ĵäº²":9763,"ç»Ŀåħ¶":9764,"ç¦»æŃ¤":9765,"æŃ¥éªĺ":9766,"çĶĺæ³ī":9767,"å¿½æĬ¥æĽ¹æĵį":9768,"ä¸¥æķ´":9769,"çĻ»å²¸":9770,"çĻ»èĪŁ":9771,"åĢĴåľ¨åľ°":9772,"ä¾Ŀæ³ķ":9773,"ä¾Ŀåħģ":9774,"åħĪçĶŁä¹ĭè¨Ģ":9775,"é¡ºé£İ":9776,"åłĤä¸ĭ":9777,"åĸĦèĥ½çĶ¨åħµ":9778,"æľ¨çŁ³":9779,"ä¸įå¦ĤæĹ©":9780,"è´Łæľķ":9781,"çĽĽè´®":9782,"æĥ§æĢķ":9783,"èĭŀäºĮäºº":9784,"çĲĨäºĭ":9785,"çĲĨåĲĪ":9786,"åĬ«ç²®":9787,"æĭĽè´¤":9788,"æĮºæĪŁ":9789,"æķ¬ä¹ĭ":9790,"åĩºåŁİæĿ¥":9791,"åĩºåŁİè¿İæİ¥":9792,"çĿ¿å¤§æĥĬ":9793,"åİŁæĿ¥æĺ¯":9794,"é©±é©°":9795,"ä¹ĭäººä¹İ":9796,"æĮģæĪŁ":9797,"çģµæĽ°":9798,"åĪ©åľ¨":9799,"èĩ´ä½¿":9800,"äºĮå°ĨæĽ°":9801,"èİ«å¤§":9802,"èİ«èĭ¥":9803,"åıĺçŁ£":9804,"æľ±èµŀ":9805,"çģŃéŃı":9806,"æĸĹéĺµæ³ķ":9807,"å¿½çĦ¶èĥĮåĲİ":9808,"å¿½çĦ¶ä¸Ģå£°çĤ®åĵį":9809,"å¿½çĦ¶çĭĤé£İå¤§ä½ľ":9810,"æ®¿ä¸Ĭ":9811,"åĸĬå£°åıĪèµ·":9812,"å¾¡èĲ¥":9813,"è¿ĻæĿ¡è·¯":9814,"éĢļæĬ¥":9815,"æ±ľæ°´åħ³":9816,"æľªçŁ¥åħ¶è®¡":9817,"ä¹¾è±¡":9818,"ç¥ģå±±å¤§å¯¨":9819,"éºŁ":9820,"åį§äºİ":9821,"å«ī":9822,"æĥŁå°ĨåĨĽ":9823,"æ¨Ĭå»º":9824,"åĲīåħĨ":9825,"åĩĨä¿¡":9826,"æ½®":9827,"çºµé©¬åĲĳåīį":9828,"è¡Ģæ°Ķ":9829,"ä¸Īä½Ļ":9830,"æ¯Ķè¯ķ":9831,"èĴĭæĸĮ":9832,"è´¾åįİ":9833,"é¹Ĭ":9834,"è°ĥåº¦":9835,"è°ĥç»ĥ":9836,"ä¸īåįĥäºº":9837,"çĥ§æ¯ģ":9838,"å¥ĭæŃ»":9839,"æ²»ä¹ĭ":9840,"çĶ°æ°ı":9841,"æĦŁåı¹":9842,"åº¶æ°ĳ":9843,"åı¤ä»Ĭ":9844,"æķ´é½Ĳ":9845,"æĻ®æĽ°":9846,"éĵģçĶ²":9847,"è¿ŁåĪĻ":9848,"æ¡ĵå¸Ŀ":9849,"èĹľ":9850,"åįĩèµı":9851,"å¥¸è´¼":9852,"å¥¸åħļ":9853,"å¥¸éĤª":9854,"èĭ¥ä¸įæĹ©":9855,"åĩłä½ķ":9856,"åĩłçķª":9857,"æĬ«çĶ²":9858,"çĹĽé¥®":9859,"æĺŁå¤ľå¾Ģ":9860,"çŀĳçĽ®":9861,"åŃĿå»ī":9862,"å¥ĩä¹ĭ":9863,"èĭ¦åĳĬ":9864,"èµ¤å¸»":9865,"ç«ĭäºİéĺµåīį":9866,"å³¡":9867,"æºħ":9868,"èĬ³æĽ°":9869,"ç»£æĹĹ":9870,"ä¸įåıĬä¹Ł":9871,"çĪ½æĽ°":9872,"èĭ±éĽĦä¹Ł":9873,"ä¹¡äºº":9874,"æŃĩé©¬":9875,"æŃĩå®ļ":9876,"ç§ĭéĽ¨":9877,"ç§ĭåħ«æľĪ":9878,"ç§ĭä¸ĥæľĪ":9879,"ç®¡å¾ħ":9880,"åĤ¬èĪ¹":9881,"éŁ¦åº·":9882,"ä¹ĺåĬ¿åĩ»ä¹ĭ":9883,"éļĲè®³":9884,"æ¢ģèĻĶ":9885,"çĶ»æĪĲ":9886,"è¶ĬæĽ°":9887,"æŃ»æĪĺå¾ĹèĦ±":9888,"èĪŁä¸Ń":9889,"æ¤ģ":9890,"æ¬ºåĲ¾":9891,"ç¦ıæĽ°":9892,"åįķæŀª":9893,"åĽŀè§ģåŃĶæĺİ":9894,"åĽŀè§ģæĽ¹æĵį":9895,"åĽŀè§ģåĲ´ä¾¯":9896,"æĿĢåĩºéĩįåĽ´":9897,"éĽ·èĸĦ":9898,"å¤ªåĲİæĽ°":9899,"ç§¦çĲª":9900,"ä¸įä»İèĢħ":9901,"åĹĶ":9902,"åĩ¤åĩ°":9903,"å¼©ç®Ń":9904,"è´£ä¹ĭ":9905,"ç»ıè¿ĩ":9906,"æĭ¦æĪª":9907,"åĤįè¾¹":9908,"æľ¬éĥ¨äººé©¬":9909,"å½§æĽ°":9910,"éģ£äººéĢģ":9911,"æİĪä»¥":9912,"ç«ºæĽ°":9913,"å¾®æĺİ":9914,"æĢ»é¢Ĩ":9915,"ä¸Ģå½ªåĨĽåĩº":9916,"ç¨ĭæĻ®æĽ°":9917,"ä¹Įç¨ĭ":9918,"åĲ¾å·²çŁ¥":9919,"éŁ©éģĤæĽ°":9920,"ä¸ºé¦ĸèľĢå°Ĩ":9921,"ä¸ºé¦ĸä¸Ģåĳĺå¤§å°Ĩ":9922,"æĪĺä¸įåįģåĲĪ":9923,"å¦ĦæĿĢ":9924,"ä¸ľåįĹè§Ĵä¸Ĭ":9925,"å¼łæĺŃçŃī":9926,"èĹıäºİ":9927,"ä¸ºåīįéĺŁ":9928,"ä¸ºåīįé©±":9929,"ç¾İå¥³":9930,"ç¾İé«¯":9931,"åĽŀé¡¾ä¼Ĺå°ĨæĽ°":9932,"è²ĤèĿīæĽ°":9933,"å®½æģķ":9934,"ä¹ıç²®":9935,"ä¸īåįģå¹´":9936,"è¯»åħµä¹¦":9937,"åĽŀåĪ°å¯¨ä¸Ń":9938,"çĽĬå·ŀçī§":9939,"èĨ³":9940,"åĲĬåĲĽ":9941,"é©°æªĦ":9942,"éĻ·åĿĳ":9943,"å½ĵå¤ľäºĮæĽ´":9944,"èĳ£æī¿çŃī":9945,"åľĨå¤Ħ":9946,"åľĨçĿģ":9947,"çļĨæĺ¯éŃıåħµ":9948,"çŀĴè¿ĩ":9949,"åĩŃä¸īå¯¸":9950,"æĹłäººæķ¢":9951,"åĽĽä¸ĭéĩĮ":9952,"ä¸Īå¤«ä¹Ł":9953,"å°¹å¥ī":9954,"ä¸īåįģä½Ļä¸ĩ":9955,"æĶ¶åħµåĽŀ":9956,"ç±įæĽ°":9957,"æĢľä¹ĭ":9958,"äº¬åħĨ":9959,"å±ĪèĨĿ":9960,"èĽĩçŁĽ":9961,"èĦļä¸ĭ":9962,"æĳĨåĪĹ":9963,"éº¦çĨŁ":9964,"åħ¥å®«ä¸Ń":9965,"å°ĺåľŁ":9966,"æĪıèĢ³":9967,"çŁŃåĪĢ":9968,"å¯¡ä¸įæķĮ":9969,"éĵ¶åĿĳ":9970,"å¼ĵå¼©é½Ĳåıĳ":9971,"å®¿äºİ":9972,"å¤ªå°īæĿ¨å½ª":9973,"éº¾çĽĸ":9974,"ä¸įç»Ŀåı£":9975,"ä¸ĢæĹ¶ä¹ĭ":9976,"åĲ¾æĸĻåŃĶæĺİ":9977,"å±ıåĲİ":9978,"åįģäºĮåĽŀ":9979,"é¡¹ç¾½":9980,"ä¹ĭæ³ķä¹Ł":9981,"åĨĴçŁ¢çŁ³":9982,"æģĲæľīåŁĭä¼ı":9983,"æ¶ķæ³£":9984,"é©±åħµæİ©æĿĢ":9985,"é©±åħµå¤§è¿Ľ":9986,"åĵ¨é©¬æĬ¥è¯´":9987,"çĩķäºº":9988,"ä¹ĭåĬĽä¹Ł":9989,"ä½¯ä½ľ":9990,"çİĦå¾·ä¸İåŃĶæĺİ":9991,"çİĦå¾·ä¸İåħ³":9992,"æĲŃèµ·":9993,"åįģäºĶåĽŀ":9994,"éŃĤä¸į":9995,"éŁ³ä¿¡":9996,"åī¿çģŃ":9997,"åľŁäººéĹ®ä¹ĭ":9998,"æ§Ľè½¦":9999,"åĨįæĭľæĽ°":10000,"éĩĬåħ¶ç¼ļ":10001,"èĪĮè¾©":10002,"çĮİäºİ":10003,"éļĨåĨ¬":10004,"æĬ¥åħ¥æ´Ľéĺ³":10005,"çŃīåĢĻå¤ļæĹ¶":10006,"æ·»åħµ":10007,"æ»ļä¸ĭ":10008,"åĨ·ç¬ĳ":10009,"åĲ¾æĦıå·²åĨ³":10010,"æ±Ŀä½ķæķ¢":10011,"é»ĺçĦ¶æĹłè¯Ń":10012,"æ¶ĤçĤŃ":10013,"éĽįå·ŀåĪºåı²":10014,"ä¸ĭå±±æĿ¥":10015,"çļĤè¡£":10016,"ä¸įå¾Ĺå·²èĢĮ":10017,"ä¸įå¾Ĺå·²èĢĮéĻį":10018,"ä»°å¤©éķ¿åı¹æĽ°":10019,"ä¸ºé¦ĸå¤§å°Ĩä¹ĥ":10020,"æĸŃåħ¶å½Ĵè·¯":10021,"åı±æŃ¦å£«æİ¨åĩºæĸ©ä¹ĭ":10022,"åĲ¹æĬĺ":10023,"èµ¦ä¹ĭ":10024,"èĭįå¤©":10025,"åĮºåĮº":10026,"åĨħå¤ĸå¤¹æĶ»":10027,"ç«ĭåĬŁåĲį":10028,"åĵŃæĭľäºİåľ°":10029,"æ·±åħ¥éĩįåľ°":10030,"é¸¡èĤĭ":10031,"äº«å¯Įè´µ":10032,"ç£Ĳ":10033,"è¾°æĹ¶":10034,"éķ¿æ±Łä¹ĭéĻ©":10035,"é¥¶æ±Ŀ":10036,"æĲľåĩº":10037,"åı¬åħ¥éĹ®ä¹ĭ":10038,"åĲĬæ¡¥è¾¹":10039,"éģģçĶ²":10040,"éªģåĭĩ":10041,"é»ĦéĹ¨ä¾įéĥİ":10042,"ç«ĭé©¬äºİæ¡¥ä¸Ĭ":10043,"åīįéĥ¨åħĪéĶĭ":10044,"å¿łèĩ£ä¹Ł":10045,"èµ¤å£ģéıĸåħµ":10046,"åı¥å®ī":10047,"è£´ç§Ģ":10048,"åįĳè¡į":10049,"çĬĴä¸īåĨĽ":10050,"çİĦå¾·éĹ®åŃĶæĺİæĽ°":10051,"æĬ«åıĳä»Ĺåīĳ":10052,"åĪ«æĹłä»ĸæĦı":10053,"åĲ´ä¸»åŃĻä¼ĳ":10054,"ä¸ľåįĹé£İèµ·":10055,"çŁ«è¯ı":10056,"éĻĪçıªçĪ¶åŃĲ":10057,"èİ·åħ¨åĬŁ":10058,"å±¯ç²®ä¹ĭæīĢ":10059,"çľŁç¥ŀäººä¹Ł":10060,"éĤ¹æ°ı":10061,"é£ŀèº«ä¸Ĭé©¬":10062,"åĨįä½ľèī¯åĽ¾":10063,"è£ģå¤Ħ":10064,"é¹°æī¬":10065,"æ¼³æ²³":10066,"æ¬ºåĲĽç½Ķä¸Ĭ":10067,"ä¼¼æŃ¤å¦Ĥä¹ĭå¥Īä½ķ":10068,"è¿¸è£Ĥ":10069,"æĸŁéħĮ":10070,"ç»ĳç¼ļ":10071,"å¨ĺå¨ĺ":10072,"æĲ¬è¿Ĳç²®èįī":10073,"èĹ¤çĶ²åĨĽ":10074,"éĺİåľĥ":10075,"æıªä½ı":10076,"ç»°æŀªä¸Ĭé©¬":10077,"è¹ĩç¡ķ":10078,"ä¹ĥåŃĶæĺİä¹Ł":10079,"çİĭåŃĲæľįçŃī":10080,"è¶±ç¨ĭ":10081,"æĩĪæĢł":10082,"æĸĻæķĮä¸įè¿ĩ":10083,"ä¾Ŀå±±åĤį":10084,"åįİå®¹éģĵ":10085,"æĬĺåħµå¤§åįĬ":10086,"è¸ªè¿¹":10087,"ä¸ĢåŃĹåĦ¿":10088,"ä¸Ńå±±éĿĸ":10089,"æĹłå¿ĥæģĭæĪĺ":10090,"çĶ¨å¥½è¨ĢæĬļæħ°":10091,"ä¸ĸæīĢç½ķ":10092,"èĻļå¼łå£°åĬ¿":10093,"æģ¢å¤įä¸ŃåİŁ":10094,"å¤ªå¸¸åį¿":10095,"çıŃéĥ¨ä¸Ń":10096,"æ¼«å±±éģįéĩİ":10097,"ä»¥è¨ĢæĮĳä¹ĭæĽ°":10098,"å¦«è§Ī":10099,"ä»¥åĪ©å®³è¯´ä¹ĭ":10100,"åħ³åĨħä¾¯":10101,"èĤºèħĳ":10102,"éĩĳçİ¯ä¸īç»ĵ":10103,"æ°¸ç»ĵçĽŁå¥½":10104,"åªĴ":10105,"åĳľåĳ¼":10106,"åĲ´å¤ªå¤«äºº":10107,"å²ĺå±±":10108,"çĥ½çģ«":10109,"å¼ĥå¯¨èĢĮèµ°":10110,"æ»ķèĥ¤":10111,"ä¾įç«ĭäºİä¾§":10112,"çīĽå¤´å±±":10113,"å°¸æ¨ªéģįéĩİ":10114,"å±ıé£İåĲİ":10115,"æ¡ĥèĬ±æ¸¡åı£":10116,"è¿ŀäººå¸¦é©¬":10117,"èĢĴéĺ³åİ¿":10118,"æĿĢçīĽå®°":10119,"åħ¨è£ħæĥ¯":10120,"¤æµ·":10121,"©å¿Ĺ":10122,"³ç¥¥":10123,"é¤":10124,"ĦåŁİ":10125,"ĨåŃĲ":10126,"ĩå¸Ń":10127,"įéģ¥":10128,"Łé¾Ļ":10129,"ãĢĲ":10130,"ãĢĳ":10131,"ä¸Ŀ":10132,"âĢ¦":10133,"åħ¹":10134,"å¤Ķ":10135,"å¤Ļ":10136,"æĽ¼":10137,"ä»¿":10138,"ä¹ĭé©¬":10139,"ä¹ĭæĺİ":10140,"ä¹ĭè¯´":10141,"ä¹ĭè´¥":10142,"ä¹ĭçģ«":10143,"ä¹ĭå®¶":10144,"ä¹ĭæ¬¡":10145,"ä¹ĭäº²":10146,"ä¹ĭçĶļ":10147,"ä¹ĭä¹±":10148,"ä¹ĭå¥½":10149,"ä¹ĭçĹħ":10150,"ä¹ĭå¨ģ":10151,"ä¹ĭå¿§":10152,"ä¹ĭä½į":10153,"ä¹ĭçģµ":10154,"åĨ¤":10155,"åĨ°":10156,"åĨķ":10157,"ä¸įèĩ£":10158,"ä¸įå°ı":10159,"ä¸įäº¦":10160,"ä¸įå¾ħ":10161,"ä¸įå¤ļ":10162,"ä¸įä½ľ":10163,"ä¸įæĶ¾":10164,"ä¸įè½»":10165,"ä¸įåħģ":10166,"ä¸įéģĩ":10167,"ä¸įå¹²":10168,"ä¸įåĬł":10169,"ä¸įä¼¼":10170,"ä¸įç»§":10171,"ä¸įæ¯Ľ":10172,"ä¸įèĸĦ":10173,"ä¸įä¸ĢæĹ¶":10174,"å¾ĭ":10175,"ä½ĳ":10176,"åŃ©":10177,"å¼¹":10178,"å¼¼":10179,"äººæľĽ":10180,"äººçĶŁ":10181,"äººä¼´":10182,"åĨĽåĬ¿":10183,"åĨĽæĥħ":10184,"åĨĽæł¡å°ī":10185,"åĨĽå¤§ä¹±":10186,"èĢĹ":10187,"åħµå°Ĩ":10188,"åħµåĪĨä¸īè·¯":10189,"åħµéĿ©":10190,"å¿Ĩ":10191,"æķĽ":10192,"å¤§åĽ½":10193,"å¤§ç¤¼":10194,"å¤§é£İ":10195,"ä¸Ģæĺ¯":10196,"ä¸Ģå¾Ģ":10197,"ä¸ĢæľĽ":10198,"ä¸Ģç»Ł":10199,"ä¸Ģåīĳ":10200,"ä¸Ģå¹²":10201,"ä¸Ģä½ĵ":10202,"ä¸Ģåı¶":10203,"ä¸ĢæĹħ":10204,"é©¬è¹Ħ":10205,"å°Ĩåħµ":10206,"å°ĨåĲı":10207,"å·©å¿Ĺ":10208,"ä¼İ":10209,"æĿ¥æĹ¶":10210,"æĿ¥æİ¥":10211,"åĩ¹":10212,"æ±¹":10213,"å¸¼":10214,"æľīå¾·":10215,"æľīçĶļ":10216,"æľīè¯ı":10217,"æľīåĭĩ":10218,"æľīæĹ§":10219,"æľīåĩĨå¤ĩ":10220,"æīŃ":10221,"æĵįäºİ":10222,"æĵįèĩ³":10223,"æĵįæĸ¹":10224,"æĵįåĽł":10225,"æĵįè°ĵ":10226,"æĵįæĮĩ":10227,"æĵįä½¿äºº":10228,"æĵįå¤§ç¬ĳæĽ°":10229,"æĵįçĦ¶åħ¶è¨Ģ":10230,"æŃ¤å±±":10231,"æŃ¤æŃ£":10232,"æŃ¤äº¦":10233,"æŃ¤åĽĽäºº":10234,"æŃ¤èĩ£ä¹ĭ":10235,"æŃ¤æīĢè°ĵ":10236,"åİ¢":10237,"ç»¥":10238,"ç»½":10239,"ç»ĩå¸Ń":10240,"ä¸ĭèĲ¥":10241,"äºİä¸Ĭ":10242,"äºİå¤©":10243,"äºİéŃı":10244,"äºİå¤ª":10245,"äºİçĲĨ":10246,"äºİå£ģ":10247,"äºİè½¦ä¸Ĭ":10248,"äºİæ°´ä¸Ń":10249,"äºİæ¸Ńæ°´":10250,"äºİéħĴèī²":10251,"äºİåĨĽä¸įåĪ©":10252,"äºİè¯ł":10253,"ï¼ŁâĢľ":10254,"ä¸Ńéģĵ":10255,"ä¸ºæŃ£":10256,"ä¸ºå¹³":10257,"ä¸ºè´¼":10258,"ä¸ºä¹ī":10259,"ä¸ºå®³":10260,"ä¸ºå¾ģ":10261,"ä¸ºå¤©åŃĲ":10262,"ä¸ºå¦»":10263,"ä¸ºèĤī":10264,"ä¸ºéŃıçİĭ":10265,"ä¸ºåı¸å¾Ĵ":10266,"ä¸ºå¹³åİŁ":10267,"ä¸ºä»İäºĭ":10268,"ä¸ºéªłéªĳå°ĨåĨĽ":10269,"ä¸ºå¤ĸåºĶ":10270,"è§ģå±±":10271,"è§ģå°ĨåĨĽ":10272,"è§ģä»ĸ":10273,"è§ģçĸĳ":10274,"è§ģé©¬è¶ħ":10275,"è§ģè¯Ĩ":10276,"è§ģåħ¶äºº":10277,"ï¼ģâĢľ":10278,"èĢĮèĩª":10279,"èĢĮå¾Ĺ":10280,"èĢĮæĭľ":10281,"èĢĮä½ľ":10282,"èĢĮå¥Ķ":10283,"èĢĮåıį":10284,"èĢĮåı¹æĽ°":10285,"èĢĮæĿĢä¹ĭ":10286,"èĢĮçŃĶæĽ°":10287,"èĢĮåĩ»ä¹ĭ":10288,"èĢĮæĹłè°ĭ":10289,"è°¤":10290,"è°¶":10291,"è°ŀ":10292,"éĢįéģ¥":10293,"ä½ķåħ¶":10294,"ä½ķå¹³":10295,"ä½ķå¼Ĥ":10296,"ä½ķäººä¹Ł":10297,"ä½ķèģĮ":10298,"ä½ķåĲīåĩ¶":10299,"å¹ħ":10300,"åĩºé¦ĸ":10301,"åĩºåĵ¨":10302,"åĩºè¥¿éĹ¨":10303,"åĩºå¥ĩåħµ":10304,"åĩºèĮħåºĲ":10305,"åĲ¾ä½ķ":10306,"åĲ¾æĹ¢":10307,"åĲ¾æľīä¸Ģ":10308,"åĲ¾ä¸įå¦Ĥ":10309,"åĲ¾ç´ł":10310,"åĲ¾æŃ»ä¹ĭåĲİ":10311,"éĻª":10312,"åı¯çŁ¥":10313,"åı¯èµ°":10314,"åı¯å°½":10315,"åı¯æķĮ":10316,"åı¯èĥľ":10317,"åı¯åĨį":10318,"åı¯å·®":10319,"åı¯æ¯Ķ":10320,"åı¯æļĤ":10321,"è´Ŀ":10322,"å¯ħ":10323,"åĳķ":10324,"åĲİè·¯":10325,"åĲİåĽł":10326,"åĲİéļı":10327,"ä»¥åĲ¾":10328,"ä»¥çĮ®":10329,"ä»¥è°¢":10330,"ä»¥çĽ®":10331,"ä»¥åĢĻ":10332,"ä»¥éģ¿":10333,"ä»¥åħ»":10334,"å¥ĸ":10335,"æĽ¹å¥Ĥ":10336,"åħ¬è§ģ":10337,"åħ¬å°ĨåĨĽ":10338,"ä¸Ĭå¸Ĳ":10339,"ä¸Ĭç®Ń":10340,"è¡«":10341,"è¡·":10342,"å±Ģ":10343,"åŁĥ":10344,"ä»ĬçŁ¥":10345,"ä»Ĭçİĭ":10346,"ä»ĬéŃıåħµ":10347,"ä»Ĭå®ľ":10348,"ä¸İä¸ŀçĽ¸":10349,"ä¸İåĲĽ":10350,"ä¸İèµµäºĳ":10351,"ä¸İå¼łéĥĥ":10352,"ä¸İéĤĵèī¾":10353,"ä¸İéŁ©éģĤ":10354,"ä¸İéĻĪå®«":10355,"ä¸İå®¡éħį":10356,"ä¸İå°ıä¸»äºº":10357,"å¼łæŃ¦":10358,"å¼łç»į":10359,"æĭ£":10360,"æĭ³":10361,"æĭŁ":10362,"åİ»åĬ«å¯¨":10363,"åħ¶å¤§":10364,"åħ¶åħĦ":10365,"åħ¶å®ŀ":10366,"åħ¶å®ľ":10367,"åħ¶åĭĩ":10368,"åħ¶å¤§åįĬ":10369,"åħ¶éĶĲæ°Ķ":10370,"çİĦå¾·ä»¤":10371,"çİĦå¾·çŃī":10372,"çİĦå¾·è¯·":10373,"çİĦå¾·èĥĮåĲİ":10374,"çİĦå¾·åı¹æĽ°":10375,"çİĦå¾·éĹ»ä¹ĭ":10376,"çİĦå¾·åĨįä¸ī":10377,"æĹ¥åĲİ":10378,"æĹ¥å·²":10379,"èĥģ":10380,"ä»¤æĪĳ":10381,"ä»¤æ±Ŀ":10382,"ä»¤åħĦ":10383,"ä»¤åºŀå¾·":10384,"ä»¤æŃ¦å£«":10385,"ä»¤è¯¸ä¾¯":10386,"ä¹ĥéŃı":10387,"ä¹ĥå¤į":10388,"ä¹ĥä¹ī":10389,"ä¹ĥä¸ĭé©¬":10390,"ä¹ĥä¸ºä¸ĬçŃĸ":10391,"èĩªä¸º":10392,"å£ĳ":10393,"äºĮåŃĹ":10394,"äºĮçĻ¾éĩĮ":10395,"åĽŀå®«":10396,"åĽŀæľĿ":10397,"åĽŀæ±īä¸Ń":10398,"åĽŀåºľ":10399,"åĽŀè¦Ĩ":10400,"åĽŀè®¸æĺĮ":10401,"åŃĶæĺİå°Ĩ":10402,"åŃĶæĺİéĹ®æĽ°":10403,"åŃĶæĺİä¹ĭè¨Ģ":10404,"åŃĶæĺİä»İä¹ĭ":10405,"åŃĶæĺİç«¯åĿĲäºİ":10406,"éĿ³ç¥¥":10407,"å¼ķè§ģ":10408,"å¼ķäºĮ":10409,"å¦Ĥä»Ĭ":10410,"å¦Ĥä¸įèĥľ":10411,"å¦Ĥåħ¶ä¸į":10412,"å¦ĤèįīèĬ¥":10413,"åľ¨äºİ":10414,"åľ¨å°ı":10415,"åľ¨åĨĽä¸Ń":10416,"åľ¨éķ¿å®ī":10417,"åľ¨åŁİå¤ĸ":10418,"åľ¨èĲ¥ä¸Ń":10419,"åľ¨çĭ±ä¸Ń":10420,"æĺ¯ä¸Ģ":10421,"æĺ¯æĹ¶":10422,"æĺ¯ä¸ľåĲ´":10423,"åħ¥å¸Ń":10424,"åħ¥éª¨":10425,"åħ¥åºľä¸Ń":10426,"çĽ¸åĲĮ":10427,"çĽ¸åºĶ":10428,"çĽ¸æĶ»":10429,"çĽ¸å¹¶":10430,"å¾ĹçİĦå¾·":10431,"å¾Ĺä¸Ģäºº":10432,"è¢ħ":10433,"æĹłä¿¡":10434,"æĹłæĤ£":10435,"æĹłéĻĲ":10436,"æĿĢæŃ¤":10437,"æĿĢæŃ¤è´¼":10438,"æģĤ":10439,"åħĪæĿ¥":10440,"åħĪåħ¥":10441,"åħĪèĩ³":10442,"åħĪå·®":10443,"åħĪæĸŃ":10444,"ä¸īéĹ¨":10445,"ä¸īæľĪ":10446,"ä¸īçĻ¾ä½Ļäºº":10447,"äºĨä¹Ł":10448,"äºĨè®¸å¤ļ":10449,"ä¸»ä½ķåĲīåĩ¶":10450,"è¯´äºĨ":10451,"è¯´çŁ¥æŃ¤äºĭ":10452,"æĪĳæĺ¯":10453,"æĪĳçľĭ":10454,"æĪĳèĢ¶":10455,"æĪĳåĨĽå¿ĥ":10456,"åħ³ä¸ľ":10457,"åħ³è¥¿":10458,"èĩ³è¿ĳ":10459,"è·ĳ":10460,"åŃĲåįĪ":10461,"åŃĲéĤĵå¿ł":10462,"åĪ°èįĨå·ŀ":10463,"åĪ°æ±īä¸Ń":10464,"åĪ°å¤§å¯¨":10465,"çŁ¥è§ī":10466,"å¤©å¿ĥ":10467,"å¤©ä¹¦":10468,"å¤©éģĵ":10469,"å¤©æĻĵ":10470,"åįģå¹´":10471,"åįģçŁ¢":10472,"çļĨä¸į":10473,"çļĨä»¥":10474,"çļĨåĪ°":10475,"çļĨå¹³":10476,"çļĨåĲĮ":10477,"çļĨéļı":10478,"çļĨåĳ¼":10479,"çļĨå½Ĵäºİ":10480,"äºĭæ³Ħ":10481,"åĸ·":10482,"åĸĤ":10483,"éŃĦ":10484,"å¿ħä»¥":10485,"å¿ħèµ°":10486,"æ±Ŀå°Ĩ":10487,"æĹ¶éŃı":10488,"æĹ¶åĬ¡":10489,"å½ĵä¸º":10490,"å½ĵå¾Ģ":10491,"å½ĵæĻļ":10492,"å½ĵå¦Ĥä¹ĭä½ķ":10493,"åıĪå¼ķ":10494,"åıĪè´¥":10495,"åıĪä¸ĢåĨĽ":10496,"åıĪå¥ıæĽ°":10497,"åıĪä¸įè§ģ":10498,"å·²å¹³":10499,"å·²å±ŀ":10500,"åıªä»¤":10501,"åıªéĹ»":10502,"åıªç®¡":10503,"åıªä¸īåĲĪ":10504,"èĭ¥æĹł":10505,"èĭ¥çĶ¨":10506,"èĭ¥èľĢåħµ":10507,"èĭ¥è¦ģ":10508,"èĭ¥éŃıåħµ":10509,"å±±è¾¹":10510,"æĬ¥åĪ°":10511,"æĬ¥æĽ¹æĵį":10512,"ä¼Ĺè§Ĩåħ¶äºº":10513,"æ¬²åĽŀ":10514,"æ¬²å½Ĵ":10515,"æ¬²èĩªåĪİ":10516,"æŃ£ä¸ľ":10517,"æŃ£åĿĲ":10518,"æŃ£ä¸įçŁ¥":10519,"æŃ£è¸Įèºĩ":10520,"æŃ£æĴŀçĿĢ":10521,"ä½¿æĽ°":10522,"ä½¿åħ¶":10523,"ä½¿åĪĺå¤ĩ":10524,"å¯¨è¾¹":10525,"éķ¿ç«ĭ":10526,"éķ¿èĽĩ":10527,"èĻı":10528,"çİĭäºĭ":10529,"çİĭå¨ģ":10530,"çİĭä¹ĭåĲİ":10531,"çİĭç´¯":10532,"åŃĻè§Ĥ":10533,"åŃĻæ°ı":10534,"åŃĻéĿĻ":10535,"åŃĻå¤«äººæĽ°":10536,"å®īä¹Ĳ":10537,"å®īç½®":10538,"éģĤå¾Ĺ":10539,"éģĤèµ·":10540,"éģĤæĸ©":10541,"éģĤå¼ĥ":10542,"éģĤåı¬":10543,"éģĤç½¢":10544,"éģĤä¼łä»¤":10545,"éģĤæĭĶåīĳ":10546,"çºł":10547,"å¿ĥç¥ŀ":10548,"å¿ĥæĢ¯":10549,"éĹ®è®¡äºİ":10550,"é¢¤":10551,"åıĸç®Ń":10552,"åıĸæ±īä¸Ń":10553,"åıĸåįĹéĥ¡":10554,"åıĸæŁĳ":10555,"èµ·æĿ¥":10556,"æŃ»åľ°":10557,"åĲ´åĽ½":10558,"å°ĨåĨĽä¹Ł":10559,"å°ĨåĨĽä¹ĭè¨Ģ":10560,"æĽ¹æĵįäºİ":10561,"æĽ¹æĵįå·²":10562,"è®¡è¾ĥ":10563,"è½¨":10564,"è½¸":10565,"æŀ¢":10566,"éªŀ":10567,"çŃīä»ĸ":10568,"ä¾¿çłį":10569,"åĪĨä¸ĢåįĬ":10570,"ä¹¦åĳĪ":10571,"ä»İåħ¶":10572,"ä»İå¤§è·¯":10573,"å»Ļ":10574,"æľªè§£":10575,"æľªçĹĬ":10576,"è¯¸èĩ£":10577,"å²³":10578,"å¸ĥåĲĪ":10579,"èĤ±":10580,"èĤĨ":10581,"èľĢæľī":10582,"èľĢéģĵ":10583,"æ²¥":10584,"æ²¾":10585,"ä¸ľéĥ½":10586,"ä¸ľæĸ¹":10587,"ä¸ľåħ´":10588,"ä¸ľé£İ":10589,"ä¸ľå¾ģ":10590,"ä¸ľå¤§å°ĨåĨĽ":10591,"ä¸ľèİ±":10592,"æĢ¥åĩº":10593,"æĢ¥æĪĺ":10594,"æĢ¥åĭĴé©¬":10595,"æĢ¥æĭ¨é©¬":10596,"è¿ĽæĶ»":10597,"è¿ĽéħĴ":10598,"åįĹäºº":10599,"åįĹéĿ¢":10600,"éĹ»ä¸ŀçĽ¸":10601,"éĹ»åħ¶åĲį":10602,"åĽĽåĽŀ":10603,"åĽĽåŃĹ":10604,"åĽĽå£ģ":10605,"åĽĽå¯¸":10606,"åĽĽåĨ¢":10607,"æķ°å¹´":10608,"èĩ£å·²":10609,"èĩ£äº®":10610,"èĩ£æľīä¸Ģè®¡":10611,"æ¸¤æµ·":10612,"å§¬":10613,"å§»":10614,"å§Ĭ":10615,"åį³ä¸İ":10616,"åį³åĲĮ":10617,"åį³ä¼łä»¤":10618,"å¿½æİ¢é©¬":10619,"é»ĺ":10620,"ä¸¤æ¬¡":10621,"ä¸¤ç¿¼":10622,"ä¸¤éĺŁ":10623,"å¾Ģå¾Ĳå·ŀ":10624,"å¤ĩè¯´":10625,"æīĢå®Ī":10626,"æīĢèĥ½":10627,"æīĢä½ľ":10628,"æīĢéªĳ":10629,"æīĢçŁ¥ä¹Ł":10630,"äºĶçĻ¾ä½Ļäºº":10631,"å¹³å¤į":10632,"å¹³åĿ¦":10633,"éĢĢçŁ£":10634,"éĹ¨åīį":10635,"æµ¸":10636,"ä¸ĩå®ī":10637,"ä¸ĩå¹¸":10638,"æ±īå°Ĩ":10639,"æ±īå·Ŀ":10640,"æ±īæľ«":10641,"æ±īæ´¥":10642,"æ±īé«ĺç¥ĸ":10643,"æ±īç¥ļ":10644,"åľ°æĽ°":10645,"åľ°åĪ©":10646,"æĸ¹å®ļ":10647,"æĸ¹ä¿¡":10648,"çĶŁä¸įèĥ½":10649,"çĶŁå¼Ĥå¿ĥ":10650,"çĶŁä¸Ģè®¡":10651,"çķħ":10652,"æ°´æ·¹":10653,"éĻįä¹ĭ":10654,"éĻįåĲ´":10655,"çĶ¨å¿ĥ":10656,"çĶ¨åĳ½":10657,"å°ıåĨĽ":10658,"å°ıè¯´":10659,"å°ıå¼Ł":10660,"åı¸åĨľ":10661,"åĲĦåĨĽ":10662,"åĲĦåĽŀ":10663,"åĲĦå®ľ":10664,"åĲĦæ´ŀ":10665,"åį´è¯´é»Ħå¿ł":10666,"åį´è¯´é²ģèĤĥ":10667,"åį´è¯´è¢ģæľ¯":10668,"è¥¿æ´":10669,"å°½æĿĢ":10670,"å°½çĥ§":10671,"æķ¢æĿ¥":10672,"æĥĬæĥ¶":10673,"æīĭä¹¦":10674,"æīĭæĳĩ":10675,"å¤ľæĿ¥":10676,"å¤ľè¡Į":10677,"è´¥ç»©":10678,"äº¦çļĨ":10679,"åĲķå¸¸":10680,"åĲ¬åĲ¾":10681,"æĩ¿ç¬ĳæĽ°":10682,"è¯·èĩª":10683,"è¯·åħ³åħ¬":10684,"è¯·éĻĽä¸ĭ":10685,"è¯·äºĮå«Ĥ":10686,"è¢«æĪĳ":10687,"è¢«ä»ĸ":10688,"è¢«èµµäºĳ":10689,"è¢«åĽ°":10690,"åĽ½äºº":10691,"åĽ½æģ©":10692,"ç½¾":10693,"ç½ĳ":10694,"å¸Ŀåīį":10695,"å¸Ŀå®¤":10696,"è´¼èĩ£":10697,"é¢Ĩä¼Ĺ":10698,"åı¸é©¬åħ¬":10699,"åı¸é©¬åŃļ":10700,"è®¸ä»ª":10701,"å·¦èĩĤ":10702,"éĶĢ":10703,"éĶĦ":10704,"ä¸įåı¯è¡Į":10705,"ä¸įåı¯å¤į":10706,"çĳľç¬ĳæĽ°":10707,"äºĮäººèĩ³":10708,"åĲįçĪµ":10709,"è¢ģéļĹ":10710,"éĿŀæĪĳ":10711,"éĿŀæ¯Ķ":10712,"æķĻä¸Ķ":10713,"éģĵä¸Ń":10714,"éģĵè¢į":10715,"èº«æĹł":10716,"èº«è¢«":10717,"èº«è¾¹":10718,"ç«ĭä¸Ģ":10719,"ç«ĭæĿĢ":10720,"ç«ĭä¸ļ":10721,"ç«ĭèĲ¥å¯¨":10722,"å¤ļå¹´":10723,"å¤ļçĹħ":10724,"çľĭè§ģ":10725,"çľĭåĲ¾":10726,"çľĭä¹¦æ¯ķ":10727,"åĲĮå®Ī":10728,"ä¼ıåĩł":10729,"æķĳæĪĳ":10730,"æķĳéĨĴ":10731,"æĦıä¹Ł":10732,"æŃ¦çİĭ":10733,"æŃ¦çļĩå¸Ŀ":10734,"æĪĲäºĨ":10735,"å¤ıåĽĽæľĪ":10736,"åħ³åħ¬å¤§æĢĴ":10737,"åħ³åħ¬çĪ¶åŃĲ":10738,"æŁĲä¸İ":10739,"æŁĲèĻ½":10740,"ç»įå¤§æĢĴ":10741,"æķĮæ¥¼":10742,"å®ļéĻ¶":10743,"è¿ĩæŃ¤":10744,"åĲĪå½ĵ":10745,"å¹´çºª":10746,"æĸ©æĿ¥ä½¿":10747,"çłĢ":10748,"å®¶å¥´":10749,"èµ¶åĩº":10750,"èİ¹":10751,"å¼ķåħµåİ»":10752,"å¼ķåħµåħ¥":10753,"å¼ķåħµæľĽ":10754,"å¼ķåħµæĿĢåĪ°":10755,"ç¬ĳèĢĮä¸į":10756,"ä½ľä¹±":10757,"ä½ľè¯´å®¢":10758,"åĪĢåī²":10759,"å¹¶å°Ĩ":10760,"é«ĺåĨĪ":10761,"åĮĹæľī":10762,"è¿½å¯»":10763,"èĪ¹å¤´":10764,"è°ĭä¹ĭ":10765,"æļ¨":10766,"éĻĪåħ°":10767,"éĻĪéªŀ":10768,"æĬķä¹ĭ":10769,"æĬķè¢ģç»į":10770,"æĿİæĦı":10771,"æĿİè¾ħ":10772,"æĿİç¦ı":10773,"è½¦éªĳ":10774,"èįĨå·ŀä¹ĭäºĭ":10775,"å½ĴåĪ°":10776,"è°ĵåŃĶæĺİæĽ°":10777,"éĩįæĿĥ":10778,"éĩįæŀ£":10779,"æģĲäºº":10780,"æģĲä¼¤":10781,"åĳĬä»¥":10782,"æĦ¿ä¹Ł":10783,"æĦ¿å¾Ĺ":10784,"æĦ¿éļı":10785,"æĦ¿æķĪ":10786,"åıĳæİĺ":10787,"æĶ¾ä¹ĭ":10788,"æĶ¾åİ»":10789,"æİ¥è§ģ":10790,"éļıèº«":10791,"èĻ½ä¼Ĺ":10792,"èĻ½å¤ļ":10793,"èĻ½èĤĿèĦĳæ¶Ĥåľ°":10794,"ä»ĸåİ»":10795,"ä»ĸåį´":10796,"åķ¸":10797,"çĪ¶èĢģ":10798,"çĪ¶ä»ĩ":10799,"çĽ´æĿĢ":10800,"èľĢåħµçļĨ":10801,"èľĢåħµåıĪ":10802,"åıĹæķĮ":10803,"ä¸įèĥ½ä¸ĭ":10804,"ä¸įèĥ½æķĳ":10805,"ä¸įèĥ½çŃĶ":10806,"ä¸įèĥ½å¾ĹèĦ±":10807,"ä¸įèĥ½æĬµå½ĵ":10808,"ä¸įèĥ½å¾Ĺåĩº":10809,"å¤ıä¾¯å¨ģ":10810,"å¤ıä¾¯æĥł":10811,"å¦ĤæŃ¤ä¹ĭ":10812,"å¦ĤæŃ¤æĹłç¤¼":10813,"åĨįæľī":10814,"åĨįä¼ĳ":10815,"åĪĻèįĨå·ŀ":10816,"è¿ŀèĲ¥":10817,"è¿ŀçıł":10818,"ç¿ł":10819,"ä¹ĺé£İ":10820,"ä¹ĺèĪŁ":10821,"æĹĹæģ¯":10822,"å°ļåŃĺ":10823,"å¤įçĶŁ":10824,"å¤įå¤º":10825,"éªĳåĿĲ":10826,"åĬŁèĩ£":10827,"è¶³ä»¥":10828,"å¥ıè¯·":10829,"ä¼ĳåĲ¬":10830,"åĲķå¸ĥäºİ":10831,"åĲķå¸ĥä¹ĥ":10832,"åĿĲå®Ī":10833,"çĭ®":10834,"éĥ¡äºº":10835,"éħĴåĲİ":10836,"éħĴéĨī":10837,"å¥īå¤©åŃĲ":10838,"æĽ´æį¢":10839,"çł´æĪĳ":10840,"ä¹īå£«":10841,"ä¹±ç®Ń":10842,"å°ģæĽ°":10843,"å°ģä¾¯":10844,"å°ģè°ŀ":10845,"ä¹ħå¿ħ":10846,"ä¹ħä½ı":10847,"è¯¸èĳĽæŃ¦ä¾¯":10848,"è¯¸èĳĽéĿĵ":10849,"æľ¬æĺ¯":10850,"æľ¬å¤Ħ":10851,"è¦ģæĸ©":10852,"è¦ģåĩºæĪĺ":10853,"åįĵèĨº":10854,"åĶ¤è¯¸å°Ĩ":10855,"åķĨè®®æ¬²":10856,"çĸĳæľī":10857,"ç¤¼å¾ħä¹ĭ":10858,"é¾Ļé£ŀ":10859,"é¾Ļé©¹":10860,"èĳ£åĲİ":10861,"èĳ£å¤ªå¸Ī":10862,"å¤©ä¸ĭå¹¸çĶļ":10863,"è§£åİ»":10864,"è§£è¡£":10865,"è§£åħ¶ç¼ļ":10866,"éĥ¨åħµ":10867,"æĶ¶ä½ı":10868,"æĶ¶èī¾":10869,"æľĿè´º":10870,"å§ĵæĿİ":10871,"éĩĳçŁ³":10872,"éĩĳéĽģ":10873,"éŃıå»¶ä¹Ł":10874,"åŃĻæĿĥåľ¨":10875,"èİ·å¤§èĥľ":10876,"é½Ĳæĺİ":10877,"é½Ĳå¤ĩ":10878,"é£İéĽ¨":10879,"é£İéĽ·":10880,"é£İéĽª":10881,"é£İéª¤èµ·":10882,"åŃĹåŃ£":10883,"åĨĽå£«æĽ°":10884,"åĨĽå£«çļĨ":10885,"å½¼å°Ĩ":10886,"æ¶¦":10887,"æ¶¨":10888,"æ¶ĵ":10889,"è§Ĥä¹¦":10890,"éĢģä¹ĭ":10891,"éĢģåİ»":10892,"äº®èĩª":10893,"åı¸é©¬æĩ¿ä¸º":10894,"åı¸é©¬æĩ¿è§ģ":10895,"è¿ľæİ¥":10896,"è¿ľå¿Ĺ":10897,"é¡»åıĳ":10898,"é¡»è¦ģ":10899,"å¼ĥæŃ¤":10900,"å¸¦é¢Ĩ":10901,"å¸¦ç®Ń":10902,"éĵĥ":10903,"èī¯å°Ĩ":10904,"ä½ĨéĹ»":10905,"åĽ´åľº":10906,"åĵŃåĳĬ":10907,"æ¨½":10908,"èħ¿":10909,"è¿ĺèĲ¥":10910,"è¿ĺä¸ľåĲ´":10911,"å¯ĨåĳĬ":10912,"å¯ĨåĶ¤":10913,"çıį":10914,"è¾ŀèĢĮåİ»":10915,"è¾ŀä¸įåıĹ":10916,"ä½łæĪĳ":10917,"ä½łäºĮäºº":10918,"ä½łä¸¤ä¸ª":10919,"åħ«çĻ¾":10920,"åħ«éĹ¨":10921,"åħ«å²ģ":10922,"å°ĦæĿ¥":10923,"æıĲå¤§åħµ":10924,"çĻ½æ²³":10925,"æ²³åįĹ":10926,"åı¹æľį":10927,"ä¼łä¸ĭ":10928,"ä¼łæªĦ":10929,"æĢĿæĽ°":10930,"å¥½äºº":10931,"å¥½æŃ¹":10932,"é¥®äºĨ":10933,"åĿļå£ģ":10934,"åı·æ³£":10935,"éĥĥåıĪ":10936,"æīĵæŃ»":10937,"æīĵæİ¢":10938,"åĭ¿ä½¿":10939,"ä¸įçŁ¥åħ¶æĦı":10940,"è½»è¿Ľ":10941,"èĤ¯éĻį":10942,"æ»¥":10943,"æ»Ķ":10944,"è±Ĩ":10945,"åħ±çĽ¸":10946,"åħ±æĶ»":10947,"åĨ²å¼Ģ":10948,"æľįä¹ĭ":10949,"ä¸įæķ¢åĩº":10950,"æ¢ĨåŃĲ":10951,"è°¢ä¹ĭ":10952,"è°¢æĹĮ":10953,"èĽŁé¾Ļ":10954,"å®ľè¿Ł":10955,"æ±ĤåĴĮ":10956,"æ·±ä¸º":10957,"å¼ķåĨĽèĩ³":10958,"åĪ«äºº":10959,"çĹħåĬ¿":10960,"åĨ³è®¡":10961,"åĨ³èĥľè´Ł":10962,"èĻİè§Ĩ":10963,"èĻİé¡»":10964,"èĻİå¨ģ":10965,"æļĹä¼ı":10966,"æļĹå¼±":10967,"ä¸¾æĿ¯":10968,"ä¸¾åŃĿå»ī":10969,"ä¸ĥåĽŀ":10970,"ä¸ĥåįģ":10971,"ä¸ĥä¸ĩ":10972,"åŃ¤äº¦":10973,"åŃ¤èº«":10974,"åŃ¤ç©·":10975,"é©¬è¶ħæĽ°":10976,"ç¥ŀåħµ":10977,"çĶ²åŃĲ":10978,"å¾ģåįĹ":10979,"æĸŃåĲ¾":10980,"æĸŃæ¡¥":10981,"æĸŃç»Ŀ":10982,"å±ħä½ķèģĮ":10983,"èĴĻå¤´":10984,"å¹¸è®¸éĥ½":10985,"æĮĩæľĽ":10986,"å¯¹å±±":10987,"åĲİä¸»ä»İä¹ĭ":10988,"é£Łæ±īç¦Ħ":10989,"å¤©åŃĲè¯ı":10990,"å¨ģæĿĥ":10991,"ä¾įå¥ī":10992,"åħ¨ç«¯":10993,"åıªè§ģéŃıåħµ":10994,"åıªè§ģåīįéĿ¢":10995,"æ¯įåŃĲ":10996,"éªĤä¸įç»Ŀåı£":10997,"æķ£éªĳ":10998,"æģ¨ä¹ĭ":10999,"ç§°å¥ĩ":11000,"åį¿è¨Ģ":11001,"èģļäºİ":11002,"åĭĩå°Ĩ":11003,"æĽ¾è§ģ":11004,"çī¹éģ£":11005,"é»Ħå¿łæĽ°":11006,"æĸ°åĲĽ":11007,"æľķèĩª":11008,"æľķèº¬":11009,"åĪºä¹ĭ":11010,"åºľåºĵ":11011,"çŁ³éĺµ":11012,"åħŃåĽŀ":11013,"ç³Ĭ":11014,"ä¼Ĳä¸ŃåİŁ":11015,"èĥĮåĲİéŃıåħµ":11016,"å¿§ä¹Ł":11017,"ä¸´æ±Ł":11018,"èĽ®äºº":11019,"éĿĴæĹĹ":11020,"éĿĴåı²":11021,"éĢĥèµ°":11022,"ç¥ĸèĮĤ":11023,"æ¡¥èķ":11024,"å¯»ä¸įè§ģ":11025,"èĭ±ä¿Ĭ":11026,"ä½¿äººå¾Ģ":11027,"ä½¿äººè¯·":11028,"ç»ĵä¸ľåĲ´":11029,"ç»ĵæĿŁ":11030,"èĶ¡çĲ°":11031,"å¤§åĨĽèĩ³":11032,"ç¦»å¯¨":11033,"çĽĸåĽł":11034,"éĺŁä¸Ń":11035,"éĺŁéĩĮ":11036,"ä¸ĢéĿ¢ä½¿äºº":11037,"ä¸ĢéĿ¢éģ£äºº":11038,"çĶĺå½ĵåĨĽä»¤":11039,"ä¸¥çĻ½èĻİ":11040,"ä¹Ŀå·ŀ":11041,"ä¹Ŀæ±Ł":11042,"ä¹Ŀå²ģ":11043,"åĲİäººæľī":11044,"è¢ŃæĪĳ":11045,"åĢĴéĢĢ":11046,"åĸĦä¿Ŀ":11047,"æľ¨éĹ¨":11048,"æľ¨åĮ£":11049,"åĬłä¹ĿéĶ¡":11050,"ä¸įå¦ĤæĦı":11051,"æĥ§åĵī":11052,"æĥ§æĢ¯":11053,"æģ¯æĢĴ":11054,"çĦ¶åĲİåı¯":11055,"æĹ§äº¤":11056,"èĭŀæĽ°":11057,"æ³°æĽ°":11058,"çªģåħ¥":11059,"æĭĴæĽ¹æĵį":11060,"ç¦ģåħµ":11061,"èµ´æķĮ":11062,"èµ´å¸Ń":11063,"éĢłæľ¨çīĽæµģé©¬":11064,"è¤ļæĽ°":11065,"æĭĽè°ķ":11066,"æĭĽåĭŁ":11067,"äºĮåįģæĹ¥":11068,"æĮºä¸Īåħ«":11069,"å²¸åı£":11070,"æķ¬ç¤¼":11071,"åĬĿæĪĳ":11072,"çĿ¿å¤§åĸľ":11073,"å¼Ĥäºº":11074,"å¼ĤæĹ¥":11075,"å¼Ĥå¸¸":11076,"æ»¡åľ°":11077,"æ»¡æľĿ":11078,"ç¾¤è´¼":11079,"çģµåīį":11080,"æĴĩ":11081,"åĪ©äºİ":11082,"èĩ´æĦı":11083,"ä»ªè¡¨":11084,"ä»ªäºŃ":11085,"èİ«æµĭ":11086,"åıĺåĮĸ":11087,"åĪĿåĪ°":11088,"æľ±åħī":11089,"çģŃæĹı":11090,"å¤§äºĭæµİçŁ£":11091,"ä»¥ä¸ºä½ķå¦Ĥ":11092,"ä»¥ä¸ºçĸĳåħµ":11093,"ä»¥ä¸ºä¹ħè®¡":11094,"åĤķæĽ°":11095,"åĸĬå£°å¤§ä¸¾":11096,"è¿ĻçŃī":11097,"è¿ĻæĿ¡":11098,"æĢĢæģ¨":11099,"å¤§è´¥èĢĮåĽŀ":11100,"åĢĺèĭ¥":11101,"ç©ºä¸Ń":11102,"ç©ºåŁİ":11103,"ç©ºå¯¨":11104,"æľªçŁ¥åŃĶæĺİ":11105,"æĬĺä¼¤":11106,"æĳĺ":11107,"åį§çīĽ":11108,"æī¶çĹħ":11109,"æī¶ç¤¾ç¨·":11110,"æĭĶåĩº":11111,"äºīè¡¡":11112,"æ½Ń":11113,"æ½¸çĦ¶":11114,"æĺ¥é¦Ļ":11115,"æµİåĮĹ":11116,"ä¸ģä»ª":11117,"æīĺåĲį":11118,"æīĺçĸ¾":11119,"éĻ¤éĿŀ":11120,"æİ©å¿ĥ":11121,"å¿ĥä¸Ńå¿§éĹ·":11122,"æĪªåħ¶":11123,"è¢įè¢ĸ":11124,"æľīä½ķéļ¾":11125,"ç¥Ńæĸĩ":11126,"æ´Ľæ°´":11127,"å¹¼åŃĲ":11128,"æ´ŀåı£":11129,"çĬ¹çĦ¶":11130,"æ¨ªæĪª":11131,"æ¨ªçŁĽ":11132,"æįīå¾Ĺ":11133,"å®Ŀè´Ŀ":11134,"è°ĥæ²»":11135,"ä¼ĹçļĨå¤§æĥĬ":11136,"ä¼ĹçļĨå¤±èī²":11137,"èµįæį§":11138,"èµįéĩĳçıł":11139,"æ³£æĭľæĽ°":11140,"åĪĨåħµä¸ĢåįĬ":11141,"æ²»ä¸Ń":11142,"æ²»åĽ½":11143,"çłįåĢĴ":11144,"å´ĸ":11145,"å¸Ńä¸Ĭ":11146,"å¸Ńåį·":11147,"çĶ°æ¥·":11148,"åº¶äºº":11149,"æĬµæĮ¡":11150,"è¿Łå»¶":11151,"èįĢé¡Ĺ":11152,"ä¹ĭæĦıèĭ¥ä½ķ":11153,"éģĹè¯ı":11154,"ç²¾åħµäºĶåįĥ":11155,"åĩłäºº":11156,"åĩłæĹ¥":11157,"æĺŁå¤ľèĩ³":11158,"åĩīå·ŀ":11159,"ç´łä¸İ":11160,"çĽ¸è§ģæ¯ķ":11161,"å»·å°ī":11162,"èĤīè®¡":11163,"æĺĵå·ŀ":11164,"è¯¯äºĭ":11165,"èĭ¦åĬĿ":11166,"èĭ¦èĤīè®¡":11167,"åħ¥è§ģåĲİä¸»":11168,"èĸ¨":11169,"çº¢åħī":11170,"åĨĽå¸Īä½ķæķħ":11171,"éŃıä¸»æĽ°":11172,"åĲ´åħµå¤§è´¥":11173,"å¼łç¿¼æĽ°":11174,"åºŁä¸»":11175,"åºŁéķ¿ç«ĭ":11176,"éĶ¦è¡£":11177,"ä¹¡ä¸Ń":11178,"ä¹¡éĩĮ":11179,"ç®¡ä»²":11180,"çİĩå¤§åĨĽ":11181,"æĸ½ç¤¼æ¯ķ":11182,"çļĵæĽ°":11183,"å·®äººèµį":11184,"åı°ä¸Ĭ":11185,"å¤¹å±±å³ª":11186,"æĹłä¸įéªĩçĦ¶":11187,"å½ĵåħĪåĩºé©¬":11188,"è¶Ĭå²Ń":11189,"èĿĹ":11190,"åıĤè§ģ":11191,"æ²ĽåŁİ":11192,"åĿļå®Īåĭ¿":11193,"åº¦ä¹ĭ":11194,"åĽŀè§ģçİĦå¾·":11195,"åĽŀè§ģåĳ¨çĳľ":11196,"åĢŁæĪĳ":11197,"åĢŁç²®":11198,"åĢŁèįĨå·ŀ":11199,"æļĤä¸Ķ":11200,"éĺ»ä½ı":11201,"éģ£ä½¿èµį":11202,"æİĮä¸Ń":11203,"å¹¶æĹłä¸Ģäºº":11204,"å·¾å¸¼":11205,"è´¹èĢĢ":11206,"éŀŃæĮŀ":11207,"åĩ¤ä»ªäºŃ":11208,"æĢ¨è¨Ģ":11209,"å¼©é½Ĳåıĳ":11210,"æ¦Ĥ":11211,"éĺ¿çŀĴ":11212,"æľ¬éĥ¨åĨĽé©¬":11213,"è¯ļå¿ĥ":11214,"æĭįæ¡Ī":11215,"éģ£äººå¾Ģ":11216,"æĹıå¼Ł":11217,"ç»Ĩä½ľæĬ¥çŁ¥":11218,"éĨīåį§":11219,"æİĪä¸İ":11220,"è¥¿åĩīå·ŀ":11221,"è¥¿åĩīå¤ªå®Ī":11222,"è¥¿åĩīä¹ĭåħµ":11223,"æķĪåĬĽ":11224,"åľ£é©¾":11225,"æĢ»æĳĦ":11226,"ä¸Ģå½ªåĨĽåĪ°":11227,"ä¸Ģå½ªåĨĽæĿĢæĿ¥":11228,"æĶ¹ä¸º":11229,"æĶ¹æĬ¹":11230,"æİĴå¼Ģ":11231,"æİĴæĪĲéĺµåĬ¿":11232,"çĪµç¦Ħ":11233,"åµĮ":11234,"é¥®éħĴéĹ´":11235,"éĽªæģ¨":11236,"æ²Ļæĳ©":11237,"æ²Ļæ¼ł":11238,"ä¸įè¶³èĻĳ":11239,"å¦Ħè¨Ģ":11240,"èĥ¡çĥĪ":11241,"ç§»åħµ":11242,"å®£è°ķ":11243,"å¯¸åĬŁ":11244,"æ¥ĻæĽ°":11245,"æ¸Ńæ²³":11246,"å¿ĺä¹ĭ":11247,"éģŃæŃ¤":11248,"æ¸Ĳè¿ĳ":11249,"åĲĦèĩªæĶ¶åħµ":11250,"æ±īä¸ŃçİĭæĽ°":11251,"å·¡èŃ¦":11252,"å¼łä»»æĽ°":11253,"éĩıä¸Ģ":11254,"äºĶåįģäºº":11255,"å¾ĲçĽĽæĽ°":11256,"åŃĺæģ¤":11257,"éŃıçİĭæĽ¹ä¸ķ":11258,"ç¾İäºº":11259,"åĨµä»Ĭ":11260,"åħ¥å¸ĲåĳĬæĽ°":11261,"ç®Ĺä¹Ł":11262,"æĿľè¢Ń":11263,"å®½ä»ģ":11264,"åĩĮæĵį":11265,"ç«¯çļĦ":11266,"æ®ĭåħµ":11267,"æ®ĭæļ´":11268,"åħĭå¤į":11269,"ç»§æ¯į":11270,"åºĦä¸Ĭ":11271,"å·´éĥ¡":11272,"åı¯éĢŁåİ»":11273,"è°ģæķ¢åİ»":11274,"ä¸īåįģéªĳ":11275,"çīĻéĹ¨":11276,"æľĢä¸º":11277,"æľĢåĸĦ":11278,"æ´»åĳ½":11279,"åģĩèĬĤéĴº":11280,"çĨŁæĢĿä¹ĭ":11281,"è¿½ä¹ĭä¸įåıĬ":11282,"åĲİäººæľīè¯Ĺèµŀä¹ĭæĽ°":11283,"é»ĳæ°Ķ":11284,"å½¢è²Į":11285,"åľ¨åĲİåĽŃ":11286,"ä¸īæĹ¥åĲİ":11287,"ä¸īæĹ¥åĨħ":11288,"æĬ¼è¿ĩ":11289,"èį¡èį¡":11290,"ç¤ºä¼Ĺ":11291,"å¤ıä¾¯éľ¸æĽ°":11292,"çŀĴæĪĳ":11293,"ç«ĸåŃĲ":11294,"ç«ĸèµ·":11295,"çĲ®æĽ°":11296,"æ¯ĽåĲİ":11297,"åĽĽä¸ĭæĹłè·¯":11298,"æ¯ĶåıĬå¤©æĺİ":11299,"ç¯¡ä½į":11300,"ä»įä»¤":11301,"åıĪåĶ¤åħ³åħ´":11302,"èĢĢæŃ¦æī¬å¨ģ":11303,"åĢ¾åĽ½":11304,"èįĨè¥Ħä¹Ŀéĥ¡":11305,"éĦĦåŁİ":11306,"éĻĦä½ĵ":11307,"æ¬£åĸľ":11308,"äºĮåŃĲæĽ°":11309,"åħ¥åĲİå®«":11310,"åħ¥åĲİåĽŃ":11311,"åīįåĲİå¤¹æĶ»":11312,"åĲ´ä¸»åŃĻæĿĥ":11313,"æĹ©æĻļå¿ħ":11314,"éº¦çĶ°":11315,"å´Ķç¦¹":11316,"æºªè¾¹":11317,"æĿŁèįī":11318,"åįłæį®":11319,"ä¼ĺç¤¼çĽ¸å¾ħ":11320,"çŃµå®´":11321,"çŃµå¸Ń":11322,"æĻĶæĽ°":11323,"åħ·è¨Ģåīįäºĭ":11324,"åŃĶèŀįæĽ°":11325,"åĿłé©¬":11326,"åĿłäºİé©¬ä¸ĭ":11327,"ç»ķåŁİ":11328,"å®¿åį«":11329,"æĥ¶æĥ¶":11330,"éĽ¶èĲ½":11331,"å¤ªå°īçİĭ":11332,"å±ıéĢĢå·¦åı³":11333,"åįģäºĮæľĪ":11334,"å¾ħä¹ĭçĶļåİļ":11335,"æįŁåħµ":11336,"åįİæŃĨå¥ıæĽ°":11337,"åĨĴæ¸İ":11338,"æĢķæŃ»":11339,"éĤ£éĩĮèĤ¯":11340,"ä½¯è¾ĵ":11341,"æĳĩæĹĹ":11342,"éģ®æĭ¦":11343,"æģ¢æĽ°":11344,"èįĴæ·«":11345,"éĻĪä»ĵéģĵåı£":11346,"å¿Įä¹Ł":11347,"æī¯ç¢İ":11348,"æ²¹æŁľ":11349,"æĿİåĦĴæĽ°":11350,"æıĴæĹĮæĹĹ":11351,"é¦Ĩé©¿å®īæŃĩ":11352,"åįģæķ°äºº":11353,"åĿŀä¸Ń":11354,"åĨ¬åįģæľĪ":11355,"å®ªèĭ±":11356,"æŃ¤å¿ħæĺ¯":11357,"å¯Ŀé£Ł":11358,"çŁ¥æĺ¯è®¡":11359,"å¤ºè·¯èµ°èĦ±":11360,"æ½ľåľ°":11361,"çħ§èĢĢ":11362,"è¹Ī":11363,"åĨ¯ç¤¼":11364,"æģŃç¥ĸ":11365,"å¤©åľ°éĹ´":11366,"äºĭä¸įæĪĲ":11367,"äºĭä¸įå®ľè¿Ł":11368,"çīĩè¨Ģ":11369,"çīĩçĶ²":11370,"åģ·è¿ĩ":11371,"æİ¢åĲ¬èĻļå®ŀ":11372,"åĮ¹é©¬åįķæŀª":11373,"åŀĴæĸŃ":11374,"è´¾åħħæĽ°":11375,"çĽĹè´¼":11376,"éĢĲä¸Ģ":11377,"éķ¿æ²Ļå¤ªå®Ī":11378,"åĽ½ä¹ĭè´¼":11379,"åĨ·ç®Ń":11380,"åĲ¾äº¦æ¬²":11381,"æģķä¹ĭ":11382,"åĽĽåįģä¹Ŀ":11383,"äºİåĲīç«ĭäºİ":11384,"çļĤæĹĹ":11385,"çļĤç»¦":11386,"ä¸Ģç®Ńå°Ħåİ»":11387,"éĢıéĩįåĽ´":11388,"ä»İèĢħæĽ°":11389,"èĴ¯èī¯":11390,"éĥŃåĽ¾æĽ°":11391,"ä¹ĭä¸»ä¹Ł":11392,"å·¨éĽ·":11393,"åĩ¯æŃĮ":11394,"åĮºå¤Ħ":11395,"æĮŁä½ı":11396,"æĮŁå¤©åŃĲ":11397,"èº«éķ¿ä¹Ŀå°º":11398,"åłķæ³ª":11399,"èĦĳè¢ĭ":11400,"æ´»æįīäºĨ":11401,"æĵĤé¼ĵåĳĲåĸĬ":11402,"æĿĳå¤«":11403,"å¤§ä¼ļæĸĩæŃ¦":11404,"ä¸įåı¯ä¸įéĺ²":11405,"ç´«é«¯":11406,"éĥ¿åŁİ":11407,"éķ¿åĿĤæ¡¥":11408,"åĿĩæĽ°":11409,"çĭĤé£İéª¤èµ·":11410,"ä¹°é©¬":11411,"ä¹ĭè°ĭä¹Ł":11412,"è¾ĵäºĨä¸Ģéĺµ":11413,"åĽŀå¤´çľĭæĹ¶":11414,"åĪĨæĭ¨å·²æ¯ķ":11415,"åĶĲåĴ¨":11416,"é¥¶ä½ł":11417,"èĭĹæ³½":11418,"èĩªåĪİèĢĮæŃ»":11419,"åīįèĩ³ä¸Ģ":11420,"åıªå®ľåĿļå®Ī":11421,"çĿģçĽ®":11422,"åįĬæĻĮæĸ¹èĭı":11423,"æľªåı¯è½»æķĮ":11424,"æĮ¡ä½ı":11425,"æĮ«åĬ¨":11426,"æĬ¤éĢģè½¦ä»Ĺ":11427,"ä¸¤è·¯åħµæĿĢæĿ¥":11428,"æŁ´æ¡ĳéĥ¡":11429,"æĤĶä¹ĭæĹłåıĬ":11430,"å·¥éĥ¨":11431,"éĿ¢å¦Ĥéĩįæŀ£":11432,"è£´åħĥç»į":11433,"æ£ºæ¤ģ":11434,"æĸ½ç¤¼æĽ°":11435,"æŃ¤ä½ķäººä¹Ł":11436,"ä¸ĭåħ³æĿ¥":11437,"å¾Ĳå¾ĲèĢĮéĢĢ":11438,"çĬĴåĨĽ":11439,"éĩĳé¼ĵé½Ĳé¸£":11440,"åģĥæĹĹæģ¯":11441,"æ·³äºİä¸¹":11442,"èŃ¬":11443,"è°¥çĪ¶":11444,"å¹ķåºľ":11445,"å¹ķå®¾":11446,"æĭħåľŁ":11447,"æŃ£è¯´ä¹ĭéĹ´":11448,"æ»¡éĿ¢ç¾ŀæĥŃ":11449,"å¨ģé£İåĩĽåĩĽ":11450,"å¨ģéľĩå¤©ä¸ĭ":11451,"æĺ¯å¤ľäºĮæĽ´æĹ¶åĪĨ":11452,"è¯¦ä¹ĭ":11453,"ä»¥ç»ĿåĲİæĤ£":11454,"ä¸Ĭæµģå¤´":11455,"æĢ¥éĢĢæĹ¶":11456,"ä½ľä¸Ģä¹¦":11457,"æįĲçĶŁ":11458,"æĻ®åĩĢæĽ°":11459,"æłĳæľ¨ä¸ĽæĿĤ":11460,"äºĭæĢ¥çŁ£":11461,"èĤ¡èĤ±":11462,"çĹĬåı¯":11463,"èĶ½æĹ¥":11464,"è¡ĢæµģæĪĲ":11465,"æī¬å·ŀåĪºåı²":11466,"ä¸Ģç°ĩäººé©¬":11467,"æĬĽæĪĪ":11468,"ç¥Īç¥·":11469,"å¿½åıĪæĬ¥":11470,"å¹¶ä¸įè§ģä¸Ģäºº":11471,"åıĹç¦ħåĿĽ":11472,"é²ľè¡Ģ":11473,"åħ«è·¯è¯¸ä¾¯":11474,"å¼ĵç®Ńæīĭ":11475,"èļķ":11476,"å¾½æĽ°":11477,"æİ³æİł":11478,"åĿŁå¢ĵ":11479,"åĮĨåĮĨ":11480,"ç§ĺä¹¦":11481,"éĩįåĬłèµıèµĲ":11482,"åıįéĹ´ä¹ĭè®¡":11483,"æļĹæļĹç§°å¥ĩ":11484,"ç¼ĵç¼ĵèĢĮè¡Į":11485,"éĻĦèĢ³ä½İè¨Ģ":11486,"æĹłè¨Ģåı¯":11487,"èĬĴçłĢ":11488,"åĿĲèĢĮå¾ħ":11489,"è¿Ļä¸ªæ¶Īæģ¯":11490,"æĢ¥åĪĩéļ¾":11491,"æīĢä½©ä¹ĭåīĳ":11492,"æµĬä¹Ł":11493,"æīĺçĹħä¸įåĩº":11494,"ç¢Įç¢Į":11495,"æĭĨå¼Ģè§Ĩä¹ĭ":11496,"åħµä¸´åŁİä¸ĭ":11497,"æŃ»æĹłæģ¨":11498,"çĸ¼çĹĽ":11499,"çĭĦéģĵåŁİ":11500,"ä½ķè¶³ä¸ºå¥ĩ":11501,"æĬ±å¤´é¼łçªľèĢĮåİ»":11502,"æĬĸæĵŀç²¾ç¥ŀ":11503,"åħµå¾®å°Ĩå¯¡":11504,"è°ĲçŁ£":11505,"åŃĻä»²è°ĭ":11506,"éªĨè°·":11507,"éªıé©¬":11508,"ç¦½åħ½":11509,"æŃ¦åŁİå±±":11510,"åĬ¿ç©·åĬĽ":11511,"è¿ŀçİ¯è®¡":11512,"éĩĳåŁİå¤ªå®Ī":11513,"çļĩåŃĲåįı":11514,"èħĲåĦĴ":11515,"ä¹Ŀæ³īä¹ĭä¸ĭ":11516,"å¤©èī²å·²æĻļ":11517,"äºİä¸Ńåıĸäºĭ":11518,"èĩªå¤ĸèĢĮåħ¥":11519,"æĿĢæĿ¡è¡Ģè·¯":11520,"çļĨå°ģåĪĹä¾¯":11521,"å½ĵçĶ¨ä½ķçŃĸ":11522,"é½ĳç²ī":11523,"ä¸įæķ¢æŃ£è§Ĩ":11524,"åħīç¦Ħå¤§å¤«":11525,"è¸Ĭè·ĥ":11526,"ç¡¬å¼©":11527,"èıľ":11528,"å¤©èį¡å±±":11529,"å½ĵå¤įå¦Ĥä½ķ":11530,"æŃ£å¥Ķèµ°éĹ´":11531,"å¸ĥåĳĬå¤©ä¸ĭ":11532,"æĸ¹å¤©æĪŁ":11533,"è¥¿å¹³åħ³":11534,"ä¸įèĥ½å®¹çī©":11535,"æ®ĦçģŃ":11536,"è±ºçĭ¼":11537,"è°ıè®®å¤§å¤«":11538,"æ²ĽåĽ½è°¯":11539,"çĽĺèĽĩè°·":11540,"çĵ¦åı£åħ³":11541,"åĸıåĸıè¿ŀå£°":11542,"ä¸įçĥĤä¹ĭèĪĮ":11543,"å¼Īæ£ĭ":11544,"æ±²æ°´":11545,"éĥĹèĻĳ":11546,"ä¹ĥåħ³åħ´ä¹Ł":11547,"éĺ³å®īåħ³":11548,"éĻĪåħĥé¾Ļ":11549,"åķ¼åĵŃ":11550,"èµĲéħĴåİĭæĥĬ":11551,"åĩŃä¸īå¯¸ä¸įçĥĤä¹ĭèĪĮ":11552,"å¯¡ä¸įæķĮä¼Ĺ":11553,"èĪĮè¾©ä¹ĭå£«":11554,"é¥¶æ±ĿæĢ§åĳ½":11555,"ä¸ĢæĹħä¹ĭå¸Ī":11556,"æŃ¤èĩ£ä¹ĭæľªè§£":11557,"åŃĲåįĪè°·":11558,"è¥¿æ´±":11559,"éĩĳéĽģæ¡¥":11560,"æ¡¥èķ¤":11561,"åºŁéķ¿ç«ĭå¹¼":11562,"æ²Ļæĳ©æŁ¯":11563,"åģĥæĹĹæģ¯é¼ĵ":11564,"¢éĻµ":11565,"©¹":11566,"¬éģĵ":11567,"®èŀį":11568,"¶èĥ¸":11569,"¹ģ":11570,"¹éĽ":11571,"¾åİ¿":11572,"æ©¹":11573,"ç¹ģ":11574,"èŀ":11575,"èŁ":11576,"éį":11577,"ĠçİĦå¾·":11578,"ĠæĽ¹æĵį":11579,"Īé±¼":11580,"ĭé¡¿":11581,"ĴéºŁ":11582,"Łåħĥ":11583,"ãĢĤâĢľ":11584,"ãĢĤâĢĶâĢĶ":11585,"äºļ":11586,"åı¨":11587,"åĲģ":11588,"åĲĿ":11589,"ä¹ĭä¹Ł":11590,"ä¹ĭä½¿":11591,"ä¹ĭå¯¨":11592,"ä¹ĭä¸ľ":11593,"ä¹ĭè®®":11594,"ä¹ĭå¤«":11595,"ä¹ĭç²®":11596,"ä¹ĭè¡¨":11597,"ä¹ĭèĢ³":11598,"ä¹ĭéļ¾":11599,"ä¹ĭå®³":11600,"ä¹ĭåıĶ":11601,"ä¹ĭæ¯į":11602,"ä¹ĭåįĴ":11603,"ä¹ĭç¦ı":11604,"ä¹ĭå¢ĥ":11605,"ä¹ĭçĽŁ":11606,"ä¹ĭå½¢":11607,"ä¸įæĹ¥":11608,"ä¸įåį³":11609,"ä¸įå¾Ģ":11610,"ä¸įåĸľ":11611,"ä¸įæķĳ":11612,"ä¸įå¤±":11613,"ä¸įçĿĢ":11614,"ä¸įåħ±":11615,"ä¸įçĲĨ":11616,"ä¸įæµİ":11617,"ä¸įä¹ł":11618,"ä¸įæķ°æĹ¥":11619,"ä¸įæĦ§":11620,"ä¸įæķ·":11621,"å¾µ":11622,"æĺ¶":11623,"æĺĨ":11624,"æĺł":11625,"äººæĽ°":11626,"äººä¸ĭ":11627,"äººåİ»":11628,"äººäºĭ":11629,"äººæ°ı":11630,"åĨĽæľī":11631,"åĨĽæĹł":11632,"åĨĽèĩ³":11633,"åĨĽåĪĨ":11634,"åĨĽéĢĢ":11635,"è¯¤":11636,"è¯°":11637,"è¯ĺ":11638,"èĢĥ":11639,"åħµåľ¨":11640,"åħµæĹł":11641,"åħµè´µ":11642,"åħµå¤§ä¹±":11643,"å¿Ĵ":11644,"å¿Ŀ":11645,"é©½":11646,"å¤§å£°":11647,"å¤§åĬ¿":11648,"å¤§èĢ³":11649,"å¤§èİ·":11650,"å¤§è®¾":11651,"å¤§åº¦":11652,"å¤§æºĥ":11653,"å¤§æĮ¯":11654,"å¤§æģ¸":11655,"å¤§çĬĴä¸īåĨĽ":11656,"ä¸Ģä¹Ł":11657,"ä¸ĢéĹ¨":11658,"ä¸ĢçĶŁ":11659,"ä¸Ģä¼ļ":11660,"ä¸ĢèĲ¥":11661,"ä¸Ģåıĳ":11662,"ä¸ĢæĮĩ":11663,"ä¸ĢéĢļ":11664,"ä¸Ģçķª":11665,"ä¸Ģå°º":11666,"ä¸Ģæ¢¦":11667,"ä¸ĢçŁĽ":11668,"ä¸ĢæĿ¡è·¯":11669,"ä¸Ģå®µ":11670,"é©¬å¤´":11671,"é©¬éĤĪ":11672,"é©¬åŃŁèµ·":11673,"å°ĨæŃ¤":11674,"å°ĨéħĴ":11675,"å°Ĩä½Ĳ":11676,"å°Ĩåľ¨å¤ĸ":11677,"èµĺ":11678,"å··":11679,"æĪ³":11680,"ä¼ī":11681,"ä¼Ļ":11682,"æĿ¥è·¯":11683,"æĿ¥æİ¢":11684,"æĿ¥æ±Ĥ":11685,"æĿ¥çļĦ":11686,"æĿ¥åĬ©æĪĺ":11687,"æĿ¥æŃ¤ä½ķ":11688,"è®¹":11689,"æľīä¸ī":11690,"æľīåı¸":11691,"æľīç½ª":11692,"æľīä½ķä¸į":11693,"æľīä»ĩ":11694,"æľīçĲĨ":11695,"æľīè¿Ŀ":11696,"çĽ¼":11697,"æīģ":11698,"æĵįçŁ¥":11699,"æĵįéĹ»":11700,"æĵįäº¦":11701,"æĵįå°ģ":11702,"æĵįåĶ¤":11703,"æĵįæī§":11704,"æĵįåı¹æĽ°":11705,"æĵįéĹ»è¨Ģ":11706,"æĵįéĹ®åħ¶æķħ":11707,"æĵįç»ĥ":11708,"æĵįçĦ¶ä¹ĭ":11709,"æŃ¤ä¸º":11710,"æŃ¤æĹ¥":11711,"æŃ¤åıĸ":11712,"æŃ¤æķ°":11713,"æŃ¤éģĵ":11714,"æŃ¤è°ĭ":11715,"æŃ¤æ³ķ":11716,"æŃ¤åĲ¾ä¹ĭ":11717,"ä¸ĭæĽ°":11718,"ä¸ĭå°Ĩ":11719,"ä¸ĭå£«":11720,"ä¸ĭé¦ĸ":11721,"ä¸ĭåłĤ":11722,"ä¸ĭåįķ":11723,"ä¸ĭéĺ¶":11724,"ä¸ĭèĲ¥å¯¨":11725,"äºİæĽ¹æĵį":11726,"äºİæ±Ł":11727,"äºİåĨĽä¸Ń":11728,"äºİè¥Ħéĺ³":11729,"äºİéĺµåīį":11730,"äºİå±±åĥ»":11731,"ä¸Ńåħ´":11732,"ä¸Ńå¤§å¤«":11733,"ä¸ŃéĢĶ":11734,"æĬĳ":11735,"ä¸ºä¹Ł":11736,"ä¸ºåħ¬":11737,"ä¸ºå¤ĩ":11738,"ä¸ºå·¦":11739,"ä¸ºåı³":11740,"ä¸ºå®¶":11741,"ä¸ºæľ¬":11742,"ä¸ºä¾įä¸Ń":11743,"ä¸ºä¸ĸåŃĲ":11744,"ä¸ºåªĴ":11745,"çĶµ":11746,"è§ģæľī":11747,"è§ģæĪĳ":11748,"è§ģåĲķå¸ĥ":11749,"è§ģåįĵ":11750,"è§ģåŁİä¸Ĭ":11751,"èĢĮä¸º":11752,"èĢĮæ¬²":11753,"èĢĮå¾ħ":11754,"èĢĮå°±":11755,"èĢĮç¬ĳæĽ°":11756,"èĢĮè°¢æĽ°":11757,"éĢ¾":11758,"ä½ķåĲİ":11759,"ä½ķä¹ĥ":11760,"ä½ķæīĢ":11761,"ä½ķåıĬ":11762,"ä½ķå°ļ":11763,"ä½ķåıį":11764,"ä½ķç½ª":11765,"ä½ķæŃ¢":11766,"ä½ķæĽ¾":11767,"ä½ķåĬ³":11768,"ä½ķçĥ§":11769,"ä½ķè¿Ł":11770,"åĩºäºĨ":11771,"åĩºåĪ°":11772,"åĩºéĹ¨":11773,"åĩºèº«":11774,"åĩºå¤ĸ":11775,"åĩºåĬĽ":11776,"åĩºæľĿ":11777,"åĩºå±¯":11778,"åĩºæ±īä¸Ń":11779,"åĩºæĢ¨è¨Ģ":11780,"åĲ¾äºİ":11781,"åĲ¾ä¹Ł":11782,"åĲ¾åīį":11783,"åĲ¾åį³":11784,"åĲ¾æĸ¹":11785,"åĲ¾çĶļ":11786,"åĲ¾çĪ¶":11787,"åĲ¾æĥ³":11788,"åĲ¾éļıåĲİ":11789,"åĲ¾èĭ¥ä¸į":11790,"åĲ¾æĿ¥æĹ¥":11791,"åĲ¾å½ĵåħĪ":11792,"åĲ¾çĪ±":11793,"åĲ¾å¦¹":11794,"åĲ¾æľīä¸Ģè®¡":11795,"åĲ¾æĹłå¿§çŁ£":11796,"åĲ¾å¤ľæ¢¦":11797,"éĻķ":11798,"åı¯éĹ®":11799,"åı¯åĳ½":11800,"åı¯æĪĲ":11801,"åı¯æĸ©":11802,"åı¯è°ĵ":11803,"åı¯åıĬ":11804,"åı¯ä½¿äºº":11805,"åı¯çģŃ":11806,"åı¯åĪĨåħµ":11807,"åı¯èĥľä¹Ł":11808,"è´§":11809,"åĲİå¿ĥ":11810,"åĲİä¸ĸ":11811,"åĲİåľŁ":11812,"åĲİåłĤ":11813,"ä»¥åĨĽ":11814,"ä»¥æĺİ":11815,"ä»¥åħ¬":11816,"ä»¥å°ĨåĨĽ":11817,"ä»¥ä¸ŀçĽ¸":11818,"ä»¥çł´":11819,"ä»¥æ±Ĥ":11820,"ä»¥è¾¾":11821,"ä»¥è®¨":11822,"ä»¥éĢļ":11823,"ä»¥ç»§":11824,"ä»¥æħ¢":11825,"ä»¥æħ°":11826,"ä»¥èµĦ":11827,"ä»¥å®īæ°ĳ":11828,"ä»¥éĢĢèľĢåħµ":11829,"æĺİå¸Ŀ":11830,"æĺİçıł":11831,"æĽ¹å¯¨":11832,"æĽ¹æĺĤ":11833,"åħ¬ä¸İ":11834,"åħ¬èĩª":11835,"åħ¬èĥ½":11836,"åħ¬å¤§æĢĴ":11837,"åħ¬åı°":11838,"ä¸Ĭé¦ĸ":11839,"ä¸ĬéĽ¨":11840,"ä¸Ĭå²Ń":11841,"è¡¢":11842,"è¡ħ":11843,"å±¦":11844,"ä»Ĭåį´":11845,"ä»ĬæĦ¿":11846,"ä»ĬæĹ©":11847,"ä»Ĭåı¸é©¬æĩ¿":11848,"ä»Ĭå¼ĥ":11849,"ä»Ĭé©¬è¶ħ":11850,"ä»Ĭéĥ½çĿ£":11851,"ä»Ĭçī¹":11852,"ä»Ĭéģĩ":11853,"ä»Ĭä½ķæķħ":11854,"ä»Ĭå¤§çİĭ":11855,"ä»Ĭä¸»ä¸Ĭ":11856,"ä»Ĭåľ¨ä½ķå¤Ħ":11857,"çİĦæŃ¦":11858,"ä¸İäºº":11859,"ä¸İå¼łé£ŀ":11860,"ä¸İä¸»åħ¬":11861,"ä¸İå½¼":11862,"ä¸İä¸ľåĲ´":11863,"ä¸İé©¬è¶ħ":11864,"ä¸İéĥ½çĿ£":11865,"ä¸İåį¿":11866,"ä¸İä¼Ĺå®ĺ":11867,"ä¸İåĪĺçĴĭ":11868,"ä¸İæĽ¹åĨĽ":11869,"ä¸İæ³ķæŃ£":11870,"å¼łèī¯":11871,"å¼łä»ª":11872,"å¼łåĨĢ":11873,"æĭ¯":11874,"æĭŃ":11875,"åİ»æĬķ":11876,"åİ»åĲĳ":11877,"åİ»å¯»":11878,"åħ¶åĨĽ":11879,"åħ¶ä¸Ģ":11880,"åħ¶ä¸Ĭ":11881,"åħ¶äºĮ":11882,"åħ¶åīį":11883,"åħ¶èĥ½":11884,"åħ¶æ°´":11885,"åħ¶å¿ł":11886,"åħ¶å¤´":11887,"åħ¶èĥĮ":11888,"åħ¶å®³":11889,"åħ¶å¥³":11890,"åħ¶ä¸Ńæľī":11891,"çİĦå¾·åħ¬":11892,"çİĦå¾·èĩª":11893,"çİĦå¾·åĪ°":11894,"çİĦå¾·æŃ£":11895,"çİĦå¾·éĹ®æĽ°":11896,"çİĦå¾·é¢Ĩåĳ½":11897,"çİĦå¾·æĭľè°¢":11898,"çİĦå¾·åı±æĽ°":11899,"çİĦå¾·æĸ¹æīį":11900,"çİĦå¾·ç§°è°¢":11901,"æĹ¥ä¸Ń":11902,"æĹ¥æľŁ":11903,"æĹ¥ç£":11904,"æĹ¥æļ®":11905,"åŁİåĮĹ":11906,"åŁİäºŃä¾¯":11907,"åŁİåŀ£":11908,"ä»¤å°Ĩ":11909,"ä»¤æĺİ":11910,"ä»¤åħĪ":11911,"ä»¤ä¼Ĺ":11912,"ä»¤äºĳéķ¿":11913,"ä»¤æĽ¹ä»ģ":11914,"ä»¤åħ³åħ´":11915,"ä¹ĥäºİ":11916,"ä¹ĥèĩ³":11917,"ä¹ĥå¤©":11918,"ä¹ĥæ±ī":11919,"ä¹ĥå¼łé£ŀ":11920,"ä¹ĥåŃĻæĿĥ":11921,"ä¹ĥæļĹ":11922,"ä¹ĥèµµäºĳä¹Ł":11923,"èĩªåľ¨":11924,"èĩªæĬķ":11925,"èĩªè§£":11926,"èĩªéĢģ":11927,"èĩªæĸĻ":11928,"èĩªåı·ä¸º":11929,"èĩªç¼¢":11930,"äºĮåĽ½":11931,"äºĮçĻ¾ä½Ļ":11932,"åĽŀæķĳ":11933,"åĽŀåĳĬ":11934,"åĽŀå¾Ĳå·ŀ":11935,"åĽŀéŁ³":11936,"åŃĶæĺİä»¥":11937,"åŃĶæĺİåĽŀ":11938,"åŃĶæĺİå¼ķ":11939,"åŃĶæĺİåħ¥":11940,"åŃĶæĺİéģĤ":11941,"åŃĶæĺİæĢ¥":11942,"åŃĶæĺİå¤§æĥĬ":11943,"åŃĶæĺİçľŁ":11944,"åŃĶæĺİå¤§æĢĴæĽ°":11945,"åŃĶæĺİçŃĶæĽ°":11946,"åŃĶæĺİåĽŀåĪ°":11947,"å¼ķåĩº":11948,"å¼ķè¿Ľ":11949,"å¼ķçĻ¾ä½Ļéªĳ":11950,"å¼ķè½»éªĳ":11951,"è¨Ģä¸į":11952,"è¨Ģäºİ":11953,"å¦ĤæĹł":11954,"å¦ĤåĲĮ":11955,"å¦ĤçĻ½":11956,"å¦Ĥéģĩ":11957,"å¦ĤåıįæİĮ":11958,"åľ¨ä¸Ń":11959,"åľ¨æĦı":11960,"åľ¨ä½į":11961,"åľ¨è®¸æĺĮ":11962,"åľ¨æĸ°éĩİ":11963,"åľ¨èĪ¹ä¸Ĭ":11964,"åľ¨èĪ¹ä¸Ń":11965,"åľ¨è¢ģç»įå¤Ħ":11966,"åľ¨æķĮæ¥¼ä¸Ĭ":11967,"åľ¨å½ĵéĺ³éķ¿åĿĤ":11968,"æĥ®":11969,"æĺ¯ä½ķå¤Ħ":11970,"åħ¥å±±":11971,"åħ¥æĭľ":11972,"åħ¥èįĨå·ŀ":11973,"åħ¥èĲ¥":11974,"åħ¥æĢĢ":11975,"åħ¥å¸Ĳä¸Ń":11976,"çĽ¸éĹ®":11977,"çĽ¸åĲĪ":11978,"çĽ¸ä¼ł":11979,"çĽ¸æİ¢":11980,"çĽ¸å¯¹":11981,"çĽ¸çº¦":11982,"å¾Ĺè§ģ":11983,"å¾Ĺæ°´":11984,"å¾Ĺè¿ĩ":11985,"å¾Ĺç½ª":11986,"å¾Ĺåħį":11987,"æĹłå¾·":11988,"æĹłåĬŁ":11989,"æĹłå¥Ī":11990,"æĹłåı¯ä¸º":11991,"æĿĢè¿ĩ":11992,"æĿĢæĪ®":11993,"æĶĺ":11994,"æģº":11995,"åħĪæĿĢ":11996,"åħĪè¯´":11997,"åħĪçŁ¥":11998,"åħĪèµ°":11999,"åħĪå¼ķä¸ĢåĨĽ":12000,"åħĪéģ£äºº":12001,"ä¸īä¹Ł":12002,"ä¸īç®Ń":12003,"ä¸īæĢĿ":12004,"ä¸īæ´ŀ":12005,"ä¸īçĻ¾ä½ĻéĩĮ":12006,"è¯´å¾Ĺ":12007,"è¯´ä¸ľåĲ´":12008,"æĪĳæľ¬":12009,"èĩ³å°Ĭ":12010,"èĩ³æ±Łå¤ı":12011,"èĩ³åĽĽæĽ´":12012,"èĩ³éĿ¢åīį":12013,"é£¨":12014,"è·ĭ":12015,"åŃĲä¹Ł":12016,"åŃĲä¼¯":12017,"åŃĲä¾Ħ":12018,"åŃĲçīĻ":12019,"åŃĲåħ°":12020,"åĪ°åŁİä¸ĭ":12021,"åĪ°å¸Ĳä¸ĭ":12022,"çŁ¥æĵį":12023,"çŁ¥åħµæ³ķ":12024,"å¤©æľī":12025,"å¤©è´¥":12026,"å¤©èµĲ":12027,"åįģåĽŀ":12028,"åįģä¸īå¹´":12029,"åįģä¸ĢåĽŀ":12030,"åįģä¹ĿåĽŀ":12031,"çļĨæĽ°":12032,"çļĨçŁ¥":12033,"çļĨåĲ¬":12034,"çļĨåĽł":12035,"çļĨä¸įæķ¢":12036,"äºĭåı¯":12037,"äºĭåľ¨":12038,"äºĭæĹł":12039,"äºĭå¿ħ":12040,"äºĭæĪĲ":12041,"äºĭå®ļ":12042,"å¿ħä¸Ń":12043,"å¿ħå°½":12044,"æ±Ŀå¿ħ":12045,"æ±Ŀèĥ½":12046,"æ±Ŀäº¦":12047,"æ±Ŀä½ķäºº":12048,"æĹ¶äºº":12049,"æĹ¶ä¸º":12050,"æĹ¶ä¹Ł":12051,"æĹ¶å½ĵ":12052,"æĹ¶éĤĵèī¾":12053,"æĹ¶è¾°":12054,"æĹ¶å»ºå®īäºĮåįģ":12055,"å½ĵåį³":12056,"éŃıéĥ½çĿ£":12057,"åıĪåİ»":12058,"åıĪèµ°":12059,"åıĪè¡¨":12060,"åıĪä¸įçŁ¥":12061,"åıĪå¼ķåĨĽ":12062,"åıĪæĭ¨":12063,"åıĪä¸ĢæĹ¥":12064,"åıĪé¸£":12065,"åĪĺåº¦":12066,"åĪĺå·´":12067,"å·²åĲİ":12068,"å·²æĺ¯":12069,"å·²éĢĢ":12070,"å·²ä¸§":12071,"åıªèĪ¹":12072,"åıªå°±":12073,"åıªçĸĳ":12074,"åıªå¥½":12075,"åıªæĢķ":12076,"åıªåģļ":12077,"èĭ¥æĿ¥":12078,"èĭ¥äºĳéķ¿":12079,"èĭ¥æŀľ":12080,"å±±åŁİ":12081,"å±±æ²³":12082,"å±±å°ıè·¯":12083,"æĬ¥çİĦå¾·":12084,"æĬ¥ç§°":12085,"äºĳéĽ¾":12086,"æ¬²ä¸º":12087,"æ¬²åĩº":12088,"æ¬²å¾Ĺ":12089,"æ¬²æĬ¥":12090,"æ¬²æķĳ":12091,"æ¬²åıį":12092,"æ¬²è¦ģ":12093,"æ¬²å¯»":12094,"æ¬²åĩºæĪĺ":12095,"æ¬²æĬ¥ä»ĩ":12096,"åį´ä¹ĭ":12097,"åį´åıª":12098,"åį´éĥ½":12099,"åį´å¾ħ":12100,"åį´åĨį":12101,"åį´ä¸įçŁ¥":12102,"æ¯Ļ":12103,"æŃ£è¥¿":12104,"æŃ£è¯ĿéĹ´":12105,"æĪĺå°Ĩ":12106,"æĪĺè´¥":12107,"æĪĺåĲķå¸ĥ":12108,"ä½¿å½¼":12109,"è·¯åı£":12110,"è·¯éĢĶ":12111,"å¯¨åŃĲ":12112,"éķ¿äºĮ":12113,"éķ¿ä¹ħ":12114,"éķ¿æıĸ":12115,"èĻ«":12116,"çİĭåĮĸ":12117,"çİĭåĮ¡":12118,"çİĭèİ½":12119,"çľŃ":12120,"æ³Į":12121,"å·ŀå¹³":12122,"åŃĻä¼ĳ":12123,"åŃĻéĥİ":12124,"å®īå¿ĥ":12125,"å®īåĽ½":12126,"å®īå¤©ä¸ĭ":12127,"å®īéĤĳ":12128,"éģĤæķĻ":12129,"éģĤæĭ¨":12130,"éģĤåĬł":12131,"éģĤè¿Ľåħµ":12132,"éģĤçĤ¹":12133,"éģĤè¿ŀå¤ľ":12134,"çº£":12135,"å¿ĥå®ŀ":12136,"éĹ®ä»ĸ":12137,"éĹ®åĢĻ":12138,"é¢ĵ":12139,"é¢ĸ":12140,"åıĸæ±Ŀ":12141,"åıĸèľĢ":12142,"åıĸéħĴ":12143,"åıĸä¹Ĳ":12144,"åıĸå¾Ĳå·ŀ":12145,"åıĸè¥Ħéĺ³":12146,"èµ·åĨĽ":12147,"èµ·ä¹ī":12148,"èµ·è°¢æĽ°":12149,"æŃ»ä¹Ł":12150,"æŃ»å®Ī":12151,"æŃ»åĳ½":12152,"æŃ»äº¦":12153,"è¡Įåħµ":12154,"è¡Įèµ°":12155,"è¡ĮåĬ¨":12156,"è¡ĮåĪº":12157,"å®Īè¡ĹäºŃ":12158,"åĲ´æľī":12159,"åĲ´æĩ¿æĽ°":12160,"åĲ´ç¡ķ":12161,"æĽ¹æĵįä»¥":12162,"æĽ¹æĵįäº¦":12163,"æĽ¹æĵįå¤§åĸľ":12164,"è®¡ä¼ļ":12165,"è®¡çĤ¹":12166,"çŃīæĽ°":12167,"çŃīåķĨè®®":12168,"ä¾¿ä¸º":12169,"ä¾¿æĿĢ":12170,"ä¾¿è¿ĺ":12171,"ä¾¿åĪº":12172,"ä¾¿åĢĴ":12173,"åĪĨéģĵ":12174,"åĪĨå¼Ģ":12175,"åĪĨæķ£":12176,"åĪĨåĪĹ":12177,"åĳ½å·¦åı³":12178,"ä»İå®¹":12179,"å»ª":12180,"æľªä¸º":12181,"æľªèĩ³":12182,"æľªéģĩ":12183,"æľªè¯Ĩ":12184,"æľªéĨĴ":12185,"è¯¸åŃĲ":12186,"æĻĴ":12187,"èĪ°":12188,"å¸ĥäºİ":12189,"å¸ĥå¤§æĢĴæĽ°":12190,"å¸ĥåĪĹ":12191,"å¸ĥè¢ĭ":12192,"èľĢåĨĽ":12193,"ç¬®èŀį":12194,"ä¸ľåįİ":12195,"ä¸ľæµ·":12196,"æĿĥéĹ®":12197,"ä¾¯æ²³":12198,"é£ŀæĿ¥":12199,"é£ŀæ£¹":12200,"æĢ¥éĹ®":12201,"æĢ¥çŁ£":12202,"æĢ¥æĿ¥æķĳ":12203,"éĿ¢ä¸įæĶ¹":12204,"åįĹåĮĹ":12205,"åįĹé¡¿":12206,"åįĹçļ®":12207,"éĹ»åħ¬":12208,"éĹ»è¯´":12209,"èµ°åĽŀ":12210,"èµ°æĹ¶":12211,"èµ°è·¯":12212,"åĽĽéĺŁ":12213,"åĽĽäºĶåįģåĲĪ":12214,"æķ°æŀª":12215,"æķ°æŃ¥":12216,"èĩ£æŃ»":12217,"èĩ£è¯·":12218,"èĩ£éĿŀ":12219,"èĩ£åıĹ":12220,"åį³èĩ³":12221,"åį³åıĸ":12222,"åį³è¯·":12223,"åį³èµĲ":12224,"åį³ä½¿äºº":12225,"å¿½å¸Ĳä¸ĭ":12226,"ä¸¤æĿ¡è·¯":12227,"å¾ĢåĬ©":12228,"å¤ĩå½ĵ":12229,"å¤ĩè¿°":12230,"æīĢèµĲ":12231,"äºĶåĽŀ":12232,"äºĶåħ³":12233,"æŁ¥":12234,"å¹³ä¾¯":12235,"éĢĢäºĨ":12236,"éĢĢæŃ¥":12237,"æľĽéĻĽä¸ĭ":12238,"éĹ¨åĨħ":12239,"éĹ¨èĢĮåħ¥":12240,"æµļ":12241,"ä¸ĩåħ¨":12242,"ä¸ĩæĶ¿":12243,"ä¸ĩæĪ·":12244,"æ±īä¹ĭ":12245,"æ±īåĨĽ":12246,"æ±īéĺ³":12247,"æ±īç¥Ģ":12248,"åľ°ä¸Ĭ":12249,"åľ°æĸ¹":12250,"åľ°åĲį":12251,"æķħæīĺ":12252,"ç²ª":12253,"ç§ĥ":12254,"æĸ¹è§ģ":12255,"æĸ¹åĩº":12256,"æĸ¹æķ¢":12257,"æĸ¹æŃ¢":12258,"æĸ¹éĨĴ":12259,"æĸ¹æĤŁ":12260,"çĶŁéĹ¨":12261,"çĶŁåĬĽ":12262,"å¤ĦèĢĮèµ°":12263,"å¤Ħä¸ĸ":12264,"æĸĩåı°":12265,"æĸĩçļĩå¸Ŀ":12266,"æĸĩåĩŃ":12267,"æ°´çģ«":12268,"æ°´åı£":12269,"éĻįäºĨ":12270,"éĻįä¹¦":12271,"éĻįè´¼":12272,"éĻįæĹĹ":12273,"éĻįåįĴ":12274,"çĶ¨æīĭ":12275,"çĶ¨éĵģ":12276,"çĶ¨èį¯":12277,"çĶ¨æŃ¤è®¡":12278,"å°ıåŃĲ":12279,"å°ıèĩ£":12280,"å°ıåİ¿":12281,"å°ıä¾Ħ":12282,"åį´è¯´éŃıå»¶":12283,"åį´è¯´åŃĻçŃĸ":12284,"åį´è¯´éĻĨéĢĬ":12285,"å£°åĸı":12286,"å°½æķ°":12287,"å°½åıĳ":12288,"å°½çĿĢ":12289,"æķ¢éĹ®":12290,"é»Ħé¾Ļ":12291,"é»ĦåĬŃ":12292,"é»Ħæ±īåįĩ":12293,"æĥĬåĢĴ":12294,"æĥĬéĹ®åħ¶æķħ":12295,"æīĭæĮĩ":12296,"æīĭæĮģ":12297,"ç¦¾":12298,"è®®æ¬²":12299,"è®®ç«ĭ":12300,"å¤ľåĪĻ":12301,"è´¥éĺµ":12302,"äº¦åľ¨":12303,"äº¦èĩ³":12304,"äº¦çŁ¥":12305,"äº¦å½ĵ":12306,"äº¦éĿŀ":12307,"äº¦éªĤæĽ°":12308,"çĸ¥":12309,"åĲ¬ä»İ":12310,"åĲ¬åħ¶è¨Ģ":12311,"æĩ¿å¤§æĥĬæĽ°":12312,"è¯·åħ¬":12313,"è¯·å¸Ŀ":12314,"è¯·å¤«äºº":12315,"è¢«åĲ¾":12316,"è¢«ä¼¤":12317,"åĽ½æľī":12318,"åĽ½çİĭ":12319,"åĽ½ä¹¦":12320,"åĽ½å¯º":12321,"ç½©":12322,"ä¸ĶæĽ°":12323,"ä¸ĶæĿĥ":12324,"ä¸Ķä½ı":12325,"å¸Ŀä¹ĥ":12326,"è´¼åħļ":12327,"è®¸åħģ":12328,"è®¸è´¡":12329,"å¿łå¿ĥ":12330,"å¿łåĲĽ":12331,"å¿łåŃĿ":12332,"éĶ¹":12333,"éĶħ":12334,"ä¸įåı¯éĢłæ¬¡":12335,"çĳľä»¤":12336,"çĳľåĳ½":12337,"äºĮäººæĽ°":12338,"å¾ħæĿ¥":12339,"å¾ħä¸ºä¸Ĭå®¾":12340,"ç»´ä»¤":12341,"éĿŀæ±ĿçŃī":12342,"æķĻè¯²":12343,"åĨħåıĺ":12344,"ä¸ŀçĽ¸æľī":12345,"ä¸ŀçĽ¸ä»¤":12346,"ä¸ŀçĽ¸æ¬²":12347,"ä¸ŀçĽ¸éĴ§":12348,"ä¸ŀçĽ¸ä¸´ç»Ī":12349,"éģĵå£«":12350,"èº«èĻ½":12351,"èº«å¸¦":12352,"ç«ĭèµ·":12353,"å¤ļå¸¦":12354,"å¤ļåįĬ":12355,"åĲĮåĽŀ":12356,"åĲĮå¹´":12357,"åĲĮåĬĽ":12358,"ä¼ıæĥŁ":12359,"æķĳåİ»":12360,"æķĳå¾Ĺ":12361,"æķĳçģŃ":12362,"æķĳåħµåĪ°":12363,"æŃ¦å°ĨåĨĽ":12364,"éĺ³åŁİ":12365,"æĪĲä½ķ":12366,"æĪĲçĸ¾":12367,"æĪĲå¤§åĬŁ":12368,"åĳ¨æĹ¨":12369,"æŁĲåİ»":12370,"æŁĲèĩª":12371,"æŁĲå·²":12372,"æŁĲæľīä¸Ģ":12373,"ç»įæ±ī":12374,"çŃĸæĢĴ":12375,"æĭľè¯·":12376,"æĭľè¿İ":12377,"æĭľæ¯ķ":12378,"å®ļçĦ¶":12379,"å®ļè¦ģ":12380,"çģ«æĢ¥":12381,"çģ«èĪ¹":12382,"è¿ĩå¤±":12383,"å¹´äºĶåįģ":12384,"æĸ©é¢ľèī¯":12385,"éĺµäº¡":12386,"éĺµèĦļ":12387,"çłĤ":12388,"çłļ":12389,"èµ¶æĿĢ":12390,"å¸ĪçĪ¶":12391,"å¸Īå©Ĩ":12392,"å¼ķåħµåĪ°":12393,"å¼ķåħµæķĳ":12394,"å¼ķåħµäºĶåįĥ":12395,"ç¬ĳä¹ĭ":12396,"ä½ľæŃ¤":12397,"ä½ľä¹Ĳ":12398,"ä½ľèī²":12399,"åĪĢæŀª":12400,"åĪĢåľ¨æīĭ":12401,"å¹¶è¾Ķ":12402,"é«ĺä¸ĭ":12403,"ä¼ļè¯¸å°Ĩ":12404,"åĽłèĢĮ":12405,"åĽłè°ĵ":12406,"åĽłæĮĩ":12407,"çĲĲ":12408,"æ¬¡æĽ°":12409,"ç²®å¹¿":12410,"å¤´é£İ":12411,"å¤´çĽ®":12412,"å¤´ä¸Ģä¸ª":12413,"äº²ä¿¡":12414,"äº²ç»Łå¤§åĨĽ":12415,"äº²åĨĴçŁ¢çŁ³":12416,"éľĢ":12417,"éľľ":12418,"éľ¹éĽ":12419,"åĮĹéĿ¢":12420,"å¤ĸçĶ¥":12421,"èµµå¿ł":12422,"èµµåĴ¨":12423,"åĬ¿å¿ħ":12424,"éĻĪçºª":12425,"çĶļäºİ":12426,"çĶļå½ĵ":12427,"çĶļå¥½":12428,"çĶļä¸¥":12429,"çĶļçĽĽ":12430,"çĶļç´§":12431,"èįĨå·ŀæľīå¤±":12432,"èįĨå·ŀå·²è¢«":12433,"æį¶èĥ¸":12434,"å½Ĵåİ»":12435,"å½Ĵåºľ":12436,"çĮľ":12437,"è°ĵæĵįæĽ°":12438,"è°ĵäºĳéķ¿æĽ°":12439,"éĩįäºĭ":12440,"éĩįåıł":12441,"æģĲæĺ¯":12442,"æģĲæĥ§":12443,"åĳĬæĪĳ":12444,"åĳĬéĢĢ":12445,"åĳĬå¸ĥæĽ°":12446,"èĢ³çĽ®":12447,"æĦ¿å°Ĩ":12448,"æĦ¿åį³":12449,"æĦ¿æ±Ĥ":12450,"æĦ¿ä¹ŀ":12451,"æĦ¿æĺİåħ¬":12452,"æĹ©åĩº":12453,"æĶ¾çĤ®":12454,"æİ¥ä½ı":12455,"æİ¥æµİ":12456,"éļıå°Ĩ":12457,"éļıæĪĳ":12458,"éļıçĿĢ":12459,"æıŃ":12460,"èĻ½æŃ»":12461,"çĪ¶ä¹ĭä»ĩ":12462,"çĽ´æĿĢåħ¥":12463,"èľĢåħµå°½":12464,"èľĢåħµåĬ¿å¤§":12465,"åıĹæĥĬ":12466,"åıĹç¼ļ":12467,"åıĹèĭ¦":12468,"ä¸įèĥ½åĩº":12469,"ä¸įèĥ½è¿Ľ":12470,"ä¸įèĥ½åĨ³":12471,"ä¸įèĥ½ä¿Ŀ":12472,"ä¸įèĥ½åıĸèĥľ":12473,"åħ´æ±īå®¤":12474,"å¤ıä¾¯åĴĮ":12475,"å¤ıä¾¯é©¸é©¬":12476,"åĨįåĩº":12477,"åĨįä»¤":12478,"åĨįéĹ®":12479,"åĨįæķ´":12480,"åĪĻåĲ¾":12481,"åĪĻæĺ¯":12482,"åĪĻåĲĮ":12483,"åĪĻä¸ľåĲ´":12484,"è¿ŀå¼©":12485,"è¿ŀç»ľ":12486,"ç¿Łåħĥ":12487,"ä¹ĺä¹±":12488,"ä¹ĺæŃ¤æĹ¶":12489,"ä¹ĺå°ıè½¦":12490,"å°ļåı¯":12491,"å°ļçĦ¶":12492,"å°ļä¸Ķ":12493,"å¤įä½ķ":12494,"å¤įä»ĩ":12495,"ç¨¿":12496,"åĬŁçĽĸ":12497,"åĬŁä¸ļ":12498,"åĬŁç»©":12499,"å¥ıç§°":12500,"ä¼ĳåİ»":12501,"ä¼ĳåĬ¨":12502,"ä¼ĳåĴİ":12503,"éĴĪ":12504,"èĢģæĲº":12505,"å¥īçĮ®":12506,"æĽ´æĹł":12507,"åĬĽåĬĿ":12508,"åĬĽç©·":12509,"çł´ä¹Ł":12510,"çł´åŁİ":12511,"çł´é©¬è¶ħ":12512,"çł´ç»½":12513,"ä¹īæ°Ķ":12514,"ä¹īçĬ¶":12515,"å°±éĩĮ":12516,"å°±åĿĲ":12517,"å°±å½¼":12518,"ä¹±çŁ³":12519,"å°ģçĪµ":12520,"å¼Ģå¼ĵ":12521,"ç®Ńä¸Ĭ":12522,"ä¹ħäºĭ":12523,"ä¹ħå®Ī":12524,"ä¹ħæĮģ":12525,"ä¹ħæħķ":12526,"åıįèĢ¶":12527,"åıįä¸įå¦Ĥ":12528,"åıįåıĽ":12529,"æľ¬èĲ¥":12530,"è¦ģä»ĸ":12531,"åįĵæĢĴ":12532,"åĶ¤å·¦åı³":12533,"åķĨè®®èµ·åħµ":12534,"åŃŁèĬĤ":12535,"åŃŁåĿ¦":12536,"çĸĳå¿ĥ":12537,"ç¤¼è´¤":12538,"å¤©ä¸ĭä¹ĭ":12539,"å¤©ä¸ĭä¹ĭäºĭ":12540,"å¤©ä¸ĭå¤§ä¹±":12541,"å¤©ä¸ĭå¥ĩæīį":12542,"ä¸»åħ¬ä½ķä¸į":12543,"å²Ĥä¸įåı¯":12544,"æĹ¢æĺ¯":12545,"æĹ¢æĿĢ":12546,"æĿ¨å¤§å°Ĩ":12547,"æĿ¨é¾Ħ":12548,"æ°ĳåħµ":12549,"ç»Łå¤§åħµ":12550,"æĶ¶å¾Ĺ":12551,"æĶ¶å½ķ":12552,"é²¸":12553,"é²Īé±¼":12554,"æľĿå¤ķ":12555,"åĬ¨æŃ¢":12556,"åĬ¨æĳĩ":12557,"å§ĵåŃĻ":12558,"éĩĳçİī":12559,"éĩĳéĶģ":12560,"éŃıå»¶è§£":12561,"çķĻæŃ¤":12562,"åĨĽé©¬äºİ":12563,"æĵĴä¸ĭ":12564,"æĵĴåĪĺå¤ĩ":12565,"é£İèµ·":12566,"å±¯å°ıæ²Ľ":12567,"åŃĹæŃ£":12568,"åŃĹä¼¯":12569,"çªŁ":12570,"çľŁå®ŀ":12571,"èµµäºĳçŃī":12572,"æīįä¹Ł":12573,"æīįå¾·":12574,"éĥŃå¤«äºº":12575,"èĥĮä¸Ĭ":12576,"èĥĮæ°´":12577,"ç©°":12578,"éŁ©çĳ¶":12579,"åĪĺå¤ĩä¹Ł":12580,"éĢģäºĨ":12581,"å¾Ħè¢Ń":12582,"è¿ľå°ĨåĨĽ":12583,"è¿ľæľĽ":12584,"å¼ĥåį´":12585,"å¼ĥä¸ĸ":12586,"åĴĴ":12587,"å¸¦çĿĢ":12588,"èī¯é©¬":12589,"èī¯è¾°":12590,"èī¯è´±":12591,"å¤«äººåİ»":12592,"ä½Ĩä»¥":12593,"åĽ´åĽ°":12594,"åĵŃæ³£":12595,"è¿ĺæľī":12596,"è¿ĺæĪĳ":12597,"è¿ĺæĪĲéĥ½":12598,"æ¬¡æĹ¥æĹ©":12599,"æ¬¡æĹ¥å¹³æĺİ":12600,"èįīä¸Ń":12601,"èįīæľ¨":12602,"èįīåłĨ":12603,"ç½ªä¹Ł":12604,"ä½łä¸¤å®¶":12605,"åħ«æĸ¹":12606,"åħ«å¹´":12607,"åħ«åŃĹ":12608,"åħ«åįģä½Ļ":12609,"å°Ħç®Ń":12610,"çĮ®éĹ¨":12611,"çĮ®åĬŁ":12612,"æıĲå¤´":12613,"æıĲéĿĴé¾ĻåĪĢ":12614,"çĻ½æĹ¥":12615,"çĻ½åıĳ":12616,"å·®éĶĻ":12617,"ä¼łåı·ä»¤":12618,"æĬĬéĹ¨":12619,"æĬĬæŀª":12620,"åįĬå¹´":12621,"åįĬæ¸¡":12622,"åįĬçĤ¹":12623,"å¥½é©¬":12624,"å¥½ç»ĵ":12625,"å¥½åŃ¦":12626,"äºİæĺ¯äºĮäºº":12627,"äºİæĺ¯åı¸é©¬æĩ¿":12628,"äºİæĺ¯å§ľç»´":12629,"åĿļåĽº":12630,"åĿļè¾ŀä¸įåıĹ":12631,"é¼ĵç½¢":12632,"å¨´":12633,"è¯ıä¹¦":12634,"éĤ£ä¸ª":12635,"éĤ£å°ĳå¹´":12636,"æµģæ³ª":12637,"æµģèĬ³":12638,"å¸¸æĽ°":12639,"å¸¸è¨Ģ":12640,"å¸¸æĢĢ":12641,"æīĵåŁİ":12642,"åįģä½Ļæ¬¡":12643,"æİ¢åŃĲ":12644,"æİ¢çľĭ":12645,"æİ¢åĲ¬å¾Ĺ":12646,"åĭ¿å¤ļè¨Ģ":12647,"ä¸įçŁ¥æīĢ":12648,"è½»åĬ¨":12649,"éĽĦå¸Ī":12650,"æ»©":12651,"æ»ĭ":12652,"åħ±ä¼Ĳ":12653,"åħ±è¯Ľ":12654,"åħ±è®º":12655,"åĨ²åĩ»":12656,"å®³äºĨ":12657,"ä¸įæķ¢ä¸įä»İ":12658,"ä¸įæķ¢åīįè¿Ľ":12659,"ä¸įæķ¢æģĭæĪĺ":12660,"ä¸įæķ¢æĿ¥è¿½":12661,"æ¢¢":12662,"ç¬¬ä¸Ģä¸ª":12663,"ç¬¬ä¸īæĹ¥":12664,"è°¢åĪ«":12665,"æ±Ĥè§ģ":12666,"çĴ§":12667,"å¼ķåĨĽåĩºè¿İ":12668,"åĪ«äºĭ":12669,"åĪ«åĽ¾":12670,"çºµåħµ":12671,"çºµæľī":12672,"çºµçģ«":12673,"çĹħèĢħ":12674,"çĹħä½ĵ":12675,"ä»»ä»İ":12676,"å®¹çº³":12677,"å®¹è²Į":12678,"èĻİåį«":12679,"èĻİä½ĵ":12680,"èĻİå¨ģå°ĨåĨĽ":12681,"äººé©¬åĽ°ä¹ı":12682,"æļĹåıĸ":12683,"æļĹåľ°":12684,"æļĹæĬķ":12685,"æļĹåı·":12686,"æļĹèĹı":12687,"åĬ©ä¹Ł":12688,"è¯Ĺä¸Ģé¦ĸ":12689,"æŃ¢çķĻ":12690,"æŃ¢æľīä¸Ģ":12691,"æŃ¢åī©":12692,"æŃ¢å¤±æİª":12693,"ä¸¾åħµ":12694,"ä¸¾çĽ®":12695,"ä¸¾æŃ¢å¤±æİª":12696,"ä¸ĸå±ħ":12697,"è¡£ä¸Ń":12698,"è¡£é£Ł":12699,"ä¸ĥæĹ¥":12700,"ä¸ĥå°º":12701,"èĦ¸":12702,"èĦī":12703,"èĦĬ":12704,"åıĶä¾Ħ":12705,"åŃ¤åŁİ":12706,"è´¤èĩ£":12707,"å¤ºåĲ¾":12708,"èĻļç«ĭ":12709,"èĻļä¼ł":12710,"ä¿Ŀä¹ĭ":12711,"ä¿Ŀå¥ı":12712,"ç¥ŀæĢĿ":12713,"ç¥ŀéĢŁ":12714,"ç¥ŀäºŃ":12715,"ç¥ŀåįľ":12716,"è°ģä¸º":12717,"è°ģèĤ¯":12718,"æĸŃäºĨ":12719,"åľŁèī²":12720,"åľŁå´©":12721,"åľŁåĿĳ":12722,"å±ħä½ı":12723,"å±ħå·¦":12724,"å±ħåı³":12725,"å±ħä¸§":12726,"æĮĩæķĻ":12727,"åħĥå®µ":12728,"ç¨ĭè¿ľå¿Ĺ":12729,"å¯¹åĿĲ":12730,"å¯¹è¯ģ":12731,"æģ©äºİ":12732,"æģ©åĳ½":12733,"æģ©ä¹ī":12734,"å¨ģéķĩ":12735,"å¨ģç¦ı":12736,"ä¾įåį«":12737,"åıªè§ģåŃĶæĺİ":12738,"åıªè§ģèľĢåħµ":12739,"åıªè§ģå¼łé£ŀ":12740,"æ¯įèĩ³åŃĿ":12741,"æķ£æµģè¨Ģ":12742,"æģ¨èĢħ":12743,"éľĩæĽ°":12744,"ç§°ç¾¡":12745,"æħĮä»¤":12746,"åį¿åı¯":12747,"èĲ½åĲİ":12748,"èĲ½èįĴ":12749,"éĻµè¿Ł":12750,"èģļä¼ļ":12751,"èģļä¼ĹåķĨè®®":12752,"ä¸Ĭé©¬èĢĮåİ»":12753,"åĭĩä¸įåı¯å½ĵ":12754,"æľīä¸Ģæ³ī":12755,"çī¹åĳ½":12756,"çī¹è¯·":12757,"é©¾èĪŁ":12758,"éĢŁæĪĺ":12759,"çĵ®":12760,"æĸ°ä¹¦":12761,"æĸ°çł´":12762,"çº¦äºİ":12763,"çº¦æĪĺ":12764,"çº¦æľŁ":12765,"æľķæ¬²":12766,"æľķéĹ»":12767,"åĪºäºİé©¬ä¸ĭ":12768,"çŁ³ä¸Ĭ":12769,"çŁ³å£ģ":12770,"ä¸ķå¤§åĸľ":12771,"åħŃä¸ĩ":12772,"åħŃçĶ²":12773,"åħŃå²ģ":12774,"åħŃåĩºç¥ģå±±":12775,"å¼łéĥĥå®Ī":12776,"å¿§çŁ£":12777,"æ¸ĬæĽ°":12778,"ä¸´æķĮ":12779,"ä¸´éļ¾":12780,"ä¹ĭè¨Ģä¹Ł":12781,"éĢĬç¬ĳæĽ°":12782,"å¥³åĦ¿":12783,"èĽ®æ´ŀ":12784,"ç»Ĩå¥ı":12785,"ç»Ĩè¿°":12786,"éĿĴè¡£":12787,"èµĲä¸İ":12788,"ç¥ĸçĪ¶":12789,"å¤ªå®Īå¼łæĿ¨":12790,"å¯»éĹ®":12791,"èĭ±æĿ°":12792,"ä½¿äººéĢģ":12793,"åĴĮä½ł":12794,"è¯Īè°ĭ":12795,"ç¦»æ´Ľéĺ³":12796,"æŃ¥åįĴ":12797,"æİ¨ä¸ĭ":12798,"æİ¨çĹħ":12799,"æİ¨åĢĴ":12800,"æİ¨éĺ»":12801,"ä¸ĢéĿ¢ä»¤":12802,"ä¸ĢéĿ¢ä»¤äºº":12803,"åħīèĬĴ":12804,"ä¸¥å¯Ĵ":12805,"ä¹ĿæĹı":12806,"è¢ŃèįĨå·ŀ":12807,"æľīè¯ĹæĽ°":12808,"æľīè¯Ĺåı¹æĽ°":12809,"é¡ºå¤©":12810,"å¢©":12811,"æľ¨çŃı":12812,"æľ¨çĤ®çŁ³":12813,"åĬłä¹ĭ":12814,"åĬłåħµ":12815,"ä¸įå¦ĤåĿļå®Ī":12816,"æĥ§ä¹Ł":12817,"ä»¤äººäºİ":12818,"ä»¤äººéĢģ":12819,"çĲĨå®ľ":12820,"åŃŁèİ·åħ¥":12821,"åŃŁèİ·å¤§åĸľ":12822,"åħ¸æĽ°":12823,"ç¦ģæŃ¢":12824,"éĢłæĪĲ":12825,"ä¸Ģå£°æ¢ĨåŃĲ":12826,"ä¸ĭé©¬åıĹéĻį":12827,"åĬ«åİ»":12828,"æĭĽåĳ¼":12829,"äºĮåįģåĽĽäºº":12830,"æ±ĿçŃīçļĨ":12831,"åĬĿä¸»åħ¬":12832,"å¦»å¥³":12833,"çĿ¿ä»İä¹ĭ":12834,"åİŁæĿ¥åŃĶæĺİ":12835,"é©±æľ¨çīĽæµģé©¬":12836,"å¼Ĥåº¦":12837,"åİ¿å°ī":12838,"ä¼¤åħ¶":12839,"åİļå¾ħ":12840,"åİļæĦı":12841,"åİļç¤¼":12842,"åİļèµı":12843,"åĦ¿æĦ¿":12844,"æ»¡åŁİ":12845,"æ»¡å¤©":12846,"æ»¡åº§":12847,"å®Ĺé¢Ħ":12848,"å¼łè¾½ä¹Ł":12849,"éľ¸çİĭ":12850,"æĬ¤è½¦":12851,"åħ¥åŁİè§ģ":12852,"æĮģçŁĽ":12853,"æ±Łä¸ľåŃĻæĿĥ":12854,"åĪ©åĪĢ":12855,"åľ¨æŃ¤éĹ´":12856,"èİ«ä¸į":12857,"é¢ĨåħµäºĶä¸ĩ":12858,"å¿½çĦ¶ä¸Ģéĺµ":12859,"æ®¿å®ĩ":12860,"å¾¡æķĮ":12861,"éĢļå§ĵåĲį":12862,"æĽ¹åħµå¤§è´¥":12863,"æĽ¹åħµå¤§ä¹±":12864,"åĢĺå½¼":12865,"åĢĺéŃıåħµ":12866,"æľªçŁ¥çİĦå¾·":12867,"æĬĺåħ¶å¤§åįĬ":12868,"ä¼Ĺå®ĺåĳĬåħį":12869,"éºĴéºŁ":12870,"ç»ĪéĿŀ":12871,"åħ·éģĵ":12872,"åį§åĨħ":12873,"åį§èļķ":12874,"æī¶æŁ©":12875,"æī¶èĢģæĲº":12876,"æĢ§èµ·":12877,"æĢ§åĪļ":12878,"æĭĶåĪĢ":12879,"äºīåĬŁ":12880,"æĿ¥è§ģæĵį":12881,"æĿ¥è§ģåŃĻæĿĥ":12882,"æŀģåĸĦ":12883,"æŀģå¹¿":12884,"æ¨Ĭåı£":12885,"çĭ¬æľī":12886,"çĭ¬èĩª":12887,"çĭ¬æĪĺ":12888,"çĭ¬çĶŁ":12889,"èµ·åħµåįģä¸ĩ":12890,"çĻ¾ä½ĻæĹ¥":12891,"é©¬å²±æĽ°":12892,"åĪĺè¡¨æĽ°":12893,"å¼ºçĽĽ":12894,"ä¸ģå»ºéĺ³":12895,"ä¸ģå»Ļ":12896,"æİ©ä¹ĭ":12897,"æİ©èĩ³":12898,"æĪªåĩº":12899,"è¢įå¸¦":12900,"è¢įéĵł":12901,"å¿ħæľīåĩĨå¤ĩ":12902,"å¿ħæľīåŁĭä¼ı":12903,"æľīä½ķèī¯çŃĸ":12904,"è¯ĨåĲ¾":12905,"è¯Ĩçł´":12906,"å¹¼å¸¸":12907,"è´¾èĮĥ":12908,"æ´ŀåħµ":12909,"çĬ¹èĩª":12910,"éĢĨä¸į":12911,"æ¯ıå¤ľ":12912,"æįīäºĨ":12913,"ä¸§äºĭ":12914,"åĩºé©¬äºİ":12915,"åĩºé©¬æĲ¦æĪĺ":12916,"è°ĥçĲĨ":12917,"ä¼ĹçļĨæĽ°":12918,"ç¥¸ç¦ı":12919,"ç¥¸ä¸įè¿ľçŁ£":12920,"çĥ§ç»Ŀ":12921,"åĳ¼æĽ°":12922,"æĭ¥åħ¥":12923,"æĭ¥èĢĮæĿ¥":12924,"éķĩè¥¿å°ĨåĨĽ":12925,"éķĩåĽ½å¯º":12926,"èĦ±ä¸ĭ":12927,"èĦ±åİ»":12928,"åıªå¾Ĺä¸ĭé©¬":12929,"åĪĨåħµäºĶè·¯":12930,"æ²»ç½ª":12931,"çłįåİ»":12932,"å¤ıä¾¯æĥĩæĽ°":12933,"æĸĩæŃ¦çĻ¾å®ĺ":12934,"çĶ°éĩĮ":12935,"çĶ°ç»Ń":12936,"åĽŀæĬ¥åŃĶæĺİ":12937,"è½¬è¿Ĳ":12938,"åı¤ä¹ĭ":12939,"ä»ĵæĽ°":12940,"ä»ĵäºŃ":12941,"æķ´çĤ¹":12942,"åħįèĩ´":12943,"åħįåħ¶æŃ»":12944,"æĬµèµĸ":12945,"åı¯ä»¥ä¿Ŀ":12946,"å°½çļĨæĮĤåŃĿ":12947,"ä¸Ķè¯´çİĦå¾·":12948,"éģįè¡Į":12949,"éģįè§Ĩ":12950,"éģįç«ĸ":12951,"éģĹè¨Ģ":12952,"éģĹè¡¨":12953,"çķ¥æĹł":12954,"åĲ¬å¾Ĺè¿Ļä¸ªæ¶Īæģ¯":12955,"åħĦå¼Łä¹Ł":12956,"èĹ©":12957,"åįĩåłĤ":12958,"åĪĹéĺµ":12959,"åĩłä¸ª":12960,"æĺŁå¤ľæĬķ":12961,"æĮºæŀªçĽ´åıĸ":12962,"éķ¿å®īæĿ¥":12963,"æł¡åĪĢæīĭ":12964,"ä¸įèĤ¯åıĳåħµ":12965,"åĳĺå¤§å°Ĩ":12966,"è¿ĲçŃ¹":12967,"èµ¤åĦ¿":12968,"æ³ªæµģ":12969,"è±«ç«ł":12970,"æĽ¹çľŁä¸ºå¤§éĥ½çĿ£":12971,"éŀĴ":12972,"éŃıä¸»æĽ¹é«¦":12973,"æĮīåħµ":12974,"æĮīè¾Ķ":12975,"å¼łç¿¼ä¹Ł":12976,"å¼ķä¸ĢåĨĽä»İ":12977,"åıĮåħ¨":12978,"ä»°æľĽ":12979,"å¿½è§ģä¸Ģ":12980,"èĽ®åħµå¤§è´¥":12981,"éģ¿ç¥¸":12982,"éģ¿å¸Ń":12983,"ä¼ıåħµé½Ĳåĩº":12984,"ä¼ıåħµåĽĽèµ·":12985,"æĸ½çĬ¬é©¬ä¹ĭåĬ³":12986,"æĮĤåį°":12987,"ä¹ĺåĬ¿è¿½èµ¶":12988,"å·®äººåİ»":12989,"é¸£é¼ĵ":12990,"éĻĨéĢĬæĽ°":12991,"ä¸ĵæľĽ":12992,"å¦¾èº«":12993,"éļĲåĮ¿":12994,"åĨĻçĿĢ":12995,"æĹłä¸įæĥĬéªĩ":12996,"æĹłä¸įä¸ĭæ³ª":12997,"ä¹ŀéĻĽä¸ĭ":12998,"è¯Ŀè¯´":12999,"å¹¿å®Ĺ":13000,"æĬ¥çŁ¥çİĦå¾·":13001,"æĬ¥çŁ¥åŃĶæĺİ":13002,"æŀĿç®Ń":13003,"ä¸īè·¯å¤¹æĶ»":13004,"ç«¥è°£":13005,"ä¹ĭæĹ¶ä¹Ł":13006,"åįķéģĵ":13007,"éĺ´éĺ³":13008,"åħ»èĢģ":13009,"å¦ĻçŃĸ":13010,"åī²åľ°":13011,"åī²æį®":13012,"åī²éº¦":13013,"åĽĽéĿ¢åĸĬå£°å¤§éľĩ":13014,"éģ£ä½¿èĩ³":13015,"éģ£ä½¿èµįè¯ı":13016,"æİĮå¤§æĿĥ":13017,"ç§¦èī¯":13018,"ç¯±":13019,"ç¯·":13020,"å®¢åķĨ":13021,"è°¦æĽ°":13022,"è´¹åĬĽ":13023,"åĩºè¿İä¹ĭ":13024,"æĢ¨æľĽ":13025,"å¿ĥèħ¹ä¹ĭäºº":13026,"æĻ¯å¸Ŀ":13027,"æĻ¯èĢĢ":13028,"æŃ»äºİæŃ¤åľ°":13029,"å±¯åħµåŁİå¤ĸ":13030,"å»ĸåĮĸæĽ°":13031,"æĬļæ°ĳ":13032,"è¿ŀå¤ľæĬķ":13033,"ç´¯åıĬ":13034,"èĥĨå¯Ĵ":13035,"æŃ¦å£«æİ¨åĩºæĸ©ä¹ĭ":13036,"åŃ¦å£«":13037,"è¯ļä¸º":13038,"è¯ļå®ŀ":13039,"åī¯éĥ½çĿ£":13040,"å¼łé²ģå¤§åĸľ":13041,"æĭįæīĭ":13042,"å¼ķä¸ĢéĺŁ":13043,"ç´¢èįĨå·ŀ":13044,"ç©¿äºĨ":13045,"ç»Ĩä½ľåĽŀæĬ¥":13046,"éĹ»ä¹ĭå¤§æĢĴ":13047,"æķĪæŃ»":13048,"æ±łä¸Ń":13049,"åľ£æľĿ":13050,"éĹ®åħ¶æĿ¥æĦı":13051,"è¦Ĩå§ĵ":13052,"ä¸Ģå½ªåĨĽä»İ":13053,"ä¸Ģå½ªåĨĽæĭ¦ä½ı":13054,"èĿīæĽ°":13055,"æĶ¹å®¹":13056,"æİĴéĬ®é©¾":13057,"çĦīèĥ½":13058,"è®¾å®´åºĨè´º":13059,"ä½ķä»¥çŁ¥":13060,"æģ¶ä¹ĭ":13061,"æ¸ħå¹³":13062,"æ²Ļåı£":13063,"æ²ĻåľŁ":13064,"å²Ĥåı¯åĽł":13065,"ä¸įè¶³ä»¥":13066,"ä¸įè¶³ä¸İ":13067,"éĻ¶æģŃç¥ĸ":13068,"å¯ĩå°ĨåĨĽ":13069,"ç§»æĹ¶":13070,"æłĳä¸Ĭ":13071,"è¨Ģæľªç»Ŀ":13072,"æīİèĲ¥":13073,"éĺģä¸ĭ":13074,"åĿ¡åīį":13075,"æ¸ŃåĮĹ":13076,"æ¸Ńæ¡¥":13077,"å¿ĺåį´":13078,"å¿ĺæģ©":13079,"æĥľåĵī":13080,"å¾ĢæĿ¥é©°":13081,"åĲĦèĩªéĢĥçĶŁ":13082,"çĮĽèĻİ":13083,"çĮĽçľģ":13084,"éĩıæ±Ŀ":13085,"åĵĢåĳĬ":13086,"æĹ©æľīæİ¢é©¬":13087,"æ¸©æĽ°":13088,"ç¾İçİī":13089,"ä¸¥é¢ľæĽ°":13090,"æĶ»æīĵä¸įä¸ĭ":13091,"çĥĪçģ«":13092,"éĴŁä¼ļæĽ°":13093,"é¦Ļé¥µ":13094,"æŀľçĦ¶æĺ¯":13095,"æĿľå·¥éĥ¨":13096,"åĽŃéĹ¨":13097,"éĢ¼è¿ĳ":13098,"ä¹ĥæĺ¯éŃıå»¶":13099,"åºĦéĻ¢":13100,"äºĮåįģä½Ļä¸ĩ":13101,"åı¸é©¬å¸ĪæĽ°":13102,"æĶ¶æĭ¾è¡Įè£ħ":13103,"åĪ¶ä¹ĭ":13104,"äººçļĨè¨Ģ":13105,"å·´èľĢ":13106,"äºİæŃ¤å¤Ħ":13107,"æĭįé©¬æĮºæŀª":13108,"æĭįé©¬æĿ¥è¿İ":13109,"æ¹ĺ":13110,"çİ¯ç»ķ":13111,"ä¸ģå¥īæĽ°":13112,"è±«å·ŀçī§":13113,"ä¸įå¿ħå¤ļè¨Ģ":13114,"çĽĳä¸ĭ":13115,"çĽĳçĿ£":13116,"çĽĳç¦ģ":13117,"åĽŀåĪ°æľ¬å¯¨":13118,"åĿĲäºİå¸Ĳä¸Ń":13119,"æĿ¨ä»ªæĽ°":13120,"çħĮ":13121,"ä¸ĢçĻ¾äºº":13122,"ä¸Ģä¸ªä¸ª":13123,"çĨŁå¨´":13124,"çĽĬå·ŀåĪĺçĴĭ":13125,"èĨı":13126,"åĲŀåĲ´":13127,"è¾Ľæķŀ":13128,"åĮ»èĢħ":13129,"ä¸ĢåĪĢæĸ©":13130,"ä¸ĢåĪĢæĸ©ä¹ĭ":13131,"è¡Ĺå¸Ĥ":13132,"äºĮæĽ´æĹ¶åĪĨ":13133,"æ··æĿĢ":13134,"åİīå£°å¤§åı«æĽ°":13135,"åİīå£°èĢĮè¨ĢæĽ°":13136,"çī§ç«¥":13137,"æħ°å¹³çĶŁ":13138,"æĻĵå¤ľ":13139,"æı´åħµ":13140,"ç«ĸåĦĴ":13141,"çģ¯çĥĽ":13142,"åį´è¯´æĽ¹æĵįåľ¨":13143,"æ¯ĴèĽĩ":13144,"å°¹å¤§çĽ®":13145,"æĵįä»¤è®¸è¤ļ":13146,"æİ·åīĳ":13147,"ä¸īåįģä½Ļå¹´":13148,"é»Ħå·¾ä½Ļåħļ":13149,"å¥ĭåĬĽåĲĳåīį":13150,"å±±è°·ä¹ĭä¸Ń":13151,"æŃ»èĢħä¸įè®¡åħ¶æķ°":13152,"çĶŁæĵĴè¿ĩåİ»":13153,"éĦ¢éĻµ":13154,"ä¸ĺå»º":13155,"åĲ´ä¸»çļĵ":13156,"ç¦ĢæĽ°":13157,"çĥŁèµ·":13158,"çĥŁçģ«":13159,"æĿŁåıĳ":13160,"åįłä½ı":13161,"ä¸ĭä»¤æĽ°":13162,"ä¸ºä¸Ĭå°Ĩ":13163,"èĩªåĽŀæĪĲéĥ½":13164,"æŃ£åľ¨å¸Ĳä¸Ń":13165,"çĸ®åı£":13166,"å°ĺåŁĥ":13167,"åħµä¸įèĩ³":13168,"æĪ¿å±ĭ":13169,"æĪıè¨Ģ":13170,"ä¼ĺæĽ°":13171,"çŃµä¼ļ":13172,"äºĨä¸Ģç¨ĭ":13173,"çīµå¼ĺ":13174,"è¿½æĿĢäºĮåįģä½ĻéĩĮ":13175,"åĮ¹å¤«ä¹ĭåĭĩ":13176,"åħ·è¨Ģåħ¶äºĭ":13177,"åħµè´¥å°Ĩäº¡":13178,"åºĨåĬŁ":13179,"æİĺåľ°éģĵ":13180,"ç±³ä»ĵ":13181,"ç»ķæ²³":13182,"éļĶå²¸":13183,"ä»ĸäººæīĢ":13184,"æ®µè°·":13185,"çıªæĽ°":13186,"éĢĶä¸Ń":13187,"èĩªçĽ¸æ®ĭå®³":13188,"å®īæ°ĳå·²æ¯ķ":13189,"æľªå°Ŀä¸į":13190,"ä¹Ķçĳģ":13191,"ç»ĥæ°´åĨĽ":13192,"æĬĹæĽ°":13193,"æĬĹæĭĴ":13194,"æĭ©ä¸»":13195,"é¡¹äºĭ":13196,"å¹³çĶŁæīĢ":13197,"çķıæĥ§":13198,"çĪ¶äº²ä½ķæķħ":13199,"å·¢æ¹ĸ":13200,"å·¢ç©´":13201,"æĬĦåĪ°":13202,"åĩºå¸Īä¼ĲéŃı":13203,"æĢªå¼Ĥ":13204,"æ²¿æ²³":13205,"æ²¿éĢĶ":13206,"æµ©å¤§":13207,"æµ©æµ©":13208,"èĭıç§¦":13209,"éĹ¨æĹĹä¹ĭä¸ĭ":13210,"æ°´åĨĽéĥ½çĿ£":13211,"éĴ§åĳ½":13212,"æ¶ªæ°´":13213,"è´¤å¼Łåı¯":13214,"æĳĩåĬ¨":13215,"ä¹ĭåĬŁä¹Ł":13216,"åİĨæķ°":13217,"éģ®éģĵ":13218,"åĿĳä¹ĭ":13219,"åĢįåĬł":13220,"åĲĦå¤Ħéļĺåı£":13221,"è¢ĸä¸Ńåıĸ":13222,"éŁ³èĢĹ":13223,"åıĹè®¡èĢĮåİ»":13224,"åıĹè®¡å¼ķåħµèĢĮåİ»":13225,"éĺ¶ä¸ĭä¸Ģäºº":13226,"åĨĽåĻ¨ç²®èįī":13227,"æĵĤæľ¨çĤ®çŁ³":13228,"æ³¢æ¶Ľ":13229,"æīĭæī§éķ¿":13230,"è´¹ç¥İæĽ°":13231,"å¤ªåŃĲåŃĻ":13232,"æĬĺäºĨè®¸å¤ļ":13233,"æ¼ıæ³Ħ":13234,"äºĽå°ĳ":13235,"äºĽäººé©¬":13236,"å®ªæĽ°":13237,"çĶ·åŃĲ":13238,"èĩªå·±åį´":13239,"ä¼Ĺè°ĭå£«æĽ°":13240,"éĽ¾æķ£":13241,"å§ĶçĶ¨":13242,"ç§įè¾ĳ":13243,"åĹŁæĢ¨":13244,"è¹ĭé¡¿":13245,"ä¸ĢæŀĿåĨĽ":13246,"åħ¶ä¸įå¤ĩ":13247,"ä¸īçĻ¾äºº":13248,"äºĭä¸įå¯Ĩ":13249,"äºĭä¸įåĨ³":13250,"ç§ĢæĽ°":13251,"æĭľè¾ŀèĢĮåİ»":13252,"åģ·çĶŁ":13253,"è¯ĪéĻįä¹¦":13254,"èĢ¿æŃ¦":13255,"ç»Ļä¸İ":13256,"éĢĲåĩº":13257,"å£ķåłĳ":13258,"æĥŃæĦ§":13259,"åĮ¡æī¶æ±īå®¤":13260,"çĶŁæŃ»ä¹ĭäº¤":13261,"æĭľä¼ıæĽ°":13262,"æ»ļæ»ļ":13263,"æĿ¥ä½¿æĽ°":13264,"åı¯å¾Ĺä¹Ł":13265,"æĹłè·¯åı¯":13266,"ç¥ľæĽ°":13267,"éĿ¢çĽ®è§ģ":13268,"çĸĨåľŁ":13269,"ä¹±ç®Ńå°ĦæŃ»":13270,"å±±è·¯èĢĮèµ°":13271,"è¥¿åįĹä¸Ĭ":13272,"åıįè´¼ä¼ĳèµ°":13273,"ä¸įå¾Ĺå·²ä¹Ł":13274,"åĲ¬ä»¤æĽ°":13275,"èĴ¯èī¯æĽ°":13276,"æ¿¡é¡»åı£":13277,"å¼ķä¸Ģåįĥåħµ":13278,"åįĸä¸»":13279,"æĿĢèĩ³å¤©æĺİ":13280,"èº«éķ¿ä¸ĥå°º":13281,"çł´æĽ¹ä¹ĭåĲİ":13282,"åħ«åįģä¸īä¸ĩ":13283,"èĮħèįī":13284,"å¤§ä¼ļè¯¸å°Ĩ":13285,"æĪĴä¹ĭ":13286,"ä¸Ĭå±±æĿ¥":13287,"ä¸īæ±ŁåŁİ":13288,"ä¸īæ±Łåı£":13289,"æĦģäºĳ":13290,"åĲĦå¼ķäºĶåįĥåħµ":13291,"ä¸įåı¯ä¸įéĻ¤":13292,"ç´«èĻļ":13293,"äº«ç¥Ń":13294,"åįıåĬĽ":13295,"å¤§æ±īçļĩåıĶ":13296,"åĩºå¸Ĳä¸Ĭé©¬":13297,"åı¯çł´çŁ£":13298,"åıªéģĵæĺ¯":13299,"ç¥ĿæĽ°":13300,"æŀŃé¦ĸ":13301,"è¯¸å°ĨçļĨæĽ°":13302,"æĢ»çĿ£åĨĽé©¬":13303,"ä»¥æĬ¥éĻĽä¸ĭ":13304,"åĽĽæĽ´éĢłé¥Ń":13305,"å¾¡æŀĹåĨĽé©¬":13306,"åĲ¯å¥ı":13307,"å®ĵæĽ°":13308,"æĿ¥çĽ¸æĬķ":13309,"èĭĹè£Ķ":13310,"ç²īç¢İ":13311,"é²įéļĨ":13312,"æľªåı¯è½»åĬ¨":13313,"åĲ¾èĩªæľīè®¡":13314,"è¾Ħåħ¥":13315,"åĽĽè·¯åħµ":13316,"æħİä¹ĭ":13317,"é¦ĸå°¾ä¸įèĥ½":13318,"éħĴèĩ³æķ°å·¡":13319,"æĹ©æľīç»Ĩä½ľæĬ¥åħ¥":13320,"æĤĶä¹ĭä¸įåıĬ":13321,"è¡Įä¸įåĪ°åįģéĩĮ":13322,"è¡Įä¸įåĪ°æķ°éĩĮ":13323,"æ²¿æ±Łä¸Ģå¸¦":13324,"äºķä¸Ń":13325,"ä¸ĢéĺŁåĨĽé©¬":13326,"æĶ¯åĲ¾":13327,"éķ¿åı¹ä¸Ģå£°":13328,"éģĤä¸įå¤į":13329,"ä¿ĬæĿ°":13330,"èĤĿèĥĨ":13331,"éĿ¢å¦ĤåľŁèī²":13332,"ä¸ĩä½Ļäºº":13333,"çĸĳæĥĳä¸įå®ļ":13334,"åĸĿä»¤å·¦åı³æİ¨åĩºæĸ©ä¹ĭ":13335,"å¥ĭçĦ¶æĽ°":13336,"è½¬è¿ĩå±±åĿ¡":13337,"åĽĽéĿ¢åĽ´åĲĪ":13338,"åħĭæĹ¥åħ´å¸Ī":13339,"ç¾ŀæĥŃæ»¡éĿ¢":13340,"é¼ĵåĻªåĳĲåĸĬ":13341,"ä¹ĭåĲįå°Ĩ":13342,"ä»¥éŀŃæĮĩæĽ°":13343,"åıªå¾ħèľĢåħµ":13344,"ç§īçĥĽ":13345,"åģĥåŁİ":13346,"åģĥæľĪ":13347,"å¡«å¡ŀ":13348,"å¤§æ±Łä¹ĭä¸Ń":13349,"äºĭå·²èĩ³æŃ¤":13350,"æĢĴæ°ĶåĨ²":13351,"è¿ĩäºĨæķ°æĹ¥":13352,"èģļæĸĩæŃ¦åķĨè®®":13353,"èĦ±èº«ä¹ĭè®¡":13354,"æĮ¥åĪĢçºµé©¬":13355,"æ²®æİĪæĽ°":13356,"æĭĺæī§":13357,"éªłéªĳ":13358,"è¿ĽéĢĢä¸įå¾Ĺ":13359,"è¿ĽéĢĢæĹłè·¯":13360,"èĲ§æĢĢ":13361,"çĲħçĲĬçİĭ":13362,"éĴ¢åĪĢ":13363,"ç¼ĺæķħ":13364,"åįĩå¸ĲèĢĮåĿĲ":13365,"ä¸įä¹īä¹Ł":13366,"èĩªä¹±çŁ£":13367,"åįģä¸ĥåĽŀ":13368,"çģ«æĬĬé½Ĳæĺİ":13369,"çĶ³å¥ıæľĿå»·":13370,"è¾ķéĹ¨å°Ħ":13371,"é³Į":13372,"é³ŀ":13373,"ä¹ĭæĤ£ä¹Ł":13374,"æľīæīĢä¸įåıĹ":13375,"åĲ¾ä»¤æ±Ŀ":13376,"èĩªéĢĢçŁ£":13377,"æĹłåıĬçŁ£":13378,"å²ĳæĺı":13379,"å¹³åľ°æ°´æ·±":13380,"æĭ¨åĽŀé©¬èµ°":13381,"è¶ĬåĲīåħĥå¸ħ":13382,"ä¸Ľä¸Ń":13383,"ä¹ĭå¤§æĤ£":13384,"ä¸ºåĽ½éĻ¤å®³":13385,"è°ĮæĽ°":13386,"åįģä¸īåĽŀ":13387,"é¢ĿæĽ°":13388,"çģĮä¹ĭ":13389,"ä¼ıè·¯åĨĽ":13390,"åĤ²æħ¢":13391,"ä¸ĢæĬĬçģ«":13392,"æĿ¥èĢħä½ķäºº":13393,"åīĬåİ»":13394,"åįģåĽĽåĽŀ":13395,"å½ĵä¸ĸèĭ±éĽĦ":13396,"å¤ľè§Ĥå¤©è±¡":13397,"éĻĨç»Ńè¿Ľåıĳ":13398,"çĻ»é«ĺæľĽä¹ĭ":13399,"ä¼¤æĦŁä¸įå·²":13400,"åĪĿæĽ´æĹ¶åĪĨ":13401,"éļĲéļĲæľī":13402,"ä½İå¤´ä¸įè¯Ń":13403,"æĦķçĦ¶æĽ°":13404,"ä¸ºèįĨå·ŀä¹ĭä¸»":13405,"åĬªåĬĽåĲĳåīį":13406,"åįģåħŃåĽŀ":13407,"æ²Ķéĺ³":13408,"æ´Ĵæ³ª":13409,"èº«æĬ«é¹¤æ°ħ":13410,"åĲİäººæľīè¯Ĺåı¹ä¹ĭæĽ°":13411,"æĬļæİĮå¤§ç¬ĳæĽ°":13412,"çĽĳåĨĽåį«çĵĺ":13413,"åıīæīĭ":13414,"æĹ¥è¡ĮåįĥéĩĮ":13415,"å¦Ĥåħ¶ä¸įçĦ¶":13416,"åįģåħ«åĽŀ":13417,"åĶ¯åĶ¯":13418,"ä¸ĢåĪĢçłįäºİé©¬ä¸ĭ":13419,"æĭĤè¢ĸèĢĮèµ·":13420,"ä»ĭæĦı":13421,"è¡Ķæŀļ":13422,"ä¸įåı¯èĥľæķ°":13423,"çĭĲçĸĳ":13424,"æĭĽåĨĽä¹°é©¬":13425,"åºŁç«ĭä¹ĭäºĭ":13426,"é¼İè¶³ä¹ĭåĬ¿":13427,"åĴ¬çīĻåĪĩé½¿":13428,"æľĭåıĭ":13429,"æĹºæ°Ķ":13430,"åıªåī©å¾Ĺ":13431,"æŃ£æħĮæĢ¥":13432,"éĤ¢è´ŀ":13433,"éĤµæĤĮ":13434,"éĢĢåĲİä¾¿èµ°":13435,"ä¸įåı¯å¤±ä¹Ł":13436,"æĤłæĤł":13437,"åĵŃå£°ä¸įç»Ŀ":13438,"çĮ®äºİéº¾ä¸ĭ":13439,"ä¹ĲåĺīåŁİ":13440,"å¼ĵå¼¦åĵįå¤Ħ":13441,"çĶĺéľ²å¯º":13442,"è¿ģå»¶æĹ¥ä¹ħ":13443,"ä¸įå°±æŃ¤æĹ¶":13444,"ä¿Ħä½ķçĥ§":13445,"åĪĨå®¾ä¸»èĢĮåĿĲ":13446,"ä¹¦éĻ¢ä¸Ń":13447,"åºĶå¼¦èĲ½é©¬":13448,"åĲĽåĳ½æľīæīĢä¸įåıĹ":13449,"æĺŃçĥĪçļĩå¸Ŀ":13450,"ä¼łåĽ½çİº":13451,"ä¸įçŁ¥ä½ķå¤Ħåİ»äºĨ":13452,"ä¸´æ·Ħä¾¯":13453,"å¼ĵé©¬çĨŁå¨´":13454,"å¾¡åı²å¤§å¤«":13455,"æĭ½èµ·åĲĬæ¡¥":13456,"åĶ¾æīĭåı¯å¾Ĺ":13457,"ä¸Ļå¯ħ":13458,"ä¸įçľģäººäºĭ":13459,"å¤§é©±å£«é©¬":13460,"ä»¥ä¸Ĭå®¾":13461,"åħ¶æĸĩæĽ°":13462,"åľ¨è¥¿æĸ¹":13463,"å¤©éĻįå¤§":13464,"è¡ĮåĿĲä¸įå®ī":13465,"èĻİçī¢åħ³":13466,"æļĹå¿ĸæĽ°":13467,"çŁ³å¤´åŁİ":13468,"é¡ºæµģèĢĮä¸ĭ":13469,"é¡¿è¶³æĽ°":13470,"åħľéį":13471,"æľīæľºå¯Ĩäºĭ":13472,"è½©æĺĤ":13473,"æ²Ĥéĥ½":13474,"å¤ªç¥ĸæŃ¦çļĩå¸Ŀ":13475,"åĲĦä¸ºåħ¶ä¸»":13476,"æłĭæ¢ģ":13477,"ä¹īéĩĬä¸¥é¢ľ":13478,"å¼ĢäºĨåŁİéĹ¨":13479,"æ¢ĵæ½¼":13480,"éĿĴåĽĬä¹¦":13481,"æĭĽè´¤çº³å£«":13482,"æľªçŁ¥åħ¶è®¡å¦Ĥä½ķ":13483,"å«īå¦Ĵ":13484,"æİĪä»¥å¯Ĩè®¡":13485,"éŃĤä¸įéĻĦä½ĵ":13486,"çİĭåŃĲæľįçŃīåĽĽäºº":13487,"ä¸ĸæīĢç½ķæľī":13488,"æĿĢçīĽå®°é©¬":13489,"åħ¨è£ħæĥ¯å¸¦":13490,"é¤Ĳ":13491,"åŃ©åĦ¿":13492,"ä¸Ģå¹²äºº":13493,"ä¸ºèĤīæ³¥":13494,"ä»¥è°¢å¤©ä¸ĭ":13495,"æŃ£è¸ĮèºĩéĹ´":13496,"å¿ĥç¥ŀæģįæĥļ":13497,"çķħé¥®":13498,"ç½¾åı£":13499,"ä¼łä¸ĭåı·ä»¤":13500,"è¿ĻæĿ¡è®¡":13501,"æ½¸çĦ¶æ³ªä¸ĭ":13502,"æįŁåħµæĬĺå°Ĩ":13503,"é½ĳç²īçŁ£":13504,"è¥¿æ´±æ²³":13505,"åħµè´µç¥ŀéĢŁ":13506,"æĿ¥æŃ¤ä½ķå¹²":13507,"ä¸ĬéĽ¨ä¸ĭåįķ":13508,"æĹ¥ç£¾":13509,"ä¹ĥå¼łé£ŀä¹Ł":13510,"äºĭå®ļä¹ĭåĲİ":13511,"è®¡ä¼ļå·²å®ļ":13512,"éľ¹éĽ³":13513,"æī¶èĢģæĲºå¹¼":13514,"ä¿Ħä½ķçĥ§æĪĪ":13515,"åħľéįª":13516,"«é»Ħ":13517,"¬åľ°":13518,"¬é«¯":13519,"¯éĥ":13520,"±çľ":13521,"²æ¯Ķ":13522,"å¬":13523,"çµ":13524,"ĠåĲķ":13525,"Ġåı¸é©¬æĩ¿":13526,"Ġå§ľç»´":13527,"ĠæŃ¦ä¾¯":13528,"ĠæĽ¹åŃŁå¾·":13529,"ĮèµĽ":13530,"Ĳè§Ĩ":13531,"ķæ¸ł":13532,"ĺå¾":13533,"ļç®Ń":13534,"ľéħĴ":13535,"Ńå½Ĵ":13536,"ï¼ĮâĢľ":13537,"ä¹³":13538,"æĽľ":13539,"åĲ¼":13540,"âĢĿï¼Ľ":13541,"ä»Ģ":13542,"ä»ħ":13543,"ä¹ĭåİ»":13544,"ä¹ĭè¡Į":13545,"ä¹ĭèĥ½":13546,"ä¹ĭæķ°":13547,"ä¹ĭåĽ½":13548,"ä¹ĭåĮĹ":13549,"ä¹ĭåĪĻ":13550,"ä¹ĭåħĦ":13551,"ä¹ĭä¹Ĳ":13552,"ä¹ĭèī²":13553,"ä¹ĭæľ¯":13554,"ä¹ĭåĪ©":13555,"ä¹ĭæ¯Ķ":13556,"ä¹ĭéģĹ":13557,"ä¹ĭèĭ¦":13558,"ä¹ĭè¾±":13559,"ä¹ĭå¦Ļ":13560,"ä¹ĭæľŁ":13561,"ä¹ĭæĢ¨":13562,"ä¹ĭçĪµ":13563,"ä¹ĭç§ģ":13564,"ä¹ĭè¯į":13565,"ä¹ĭæ»¨":13566,"ä¹ĭè¿ĩä¹Ł":13567,"ä¹ĭæĹıå¼Ł":13568,"ä¸įå¤§":13569,"ä¸įä¸Ģ":13570,"ä¸įä¸Ń":13571,"ä¸įä½¿":13572,"ä¸įç«ĭ":13573,"ä¸įçľĭ":13574,"ä¸įè¿½":13575,"ä¸įå¼Ģ":13576,"ä¸įè§£":13577,"ä¸įå·®":13578,"ä¸įé¥®":13579,"ä¸įæ±Ĥ":13580,"ä¸įåĬ©":13581,"ä¸įç¦»":13582,"ä¸įæ»¡":13583,"ä¸įèĩ´":13584,"ä¸įäºī":13585,"ä¸įæĿĢä¹ĭ":13586,"ä¸įè½¬":13587,"ä¸įåħį":13588,"ä¸įè¿Ł":13589,"ä¸įçĽ¸è§ģ":13590,"ä¸įçº³":13591,"ä¸įè¾±":13592,"ä¸įæ¶Ī":13593,"ä¸įåħĭ":13594,"ä¸įèĻŀ":13595,"ä¸įå¿¿":13596,"ä¸įæķ°éĩĮ":13597,"ä¸įæĢ¯":13598,"ä¸įå¤ļæĹ¶":13599,"ä¸įåįģåĲĪ":13600,"ä¸įåĢ¦":13601,"ä¸įç§»æĹ¶":13602,"å¾ĩ":13603,"å¾ĺå¾":13604,"å®ķæ¸ł":13605,"åĪ¤":13606,"åŃ°":13607,"åŃ½":13608,"æĺķ":13609,"äººä»¥":13610,"äººèĩ³":13611,"äººçŁ£":13612,"äººå°½":13613,"äººæĿ°":13614,"äººèĩ£ä¹ĭ":13615,"äººä¼¦":13616,"åĨĽäºİ":13617,"åĨĽåĽŀ":13618,"åĨĽåĬĽ":13619,"åĨĽå°ĳ":13620,"åĨĽå¨ģ":13621,"åĨĽèµ¶æĿ¥":13622,"åĨĽä¸īåįĥ":13623,"åĨĽèµĦ":13624,"åĨĽæĹħ":13625,"åĨĽéľĢ":13626,"è¯¢":13627,"åħµå¨ģ":13628,"åħµå¤§è´¥":13629,"åħµæľº":13630,"åħµåįĴ":13631,"å¤§å¼ł":13632,"å¤§è¨Ģ":13633,"å¤§éŃı":13634,"å¤§å¤±":13635,"å¤§ç»Ł":13636,"å¤§æīį":13637,"å¤§çŁ³":13638,"å¤§æĥ§":13639,"å¤§æŀĹ":13640,"å¤§çķ¥":13641,"å¤§æĤĶ":13642,"è¿Ń":13643,"ä¸Ģè¯":13644,"ä¸Ģå°ı":13645,"ä¸ĢåĽ½":13646,"ä¸Ģé¢Ĩ":13647,"ä¸Ģä¹ĺ":13648,"ä¸ĢåĨ³":13649,"ä¸Ģç¨ĭ":13650,"ä¸Ģåĩ»":13651,"ä¸ĢéĨī":13652,"ä¸ĢæĿ¯":13653,"ä¸ĢåįģäºĮ":13654,"ä¸Ģæīĭæī§":13655,"ä¸Ģæł·":13656,"ä¸Ģçº¸":13657,"ä¸Ģæ´¾":13658,"è§¥":13659,"è§ŀ":13660,"é©¬èĩ³":13661,"é©¬å°½":13662,"é©¬äº¦":13663,"é©¬åĲĮ":13664,"é©¬ä¼ĳ":13665,"å°Ĩæľī":13666,"å°Ĩåĩº":13667,"å°ĨæŃ»":13668,"å°Ĩå°½":13669,"å°ĨèĪ¹":13670,"å°Ĩåį±":13671,"å°ĨåŃŁèİ·":13672,"å°Ĩç»Ī":13673,"å°ĨäºİåĲī":13674,"å°Ĩè¿ĩæĿ¥":13675,"å°Ĩä½ķçŃĸ":13676,"å°Ĩæīįä¹Ł":13677,"èµ§":13678,"èµĮèµĽ":13679,"å·³":13680,"å·½":13681,"æĪį":13682,"æĿ¥éĹ®":13683,"æĿ¥å¾Ģ":13684,"æĿ¥æķĮ":13685,"æĿ¥å½Ĵ":13686,"æĿ¥åĳĬ":13687,"æĿ¥åı¬":13688,"æĿ¥æįī":13689,"æĿ¥çĽ¸è§ģ":13690,"åĩĳ":13691,"æĵİ":13692,"å¸Į":13693,"å¸ĸ":13694,"æľīäºĮ":13695,"æľīæĿĢ":13696,"æľīåħĪ":13697,"æľīæķ°":13698,"æľīäºĶ":13699,"æľīè¡¨":13700,"æľīèľĢåħµ":13701,"æľīå¤©ä¸ĭ":13702,"æľīåŃĻæĿĥ":13703,"æľīéļ¾":13704,"æľīæ³ķ":13705,"æľīä»ĬæĹ¥":13706,"æľīè´Ł":13707,"æľīè§Ĵ":13708,"æľīç´¯":13709,"æľīçĸ¾":13710,"æľīç»Ĩä½ľ":13711,"æľīäºĮåŃĲ":13712,"æľīéĿŀå¸¸":13713,"æľīè°ĭçķ¥":13714,"æľīæŃ»èĢĮå·²":13715,"çĽĲ":13716,"çĽ±çľ":13717,"æĸĲ":13718,"æīĪ":13719,"æĵįä¸į":13720,"æĵįåħ¥":13721,"æĵįå¾Ĺ":13722,"æĵįå·²":13723,"æĵįèĢħ":13724,"æĵįåĸľ":13725,"æĵįäº²":13726,"æĵįèĲ¥":13727,"æĵįå¼ķåĨĽ":13728,"æĵįåı¬":13729,"æĵįå°Ŀ":13730,"æĵįäº²èĩª":13731,"æŃ¤è·¯":13732,"æŃ¤å¯¨":13733,"æŃ¤åĲį":13734,"æŃ¤åĽł":13735,"æŃ¤èĢģ":13736,"æŃ¤çľŁ":13737,"æŃ¤éļ¾":13738,"æŃ¤æģ¨":13739,"æŃ¤åį±":13740,"æŃ¤ç¥¸":13741,"æŃ¤è®º":13742,"æŃ¤æĺĵ":13743,"æŃ¤ä½ķäºº":13744,"æŃ¤è¯ļ":13745,"æŃ¤èģĮ":13746,"æŃ¤ä¸Ģè·¯":13747,"æŃ¤ä¸ºä¸ĬçŃĸ":13748,"åİ¨":13749,"ç»®":13750,"ç»ħ":13751,"ä¸ĭåŁİ":13752,"ä¸ĭçļĦ":13753,"ä¸ĭæ¯Ĵ":13754,"ä¸ĭè¯´è¯į":13755,"äºİäºĭ":13756,"äºİå°ĨåĨĽ":13757,"äºİåĽ½":13758,"äºİè¢ģç»į":13759,"äºİæĢĢ":13760,"äºİç¥ģå±±":13761,"äºİåŁİä¸Ĭ":13762,"äºİéķ¿å®ī":13763,"äºİæĽ²":13764,"äºİéĺµä¸Ń":13765,"äºİéĺ¶ä¸ĭ":13766,"äºİåºľä¸Ń":13767,"äºİéĤºéĥ¡":13768,"äºİçĭ±ä¸Ń":13769,"äºİçİĭäºĭ":13770,"ä¸ŃéĹ¨":13771,"ä¸Ńå¹´":13772,"ä¸ŃåłĤ":13773,"ä¸Ńè´µ":13774,"ä¸ŃèĹı":13775,"ä¸Ńæ¯Ĵ":13776,"ä¸Ńçº¢å¿ĥ":13777,"ä¸ºåħĪ":13778,"ä¸ºå®ī":13779,"ä¸ºä¸ľ":13780,"ä¸ºèĥ½":13781,"ä¸ºå®ĺ":13782,"ä¸ºåºĶ":13783,"ä¸ºä¹Ĳ":13784,"ä¸ºåıĶ":13785,"ä¸ºè°ĭå£«":13786,"ä¸ºçĽŁ":13787,"ä¸ºæı´":13788,"ä¸ºå¤ªåĤħ":13789,"ä¸ºå¤ªå°ī":13790,"ä¸ºçļĩåĲİ":13791,"ä¸ºéķ¿åı²":13792,"ä¸ºä¸Ńéĥİå°Ĩ":13793,"ä¸ºåıĤåĨĽ":13794,"ä¸ºå·¦å°ĨåĨĽ":13795,"ä¸ºçĸĳåħµ":13796,"ä¸ºçĽ¸åĽ½":13797,"ä¸ºæĽ¹æĵįæīĢ":13798,"ä¸ºåı¸ç©º":13799,"ä¸ºåº¶äºº":13800,"ä¸ºä»ĸäººæīĢ":13801,"çŁľ":13802,"çĶ¸":13803,"çĶľ":13804,"çĶ¬éģĵ":13805,"è§ģäºİ":13806,"è§ģåħ¬":13807,"è§ģè¯´":13808,"è§ģèĢħ":13809,"è§ģæĿĥ":13810,"è§ģæķĻ":13811,"è§ģåĬ¿":13812,"è§ģåĲİä¸»":13813,"è§ģæ¯į":13814,"è§ģåħĪä¸»":13815,"è§ģæĽ¹åħµ":13816,"è§ģæľº":13817,"è§ģåĪĺçĴĭ":13818,"è§ģè´£":13819,"ï¼ģâĢĻ":13820,"èĢĮåıĪ":13821,"èĢĮä»İ":13822,"èĢĮä¸įåı¯":13823,"èĢĮå®ļ":13824,"èĢĮæĶ»":13825,"èĢĮè§Ĩ":13826,"èĢĮæİ¥":13827,"èĢĮä¸įèĥ½":13828,"èĢĮæ±Ĥ":13829,"èĢĮæŃ¢":13830,"èĢĮé£Ł":13831,"èĢĮåĳĬæĽ°":13832,"èĢĮéĹ®ä¹ĭ":13833,"èĢĮæĦĪ":13834,"èĢĮæĵĴä¹ĭ":13835,"è°§":13836,"è°Ģ":13837,"è°ĺ":13838,"ä½ķåıĪ":13839,"ä½ķå®ī":13840,"ä½ķé¡»":13841,"ä½ķçī©":13842,"ä½ķèĭĹ":13843,"åĩºäºİ":13844,"åĩºæĭľ":13845,"åĩºè¡Ģ":13846,"åĩºé¬¼":13847,"åĩºåįĹéĹ¨":13848,"åĩºç®ķè°·":13849,"åĲ¾åİ»":13850,"åĲ¾åıĸ":13851,"åĲ¾ç¬ĳ":13852,"åĲ¾è§Ĩ":13853,"åĲ¾ä¸įèĥ½":13854,"åĲ¾åĨį":13855,"åĲ¾èĢ¶":13856,"åĲ¾æĽ¾":13857,"åĲ¾åľ¨æŃ¤":13858,"åĲ¾æľīä½ķ":13859,"åĲ¾çĪ¶åŃĲ":13860,"åĲ¾åĽº":13861,"åĲ¾æīĭä¸ĭ":13862,"åĲ¾æĺİæĹ¥":13863,"åĲ¾åĨĽå¿ĥ":13864,"åĲ¾ä½ķæĥ§åĵī":13865,"éĻĽ":13866,"æĢ¿":13867,"æĢģ":13868,"æĢħ":13869,"ä¾¥":13870,"åı¯äºİ":13871,"åı¯å½ĵ":13872,"åı¯ä¾¿":13873,"åı¯éĢĢ":13874,"åı¯æķĻ":13875,"åı¯ç«ĭ":13876,"åı¯å¼ķåħµ":13877,"åı¯åıĳ":13878,"åı¯åħ´":13879,"åı¯å¤į":13880,"åı¯å¯Ĩ":13881,"åı¯ä»»":13882,"åı¯å®¹":13883,"åı¯å¤º":13884,"åı¯ä¸Ģé¼ĵ":13885,"åı¯åĽ¾ä¹Ł":13886,"åı¯å®ļä¹Ł":13887,"è´©":13888,"è´»":13889,"å¯Ĥ":13890,"å¯Ķ":13891,"å¾·æĽ°":13892,"å¾·æĵį":13893,"å¾·èĸĦ":13894,"åĳĢ":13895,"åĲİä¼ļ":13896,"åĲİæĭ¥":13897,"åĲİæĿľå·¥éĥ¨":13898,"ä»¥æŁĲ":13899,"ä»¥æķĮ":13900,"ä»¥å¤´":13901,"ä»¥è¿İ":13902,"ä»¥ç¤¼":13903,"ä»¥æĶ¶":13904,"ä»¥éĩĳ":13905,"ä»¥æĵĴ":13906,"ä»¥æŀª":13907,"ä»¥åħ¨":13908,"ä»¥è¾ħ":13909,"ä»¥å¤§åħµ":13910,"ä»¥èį¯":13911,"ä»¥æĺ¾":13912,"ä»¥è¿İä¹ĭ":13913,"ä»¥æĭĴä¹ĭ":13914,"ä»¥åĲİäºĭ":13915,"ä»¥æĦļæĦı":13916,"æĺİä¹Ł":13917,"æĺİè¨Ģ":13918,"å¥¥":13919,"æĽ¹éĥ½çĿ£":13920,"æĽ¹èĬĤ":13921,"æĽ¹åŃĲä¸¹":13922,"æĽ¹çĨĬ":13923,"æĽ¹ç¾²":13924,"æĽ¹éĺ¿çŀĴ":13925,"åħ¬ä¸º":13926,"åħ¬ä¸»":13927,"åħ¬å»":13928,"åħ¬çľŁ":13929,"åħ¬å®ľ":13930,"åħ¬ä½ķä¸į":13931,"åħ¬åı¯éĢŁ":13932,"ä¸Ĭè¨Ģ":13933,"ä¸Ĭèĩ³":13934,"ä¸ĬæĬ¥":13935,"ä¸ĬéĿ¢":13936,"ä¸ĬåĽ½":13937,"ä¸Ĭå»º":13938,"ä¸Ĭçİī":13939,"ä¸Ĭå¯¿":13940,"ä¸ĬåĨĻ":13941,"åīĲ":13942,"è¡¬":13943,"çļ¿":13944,"çļĭ":13945,"ä»Ĭä¸į":13946,"ä»ĬåĲ¾":13947,"ä»Ĭåħ¬":13948,"ä»Ĭä¸İ":13949,"ä»ĬçİĦå¾·":13950,"ä»Ĭä¹ĥ":13951,"ä»ĬåħĪ":13952,"ä»ĬæĪĳ":13953,"ä»Ĭå¤©":13954,"ä»Ĭåıª":13955,"ä»Ĭä»İ":13956,"ä»Ĭå¿½":13957,"ä»Ĭéģ£":13958,"ä»Ĭåıį":13959,"ä»ĬæľĿ":13960,"ä»ĬåŃĻæĿĥ":13961,"ä»Ĭä½ķä¸į":13962,"ä»ĬçļĩåıĶ":13963,"ä»Ĭå²ģ":13964,"ä»Ĭå¤§å°ĨåĨĽ":13965,"ä»ĬåĲ´ä¾¯":13966,"ä»ĬéŃıçİĭ":13967,"ä»ĬæŀľçĦ¶":13968,"çİĦåŃĻ":13969,"ä¸İä¼Ĺ":13970,"ä¸İåĲ´":13971,"ä¸İèľĢ":13972,"ä¸İèĩ£":13973,"ä¸İçŃĸ":13974,"ä¸İèĤĥ":13975,"ä¸İçĪ¶":13976,"ä¸İéŃıå»¶":13977,"ä¸İèī¾":13978,"ä¸İéŃıåħµ":13979,"ä¸İå¤«äºº":13980,"ä¸İåĳ¨çĳľ":13981,"ä¸İéĻĽä¸ĭ":13982,"ä¸İæľķ":13983,"ä¸İå¼łè¾½":13984,"ä¸İäºĮå°Ĩ":13985,"ä¸İé²ģèĤĥ":13986,"ä¸İé©¬å²±":13987,"ä¸İå¤ıä¾¯æĥĩ":13988,"ä¸İæĽ¹çľŁ":13989,"ä¸İçĶĺå®ģ":13990,"ä¸İæĽ¹ä¸ķ":13991,"ä¸İåĲ¾æľī":13992,"ä¸İç®ĢéĽį":13993,"ä¸İä¼Ĺè°ĭå£«åķĨè®®":13994,"ä¸İäºīéĶĭ":13995,"å¼łå°ĨåĨĽ":13996,"å¼łè¶ħ":13997,"å¼łæĻ®":13998,"å¼łéŁ³":13999,"å¼łäºĮå¼Ł":14000,"å¼łäºĮåħ¬":14001,"å¼łçº¯":14002,"æĭĻ":14003,"æĭļ":14004,"åİ»å¾Ĺ":14005,"åİ»å°±":14006,"åħ¶é©¬":14007,"åħ¶æīĢ":14008,"åħ¶çĶŁ":14009,"åħ¶åı£":14010,"åħ¶é¦ĸ":14011,"åħ¶æľ¯":14012,"åħ¶æĥħ":14013,"åħ¶ç²®èįī":14014,"åħ¶èĤī":14015,"åħ¶èģĮ":14016,"åħ¶åħļ":14017,"åħ¶å¿ħåĩº":14018,"çŃĭ":14019,"çİĦå¾·ä¹Ł":14020,"çİĦå¾·åĽŀ":14021,"çİĦå¾·éģĤ":14022,"çİĦå¾·ä¾¿":14023,"çİĦå¾·è°ĵ":14024,"çİĦå¾·æģĲ":14025,"çİĦå¾·æĹ¢":14026,"çİĦå¾·çķĻ":14027,"çİĦå¾·è§Ĩä¹ĭ":14028,"çİĦå¾·æħĮ":14029,
[...]
